25
2b
18
35
1e
28
19
2e
33
0c
2b
17
1d
0b
0c
f9
05
f2
e0
eb
d5
da
d2
e6
c6
ce
d5
d2
e6
d6
06
e7
13
0e
0b
27
24
38
30
2a
3b
32
41
4d
43
2a
3d
30
32
15
05
0e
ff
1d
0b
0a
04
fa
0a
e7
f7
e7
fd
f0
ff
f6
0d
f1
f4
f7
1c
13
24
00
ff
05
08
20
1f
28
0a
04
1a
04
17
02
11
f1
f6
06
04
fa
0c
0f
f1
f7
17
fe
00
f3
fe
11
0a
fe
0f
01
fc
03
fd
01
24
12
14
f8
fe
05
0f
f7
01
fe
0b
03
0a
fc
fb
fc
01
f7
19
01
16
08
ed
0d
f6
f3
e8
e3
fe
f3
00
e6
07
e8
f4
fc
03
09
0b
e4
fa
eb
f1
e3
06
e3
fe
fa
f9
e7
06
f8
f7
e2
ff
f4
ee
0c
fe
ef
f0
fa
08
f6
f1
f5
ec
03
0c
e7
ff
04
fb
ef
00
ff
fa
ed
ea
f2
eb
e9
fd
03
f0
ee
f6
f5
fd
fe
e4
f0
0a
ff
f2
e5
e2
d8
e3
ee
f2
ec
cd
d3
dd
f6
e4
dd
ed
df
dc
fd
e7
ef
e2
09
0e
08
f4
ef
f6
18
13
1b
12
0a
03
f0
ec
e7
00
e8
eb
e0
e6
d9
d9
ed
df
f3
e0
d8
e8
e5
ee
e5
04
ec
08
0a
12
f3
16
fe
12
1f
0b
0f
0a
ff
1c
fc
1f
21
24
09
fa
0d
11
ed
f9
ee
f8
ec
ec
ea
da
fd
fb
e3
e3
da
ce
cb
e8
d5
d3
e2
de
e3
ee
ee
f2
f5
f2
1b
03
16
0a
16
27
1f
01
1b
24
12
19
1b
ff
03
eb
f2
04
fe
e4
df
e3
de
e4
f1
08
00
ee
ef
0e
f5
04
13
ff
09
09
06
00
f6
f8
fc
1c
fb
f7
0a
09
0f
12
0e
eb
02
0d
fd
f3
14
f6
f2
ea
fe
06
02
01
ea
e5
f8
0b
03
e8
f2
e5
ea
f8
01
08
e1
05
e8
02
0c
fc
11
ec
f8
0e
ff
00
fe
17
14
11
00
fc
11
15
06
09
1c
0d
0b
03
f3
f0
f9
f6
06
f7
f4
11
03
0c
f3
f5
07
f2
f3
02
fc
f5
14
19
0b
05
f4
ff
0c
0f
02
fa
0d
ef
0e
f5
fd
f7
fe
f3
09
f9
0a
0e
f0
ec
0e
0f
ef
00
ee
f4
0a
0e
0e
05
20
10
01
0d
13
16
fd
15
00
f8
fc
1a
15
13
0a
0a
f3
e6
f9
e1
dc
e4
ed
f4
e0
dd
ee
e2
e4
01
f5
12
18
0e
13
17
17
1b
21
2e
3c
26
23
27
20
29
2d
22
0e
e6
db
d1
c2
bb
98
14
fd
fe
f8
1b
f2
14
02
fe
0c
fb
09
0b
e8
04
00
01
ff
03
f5
ff
17
13
06
f3
09
fa
1a
fa
05
01
07
16
01
0a
0c
0c
f1
f3
03
f3
04
f7
f0
0b
08
11
1f
1c
24
13
00
04
06
01
06
fd
fc
01
f7
fd
10
19
ff
fe
0f
f9
f9
11
f2
08
1a
0b
10
fe
0b
0d
12
16
20
fd
0e
04
fc
0b
f9
1a
0c
fc
13
f2
fc
ff
f0
f4
fd
11
16
0f
f4
f3
14
0a
04
07
f4
ff
1d
03
09
fa
01
0e
02
0d
18
fa
14
fe
00
11
18
fe
f9
ec
f2
e8
f5
fc
e1
07
00
dc
e6
f7
ed
f1
ec
0a
ef
10
03
09
17
04
fc
06
1b
fa
0d
f2
11
0b
01
05
f8
02
e2
ee
f9
04
f9
df
01
ec
ee
e1
f3
08
fe
f0
04
f8
13
ed
f9
ea
f6
04
10
fd
0c
fa
01
04
03
e4
04
fd
e5
e6
de
f7
e2
fe
fe
e5
ff
fa
06
08
e6
0f
0b
00
e3
ed
ed
ec
fe
f8
02
e8
f8
fa
e0
df
eb
07
e6
ea
0a
0b
12
f0
f0
09
10
08
fc
fc
06
e2
e3
f9
d9
d9
f3
e9
e8
d9
e2
f9
dc
ed
fd
ea
15
f9
03
07
02
fe
20
1a
00
f6
17
08
06
ef
f2
f8
f6
eb
fc
fc
f7
fd
f1
00
02
ef
e4
05
fe
f0
0f
f1
0a
07
ed
0d
ed
f7
01
f9
1f
09
17
ff
21
10
08
1d
21
29
0a
0a
18
19
1a
1c
09
1b
1e
07
1b
17
20
01
02
07
0f
19
ff
16
02
16
06
f3
f8
f3
0c
f2
fc
01
ee
ff
e2
e5
e0
ec
eb
f6
ef
fd
08
fd
ee
e4
02
f0
08
0c
07
13
14
03
f0
14
f7
f7
14
13
0a
05
f2
03
1a
0c
08
02
ff
13
06
12
ff
0b
09
02
0b
0a
10
0b
f4
e7
fe
fa
f5
f8
fd
0d
05
f8
f7
fc
fb
18
11
1a
07
0c
0e
f1
05
00
f3
ec
0e
0a
01
0a
eb
ee
fa
ed
eb
df
f8
e8
f8
0f
f6
f8
0d
fa
01
17
fa
f3
f5
f9
f2
ef
00
f8
ea
dd
e4
df
df
d1
e8
d2
d1
d1
ed
d8
df
fb
f9
fd
e0
e9
f4
11
03
f3
04
f4
01
00
18
0a
ff
05
f9
06
04
01
f3
0d
f8
f3
0a
0f
15
07
fc
0f
18
f3
07
fd
10
16
09
0b
17
0b
fb
1d
00
07
0b
04
f1
0e
f9
f8
07
f5
f7
fa
f9
f8
fc
08
f2
f9
08
0d
19
02
1b
25
2b
10
21
1e
27
f0
e3
f2
e0
f1
e2
fc
e9
ef
e1
f7
0c
02
ec
f7
f5
e4
06
f3
f7
e7
e4
f0
f4
ef
e1
02
ea
e3
e9
0c
fa
fb
f9
ff
f4
f6
14
19
19
f3
0c
f0
07
06
02
fd
f6
e5
ea
d5
e5
d4
da
c7
d6
d2
d9
d6
d4
ec
fb
04
ff
e9
e0
fd
01
e2
fc
06
f4
e5
01
f7
fb
dd
f7
db
ff
e3
fa
f1
f5
ed
fb
ea
df
ed
05
f0
fd
ee
06
02
fc
e9
e2
f4
e7
05
df
ff
0a
01
fe
e2
0e
f6
e6
11
f3
fb
12
f0
f0
02
fc
04
ed
ff
f4
f2
e8
06
fe
e7
08
fd
f9
e7
f7
09
03
e4
08
f6
00
08
0c
e9
0f
ef
03
f3
ff
04
04
04
0a
1e
16
15
11
1a
08
0b
0d
f6
f7
0c
01
09
06
0f
1b
06
21
21
01
01
01
09
0d
15
12
0d
12
11
2f
12
0a
21
16
26
22
26
00
1c
1d
fe
1b
16
05
0d
fb
f0
09
0b
f7
10
f4
1b
1f
10
fe
17
10
14
15
1f
06
0a
16
14
24
08
13
18
10
25
1a
05
16
0e
1a
15
00
12
12
0c
23
09
1a
11
f7
0e
18
f8
f6
19
15
fa
15
07
f9
14
1f
17
2d
1b
46
51
55
55
5f
05
09
08
f9
f3
0f
0f
ea
05
08
14
0f
18
fe
15
19
f4
f7
0c
12
fa
06
00
03
ef
03
03
e4
f1
ef
f4
01
f3
e8
ff
e5
e7
f0
df
f3
e5
f7
fa
fb
e7
e5
05
0f
e8
03
eb
fd
0e
0a
e9
08
04
f9
0f
f3
f7
f3
02
06
05
f8
fc
0e
f5
06
09
02
13
0e
1c
0c
01
1f
13
09
00
14
fb
16
1b
fd
02
00
23
21
11
23
08
f8
14
12
1f
07
16
11
11
eb
0f
e9
0f
f9
e4
fc
f1
e3
ee
f8
08
f0
04
fb
f9
fd
eb
e6
f2
e4
ee
f9
e9
ef
f3
f4
ea
f7
f3
fc
f7
eb
ee
f6
e9
f9
f7
02
01
0d
fd
ef
09
f1
fe
fa
f9
f9
15
0d
06
13
ea
00
09
08
e7
ff
e9
f3
ef
e0
dd
e3
fb
fb
de
e9
f3
e1
01
0a
fb
e8
ff
03
0d
f1
ea
08
01
f9
f7
f6
12
fd
11
16
05
07
02
13
f1
0e
03
12
08
02
09
19
ff
02
0d
0b
1c
23
13
29
0c
08
0a
04
03
ff
fc
14
18
1f
1b
06
0a
f8
0c
ed
0d
05
08
0a
f8
15
0c
11
06
11
14
0f
18
04
17
0f
18
21
13
08
0e
16
14
0a
21
1c
00
0c
0a
fe
bf
bd
c1
cb
d0
f1
ea
fc
f2
f3
fc
fa
e9
f0
fa
03
0e
12
1e
16
0e
09
0d
13
2b
33
3d
24
29
24
28
2b
22
1f
1b
1a
06
f9
04
f5
e7
f5
e7
e0
d5
dd
ce
e6
e3
f4
eb
f1
f9
07
f1
0c
09
f7
0f
fc
02
fd
f9
18
f2
0d
ec
fc
fe
0a
f2
00
fd
05
f9
ff
ea
e9
0b
e8
f5
f6
0f
f6
ea
f6
06
04
0f
f8
09
eb
0a
0e
14
fc
04
11
fd
fd
fa
10
1e
14
0f
14
fc
09
ff
f8
14
ef
01
e9
fb
f2
02
ee
09
e9
08
ed
09
f6
ff
fe
11
0b
f2
08
f8
17
09
ff
f9
0a
f4
09
09
0a
00
e7
08
f2
f1
f5
07
0a
fd
06
e9
00
ef
0c
f6
00
19
1f
ff
00
0f
14
08
04
fb
11
1b
fc
0e
0e
13
fe
01
10
0e
16
fa
0a
11
f3
06
fc
11
f8
03
0e
ed
ee
f4
0c
0c
ee
01
f1
f3
0e
06
f7
00
01
01
f5
f1
0f
03
0a
fa
0b
10
0d
05
15
fd
02
11
10
f1
0c
ff
f2
05
e6
fd
03
dd
de
d4
e6
d7
e4
f6
01
04
0a
0c
fc
ff
18
33
24
26
1c
22
1d
3d
27
14
25
1e
12
15
0e
e2
da
dc
ba
f0
14
ff
f5
f8
ef
11
fb
f5
f0
0e
ff
00
fd
f7
05
11
f2
fd
ea
ef
0b
f7
0b
f4
ec
ed
0c
e8
04
fe
00
07
f6
0a
eb
f5
0c
03
fb
f7
ee
07
f8
f7
fb
04
e7
ea
ff
fb
e4
d8
f2
fa
f5
00
e2
ff
e9
05
0b
03
11
f2
ee
ee
11
0d
f6
11
1c
f3
18
0c
0b
1c
1d
12
19
11
0b
f3
0a
f6
0b
08
04
f4
f6
12
0d
0d
fb
ff
fe
12
f9
10
12
f0
04
00
f9
0f
04
1a
fa
13
f7
fe
09
19
12
f4
07
f7
04
f2
fd
11
ee
ed
05
04
fd
14
f4
f4
f1
fd
fa
0b
fd
05
f5
10
11
ec
f9
ed
07
ec
f4
14
e9
0e
ff
0e
f2
0b
ff
fe
0b
e7
ea
10
ef
ec
fb
f6
fb
f0
06
ec
00
0b
03
02
02
fa
fc
f7
f2
f4
15
fc
07
0e
fd
f3
ef
f6
06
ec
fc
08
12
09
09
15
13
13
07
ff
0e
11
17
14
1f
25
0f
02
0c
0b
21
05
10
0b
00
15
00
05
f5
00
03
fc
f3
ff
f2
ea
e5
f0
e1
09
ee
f3
ff
05
ff
11
f7
0b
03
f3
fb
09
06
11
0e
f2
f4
f8
eb
f5
e9
01
08
fb
e9
e9
f2
02
ff
05
1a
06
00
f5
05
03
eb
f2
02
0c
13
fd
f7
0f
10
1b
0f
26
17
26
07
1d
16
08
1b
fa
20
0d
0c
13
09
11
16
f7
15
04
02
0b
17
fb
f8
14
fb
0b
fe
07
10
f3
f2
06
fc
f9
e6
0d
f9
f6
f0
f5
04
fa
0c
f6
f5
04
f8
f4
00
0b
fe
09
08
01
03
02
fd
0d
0f
03
fa
0f
eb
0b
07
0a
fb
ed
0e
f7
08
0f
f1
08
00
18
fc
19
1c
1b
25
13
fd
21
14
11
fc
0b
04
22
18
16
11
f1
f2
f0
ec
03
f7
00
ec
da
e8
fe
fe
fa
f0
e5
f0
0a
f8
0d
0a
fd
13
fe
04
fb
ec
01
01
ec
ff
dc
d6
da
dc
df
db
e8
ca
e1
df
e6
f9
f4
e0
e1
f2
f1
09
05
19
13
09
0e
13
0c
20
fe
19
01
fb
0a
19
1c
12
0a
0a
02
08
07
1a
14
f6
06
f9
02
f3
09
f3
17
10
f0
ea
fe
f5
00
ea
ff
e3
ea
ea
00
f6
e1
eb
ef
e6
fe
06
fc
fa
04
f5
f9
08
1d
02
13
00
03
f4
1c
1d
07
16
18
11
10
ee
ec
ef
04
ea
ea
ed
e2
f4
f6
e4
fe
e8
ea
03
06
f2
e8
ef
ff
0e
0f
fd
f3
f7
05
0d
03
fa
07
f0
ef
eb
f5
0d
02
f7
fe
04
fd
ed
f2
f1
01
ef
00
fd
1a
15
10
06
fd
09
f5
f9
fe
fe
ed
0a
13
f7
06
fd
ff
01
11
02
f0
f4
07
00
f9
f4
ee
ee
e9
f8
fa
05
f2
f8
06
03
ff
04
00
ee
02
fe
16
16
06
13
f2
0d
0c
f6
e4
ed
ee
f3
e0
f8
ec
f2
ef
f9
ed
fa
0b
1b
26
04
21
0e
0a
1a
0e
06
02
04
20
15
fa
ee
e7
e5
e5
f6
ed
dc
f3
d9
d7
f0
e4
fb
0d
f7
f8
15
ff
2b
11
28
0e
10
21
23
2a
27
10
09
0a
fa
f9
e0
dc
f7
d6
f0
dd
de
ec
cc
d7
e1
e9
d2
f5
e7
fc
0f
05
0d
12
2a
28
23
14
15
31
2d
26
04
1e
05
11
0d
f7
e5
ff
db
f2
cd
dc
cf
db
f0
db
dc
03
04
fc
f2
01
04
1c
0a
0e
07
0d
21
23
15
09
24
10
00
ff
00
0b
07
0e
fd
10
f6
f5
f9
ed
f5
f0
03
06
01
f7
19
fd
0e
11
f3
fd
0a
10
f7
07
e6
e9
07
f3
0a
f7
ee
0c
0d
fd
ef
fc
f4
0f
01
05
0d
07
f2
11
0c
f0
0e
04
fa
ed
f9
e8
0a
0e
f9
14
f8
02
ef
fc
02
ff
f1
20
34
2f
20
10
1d
17
2b
17
17
17
20
14
26
1e
02
13
ff
00
13
14
0c
21
00
01
03
06
04
18
fa
f7
06
12
07
0d
06
14
10
13
01
f3
fb
0e
16
01
1d
0f
0e
10
0b
25
11
1e
fe
06
12
1f
17
0e
f3
06
f6
f1
04
f2
12
f3
04
0a
ed
08
fa
08
14
f7
f8
15
06
02
16
fb
04
15
0c
f4
07
ee
f2
09
f3
ec
f7
fb
e7
e5
de
fa
e8
f8
f2
ea
f2
e8
ee
f9
e7
e6
09
fb
ef
f7
06
e4
ea
e5
f3
f4
e5
05
e6
0c
e9
f6
fe
f1
0f
ed
fc
ee
05
11
13
02
f4
14
01
0e
f4
f4
ec
12
02
ee
ff
f5
ff
06
f3
03
f2
04
ec
04
16
13
06
0d
11
00
00
fc
0c
0c
ef
f9
ef
03
e7
05
f8
08
07
f6
0c
0a
ee
15
11
0b
fa
04
ef
f2
02
01
ff
e2
08
ed
09
09
ff
0e
05
07
f4
11
04
0c
fc
13
17
f5
18
fa
f9
f7
10
f9
01
fe
0e
f3
fd
05
07
f9
09
f3
ee
fd
f4
0d
f1
fd
09
ec
10
f6
fa
f4
fb
fb
f1
0c
06
1b
16
19
0e
13
1b
17
f4
ff
ec
02
f7
0f
00
fb
e8
e5
f8
e7
e7
07
e8
e6
fe
f4
de
f2
f7
da
f4
f7
f5
0c
eb
07
f3
ee
11
f9
04
0f
f2
f0
09
13
fc
0b
04
00
ec
0d
05
fd
08
e6
fd
ee
f8
01
03
00
e9
ed
fa
f7
e8
0e
fd
ea
00
01
ec
01
ea
ff
0c
06
04
f5
ff
03
02
f9
ff
f3
ef
e6
e6
e9
0b
f9
e0
ea
fb
f1
f3
f4
fa
04
06
14
18
1f
0d
06
10
03
1a
0e
07
fa
13
13
17
f6
00
f8
e6
e4
fa
e1
fd
f4
f3
fc
f9
fb
00
ef
f0
fa
0e
13
16
01
06
fa
17
fa
fe
17
08
f8
f1
ee
0d
e5
0b
07
f7
f3
04
fc
08
05
e7
03
01
e9
04
ef
ef
fc
fa
f7
ef
08
11
f7
ec
f9
e6
e9
f3
08
eb
f9
f2
ed
ff
08
0a
24
21
2b
29
27
33
1b
35
34
20
27
14
0e
1d
1c
0f
14
f6
f5
0b
e1
f4
fe
fc
f2
d6
ed
e3
e7
00
ea
e4
e4
05
fc
13
02
ec
06
15
10
09
f3
f6
12
f7
0a
01
0a
04
f2
f9
14
06
0d
f8
14
01
ff
0d
02
04
0c
0f
06
18
fb
1c
21
0f
05
f6
11
18
17
05
09
16
04
f4
e9
08
06
0f
f0
02
ef
ef
fe
da
fc
f3
d8
ed
e8
f4
f1
e7
fc
0d
02
fc
09
0c
00
f5
f9
00
09
12
fd
02
03
eb
eb
fe
fd
f1
da
f6
d7
f3
ec
f1
d7
e6
fb
05
f4
11
ff
fb
05
15
14
28
15
1f
13
3c
27
19
29
26
28
1b
25
08
02
fa
fc
01
e5
ef
e8
c7
cc
c3
d5
c5
d7
d6
cc
d3
d4
e6
00
04
1a
fe
16
08
1f
29
0f
36
1a
33
19
27
2b
0d
0b
19
f7
15
f7
17
f4
f9
11
f8
13
11
17
ee
04
fc
08
f2
0b
01
f7
ed
0b
f7
0e
02
05
fb
fa
f6
ea
09
ed
07
f3
07
0c
eb
0a
f9
e8
00
04
09
e2
0a
07
0d
04
ef
0b
0f
f5
fa
11
14
11
14
f9
02
fc
10
09
f3
00
f0
ec
13
f4
09
f9
fa
fe
10
fc
12
0e
10
ed
f8
f2
ff
ff
07
16
0c
f2
f3
10
00
04
f1
f8
01
ec
08
04
ec
f0
f5
fd
f3
10
e8
f3
f3
07
06
fd
17
f2
0d
fa
01
f1
f6
f4
10
ff
12
fc
03
0b
1c
03
16
10
16
17
11
01
fe
0c
0d
ff
09
ef
06
f6
ea
ee
e9
fd
ed
f7
fd
f3
02
01
0e
18
fd
19
0f
04
07
17
16
10
04
18
0c
ef
fb
f2
e7
de
d1
0f
e5
0d
e8
f4
f1
ef
02
07
ef
f3
0a
fc
05
0c
fa
f6
0c
fe
f7
fb
fd
1c
0a
0f
08
f5
11
fd
f8
0e
f0
fc
e4
ff
fc
e0
fd
f3
e5
04
fc
fb
ed
ec
ef
05
06
f4
16
12
fe
13
00
11
1c
f6
fd
06
0a
f4
f7
03
01
09
08
0b
08
09
07
11
18
ff
ff
15
fb
19
14
0d
ff
05
f1
ed
11
e6
e3
e8
ef
f1
df
e7
e5
fd
ff
f7
f2
07
e9
08
f7
18
f9
18
02
24
1e
2e
0b
2a
0c
0d
1f
10
ff
fa
03
0a
13
0a
f7
e6
dc
01
df
e5
d6
d7
ea
e0
e8
e7
ec
e9
f0
ff
09
10
f1
f5
07
0d
1d
28
1b
09
17
29
23
0d
1d
07
11
27
0b
1d
f9
18
0a
09
fc
f4
e3
e0
db
fa
e0
e7
d2
ee
e3
db
f2
de
f4
e7
0c
f1
0a
14
fc
1e
23
04
12
17
20
1e
f7
f6
f2
f9
fb
f5
0a
eb
e7
e6
e8
09
f7
f1
ef
e5
ee
03
07
09
fc
ef
ef
12
ea
05
fe
15
10
fd
f2
09
f9
06
0f
14
06
fd
f9
f7
0e
fd
0a
fd
f8
13
0f
10
15
ed
f1
ea
09
06
0a
e9
ed
0e
e8
ec
02
e8
f5
05
0d
f7
e6
03
0b
f3
01
f0
f3
02
03
ff
e1
ef
fa
ed
e8
e2
02
db
db
fc
e1
f9
e3
ed
e6
03
02
f5
f8
f1
ee
f4
06
fc
0d
04
00
f5
0b
ef
08
0b
08
14
0c
00
f9
f5
14
17
fb
13
06
1f
05
1e
1a
16
17
0e
0c
f0
fb
fd
07
f3
05
08
03
05
f8
06
f5
10
ff
ff
ec
13
fe
10
f3
ef
fc
ee
02
fc
f3
06
06
e4
e4
01
e8
f6
ec
f4
e3
ef
e8
e4
e3
f1
fa
ec
eb
fd
fd
e8
db
f2
f6
e0
e0
f8
0e
ea
f5
fb
f2
f8
17
15
f2
01
ee
05
eb
ed
ec
f7
01
e9
f6
03
f1
f6
f7
f7
08
0a
f7
1a
16
0a
23
16
25
07
2f
31
0d
08
15
0b
1c
1d
0c
1a
08
fb
eb
00
e0
f1
f2
e0
f1
ee
f8
f8
da
dc
e6
e0
f8
e6
e5
ff
08
f7
ea
05
0e
14
07
15
f4
1c
f9
f7
16
01
13
f5
14
17
08
12
f1
fa
05
0b
f2
0c
f8
f5
06
f1
f1
0f
11
15
0d
03
05
2d
08
24
30
32
14
19
0d
2b
09
08
0b
29
23
21
22
05
01
fd
10
10
0b
f5
07
f8
ff
ff
02
ed
11
f5
04
0c
05
0a
07
0b
ff
0a
f6
f6
0f
10
0f
ee
07
0f
01
08
0d
ed
ff
fa
f6
0f
17
04
0d
ee
ff
f8
ee
ff
01
fa
05
06
10
fe
fe
ff
02
f2
fe
ee
f0
ef
10
f5
00
04
14
0a
ef
12
e7
fd
0d
0a
f2
e9
01
09
ed
f7
ef
06
05
0d
fd
f1
ff
f9
05
13
f8
08
f4
f8
f7
fc
f7
03
0b
0c
01
f8
f3
05
e7
02
dd
e1
f7
e9
f7
06
ff
0b
ef
ef
f8
f8
f4
fe
14
f5
0e
0e
11
0b
fd
0e
fa
f7
18
13
f1
11
03
03
12
fd
f8
0c
f9
fa
f7
16
0c
fe
02
06
f8
0c
f6
06
04
00
1d
0f
12
f9
09
0a
0e
fb
fb
eb
09
09
04
04
06
0e
02
04
04
f3
07
0b
f5
02
fe
01
20
23
10
19
0d
16
0d
03
04
20
0d
fc
09
f0
05
16
08
0b
f1
02
14
f8
fd
17
0e
12
f3
13
ff
07
12
ea
01
e5
05
f8
f1
e3
f1
dc
ea
f8
d6
e2
ef
f0
f0
07
f2
03
10
04
1a
1c
1b
0e
27
09
1c
1a
23
00
14
02
17
10
f4
01
06
05
0d
02
f9
ff
de
01
f0
00
fa
f4
06
eb
ff
05
f5
07
ea
f6
0e
0e
ee
0a
03
15
eb
fa
f2
f0
f9
e8
0e
f6
07
f6
07
f6
14
10
09
eb
fb
d7
ef
de
cc
ca
c5
dc
d2
d0
f1
da
ec
e5
fb
f9
06
03
fe
1a
0a
02
17
10
03
15
0b
06
02
00
fc
03
12
ec
eb
e2
ed
ec
db
f2
d5
fe
f0
ed
ec
01
0d
f3
ff
18
08
fe
08
0f
0a
ff
fe
0f
17
18
00
08
ed
07
0f
04
ef
0a
e4
f6
f3
e3
ed
ea
00
fa
07
f7
0f
ff
0f
0e
e9
ed
07
0f
e6
f9
f1
0d
0b
09
06
f9
10
f4
ff
fb
f1
f7
07
ff
f4
ff
05
f2
0c
ec
fc
e9
e6
f6
0b
0c
ff
08
ee
06
08
e8
ed
09
02
f3
f1
13
07
05
f1
1a
f8
11
05
07
11
01
fe
15
f3
0d
fd
fb
11
05
ed
14
f6
14
fb
17
07
00
09
00
f6
0c
0f
fd
14
01
f5
f5
11
f9
11
ef
06
f7
0e
19
11
02
f5
ff
fc
1d
fc
0f
17
0d
f2
02
fe
11
01
01
16
07
0c
fd
12
09
03
0d
f9
0b
15
f7
ff
17
0a
08
09
fd
18
04
fd
10
f6
05
0c
05
18
fb
08
06
24
1a
01
1a
10
24
1c
03
21
09
06
10
1e
0d
ef
fb
15
f7
f3
ec
f1
f1
02
07
15
11
04
12
15
f9
18
ff
20
06
13
21
22
13
f7
0a
09
ed
e8
e5
e9
f1
f8
f7
f3
07
ff
f3
fd
f7
fd
f2
0b
f5
0f
16
f5
f9
f4
09
06
f5
0d
07
e9
f8
ef
f4
04
f5
e9
06
e5
f3
02
0d
10
f6
04
e9
f6
f3
00
eb
fd
02
0a
f4
0d
e5
f5
06
05
0c
f6
15
f6
fd
0d
fb
fd
00
25
1a
0f
14
02
ff
02
fa
1b
01
00
ef
03
fc
ef
0b
0f
ee
09
fa
fe
09
fb
11
0b
f1
f1
e8
03
eb
e8
ea
e0
e3
06
fe
04
e7
e8
e9
f1
e2
f4
e4
f6
07
f7
03
e4
f1
e7
f2
ec
e9
e0
ed
f8
f1
e1
06
06
e9
fa
07
e5
e8
09
fd
05
f6
04
0e
f9
f8
e9
fa
0a
e9
fb
0d
f7
f6
f8
f6
03
ed
0b
fe
02
05
14
fc
f7
fb
fb
01
1c
f9
fc
f7
fc
06
f8
05
0b
ff
0c
06
16
00
15
13
0d
0f
f5
f5
0d
0b
16
00
ff
12
04
17
f7
fc
06
10
f3
00
17
0d
18
03
fc
fc
ff
fc
16
13
ff
21
13
15
05
1c
fd
1b
00
13
02
18
f7
02
ff
f8
fa
00
0a
19
08
22
06
07
14
14
20
31
25
0c
18
19
0a
23
2b
20
11
0a
fd
ff
0e
ea
f7
de
e4
f3
df
f2
d8
e1
f7
fc
e5
d6
d4
e0
dd
fa
da
f9
f2
e9
05
00
f6
ea
f5
02
0f
f8
f5
e9
0e
16
11
f7
12
fc
0f
0e
f0
06
09
f3
14
12
13
02
f7
f8
0d
02
19
19
09
f5
10
19
00
f8
fe
04
ef
0a
07
f4
f4
f2
0c
09
03
fc
03
12
05
f4
06
f6
fd
f0
fc
fc
ec
05
09
e1
f7
e0
ea
f9
ed
f5
e7
05
e7
f8
fa
0b
02
10
0b
17
0c
16
26
0a
09
21
18
fa
14
f4
fb
0d
0e
fb
11
12
0d
e7
f3
fd
0d
f9
02
0a
f5
f4
18
03
13
f0
fe
15
03
0c
f2
18
f7
00
f1
f4
ea
e9
f7
f1
0b
fb
0d
f9
03
14
ef
f6
13
fb
fb
02
f5
00
f6
04
f6
f3
f1
fd
01
e3
e8
e2
00
07
e3
fd
fd
ee
ff
0c
11
06
f9
f2
f7
ff
ff
11
ef
05
fc
05
19
05
00
fd
ee
f1
0e
f7
11
ff
0c
15
09
0d
19
01
18
f7
1e
05
0b
1a
0f
21
06
03
22
02
1e
23
1e
05
0c
f8
ff
05
fb
15
12
fe
ff
15
fc
10
11
f5
e7
0f
f0
10
ef
02
05
fa
11
ee
fa
01
16
11
16
13
1e
06
05
09
13
03
10
0c
09
1a
06
0b
f1
e1
ff
f9
02
f8
f2
e5
e2
fd
0c
fc
f8
0d
f9
0c
f5
f6
fd
07
12
15
fd
05
10
02
06
13
fc
0c
0f
04
f8
ec
ec
f5
ff
04
f5
07
ec
f9
e9
fc
08
fc
f6
ee
e4
e8
e6
0b
f4
fd
f0
00
1b
10
0c
1c
23
24
04
16
02
04
22
ff
04
16
1f
f4
fb
00
1b
18
19
1b
08
1f
0f
11
09
19
18
09
1d
01
08
12
06
ed
e7
f2
e9
e8
f2
ea
d5
d0
f8
e3
df
db
02
fb
e6
e5
0e
08
fe
f2
14
fa
15
f7
f9
f9
21
22
fc
1f
01
f7
16
16
15
0b
1b
f2
0d
fb
03
11
f2
0b
ff
11
03
0f
19
fe
f2
1d
fd
10
1b
0b
21
1f
0e
19
15
28
22
04
13
1b
1d
11
11
fe
00
ed
0b
08
e8
df
02
dd
fd
d9
e3
e5
04
ed
03
f8
08
02
04
08
ee
f0
fd
09
ef
e5
e4
eb
f8
f2
ef
e8
f7
df
06
ed
f5
f7
e8
02
f1
f3
de
f5
fa
f7
f2
05
06
05
f2
fb
e6
e6
f1
f9
ea
e5
02
03
ef
0e
f4
17
16
06
26
09
0e
2c
17
13
20
17
27
28
1e
15
10
07
05
fe
08
01
ef
f7
ef
f5
00
e2
f7
d0
c2
c3
d8
ec
d2
e9
f1
da
f6
f5
e3
fa
ea
12
0a
0a
13
12
17
09
f0
14
06
f7
f9
15
07
13
06
19
f4
0c
0d
08
1c
0d
09
16
01
ff
ee
fb
ef
01
04
db
de
fd
dc
f5
f6
da
cd
ea
e9
f5
e8
f5
db
f5
fb
09
f6
03
fd
ff
19
15
1b
12
12
11
1c
00
12
16
14
fa
12
f2
08
0b
fa
fe
e4
ee
f0
e4
f5
08
f8
0f
e7
05
0f
12
f5
eb
f7
11
04
18
f4
f7
10
0e
f9
1d
01
f8
0f
fd
ff
fd
0f
12
16
fb
02
1b
fc
ff
03
f4
f8
1c
0c
0d
12
18
1b
1d
16
20
1f
0d
14
05
ff
23
fc
fd
f4
f6
09
0d
ef
01
ee
01
0a
f3
f1
08
eb
f5
e9
0c
04
f5
0e
13
08
f0
fa
0f
0e
f6
0b
ee
01
0e
fd
e8
ff
04
06
e9
f3
f4
f2
f1
ef
ff
03
f5
0d
fd
04
06
fd
06
06
14
02
04
fb
07
18
22
fb
08
1c
01
19
0b
f4
0b
f9
0a
f2
18
fb
11
f5
f1
0c
11
03
f2
fe
f5
09
06
11
16
f4
0d
09
fb
e0
e3
f8
fd
f5
e9
d7
d0
d5
e1
e5
f3
d4
f1
fc
da
e7
f2
02
18
12
23
2c
33
14
e9
f5
f6
f6
06
07
ed
e8
f5
f8
04
00
00
03
0c
0d
ff
f3
13
05
f8
06
1a
00
09
11
19
07
fa
01
04
0e
fd
1e
12
fd
17
0e
23
0b
0b
f3
f6
06
16
f6
05
f2
ee
f5
ef
eb
f5
fb
09
0a
01
ff
01
f6
19
21
f9
f7
f6
06
07
f6
0c
00
f0
e4
07
0b
f8
ec
05
06
f9
13
ee
fd
14
f3
fa
f5
f5
0d
07
e2
e8
f2
ea
e3
d7
fb
f8
f3
ea
dd
f4
02
f7
13
0c
0b
19
1f
09
22
09
19
17
2f
09
25
08
24
1e
0e
1b
27
1e
fa
07
1e
0c
0a
07
fe
ff
06
15
ff
00
0a
fe
19
18
09
fa
0f
1b
0f
10
fb
ef
fb
03
13
01
f6
f1
f0
e6
e6
f1
fa
fc
f1
db
fd
00
e5
ed
02
e7
fa
f3
fc
f7
06
01
e0
fb
ea
e2
f1
ea
de
d9
e0
ef
f9
fa
f4
05
de
e5
fe
e3
0d
fd
f3
10
08
12
11
fd
15
04
04
0a
f2
f6
18
f5
11
12
f4
03
05
17
02
1b
f6
11
14
ff
01
fa
0d
0e
00
17
01
02
16
0a
11
13
f8
05
1a
f9
0b
19
0b
05
12
f7
1a
18
00
fd
ff
16
f4
00
e2
fa
fc
f3
e9
e7
f7
07
f8
ed
0d
f3
08
f7
fa
e7
ef
fa
e4
f3
05
07
09
f2
fb
e7
03
fb
07
f0
06
fe
05
f1
e0
dd
d9
ef
d9
e3
f6
fd
e4
f7
e5
e2
e5
de
f0
ec
e4
00
ed
ea
06
02
fa
f6
05
fc
1a
0c
1b
19
0f
09
00
0e
f3
fa
14
ff
14
10
fe
f3
16
08
1c
f6
0f
fb
0c
fc
fb
0e
22
0d
08
1c
09
f8
11
11
13
12
13
f8
04
fa
01
17
f7
17
02
11
11
0b
18
0c
2a
0e
22
0d
ff
1f
05
ff
08
04
09
fd
fc
0d
0b
15
05
fd
ff
00
ff
00
03
11
13
1c
f5
1a
03
f0
12
f5
f7
06
01
0b
ed
07
07
0a
f6
02
05
13
f3
ec
ed
05
f2
00
f8
07
f4
10
ee
f6
08
ee
08
fb
f8
13
fc
08
fa
0c
16
15
f3
ea
f0
06
09
0c
0b
16
f3
f2
fc
14
f2
10
05
0e
16
14
14
f9
f5
07
10
fd
f6
f7
f3
03
e2
08
f4
e7
ec
e6
df
f4
ec
e7
ec
ec
f8
dd
ee
ed
de
01
e2
fb
fa
e9
f8
d5
e1
d0
d3
e6
ec
ce
d1
cf
da
cb
ce
db
f9
ec
e3
fe
04
07
fb
fd
11
12
1a
1e
0b
27
1e
33
38
3a
3c
45
31
f8
fa
f3
0d
fe
f7
f3
e9
fd
0f
0b
0e
0c
06
fc
ec
0b
ec
ee
04
06
ef
07
e4
fe
01
fc
ec
ea
0a
fe
f1
10
f7
fa
04
11
f4
fe
f4
f4
fa
fb
06
ea
05
08
f5
f5
fb
e2
06
f3
f9
04
06
f5
f2
f0
f5
05
fc
0d
07
20
23
28
07
06
1c
0f
22
fb
20
fa
f5
02
f7
f1
09
0b
05
fb
f4
eb
0b
ea
e4
09
f6
06
f1
0a
ea
07
0c
fb
09
fc
e6
04
e9
fa
e6
f0
f4
f4
e8
f5
ed
f1
ee
f9
02
1c
fa
f9
f8
1d
05
00
10
f5
fa
12
08
eb
f5
fd
03
f1
0b
fd
eb
04
eb
03
ed
fe
00
f3
02
09
fe
0d
16
0d
f5
0a
ff
0f
f6
f7
05
10
fe
01
ff
ef
fd
fe
01
07
03
09
f9
f5
11
11
0d
11
0d
17
17
f4
f1
fc
17
1b
09
f8
fe
12
1c
0c
f9
1b
18
fa
f5
0b
ec
0c
f2
f3
e6
dc
f6
e8
e3
01
f5
ec
df
e9
f0
02
e7
09
11
05
e8
01
f6
06
fe
09
fb
ff
04
e9
fc
0a
06
f7
f1
fe
e2
ef
09
fb
f9
e9
ef
03
f2
ff
fc
10
0e
f7
14
0c
03
1d
fe
f8
0c
fc
fd
f1
fc
10
ea
ef
fa
ef
01
f6
07
e0
f5
fc
f5
eb
06
e1
07
f9
fe
04
f8
f9
f3
e4
02
0b
05
fa
ea
fe
05
ef
14
01
09
18
0e
fc
0f
15
14
fe
0b
f9
05
f7
13
1a
ee
f8
f7
ef
0f
ea
ee
e7
f8
e9
eb
11
07
08
11
08
09
fa
13
fe
10
06
06
05
07
03
02
03
f5
16
0a
ea
e8
f1
05
11
fa
0b
f4
fc
ff
ee
04
0b
12
f3
fd
03
03
02
ec
0b
e5
ef
ff
ed
e6
da
fe
ee
fb
f5
e3
ed
06
ee
f0
08
f5
03
f7
0a
06
f3
f5
0e
00
14
0b
04
09
03
19
1f
0e
02
1f
22
1f
0f
14
0f
04
f5
07
11
11
07
0a
0b
f7
08
f6
ef
ec
e8
e5
fc
0c
fe
00
f7
fa
ff
11
10
06
14
0d
10
21
07
23
00
1d
0d
09
f7
f3
e5
dc
fc
00
ef
df
ed
e7
d7
da
f5
e9
ed
e6
00
ee
f4
09
14
12
08
01
10
15
0a
08
07
04
10
07
ef
f4
ef
fd
05
fd
f2
f8
10
05
04
0a
01
f8
fa
f9
ed
eb
f6
04
0f
f8
07
ff
e6
ec
f1
e5
f9
fc
e6
f2
e5
0e
05
ef
0b
ec
0d
f4
03
0d
09
05
fe
02
15
fd
ff
0c
02
06
13
25
05
f1
0d
f9
09
07
18
05
02
08
0d
04
1d
03
11
fc
0a
07
02
14
f3
06
00
f4
0d
07
fe
f7
01
eb
e2
0a
ec
f9
f6
0a
0e
ec
ff
ef
12
1a
ff
0c
05
05
1a
f3
03
03
ef
08
0b
e9
01
f5
0a
e2
0a
f1
0d
f5
05
09
15
15
19
0b
00
12
24
22
ff
18
0d
fc
08
f6
f6
e2
eb
01
f9
d9
eb
fb
e7
f0
00
0b
10
f3
f2
1b
0c
25
23
0d
1d
1e
0d
26
10
03
f0
0f
e3
04
e6
e5
e8
f9
d3
d2
ee
d8
dd
f6
e4
00
f0
0f
1a
0e
0a
23
21
20
36
23
2c
1c
1c
1c
1a
1d
1e
13
f7
0c
02
f7
ee
dc
da
e7
d8
f0
d7
db
e8
01
0a
eb
f2
08
02
fa
14
ff
15
1e
2a
03
25
16
24
23
06
05
00
14
f6
0b
02
0b
03
03
de
e2
de
f7
f1
f5
f7
f1
fb
e9
06
e8
ea
07
16
fb
18
fe
f6
03
12
fb
19
fa
f9
f7
f0
14
f2
f4
f5
0c
02
ff
f1
01
fa
06
fb
06
06
fd
e5
ff
eb
01
fc
0f
ef
ed
07
0b
f6
00
09
f8
f0
02
0a
f3
06
fa
f5
f8
e7
08
f4
ee
ff
fb
f7
01
04
0c
08
03
09
f6
1c
13
15
f2
13
05
ea
10
f9
fb
06
ff
02
d9
00
ed
e7
d4
d9
f9
f5
f8
e9
e0
f3
ea
e8
fe
0d
ef
f1
07
02
00
0a
11
0d
23
1e
18
08
0c
17
08
ed
fe
04
ed
ea
e9
f4
f5
d1
ed
e6
e4
d0
cf
f4
e4
dc
df
f6
e7
01
f3
04
0c
02
14
1e
0b
21
2d
41
36
1e
2a
43
27
36
21
23
02
17
fe
ed
fd
f1
d4
dc
eb
de
d0
c8
c8
e3
e2
c7
d8
e6
d0
f9
e7
e4
f3
fb
fb
0d
08
fd
04
0a
fe
f6
06
01
f5
11
01
20
13
15
12
14
1a
1d
0c
07
13
03
0c
13
13
f2
0d
fa
f2
f6
fe
09
ea
03
10
f0
00
f3
01
04
ee
00
11
fd
ec
fc
00
02
fb
f8
f2
0a
f1
f5
0c
f3
fb
f5
eb
0a
f6
f6
fc
07
14
14
02
ef
02
02
13
fc
ed
0a
fe
0a
08
09
0e
f3
f0
16
16
fa
17
07
fe
f7
f7
15
f7
fc
1a
fa
1a
0f
12
0c
05
13
10
fe
f7
f7
06
0f
fa
0c
14
15
fd
0b
f2
14
f2
06
ff
f4
f4
f9
f8
1a
08
ff
0d
06
0e
24
00
00
18
23
00
1d
2a
10
07
1e
1e
0e
fd
0e
ff
f9
15
17
0f
ef
16
17
1d
0d
0b
fe
23
13
ff
2b
14
23
15
15
2d
2b
10
1a
29
1a
13
28
26
0b
1e
08
06
0f
f7
ef
e6
d6
f4
d0
ce
e1
dc
e1
e5
fb
d7
e3
fb
e9
f2
1a
1a
11
24
25
24
3a
2a
39
19
1e
27
2a
11
24
fb
00
14
ef
e6
f1
e1
f8
eb
e9
fb
f2
de
e0
04
02
07
eb
fb
15
15
13
1a
ff
f6
12
12
fe
01
02
ef
f7
f6
03
f3
00
09
ef
ee
e4
ef
dd
ff
04
f8
08
00
04
0c
ea
f9
05
f9
f1
fc
fa
fe
f7
01
14
ff
12
f6
f9
07
18
ed
08
00
e8
e9
01
ea
03
e5
04
e9
fd
fc
e6
ed
f4
fb
07
f4
02
f4
f7
0f
fc
ef
03
fe
05
f3
fe
f1
ef
00
00
fd
0c
f9
f8
f3
e0
fd
05
f7
e5
09
fd
08
04
00
f7
03
06
fe
f1
f3
eb
f6
fa
0f
f1
e8
08
0f
ec
fe
07
10
ff
0e
17
13
12
16
f5
0c
18
f6
f1
f1
07
11
f9
ef
f7
e2
f5
e2
e1
e0
ea
00
f9
07
e7
f0
13
1b
22
00
21
05
16
1d
27
15
07
01
09
1d
10
0c
eb
e3
06
fc
e2
ec
fa
ff
dd
e9
03
11
0e
12
1f
3c
23
47
f1
01
e8
09
ec
f6
e5
f1
e2
df
df
f3
e6
da
ef
e0
d0
d5
cc
c9
c7
d2
b7
b8
d8
c2
c8
d1
c1
dd
ca
d6
c9
e6
d1
f2
e7
e7
ec
ff
11
03
0e
f0
ff
f9
f3
06
f7
fe
ec
dd
df
d0
e4
cc
ea
e0
c9
d1
c4
ea
d4
dd
e8
f6
eb
01
07
fe
14
f6
ff
0b
0b
16
1e
fe
19
12
1d
14
02
00
f3
03
0c
01
09
fc
f7
eb
db
e8
fc
fb
e1
fa
fb
d8
d7
e4
ef
fd
01
09
f4
10
0a
f9
fb
16
25
05
17
00
23
1a
0e
1e
1a
1e
11
0e
17
13
f9
03
18
01
1d
09
22
02
1e
06
1f
1b
1a
17
1e
08
09
16
00
10
17
fb
0d
10
fc
1f
0f
fa
07
14
1f
09
23
08
01
0c
03
16
1d
fa
fc
16
04
1b
1a
f6
11
ef
0c
f6
03
19
07
f9
10
03
1a
f6
03
f4
fa
fd
f4
f2
fb
f4
f2
fe
eb
05
07
0c
fd
f3
f0
ea
03
00
04
f0
e7
fd
0a
f5
0a
0a
04
f8
f8
00
02
01
f3
fb
02
19
12
f4
f6
f6
17
05
0f
e9
0b
07
f6
ea
fc
e9
ed
fe
e6
fd
f7
f7
f8
ff
ec
01
e3
00
e4
0a
f8
f6
f5
f2
e2
d5
2a
25
0e
0e
06
ff
10
f2
e8
f9
ef
ee
f7
fd
0c
0b
11
0f
07
01
03
f5
08
02
02
1a
13
18
18
fe
13
0c
15
1b
08
1d
0c
07
17
19
01
10
ff
01
f2
f7
01
f9
fa
00
f3
04
0e
0a
0c
f1
f6
ee
ea
ed
fe
dc
e1
f5
f4
e2
e2
e3
f7
f9
e1
f2
de
e9
f9
fa
fd
1f
1c
18
12
1b
2f
19
1e
20
23
20
03
10
06
00
e6
08
fa
ef
f3
e5
db
e6
da
03
fb
fb
ea
ed
0b
f0
08
16
f7
1b
fb
09
1d
1e
21
20
f8
0f
f8
16
10
19
0c
13
02
f1
f2
fe
e9
0e
ec
e8
0b
e6
e9
f1
f6
e5
f8
dd
ef
d5
d7
f4
f7
e5
f9
ed
01
f9
f3
ff
e8
0b
14
14
f5
fa
fb
07
f5
f2
fa
14
05
e9
f2
e8
f4
f6
e4
e0
eb
ef
fe
f7
e3
de
f7
f3
07
ef
00
f5
ff
00
0c
11
27
26
22
15
0f
22
fc
f4
fa
14
17
f8
f2
ec
0a
f7
10
fa
15
11
12
10
f5
0b
fc
03
18
00
17
0b
00
fe
f3
0f
07
17
0c
09
00
0c
fe
0b
f9
11
0b
12
09
13
1d
0f
1a
f9
0b
fa
0f
11
13
03
16
05
06
1b
f5
0d
f5
0f
e4
e9
fe
1c
1c
25
17
33
1a
23
10
25
27
0b
2f
1e
2b
0a
10
04
19
f8
0d
ef
0c
e6
ee
ef
f4
f9
02
0f
0c
f7
19
05
00
18
10
2c
1c
2b
24
12
24
13
19
17
0b
22
26
00
1d
fd
f5
10
04
f6
14
00
ef
05
fc
f7
ea
f8
05
ef
04
e5
f3
f5
eb
07
ee
0e
08
05
fb
02
10
21
02
ff
04
fe
0a
fc
1b
19
fb
1b
0b
f7
0b
ef
f5
f0
f2
f8
01
00
e6
e6
f8
0e
03
0f
f3
04
ec
0b
00
ff
f6
ef
fa
00
f7
0a
fd
02
eb
03
f1
ea
f0
e4
e6
06
06
e5
f8
e9
09
02
fe
e5
ec
f5
e7
ef
02
eb
02
fc
fb
f6
f1
e8
ed
0c
f9
10
fb
f8
07
e5
ec
06
f3
09
f5
06
f7
f7
e2
eb
f2
fb
f5
eb
f0
02
fe
f7
e0
ea
00
07
ea
ff
f1
06
f5
e9
e6
fb
03
f1
0f
08
0c
09
eb
fb
0b
09
ea
f2
0d
ea
0c
f7
fb
03
fe
e9
fe
e3
eb
f2
f1
06
ed
0d
05
03
0d
f0
ed
03
0e
0e
05
1a
0d
0f
fc
0c
ff
f3
f7
f8
01
fa
17
0b
f0
02
12
fe
02
04
f7
ef
f5
f7
0d
ea
fd
f0
f5
f4
eb
f6
22
0a
1d
1e
fc
04
f3
08
f5
e3
fc
08
f7
f1
f8
06
0d
f6
08
0a
11
0d
eb
ea
e8
04
ea
fd
ed
e6
fd
e8
df
e7
dc
d4
e4
e6
db
fa
e1
e0
f8
e9
e2
ec
d4
00
f0
f4
de
01
e0
ec
e6
eb
fc
e3
e5
00
02
fb
f3
f6
f8
f7
ed
0b
fe
eb
f6
ea
ee
0b
02
05
f9
f7
ff
ed
e8
0c
fe
0b
0f
08
f7
fa
fd
00
00
ee
f4
0f
ff
f4
0c
f8
f4
0b
eb
f1
0b
f8
f1
0b
fd
e5
ea
f5
f7
e8
f1
01
e7
e8
03
03
ec
ee
17
1c
fe
1f
19
1e
02
05
16
12
f7
16
1d
fa
f4
f3
fa
fe
fc
f6
17
22
1f
1c
18
06
fd
02
19
14
12
02
04
05
0c
0b
11
07
0c
01
1a
fd
13
fb
03
23
0a
0a
17
f8
05
07
09
02
f5
ef
02
11
f4
00
0a
e6
0d
0c
f0
0c
07
09
0a
fb
02
ea
fa
0b
ee
f9
ea
fd
fc
05
f4
ff
02
f8
e0
05
eb
03
eb
03
fb
ee
0d
01
00
06
1d
1e
19
1f
23
23
2f
2a
11
18
26
2a
05
09
08
23
22
01
02
05
05
fc
f1
f4
fd
fe
fd
e8
0e
ee
f3
0b
f5
e1
fc
e3
fc
db
cb
c7
28
22
33
20
0f
1c
04
15
15
f8
fa
fb
fc
fe
0a
ec
08
ec
0d
ed
e8
06
09
ef
0a
fb
02
fb
f9
f9
f1
16
12
1b
f3
1d
17
0e
fe
16
14
16
f1
04
08
ea
13
0b
eb
eb
00
10
06
05
02
ee
13
14
f8
03
1d
ff
f8
13
10
18
fc
09
08
14
0d
06
fc
fb
f2
07
11
f4
f1
12
07
fc
17
f8
01
07
0e
15
1a
0a
0e
05
01
13
1e
1f
fa
13
00
04
02
12
0e
e8
fc
03
fd
f6
ec
e8
e4
fa
f3
03
f6
12
f3
16
fb
07
fc
0d
14
15
f0
0b
07
e3
f9
f1
f4
f7
e1
d5
d1
dd
d6
cb
dd
e9
e1
f1
e0
fd
f6
ef
07
0c
ff
09
1b
ff
1d
1a
07
12
1b
23
22
02
01
18
21
1c
10
1a
fa
02
f0
f2
f1
ec
05
05
07
0d
ec
f7
0e
e9
0c
05
ed
04
01
04
fa
0b
12
10
fe
ec
14
03
0f
01
f7
00
00
f1
f5
f0
fe
f9
ec
04
05
03
f6
f6
ed
09
ec
ea
04
e9
05
f4
fe
f5
0e
ea
fd
f8
e2
07
f9
e3
de
fc
04
ee
ee
e3
06
f0
ee
02
0d
06
04
14
02
05
01
f7
09
fc
13
f8
f4
01
14
f2
f9
fc
f7
0e
1b
17
07
fd
fc
09
08
fe
14
07
15
03
0e
09
1f
00
0d
1a
10
17
27
1b
1a
1e
0b
0b
1d
13
1a
06
1c
11
fd
f5
03
eb
f0
ff
f8
00
ea
04
e5
e4
fe
eb
f6
ed
e1
f1
fd
02
05
f5
07
fe
fa
fa
f8
fe
f7
07
f5
ec
fd
eb
05
09
fb
f4
f8
03
e9
f5
ed
e9
ed
ee
0e
0b
ef
ed
11
04
08
02
f6
f3
09
e7
e9
02
f5
ff
06
ee
ee
ed
e8
f9
0d
fa
07
f1
fd
eb
f9
ff
f2
10
03
07
12
06
fb
08
13
ea
fa
0a
fb
ef
f5
f7
0b
10
00
f0
04
06
f5
03
f2
01
07
02
f4
0a
f2
e0
02
06
fc
04
fd
fb
ff
e2
f4
ec
fd
e5
fe
07
f8
f9
f5
0a
f2
00
05
0a
f0
06
f8
fe
f0
ee
01
02
10
12
0e
07
0d
08
eb
10
02
fb
fb
14
12
02
fc
fa
12
f9
fc
fe
12
1c
10
14
fa
fc
ff
fd
01
fd
02
fc
0f
09
0a
11
f5
00
08
f5
14
f9
18
1f
0f
00
1b
fd
0d
19
20
0e
0a
0a
f7
11
fc
0f
07
19
02
19
05
05
f5
1a
0a
f4
08
10
03
19
11
04
1b
13
ff
fd
03
f1
00
d8
dd
ed
fc
05
fe
13
08
f6
15
f8
fe
08
f0
fd
f8
fa
f7
0d
f5
f2
0b
0a
03
06
1a
fe
f3
f0
0b
0e
04
f1
f2
f5
10
06
f3
ea
0a
fd
13
ec
ed
02
0f
0f
18
11
0e
fa
1c
fe
17
11
fb
05
04
14
12
05
f2
03
0b
ee
09
fb
03
ff
05
e5
01
e6
f8
0b
e9
eb
f4
ff
fc
ee
02
f8
f3
fc
06
01
f1
0e
05
f9
16
08
0f
14
05
17
05
17
0a
12
14
fe
1c
0a
10
f8
fe
13
f4
02
10
e6
f8
fb
04
ed
de
e5
f9
e3
df
f2
f8
e5
eb
01
e8
e7
f5
10
fb
f8
fb
08
20
1c
0f
05
0c
1e
2c
24
15
22
15
14
17
04
0c
01
03
f5
06
e1
01
de
df
df
e8
e7
d4
f4
ee
ff
dd
df
f9
09
0b
09
09
15
06
fc
02
08
1c
2b
25
07
19
23
0d
04
f8
fd
0b
ef
ee
f7
e1
dd
e9
f5
e8
e6
d6
f6
ed
e6
df
ed
ec
03
12
01
16
06
03
fc
01
20
1d
23
0c
13
07
1e
f4
fe
ed
03
ed
ed
ff
10
0c
08
f4
f8
e4
07
fe
0b
e2
f1
e8
e6
e9
fd
05
01
f1
02
10
fd
f7
ef
11
fe
f3
12
0a
fd
f2
0b
01
03
f3
11
0d
19
12
12
24
11
1e
19
fc
20
0f
01
1c
fb
16
f9
02
f5
17
0e
1a
0f
00
0f
1d
01
05
11
0b
14
2e
27
0a
11
2e
19
11
1d
15
1d
16
20
1b
15
12
06
f4
06
f7
f8
f5
04
fa
11
18
1d
fc
24
19
24
1e
17
0e
23
03
20
21
12
05
fe
0f
23
14
0f
0b
19
22
1a
19
06
20
17
fe
24
1e
0e
09
1e
1f
0b
1a
0e
0e
01
00
0f
fa
f5
14
04
1e
0e
06
14
12
19
04
01
13
24
01
03
0e
1a
19
02
04
f2
17
0e
05
e9
09
f0
fd
06
fa
f1
09
09
fd
ee
f1
e9
f1
e9
fa
ed
08
ea
eb
ec
f2
fe
03
08
eb
f3
ee
f7
f4
f7
f8
fc
ed
fd
e2
ec
ec
eb
f5
e0
e9
f3
fa
05
e6
fa
fe
e7
f5
e5
ee
e0
e5
e1
fc
ee
d3
eb
f5
e0
dd
e8
dc
e7
f4
e4
e2
eb
e9
fb
03
08
10
06
ef
f5
ed
03
fe
00
e7
07
e3
00
e3
06
e9
e5
02
0c
f7
05
0f
eb
06
05
f2
0c
12
0e
ed
0e
0a
fe
f1
00
e0
dd
f2
f2
de
f4
eb
eb
f1
f6
f2
f6
ea
fc
fb
e9
05
00
fb
18
14
23
1b
22
2c
1d
7f
62
63
60
61
4f
50
23
20
13
1c
13
fc
e0
dd
ed
d5
df
d9
f7
ec
e3
07
ee
06
25
23
0e
28
2a
39
47
47
35
3f
1d
40
34
11
13
08
fd
0c
f8
02
ee
02
e8
ec
eb
f4
f0
ed
ed
15
12
08
27
22
1d
27
2b
3a
17
19
16
13
22
2b
23
24
1a
14
fe
22
22
0a
0d
0b
1c
07
05
fd
10
16
fb
16
14
1a
19
0c
14
03
1e
fe
fc
fe
00
0d
19
07
19
06
1c
19
18
13
fc
20
f5
fc
fd
04
13
0d
f5
1b
1a
0f
ee
0e
07
fd
ec
0e
f5
e9
0b
02
00
08
02
f6
f7
0d
fc
ea
ee
ed
01
0e
0b
03
04
f1
0d
00
e9
e6
df
ec
01
f1
e5
f6
e2
f7
00
fd
ee
ee
00
04
f3
f9
f6
f5
e5
e4
07
e9
01
fd
ea
e3
ed
e7
dd
ff
e9
e8
dc
ef
f0
02
e8
fb
f2
fb
f0
ec
f8
e5
fc
dc
df
03
e5
dc
de
02
ea
db
eb
e3
e1
e7
02
fc
01
f8
ef
f0
ec
eb
ea
00
07
0b
f9
f5
f5
fd
ef
e8
e8
d6
d9
df
ea
d9
ee
da
fb
d4
f3
dd
e2
d6
d6
d7
ea
fe
f3
f6
ed
df
df
e2
d5
f8
ea
ea
00
02
16
fe
22
04
17
22
0e
fa
f8
23
f7
01
16
f4
19
05
07
01
fd
03
e3
f8
e9
07
04
e8
fc
ec
fc
ea
e5
fc
fe
08
fd
ef
ff
fd
10
08
15
05
f3
f7
19
1b
0d
f8
17
11
f8
11
21
fe
11
17
09
21
26
27
fd
11
21
1e
04
13
12
fe
0a
05
f3
eb
e8
e1
e7
fa
fe
f4
00
16
0e
00
24
21
17
20
04
24
1b
13
0e
25
17
04
19
13
07
1c
21
09
01
fd
fc
10
11
f5
0c
fe
fb
f4
e7
e8
0a
f5
f7
e9
f1
eb
f4
dd
f1
da
dc
e9
e6
e1
f5
ec
f3
fb
f8
e7
f5
0d
0e
0a
17
fb
00
04
02
1c
f3
0e
1f
fd
1b
f7
0c
fb
0e
0a
09
fe
fb
ec
04
14
f0
f8
05
0c
0a
11
07
01
f6
f3
f9
17
1f
20
1b
0b
18
0f
f6
ff
ec
11
ff
0c
f4
05
fc
ed
ed
fd
ea
fe
f2
e6
e6
e7
02
07
ee
e6
07
f8
ea
05
ff
11
06
f5
ff
f3
0e
09
11
f4
f8
f6
f1
ee
ee
0f
f8
fa
02
01
04
ea
0c
f7
ee
06
e7
ec
05
01
f0
f8
f5
03
ff
02
0c
eb
ea
f6
f3
ef
12
12
13
f5
02
f5
ff
1a
0d
12
f5
14
19
ee
06
00
e6
e5
f5
e1
e8
01
f2
fb
f5
0c
14
14
f4
03
17
1a
0d
1e
12
16
24
24
08
0a
1f
25
13
2b
14
0b
14
01
16
fa
20
f9
16
f4
ff
f2
06
03
dd
da
ea
e3
e0
e1
d3
e7
d4
c6
d7
bf
c6
d9
cd
c5
e8
e8
ee
f4
dc
ec
f1
16
fe
fd
07
14
1b
23
22
13
24
1a
18
f8
0a
00
ef
f7
12
09
15
10
03
17
09
02
fe
17
13
19
06
f5
0d
0b
f9
0c
01
15
02
f4
0f
fc
f6
03
0c
01
f7
09
ee
0b
ec
fa
0e
04
f9
0c
0d
ee
00
f3
ff
02
fb
fb
0e
02
ec
05
ec
f3
0f
12
fb
f6
0c
ee
11
13
0e
0c
0b
f7
ff
16
1c
0b
0f
f6
1a
00
01
22
07
02
10
1c
1e
0b
18
17
03
f5
06
fe
0c
f4
f6
f4
f4
17
f1
07
fa
fe
01
11
15
00
04
01
13
07
f7
07
e2
fa
01
e3
f5
f6
da
f3
fc
ef
e9
e5
e0
f4
dc
df
eb
e0
0b
f2
f1
03
0b
15
ff
06
fb
fa
03
10
03
08
16
12
1b
18
19
03
1b
fd
17
04
19
01
11
22
09
20
0d
22
1f
fa
fd
f9
f1
fc
dc
df
e6
d3
d0
eb
ce
ee
d2
ef
ff
de
e0
f7
ef
03
01
fc
05
10
02
0d
f2
10
fc
0b
ed
f3
f1
09
fe
e9
12
03
10
ff
ff
0d
ee
12
f1
00
f0
f0
0f
f8
f9
0d
10
e7
fb
01
0e
f0
f1
eb
ff
fe
f8
f7
ea
f2
f3
02
08
08
ee
fc
f9
11
09
e8
e8
e3
ec
de
fb
e6
e5
f2
eb
04
0a
e7
06
01
0e
fc
06
08
11
15
12
0b
f5
f8
f5
eb
12
f1
ed
f1
06
ed
ea
ee
06
03
f3
fb
fa
16
1a
15
0b
06
19
0a
09
03
0a
06
10
0e
f2
f8
e5
e3
05
f7
eb
02
02
03
06
ff
f0
ed
16
10
ef
10
e9
0b
09
06
ff
e8
eb
f9
fd
09
f8
04
ed
fc
10
08
1c
fe
05
1e
1b
0c
2b
23
27
25
0e
0a
02
1e
fc
15
f5
fa
04
df
d2
e6
d1
ec
ea
f3
e4
dc
dc
e8
11
00
0b
0c
0a
2b
17
14
33
2b
28
29
08
19
07
0a
0f
fa
13
fa
04
f7
df
e6
e1
f6
e5
e4
fd
e6
f0
f0
09
15
09
f6
13
17
fd
12
08
f2
fc
ef
07
0c
eb
f7
00
11
f4
ff
00
f5
f6
f9
f9
f8
01
fc
f2
09
0b
f6
f5
e4
e9
f8
f5
00
f0
f7
00
14
13
f5
05
fa
f8
fe
ea
ee
dc
ea
de
fb
e4
ec
ea
0d
f7
12
f7
14
01
f6
19
f8
f9
10
01
01
14
ec
f3
01
f1
f3
ea
ec
ff
e7
f4
fb
fc
f7
fd
eb
f4
ed
e3
0c
e9
f1
f9
ed
ef
f5
02
eb
ee
ef
eb
00
fc
02
13
f7
fd
0f
1d
16
10
1c
01
08
0d
01
ff
f9
0a
03
f6
eb
ea
f0
ce
ea
e1
d1
e7
dc
d7
fa
f4
06
f7
f2
1c
12
20
13
25
0c
1e
2c
13
27
18
14
19
f8
f2
fe
e1
d9
f5
d3
dd
ee
ef
e1
ec
04
ed
0d
02
01
f6
06
1f
01
fb
0a
19
02
1b
1a
17
f5
f1
ea
fa
f0
07
00
10
eb
ef
fd
08
16
02
16
fd
fe
f7
f5
f3
e7
f5
ed
e5
e0
d9
e7
db
01
e9
f8
e6
fc
eb
0e
13
f9
1c
19
0c
12
32
12
2f
1f
22
0b
18
13
19
ee
f6
f8
e3
f3
f9
f6
dc
f0
d7
f6
d8
d8
f5
ef
fa
0b
0f
09
ec
ff
06
f1
1a
17
00
05
fc
0f
09
fe
10
fe
06
10
f7
ec
0d
f3
0a
fc
12
04
fc
f7
16
fa
0e
17
f5
f2
07
fc
f4
12
f0
fa
f3
0c
08
10
12
0a
03
1e
0d
12
fb
f7
00
fd
0c
f8
ff
39
1c
24
1b
23
19
0b
13
04
fe
f8
ee
12
f2
ec
f8
08
04
13
18
1a
fe
1b
1f
0b
18
1d
1e
27
2e
31
20
27
24
0d
26
13
1a
ff
1b
09
06
ea
f8
f1
0c
e4
f4
f0
ee
08
f5
11
0c
00
0c
11
06
02
03
13
f8
17
15
18
14
f3
f3
0b
f6
e8
ed
07
ec
02
e8
0a
03
0d
01
0d
15
03
f6
f8
14
f9
f3
f3
fa
08
ef
f9
17
fe
fa
0c
f0
f1
06
0b
f0
19
fe
08
14
0c
0a
ef
ed
08
00
0b
08
eb
00
ea
ee
00
f9
ed
02
0a
e7
11
09
fc
e8
f4
03
f3
f5
f2
0d
0c
e8
f2
0c
f7
f0
fd
0d
fa
ea
fb
0e
02
16
0f
09
12
08
f8
f9
fa
07
fa
0b
08
14
02
02
03
f3
eb
df
dc
f2
e5
f5
f5
00
ee
f2
04
fc
03
f0
ed
0f
0e
f6
02
eb
ff
ea
09
e6
f5
0c
f0
ea
09
eb
fa
01
fc
e8
0b
04
ec
f0
f8
06
08
03
10
16
06
08
0b
02
fd
0e
08
06
ed
e9
e5
de
ea
f6
ec
e1
e5
d8
da
e9
da
e9
f9
eb
f7
d8
e7
d2
e8
d9
00
da
f8
e6
fc
fb
fc
fa
14
06
10
0c
08
12
34
39
1e
2e
24
32
1c
18
0a
11
f2
ed
fd
ea
e7
ee
fc
f9
e4
e8
fd
ec
f5
dc
d1
da
e5
df
d8
fa
d3
e8
f3
e7
fa
f4
ef
f6
fe
f6
1d
26
0a
1a
21
23
11
12
34
2c
33
2d
1b
2a
15
13
04
1a
fe
ff
e5
f7
de
dd
da
df
d3
d2
be
bb
d3
c6
bf
cd
c5
e4
e7
ff
e4
e9
fe
f7
11
04
02
fb
11
fa
0b
10
f0
eb
f1
07
f0
fe
ff
00
f2
fe
0c
09
01
ec
08
f4
0d
06
f9
05
f4
01
fc
fd
04
11
f3
12
fa
12
02
ff
f6
f1
e7
f0
fa
0e
07
ff
e7
0c
0c
f3
06
ec
f4
f8
eb
fe
05
07
15
0e
ef
fc
10
ef
02
0b
f5
15
f3
f0
ee
fb
05
03
f2
0f
f1
0e
05
f7
0f
08
ef
0e
19
f6
03
f8
18
16
1a
10
07
09
fb
19
02
0d
0b
11
f8
06
12
f9
ff
fc
f5
1d
19
13
f3
05
08
0d
08
f6
03
f0
0d
0f
fa
ee
01
0c
f1
09
0f
ed
0b
08
f3
11
f3
0e
ed
0d
f8
e9
08
fb
03
07
02
07
ef
ef
fa
fb
f3
0c
09
0a
10
1e
0c
15
11
1d
0f
17
05
1d
0f
0d
12
f2
10
17
13
13
f4
1a
0d
f3
1d
1b
f9
12
ff
0f
e9
e7
01
fc
e9
ee
06
06
e6
ee
f8
f7
e8
08
e9
09
ed
e5
02
f3
0d
fa
03
10
f2
f7
0d
0e
fe
09
04
00
f2
05
e9
f0
e6
eb
f8
fd
f0
f9
fb
f7
e9
fd
04
04
fa
04
e8
fc
e6
04
fa
f6
09
f9
07
0c
f6
f0
07
fb
ff
18
16
0f
0e
09
13
1f
12
0d
0d
0f
1b
2b
1a
32
2d
0f
23
11
2a
26
1b
03
0c
f9
07
16
fa
ef
ee
ea
02
e8
04
02
02
f4
f1
fe
f4
00
fe
01
f2
0a
fa
0d
00
ed
02
fd
fa
05
fd
07
ff
f8
0d
f2
f3
00
00
ed
0b
01
08
fe
f9
f7
fc
ee
09
07
12
f0
04
ff
0a
0e
09
0b
09
13
00
08
14
15
07
ff
01
05
fc
e9
e2
fc
e8
f9
dd
fc
f9
ed
e1
ef
ff
03
f3
f3
07
fa
0b
0b
e9
e9
f1
f6
0d
e9
04
0c
fc
ea
ec
00
03
02
0b
0c
eb
08
0c
f4
f1
eb
e9
0a
04
f2
ec
ea
13
07
05
00
0c
07
0f
0a
fb
fd
0e
0c
17
f9
14
f5
0b
f8
ff
ff
1f
1f
03
0c
fc
fd
03
10
f9
08
0e
0a
09
0c
1c
f2
f1
0a
04
0d
0a
e6
ef
df
f9
fa
db
de
0a
01
ec
f8
e8
fe
f9
fb
f2
f5
e2
08
f2
f3
f4
de
f8
06
00
f6
fb
f9
f6
00
ff
fe
eb
f7
07
09
ee
03
ed
00
00
eb
06
05
02
f8
fb
ef
e4
f4
e4
f3
e4
e8
e2
ef
05
01
fb
0d
11
fa
f4
16
f3
f6
f4
f7
f5
03
f8
0f
eb
eb
e8
e7
00
ec
f7
f2
f9
f9
13
fe
ff
19
23
23
11
17
09
11
14
01
07
11
07
11
f2
ec
dd
fa
e5
da
f2
e8
e5
02
e9
04
0d
09
f4
0e
f0
11
fb
f5
ff
0f
f3
07
fb
e5
e3
05
06
ff
08
e6
eb
f1
ef
f9
0a
09
16
05
21
15
20
24
12
27
1d
02
0e
00
0b
f6
f8
f4
e5
0c
ef
ef
f6
f6
e3
fb
e7
e4
e8
e5
07
ff
0b
e8
eb
06
f6
fb
f8
f4
fd
fe
19
10
1f
26
23
04
23
23
0d
10
1c
11
05
0b
08
18
12
13
02
ed
13
fc
02
eb
f4
fa
eb
e8
f9
06
06
fd
f9
02
f4
0d
08
e9
13
01
f0
f9
16
ed
01
f3
e7
00
03
0b
e2
fe
02
f1
02
05
e0
fd
f9
f7
07
fa
f2
10
0d
0d
00
f7
08
0a
0d
08
23
11
00
07
ff
20
10
06
fe
16
f6
f1
fe
08
fa
f9
0b
ed
0d
08
06
0c
0b
ee
05
05
04
f5
f2
f1
07
04
08
1c
f8
0f
0d
07
15
13
f7
09
f9
f9
f1
0a
00
f3
fc
fe
08
11
f0
fd
12
0c
07
f6
01
fe
fd
0b
f6
f8
0b
02
e7
f6
09
06
06
ea
e5
f9
02
01
f6
fa
dd
f1
e8
ea
f4
db
ee
e6
fa
df
e9
e7
09
09
10
15
09
08
0d
0d
0d
fc
1d
fe
1c
16
11
13
0f
fe
fc
fd
fa
10
07
05
0c
1a
04
fc
f6
1a
f5
13
1b
14
09
06
18
ff
12
04
17
07
fe
05
1a
15
fd
fe
07
07
02
14
06
fd
ff
06
eb
e4
e7
02
fb
e5
0a
04
e5
07
fa
fd
0e
0d
02
f3
0e
11
fb
ed
13
f4
f1
e8
06
06
f4
e7
0a
fc
0c
f6
0a
f1
ed
04
fe
0c
fc
eb
ee
fb
ff
f8
19
fc
0e
1a
13
12
19
06
fc
17
fe
fb
fc
1a
f7
14
0f
01
ef
e5
e6
03
e5
ef
f5
ef
f5
e0
02
e1
e5
df
00
e8
ed
00
f3
08
fd
f5
e9
e4
fe
fb
0e
e8
02
06
0b
0b
01
ef
00
1c
f7
fa
1d
0a
05
0e
15
0c
1a
07
fb
f8
ff
f9
0a
04
09
09
0a
e3
f4
f8
0d
01
0e
09
c3
dd
dd
d3
f7
d2
d5
da
d8
e9
e3
04
ff
ff
08
e5
ea
0a
08
fc
05
ff
f7
f0
00
e6
0d
e5
e7
07
eb
ed
f1
e3
f3
f2
f0
f5
e7
f4
f9
e7
f1
15
f3
07
02
2a
26
23
0f
0a
18
29
1d
0e
05
28
18
21
fd
11
22
f7
f5
f5
fe
05
11
ff
17
17
14
f2
0c
0f
12
ed
fc
f6
f9
07
01
0b
f3
fd
0e
fe
0b
fb
1f
0e
18
14
16
29
0c
29
0d
15
08
19
fd
17
04
20
20
17
f3
10
f5
06
f8
14
05
10
12
1b
1d
10
02
1b
0b
11
15
27
23
0f
06
23
1a
f9
08
f6
fe
ee
ec
ec
f6
01
e6
f1
fe
02
fc
ec
fb
04
ea
ef
00
fc
0b
01
04
e8
f1
f2
ef
f0
ff
e6
ee
ed
f9
f9
f4
03
e6
07
fd
07
e3
07
02
04
02
ec
f0
f5
f9
de
ee
dc
e1
e8
ea
f4
ff
e9
ee
fb
fa
0b
fb
fa
ea
03
02
03
fb
f9
00
fa
f7
e7
05
ed
fe
ff
ff
f2
f4
02
e8
e8
04
0c
08
09
f1
0c
f6
0c
18
fc
f4
f5
fd
04
16
04
f1
fa
f4
ff
02
ec
ff
04
f7
e8
05
e4
03
fc
f3
f3
00
f0
fc
0c
fc
f0
10
10
1d
00
ed
f8
0c
05
0f
08
e7
e9
fb
f0
f1
02
fc
11
f5
0b
f6
f5
13
01
13
eb
f5
e9
0c
06
fb
0d
ea
ea
0c
f2
05
01
fc
e9
ef
08
01
f3
01
f4
f9
00
0c
14
14
fd
05
ef
03
08
fa
1c
ff
f5
ff
05
f6
16
0b
fa
08
f2
0b
01
ff
01
f4
09
ea
f9
0b
fe
eb
10
ef
f4
0c
f4
04
0d
12
fa
1d
19
00
07
fe
f8
14
0d
ff
09
df
f2
e3
f7
ed
da
eb
f5
e7
ee
e4
08
e3
ee
ed
f7
f6
09
16
05
09
14
ed
03
09
02
f3
f3
ed
0c
ec
f2
f5
e5
e8
e9
fd
ed
eb
f2
f9
fc
f6
0b
03
f6
0f
09
06
17
fc
0c
f2
f3
02
f1
05
e8
f5
13
fd
0a
14
fb
fe
01
fb
06
12
1a
17
1d
fd
f8
f1
13
0f
ff
15
f3
ff
01
0b
14
f6
1a
19
0b
f9
0f
0e
02
20
fb
05
04
06
1c
0a
0d
f7
fb
16
02
0f
f6
fa
10
15
07
f2
f8
fe
0f
f4
f8
f0
f6
14
fd
ff
03
fe
fa
00
f6
0e
ff
0a
02
10
0a
f4
f9
03
f6
ed
0e
0a
f1
00
0b
ed
f7
e9
e7
0c
03
ee
fb
f3
fa
f9
06
02
ef
08
00
f2
ef
0f
15
f8
05
fb
f6
15
00
f1
00
f8
10
00
f5
f9
fd
12
03
f1
fd
17
f2
fd
18
fc
16
f7
16
14
01
f0
fd
08
fa
ee
eb
08
0c
f6
ff
f2
0c
f3
f6
fa
01
09
f3
ff
fe
03
04
06
0d
f4
fe
0d
f9
e4
02
dc
f9
02
f3
fd
05
00
f2
00
10
06
f2
18
1b
14
14
14
f9
fe
0d
05
06
fa
e1
fe
e3
dc
01
f4
f5
e0
f3
ee
fe
f4
0a
f7
16
1c
0e
ff
12
25
06
0c
1a
13
1f
0b
04
03
f8
e6
ef
e1
02
f2
f3
ee
e4
e0
eb
f5
e3
e2
fd
e9
fe
09
0d
eb
00
f1
06
0a
ff
10
04
19
0e
1e
1f
17
16
09
05
21
1e
0f
19
10
0d
f8
fc
e1
dd
f8
de
f8
d3
d1
d0
f0
d4
d2
f0
e7
db
04
0a
11
14
fa
07
0c
02
29
13
23
10
2e
27
24
1c
21
11
09
fc
0f
e5
07
f3
f3
e5
e9
f8
ed
ff
fc
e9
0a
f6
f9
fa
0d
ef
f6
10
00
00
ef
04
0c
f8
01
00
fa
10
05
04
00
00
0d
04
09
16
15
fe
f4
0c
f7
f2
13
f2
18
f0
f0
0e
02
f6
08
f0
f2
ea
f4
ed
14
f8
07
fa
00
15
09
10
0c
f4
f6
fa
ef
fb
e2
e1
e1
f2
f7
f1
fa
fd
1c
08
1d
10
17
1c
fc
04
fd
22
13
01
f7
11
07
f7
ef
f2
02
eb
f8
06
03
fa
f9
fc
00
08
fe
05
09
e9
f0
09
02
f4
07
ee
fb
0f
04
f8
12
09
05
f5
00
0b
fc
0c
f7
14
13
0d
fc
e5
f0
f7
e3
07
fd
08
e5
ef
02
fd
f2
10
09
00
16
eb
ec
03
12
09
f0
0a
06
fc
0a
01
fc
f7
f4
f4
01
f7
10
0f
f4
fa
1b
00
0b
fd
06
14
0e
13
04
f3
01
0c
03
01
00
0d
06
f8
f0
0e
f2
f0
07
f4
f0
f3
0a
f7
18
04
fb
f6
fb
13
f0
e8
01
ff
e3
ea
06
e8
fa
e7
df
df
08
01
04
09
0d
17
1c
1f
19
18
1c
07
24
20
25
15
2a
18
0d
0d
01
00
11
01
f1
ef
ee
da
d8
f6
e3
ea
dc
d8
f0
fc
e2
e4
f6
0e
f1
17
1b
03
09
05
1a
05
05
f6
fb
ec
f7
f0
f6
f5
df
00
fd
01
03
fa
03
04
08
f2
0b
03
10
12
fd
06
03
0e
1d
1b
28
07
1c
25
02
00
13
03
0e
fd
07
f0
11
f0
e9
f0
fa
0d
fc
f2
e6
fe
f5
ed
ec
f5
fe
e5
ec
fc
d4
e4
fb
fc
df
ea
fb
09
f4
ee
04
15
fe
f7
0d
1e
fb
11
1b
0c
ff
03
fb
09
fd
06
ff
f4
18
07
0c
10
0b
fe
fd
f9
f3
f9
03
20
fa
01
ff
00
22
ff
00
03
15
06
fe
1d
0c
f7
fd
10
09
f1
f2
f4
03
e8
0d
f9
fe
fc
08
f0
f0
ea
0c
f9
fc
12
fb
fc
fe
15
0e
02
1f
1b
12
1e
07
0b
12
24
14
27
01
24
fd
09
21
04
01
14
fc
0a
fd
0d
f6
f9
f5
ff
18
0f
f1
0a
12
13
ff
02
0c
11
fd
f8
0d
f6
0c
0c
00
e9
0c
05
00
00
06
0a
ef
ed
0a
f8
ee
14
f1
fb
f6
16
00
fa
16
18
0f
15
ef
ef
0f
fe
0b
16
fe
f8
18
fa
f8
16
05
fd
10
fe
0c
fb
08
1e
11
0a
1d
17
17
14
00
f2
f6
f3
03
0b
0a
05
f4
fd
ed
f3
d9
fc
f1
e6
df
ec
e7
dd
df
e5
f5
e4
00
eb
04
fa
fb
ff
fe
09
fe
f8
02
f3
07
ff
05
f5
f7
eb
e9
f3
fb
e7
ff
e6
e9
fe
e9
fa
ec
fc
f3
e7
e3
ff
f8
f0
f0
eb
e5
fa
e3
f6
06
01
04
fd
ee
07
0e
07
0f
ef
ee
fd
07
0d
f8
f4
09
f8
25
0e
1e
26
2d
15
1d
0f
f6
01
f7
f8
ef
06
e2
e5
ea
02
eb
fa
fb
03
eb
f3
e3
eb
d8
d6
ec
d3
ec
ec
e1
e0
c1
c8
c0
b9
d6
d2
df
c4
bc
ba
cf
c3
d6
e0
ea
d9
d3
db
f8
f5
f7
e6
0c
13
0c
09
07
13
15
1e
17
2e
27
1f
07
10
22
0d
20
1f
0c
1e
16
2a
14
2b
2c
11
1a
11
26
1f
13
1e
fe
08
11
f7
1d
0b
1e
04
0a
02
ff
ff
16
19
0c
11
0d
03
f3
08
fb
0b
f5
01
fb
f0
f1
19
04
f1
06
01
13
15
f9
f1
f0
f7
f0
0e
f2
05
04
ff
04
0b
02
03
e8
fa
fe
11
0b
15
18
ff
0e
22
18
1e
1b
0b
17
02
24
10
1f
fe
f9
10
0a
04
18
00
20
fa
15
05
19
2c
16
1f
13
12
0b
29
1c
23
0a
06
02
05
0b
07
0f
f5
0f
ec
dc
fd
db
e8
e1
de
e0
cb
f4
d4
ef
d6
e1
e8
e3
e5
df
e6
f6
f5
fb
07
03
f5
05
16
1a
20
18
26
0a
06
12
16
25
07
02
0d
0f
f4
fa
ef
02
fb
e1
e3
f1
e7
da
e1
d1
e0
de
e0
de
d7
ec
d1
e3
e1
d6
c9
c8
e3
e8
f3
e2
03
0f
fd
fd
f8
e6
00
f3
fa
fc
e6
f1
05
e4
0b
07
f9
f2
10
12
00
16
15
26
1d
16
fb
23
20
06
09
07
03
0d
00
e5
fb
e5
f6
f8
e4
fd
f1
e8
07
06
0b
ef
ef
ef
11
10
f7
0d
07
f8
00
f0
f5
03
fc
e8
fd
f4
ec
e9
01
f3
f9
0f
0d
03
12
19
07
05
11
11
13
1a
0a
13
fe
08
1b
f6
fd
f8
1b
06
1a
f8
fe
0f
ea
e8
ed
fb
e6
fd
0b
f4
f5
e6
f6
fd
01
f8
f3
f6
13
f9
08
04
00
09
1a
19
02
00
f4
f2
f3
01
ee
d3
dd
ce
f4
e2
dc
ec
d1
e2
ef
01
08
fa
e9
07
fb
1e
07
09
0c
25
19
00
12
14
06
11
f5
fb
12
16
08
f5
08
f3
ef
f3
00
08
06
1a
05
1b
f8
fd
0b
17
10
1e
fe
1e
10
0d
06
f7
10
08
10
10
ed
13
f9
ef
0e
f8
00
01
f3
0c
08
12
fa
f1
05
fa
ff
ee
11
f3
fc
fd
f2
08
e9
f6
eb
03
e7
08
e2
de
f3
dc
01
01
e2
fc
e2
f0
dc
eb
e8
f4
f9
e0
f9
09
0c
05
fe
0d
0c
f5
02
ee
02
01
f0
02
0b
e9
e7
ef
fe
e6
f9
10
ef
fd
01
14
02
1f
08
fc
ee
02
e2
e3
fe
d8
f0
f5
e9
ff
d9
ed
e7
fd
0b
e3
ef
eb
ef
04
fe
f0
f4
f4
06
f3
f4
f5
18
17
fb
0c
02
fc
10
f6
04
14
ee
12
0e
07
fb
f4
ef
eb
e4
f5
fc
e2
0c
e7
f8
ee
09
ec
fc
ff
02
eb
f0
fd
ea
f9
f2
10
0f
fa
24
18
03
0c
1c
ff
10
0f
f7
f7
fb
eb
0c
fd
ef
f2
f3
f9
03
e2
ee
ff
ed
f8
f4
08
f1
10
07
ed
f7
f9
e4
e6
09
05
e5
f2
f7
fd
03
00
05
e5
ef
fe
e4
e1
04
09
04
0a
08
03
fd
06
fd
17
18
00
10
01
18
f4
09
04
13
06
06
eb
f3
12
fb
05
ea
07
f2
fb
10
0b
eb
f6
0e
00
16
10
06
fd
0d
1d
1c
00
02
0d
f1
04
05
12
f8
0e
0c
ea
fa
03
f5
ed
ff
05
eb
ed
f0
f1
17
fc
05
04
ff
1c
04
1a
04
23
13
0a
0d
17
02
06
fb
fd
15
08
fe
09
14
1c
fc
11
0c
ff
0f
0e
18
1e
17
10
fa
f9
14
fc
08
18
11
02
06
02
02
12
f1
0f
fc
0e
f0
06
eb
e6
06
ff
0f
04
f5
f3
15
03
fd
fb
ff
06
ff
27
15
1b
0a
15
21
0b
22
c8
ca
c6
c5
e7
d3
d7
dc
d8
d9
dd
03
f2
eb
f4
0a
ee
08
00
f7
1c
1d
26
23
1e
24
0d
31
10
2d
0f
0a
22
27
11
1a
ff
0e
20
1f
01
0e
17
09
03
eb
02
00
ee
04
eb
0f
f9
09
f4
f1
0d
0b
15
06
f7
f4
ed
04
17
fb
fe
11
15
07
03
16
14
f3
f2
fc
0a
f4
f9
04
fe
11
10
11
0c
f4
ef
f0
fc
0e
f6
0d
07
e2
ff
eb
dd
f9
e9
dc
e1
00
ed
04
ed
0c
f3
0f
06
ef
0b
0c
f4
f5
0a
16
1c
04
f5
12
09
07
13
06
15
12
04
0d
04
e7
0f
fc
f9
0e
0f
ec
06
f2
f9
03
f6
f6
0a
f9
07
14
05
05
12
f5
fd
e9
f4
fb
11
0a
fa
f9
05
f7
fe
07
fa
11
08
fd
fa
01
09
04
f8
05
fe
ef
ef
02
15
fc
13
00
14
03
00
10
15
fa
09
0f
0e
1e
f6
1b
14
f3
00
0f
f6
1b
ff
0e
0a
fd
f1
07
f3
ff
0a
fe
13
f4
f7
15
ff
1d
09
0b
25
0f
00
07
16
1d
1f
03
0c
17
fc
05
f8
04
16
12
f3
0b
16
ff
0c
f2
13
03
1b
18
fc
fd
f4
f0
ee
0a
0b
eb
05
ec
f5
fd
f8
d2
b5
ac
b1
ce
d4
e8
f1
05
0d
f6
ff
0c
2d
3d
23
37
35
3b
39
31
38
1e
35
1b
04
1e
1f
19
09
0a
03
f0
f4
f3
e4
e6
e5
eb
e2
ff
f3
09
ed
06
fc
13
03
06
16
0b
27
19
26
13
11
02
1a
18
1c
0e
07
03
0c
18
03
ee
ed
0a
15
f7
10
19
1c
19
ff
1d
10
03
fb
08
22
26
1f
00
1b
1a
21
00
20
0a
17
fb
0b
01
08
0c
06
18
22
12
03
07
05
0b
07
14
07
f0
fb
f7
08
13
10
04
f1
ff
05
03
10
10
01
01
0d
10
0f
fc
fd
24
26
ff
02
0d
03
fa
15
ff
13
fd
09
03
04
fe
f4
15
ff
f4
12
00
f8
02
fa
00
0c
02
09
06
f1
f8
f7
12
f5
0e
f9
12
0a
0e
f2
02
16
f1
fd
eb
ee
11
f5
03
ed
ef
12
03
f8
f7
11
09
08
0c
f7
f8
f4
e8
dc
00
fe
ee
e4
fe
e2
ed
e8
e4
e2
09
0a
04
f3
f4
0a
0e
13
07
f5
f4
10
eb
e7
f6
f3
ff
e3
eb
dc
fb
ee
dd
e1
f5
f9
d6
e0
f4
fc
ec
09
07
fd
fd
12
1c
21
1f
25
25
01
01
ef
0b
dd
dd
cb
d1
c3
cf
aa
c3
aa
b3
ef
01
0c
00
fe
f2
e3
ff
09
08
0f
f2
0b
0e
12
f7
15
f3
fd
14
1b
18
06
fc
1a
03
1d
0e
18
13
0c
05
08
05
f7
0f
0f
f0
fa
f2
03
f6
13
f1
fc
16
04
13
f8
17
f7
fe
f6
1e
13
03
0d
09
f9
f8
0d
11
fe
0f
f6
01
f9
04
f6
dd
f7
dd
d5
d5
fc
ed
f3
e5
e0
fc
e8
03
01
0a
19
fb
19
08
0c
05
07
13
13
f3
05
fe
09
f8
09
05
e1
06
f8
f8
f1
f5
10
07
1c
16
16
2a
10
18
2e
29
31
2a
08
20
13
1c
04
11
fd
09
f1
03
01
01
e1
dc
eb
d5
d8
ea
fe
dd
ea
df
ee
04
e2
02
00
f7
03
00
fd
f9
e8
e2
05
ef
e3
ef
e6
07
04
e0
fb
e7
03
ef
ea
f3
d8
e1
fd
ff
ea
00
e0
e3
f3
e7
11
ff
f9
0e
07
1a
1b
00
16
0d
1c
02
11
16
fd
14
04
12
00
03
f2
02
15
0b
f3
f2
13
f8
f1
f9
0c
04
f6
0d
17
06
ef
f9
e8
0f
ef
fc
f0
fa
eb
e9
ec
05
e6
0f
07
0b
14
04
fd
f1
fa
fa
f7
03
0c
0d
11
ff
1a
f9
13
02
1b
fc
19
f4
f5
01
f3
04
f3
00
ff
fa
d7
cc
ea
dc
da
e4
f8
e6
e0
f2
eb
11
f6
04
f5
02
fe
00
17
0e
fb
13
fb
1a
f7
f5
1f
16
0b
fb
19
05
14
12
1c
0a
24
00
04
23
fb
08
14
15
04
fa
1e
fc
21
0e
00
11
0e
fd
23
05
0d
06
16
03
22
08
22
0b
06
f4
12
03
f0
0a
03
f3
f3
fc
0c
0b
f8
f8
1b
10
18
fb
1b
25
12
24
17
13
1a
09
0d
0a
13
0e
00
14
fc
15
0a
06
07
0e
0c
21
20
25
1d
12
0b
0b
20
10
fc
0f
08
fc
fa
07
10
12
f6
f2
f3
02
01
0c
f0
16
fc
ed
f4
06
fc
11
01
0f
14
fa
04
01
f9
ef
f8
0d
fe
f0
08
0b
08
16
f5
fe
06
fa
10
03
1f
02
f9
18
1a
13
f0
f5
08
0f
08
e5
ee
f2
fd
e1
f8
eb
f7
ec
05
ef
ea
f1
ec
e6
08
ed
f2
f2
fe
0a
f9
fe
f5
0b
f6
07
f0
ee
e8
e6
ff
df
f8
07
e5
00
fe
fa
10
ee
0b
f5
0e
05
07
f3
09
f9
f5
13
05
00
00
13
ff
ef
10
ec
04
04
f2
d7
e2
d3
ce
cf
d0
c6
cc
c5
c4
c6
bf
d4
d8
d3
ef
e6
ec
ec
d8
ef
f4
e0
07
ee
fe
f1
e6
0b
ed
13
0d
17
fa
f4
16
fd
04
1b
fd
fe
13
1a
07
06
17
fe
1a
16
0d
00
1f
06
01
07
10
f7
11
0b
13
0c
01
09
07
1f
fa
11
1e
0f
fc
0b
0c
0b
01
eb
00
f4
06
0c
ef
f6
07
f2
f8
ed
fc
ef
e7
e9
06
fb
03
0f
06
15
09
ef
10
f0
0e
03
f1
03
1d
01
03
1b
15
1a
06
0c
05
16
14
02
fe
10
05
05
f9
e9
07
0c
0a
e7
ee
e9
0e
0e
f4
05
12
15
fc
00
f9
f7
04
03
16
18
01
0d
02
0a
eb
f8
f3
0a
00
fe
01
e8
e7
ec
f7
f2
08
14
19
15
11
0a
ff
0f
18
0f
09
09
f7
0a
0c
1b
0f
1a
07
17
f9
0c
1a
0c
fa
0f
f1
10
fa
16
09
0d
fc
02
f8
13
08
f0
f0
ff
e4
f2
df
e6
f7
e5
f4
db
fc
d9
db
dd
e2
f5
e6
02
f5
04
01
0b
00
f1
04
04
fd
f7
f7
f9
f5
ec
fe
dc
fb
dd
f9
da
db
ec
fd
e8
e8
f6
f8
eb
f6
0d
f8
e5
e6
08
ed
e9
ff
f9
14
ee
0f
07
05
09
0e
12
f2
17
0a
07
fb
1a
fb
0b
12
f9
1f
0d
11
fb
18
01
0d
17
06
23
fb
0f
0e
f5
cf
c4
cb
f6
e9
e9
e3
0a
ee
09
e4
ff
ef
05
f4
ea
e7
e7
ff
ec
d6
eb
ea
fd
db
ed
ff
f3
f1
df
e2
ee
e4
00
ff
e8
10
fe
0b
f6
11
15
f0
fd
f8
0b
00
08
1c
20
28
2e
23
18
22
33
31
07
2e
12
0f
00
1c
15
1b
fe
15
f0
12
10
ec
ed
01
04
11
07
ef
06
ec
f7
08
0c
f4
04
f9
f8
0c
0b
12
1a
f8
00
06
fb
1f
1e
f4
f4
fa
fd
04
eb
fd
ec
11
ee
fe
0f
e8
fa
0c
f9
e9
f0
e8
f0
ee
08
0c
fa
10
f2
06
ea
08
e3
04
f3
e0
05
f3
df
f4
e0
de
ef
ec
e2
02
fa
ec
04
08
0f
fc
f9
02
ff
0c
f6
0b
14
08
10
f2
08
ed
fd
f9
11
f5
0c
06
f9
08
0f
ef
e9
02
0c
05
18
02
0b
f9
1a
fe
08
fc
19
fc
f4
f9
02
f0
fd
f6
08
fe
fa
e5
fb
fb
ec
ed
ea
ed
df
fa
04
fa
f9
04
01
f6
fe
00
f4
ea
e2
e8
f4
dd
dc
ec
f6
00
05
e3
f7
e9
fe
ec
ec
03
13
f2
f4
0c
1f
05
20
21
04
12
1b
fc
18
1a
11
fc
0f
04
17
19
0f
30
10
2f
31
39
2e
38
24
36
42
e4
ed
05
fc
ff
f7
05
fd
1a
12
0b
0f
fd
00
13
18
01
f3
06
14
06
f0
07
f8
0b
14
0d
ee
05
ff
04
f4
ed
f6
01
0c
ed
0c
15
ef
f1
05
f4
04
ec
fe
12
0f
02
07
10
ec
0d
05
ea
09
00
eb
f3
00
00
03
0e
10
05
fe
fb
0e
fa
e9
ec
df
e4
07
e0
e9
d8
f8
e2
02
fc
e5
e7
ef
ee
e3
fa
eb
ed
02
08
e9
02
0f
06
ed
e7
f9
09
f6
e2
0a
e4
fa
e7
f9
f1
f5
f7
0e
f6
fb
f5
f9
04
f8
02
09
fd
11
0f
10
1f
fb
04
fd
f3
fc
06
04
fb
0c
0b
0c
0b
fc
fb
0d
01
12
01
f1
f4
0f
13
0d
18
1b
fe
0e
0b
04
f4
f4
0f
fc
fe
fa
fd
10
f7
10
04
11
fa
0d
0a
17
13
07
18
f4
fe
0e
11
f6
fe
15
f1
0d
19
fb
01
0a
0f
03
f3
07
0c
19
11
1f
08
0d
18
25
1d
29
1c
1f
16
23
1f
19
f7
04
fc
ff
0f
ed
ef
ee
f7
e8
f8
e1
e8
00
02
ee
f5
f5
e8
f3
06
fb
10
eb
ed
ea
f1
03
0d
ed
ef
f8
0e
0c
00
16
0b
17
04
f7
05
0d
0e
05
05
08
ff
09
f5
fd
0d
09
f0
d9
e3
e1
dc
e7
ef
f0
f2
e5
f3
fb
06
05
e8
ec
0e
0c
0c
f7
15
ee
f4
07
0e
ed
05
01
fe
ec
f0
f9
fb
02
ec
04
f8
e0
d8
fd
f0
ed
e8
fa
eb
e5
07
f0
0a
f3
02
ff
11
11
1f
0a
0b
30
0e
24
08
1c
12
05
09
07
00
0b
eb
fe
06
e1
de
f5
e8
ef
db
fe
ef
f0
e8
f6
ed
e4
f1
e4
f4
d8
e4
e1
fb
e6
09
01
0d
f5
f4
05
fe
05
21
1d
0d
23
09
0d
25
26
16
0e
20
2f
2f
28
03
1f
11
f8
07
ee
05
f2
ed
fb
08
05
eb
03
ff
e8
f1
f1
e4
e2
e7
0a
f1
fa
e6
f6
03
fb
fb
fd
0c
ef
ed
ec
0b
f6
f9
00
10
02
06
fb
0d
f7
12
14
ef
fc
00
f7
03
fc
14
01
f7
f8
f0
f7
08
0b
fb
05
11
09
0a
f8
1b
00
07
03
10
f4
0a
f4
15
fa
06
03
f9
fe
15
f5
fa
0b
0b
03
ea
fa
e7
f2
f9
f3
04
fb
ff
02
01
e7
00
0e
05
0b
f3
fb
ed
ed
f1
0d
f5
0a
11
0b
fb
13
0d
0b
00
17
11
03
12
f8
04
f2
f0
14
0c
f8
f1
f3
f5
f5
08
0a
fe
e5
e8
f1
e1
00
e0
00
21
31
29
1a
2a
12
16
03
f4
f5
ee
0d
06
01
0f
ed
00
fc
e9
e8
12
0f
00
f0
00
0d
fb
00
f5
12
f4
f6
fc
02
09
15
12
0a
0e
1c
04
02
1e
22
0f
0f
20
0c
26
fe
12
1c
f5
02
17
13
f3
11
11
06
f7
ef
f8
04
02
01
ee
0f
00
02
ec
f8
fa
0f
11
f1
f0
f1
f7
ec
11
ee
0d
05
f5
f3
00
ea
f8
05
ef
19
fa
06
fb
fc
fc
07
f4
07
05
05
e3
e8
00
03
f8
dd
f6
00
f2
02
e7
06
00
f7
11
ee
17
0a
0c
05
0a
16
08
07
0d
f6
f9
04
0d
f3
f6
fe
e6
e3
f6
f9
e6
0e
02
ef
0f
07
04
06
f6
04
17
fb
10
13
1a
f2
08
09
fb
0e
0a
15
f3
0a
f5
0c
16
f6
1a
17
08
1e
0b
f9
fa
16
f6
ff
16
0f
16
0a
01
0a
f5
0c
f4
f9
f9
f4
00
fb
fd
0f
12
f8
18
13
fe
15
fd
19
03
14
15
11
09
02
ed
fc
0a
0f
02
ed
fa
f3
fe
f4
02
07
16
05
01
14
2b
22
26
05
1b
15
1d
26
28
19
1a
03
02
eb
eb
e4
ff
f9
da
f9
d1
e6
ce
f2
d6
d2
eb
de
f4
fd
fe
f8
fb
f6
e6
eb
09
02
f7
1e
07
27
2c
1e
0a
25
20
15
12
0f
1f
23
1b
21
08
04
1c
f1
e8
0c
00
e9
f0
de
de
df
d5
dc
d3
c9
e7
ce
c9
e6
f3
ee
db
fb
ea
f0
04
01
f5
10
00
04
1f
0e
18
31
37
2b
39
27
23
40
36
38
1b
2c
2e
19
1f
f7
0c
f7
09
f7
fd
da
de
e9
c8
d1
c9
cd
ea
e0
fa
f2
fc
fc
ea
00
fa
00
1c
fb
fd
06
01
0e
14
08
03
0b
0d
ff
f0
eb
14
07
14
f8
09
f7
f8
f9
19
14
f7
f5
0c
00
07
0a
f4
0d
09
fb
f6
17
f9
03
1a
ff
01
fc
15
0d
07
0a
06
f9
f9
eb
ed
f5
f1
f9
ff
06
0a
f3
fe
e5
04
f2
e9
eb
ed
f7
0e
f5
06
06
11
01
15
fd
17
f4
fa
0f
0a
14
0e
ee
10
f8
f9
f2
f7
e5
fa
09
f5
0a
f0
03
fc
f3
10
fd
fc
f9
fa
0d
f8
08
01
06
e6
e2
ec
ec
04
04
e8
e3
ed
f6
f6
f5
05
f9
0a
02
fd
14
07
09
07
19
08
1f
1a
0d
08
12
f1
fc
f9
fb
ee
ea
fb
ea
da
e5
eb
d9
f4
d1
f3
ea
d6
d0
f1
e9
f8
01
f1
0a
0d
09
2c
38
30
60
