2c
29
22
21
19
18
13
13
12
0a
0f
08
0a
07
08
05
05
ff
fd
fd
f7
f7
f5
f4
f0
f0
f0
f0
f3
ef
f8
f3
fb
fd
01
05
08
0d
0d
0d
0e
0c
0f
11
0d
0c
10
0e
14
0f
10
14
16
1d
20
21
20
24
24
1f
1e
18
16
0e
0a
03
00
f6
f2
ef
f1
eb
ec
e8
e7
e9
eb
ed
ef
ef
ec
ed
ef
ea
eb
e7
e8
e4
e3
e6
e7
e7
ec
ef
f0
f4
fd
fd
02
05
0a
0f
11
10
12
0f
0e
0f
0b
0a
0d
08
08
02
02
02
04
02
04
05
08
08
09
08
08
06
06
03
06
00
01
fc
f7
f8
f3
f2
f0
f0
f5
f5
f9
f7
fe
fd
01
03
06
06
06
00
03
ff
fe
fc
ff
f7
fa
f8
f7
f4
f7
f5
f4
f2
f5
f5
f4
f8
f5
f3
f3
f3
f5
f0
ef
ef
ee
f0
ef
eb
f0
f0
f1
f0
f5
f7
fb
fc
fd
03
05
07
0d
0f
0f
0f
11
11
14
12
0e
0e
12
0e
0c
07
05
00
02
ff
01
fe
f8
f9
fc
ff
fe
fe
00
ff
01
06
05
07
04
09
0a
08
03
00
00
03
00
00
fe
fc
fb
f7
f7
f6
fc
f9
f8
fb
fb
fa
fb
fd
fb
ff
fa
fa
fc
fc
ff
01
0a
05
09
0a
09
05
08
03
04
05
fe
fe
fd
f9
fe
f5
fb
fa
fb
f8
f7
f7
fa
f5
f7
f8
fa
f9
fc
fe
fc
04
08
0a
08
0b
0b
0d
10
0c
0d
0d
0b
08
06
04
00
fd
f9
fc
f6
f8
f4
f4
f7
f5
f0
f3
f2
ee
ec
ec
e7
e6
e1
e3
e6
e6
e5
e8
ed
f0
f5
fe
05
0b
0c
0f
16
12
17
17
12
11
0f
0c
09
06
04
04
07
02
02
05
06
07
09
08
04
09
0a
07
05
08
03
00
fe
fd
fa
f8
f5
f1
ed
ed
f0
ed
e8
e9
e6
e7
e9
ea
ed
ea
f0
f0
f6
fc
fc
01
ff
02
06
05
05
03
06
03
00
fa
f7
f7
f5
f0
f1
f3
f1
f4
f6
f7
fb
ff
03
09
0b
0c
12
12
14
10
0d
0e
08
06
05
03
00
04
04
03
04
04
08
0d
11
11
12
18
14
1a
15
14
12
12
0c
0b
08
06
02
fb
f8
fc
f9
f7
f8
f4
f5
fa
fb
fc
fb
ff
fd
fb
fc
fb
fa
f5
f8
f2
ef
ef
f2
f1
f1
f0
f2
f0
f2
f9
fa
fc
02
07
0a
0c
0d
10
11
10
15
13
17
16
15
12
12
13
12
13
13
12
0c
09
07
03
00
fe
fb
f7
f1
f1
f3
f4
f9
fb
27
19
10
0c
0c
0a
0c
0b
09
0a
07
0a
04
ff
01
ff
02
02
05
02
05
09
0a
07
07
0c
0a
10
0a
0f
0f
10
12
0b
0c
0b
09
01
fd
fe
f7
f8
f2
ee
f1
f0
ee
f0
ee
f0
f0
ee
ee
ee
f0
f2
f0
f0
f0
ee
ee
ef
ed
e8
ea
ee
ec
f1
f9
fa
00
0a
0d
11
11
15
17
1a
18
18
15
14
12
10
10
0b
0f
0c
08
0b
04
05
04
00
ff
00
02
01
fd
fa
f8
fd
fb
f8
f7
f2
f4
f5
f0
ef
ea
e9
eb
eb
ed
f0
ee
f4
f3
f5
f7
fb
f7
f6
f4
f5
f4
f5
f7
f4
fb
fb
f8
fb
ff
00
01
02
06
04
0a
08
0a
0d
0b
0b
0f
13
0f
12
10
13
11
11
11
0e
0f
0b
0d
0d
10
0e
0c
11
0f
0f
0d
10
11
0e
0a
0b
08
0a
03
01
fe
fe
fe
ff
fb
fe
f8
f9
fb
fa
f5
fb
fc
fb
fb
fb
02
ff
03
01
fc
fe
f7
f9
f3
ee
f0
ed
eb
e7
e9
e9
ea
ef
f1
f4
f2
f7
f9
f7
f8
fc
01
fe
00
07
0a
0b
07
07
0c
0b
09
08
07
07
01
02
07
04
06
0e
0d
10
10
11
16
12
12
10
0b
0c
05
04
03
ff
00
06
0b
0f
25
28
21
1e
18
12
10
06
01
fb
f9
f4
f5
f7
ff
06
05
0c
12
14
0e
0e
01
01
f6
ef
e9
dd
de
d7
d7
de
de
ea
e8
f2
f6
f9
fe
05
04
fe
f4
f7
f2
ef
e9
e9
ea
f1
f7
00
03
0a
0d
0f
0a
09
06
f7
f2
eb
e9
e9
e9
f3
00
18
2b
44
5d
6d
78
6f
65
51
3d
27
12
f8
e5
d6
c7
bd
ba
be
c1
cf
d8
e2
eb
f0
f0
ef
f3
ef
ee
f0
f0
ef
ef
ef
f4
fa
fd
00
04
06
0a
0a
0e
0c
0d
0c
09
07
05
03
00
fa
f6
f7
f6
f4
f6
f7
fb
fc
fd
ff
02
04
09
0b
0e
0c
0d
0d
08
09
09
07
06
0b
0a
08
09
06
07
08
06
07
05
08
06
06
0a
05
06
09
06
07
0a
06
05
06
06
04
03
05
05
03
02
05
04
04
03
07
03
02
01
04
00
00
03
01
03
ff
00
ff
06
05
01
04
03
05
05
07
03
01
ff
fd
fd
fc
f8
f5
f9
f5
f4
f9
fa
fd
fb
fc
02
01
fd
03
00
03
02
01
ff
fc
f5
ef
f2
eb
e4
e4
df
de
e1
df
e0
e4
e4
e7
ec
eb
f0
ef
f3
ef
ee
ee
f1
f1
ef
ee
ec
eb
e8
e9
e5
e7
fa
fb
fe
fd
01
00
04
ff
ff
fd
ff
00
ff
f9
fb
fb
fa
ff
ff
00
fe
00
01
fe
fd
fd
00
fd
fb
fd
03
02
02
01
ff
fd
fc
00
01
fe
f9
fc
fa
fe
00
01
04
05
04
06
04
05
02
03
00
ff
fe
fc
fb
f9
fb
ff
ff
00
00
fe
06
07
05
07
09
07
02
07
04
02
fd
01
fd
01
fd
00
01
02
01
04
03
03
06
0b
09
0b
09
0c
09
06
01
fc
fd
f8
fa
f6
fa
fb
fc
01
ff
07
04
03
09
05
05
07
fd
fd
fe
fa
fb
f9
fd
fe
00
00
06
07
03
06
02
ff
f8
f7
f8
f7
f1
f9
f9
fd
02
06
04
09
06
06
04
02
02
fc
f9
f7
f8
f7
fa
fc
00
00
03
06
05
05
0a
08
06
06
04
03
fe
00
fd
f7
f8
f7
f7
fb
fc
fc
fb
fb
fc
ff
f9
fa
ff
fc
01
01
05
00
07
09
08
0d
0d
0b
0d
07
05
09
06
02
05
00
05
04
02
fe
01
00
ff
fe
fd
f9
fa
fb
fc
fe
fa
fe
ff
01
06
03
00
02
00
00
ff
fa
fb
f9
f7
fa
f6
fc
fb
f8
ff
04
02
05
0a
09
06
06
00
fb
f9
f9
f6
f7
f3
f9
fd
04
0c
18
fe
fc
f9
f5
f4
f6
f6
f1
f5
f7
f9
fa
fe
fd
03
07
05
0a
11
13
12
15
17
19
15
19
18
13
13
11
0f
0e
0a
07
07
ff
fb
fa
f6
f7
f4
f5
f5
f4
f3
f5
fa
fc
fa
02
01
08
0d
11
10
16
1b
1a
1f
1a
1d
1b
1d
1c
19
16
13
14
0e
0e
0c
08
09
06
08
04
00
03
ff
fb
f9
f7
f1
f2
f0
ea
eb
ea
ee
ee
ef
f5
f5
f8
00
05
0a
0a
0f
10
10
0a
0e
05
07
01
f9
f8
f4
ee
ee
ee
f1
ed
f1
f1
f2
f5
f5
f8
fa
fc
ff
02
00
02
02
02
ff
00
fc
fb
f7
f1
ed
e9
e1
dd
d6
d1
cb
c9
c1
bd
bf
bc
c1
c5
c9
cf
db
e1
e9
f3
f6
01
09
0f
10
18
18
1c
1d
1b
1b
1c
1e
1c
16
17
15
12
13
14
10
0b
0e
0a
0a
02
ff
ff
fb
f8
f4
f3
f2
ee
ee
ef
ed
ef
ee
f2
f0
f7
f7
fa
fb
fb
fd
ff
fc
fd
fd
fc
ff
00
fd
00
fc
fd
fe
00
00
01
02
06
0a
0b
0c
0b
0c
09
0c
0b
0d
0f
0f
10
0d
10
11
0f
10
12
12
12
12
11
14
12
15
17
16
14
17
1a
1d
1e
24
26
25
2b
2d
2f
4c
44
3f
39
33
32
2a
26
1f
1a
18
16
10
0f
0f
0f
10
11
10
0d
0a
07
04
01
00
fc
f9
f0
eb
e5
e4
e3
e0
de
dd
df
dc
dc
e1
e2
e4
e9
ea
ea
eb
ee
ec
f2
f2
f6
f3
f3
f4
f5
f1
f3
f0
ec
ee
e9
e7
e4
e2
e4
dd
e0
da
dc
dc
e0
dd
e1
e3
e7
e8
eb
eb
ee
f5
f3
f5
f6
fc
f9
f8
fb
fe
00
03
01
05
03
0a
0d
11
10
14
19
18
1a
1b
1f
22
1f
1d
1e
18
19
18
14
17
10
11
0e
0e
0c
0e
09
0c
06
0a
04
06
02
01
ff
ff
fc
f7
f7
f3
f7
f1
ee
ea
ea
e4
e5
e2
e0
dd
d8
dd
da
dc
df
e4
ea
ee
f5
f8
02
08
12
16
1c
24
2a
27
28
2b
2b
26
21
1c
19
15
0b
08
02
fd
f6
f2
f3
f0
f0
ec
ed
ee
eb
ee
ee
f0
ec
ef
f0
eb
e9
ea
ed
ed
e9
ed
ec
ed
f3
f3
f4
f6
f6
f6
f4
f4
f7
f6
f5
f4
f5
f7
f8
fa
fe
ff
06
0b
11
11
1a
1c
1e
22
1e
21
21
1a
14
13
11
0a
08
05
05
02
01
00
fd
fc
ff
04
03
04
04
08
09
0f
0e
0e
15
18
1b
21
25
25
29
2d
2f
d5
e4
ec
f2
f9
fe
08
09
08
0a
0f
0d
0c
09
08
07
08
02
04
03
04
0a
0c
13
12
16
18
1f
1d
21
20
1e
1e
1a
19
13
12
15
13
0f
11
10
15
15
16
16
18
12
12
12
10
09
05
06
04
00
00
fa
fc
fb
fe
01
02
04
01
02
00
06
04
ff
00
fe
f6
f7
f1
ee
eb
e8
e3
e4
e2
e3
e1
e6
e8
f0
f7
fc
01
06
0e
11
14
13
13
11
12
0c
0c
08
ff
fd
f9
f7
f9
f7
fa
f7
fb
fa
fc
ff
00
ff
f9
fa
f6
f6
f3
f6
f9
f8
fb
03
06
0a
10
0f
11
10
0f
0c
09
00
f9
f1
ec
e7
df
e0
df
e7
e8
f0
fc
fe
0b
0e
15
12
15
13
10
0d
01
fb
f9
ed
e4
e2
dd
dc
db
de
de
e6
ea
ee
f4
f9
fc
01
04
03
06
09
05
05
03
ff
fb
f8
f7
f5
f0
f0
f3
f4
f4
f7
fb
fc
fd
fe
fe
01
03
02
01
00
fe
fa
f6
f6
f6
f9
f6
fa
fc
fe
03
03
06
07
0b
0e
0d
0e
0f
0b
08
06
02
fb
fc
f6
f3
f4
f3
f1
f4
f2
f9
fc
fd
03
09
0b
10
10
0c
0a
09
05
02
ff
fe
fe
fd
fc
fe
05
08
0e
14
1b
fd
f1
f1
f1
ee
eb
e7
eb
e9
ed
ea
f0
f4
f7
fa
fb
01
fb
fd
f9
fa
f8
f6
f1
ed
f0
ef
ef
f0
f3
fc
02
06
0f
15
16
1d
21
19
17
14
05
ff
f5
ea
e4
da
d6
d9
d8
df
e6
f8
02
0d
17
21
2c
2e
35
31
2e
2c
27
22
1c
18
0f
0d
0b
06
05
04
01
02
02
01
ff
01
fc
ff
fc
fb
f7
f4
f7
f5
f6
f9
f4
f8
f6
fa
f7
fb
fd
ff
03
03
04
0c
0d
0f
0f
13
13
18
16
14
10
09
05
01
fb
f9
f4
f3
ef
ea
ec
f1
f1
f3
f3
f4
f7
fb
f9
fc
fa
f7
f8
f5
f4
f2
f2
f6
f8
f8
fd
fa
fe
01
05
06
06
09
05
08
07
07
08
07
03
02
03
03
05
04
06
05
03
02
03
ff
01
fa
fd
f7
f7
f8
fa
fa
fb
fc
fe
fd
ff
00
02
01
fb
fd
fa
f9
f4
f6
f1
f4
f2
ed
e9
eb
eb
ef
ed
f1
ee
f0
f0
f6
f6
f9
fd
03
07
11
18
1b
20
26
25
27
27
26
1e
1c
11
0a
02
fb
f7
f1
ee
ec
ec
ee
ee
f5
fa
08
0a
10
16
1c
24
29
2b
2d
27
21
1d
18
12
04
fd
fd
f9
fc
fc
03
0b
11
13
16
14
fa
f9
fa
f8
fa
fc
f9
f7
f7
f6
f5
f2
f1
f3
f6
f5
f8
f9
00
02
05
05
05
09
06
06
05
02
ff
00
ff
f7
f8
f7
f8
f7
fe
fc
fb
fd
02
04
03
05
06
07
08
0c
0e
0f
0e
10
13
11
10
10
0e
08
06
02
03
ff
fb
f9
f2
f6
f5
f1
f2
f4
f6
f8
f9
ff
00
04
03
04
02
01
00
02
00
fa
fc
f8
f8
fb
fb
fa
fa
fd
05
06
06
08
09
0d
0d
10
0e
09
0b
03
fd
fe
f8
f8
f8
f1
ee
f1
ed
f3
f2
f7
f4
f6
f9
fa
fd
ff
fc
fc
fc
fc
fe
fc
01
08
07
0e
0d
0e
12
0c
0b
08
04
fd
fd
f7
f7
f7
f3
f4
f6
fb
fe
02
01
05
0a
0b
0a
04
06
ff
fd
f9
f5
f1
f4
f0
f4
f0
f5
f8
fd
04
00
03
09
07
06
02
02
ff
ff
f9
f9
f8
f8
fd
fd
fe
fe
04
04
03
03
03
04
02
02
fd
ff
fb
f9
fa
f9
fa
fa
fd
00
02
03
09
05
07
08
04
06
07
07
04
06
fe
ff
04
00
05
03
01
06
04
01
01
04
03
06
06
08
08
08
05
09
07
04
08
07
08
07
0a
08
10
0f
0b
0c
07
07
01
ff
fe
fc
f8
f8
f9
f8
f6
f4
f6
f5
fa
f8
f8
f8
fa
f8
fc
fa
f6
f7
f6
f5
f7
f8
f6
fa
f8
f8
f8
f9
f9
fa
f5
f4
f4
f4
f1
f1
ee
f0
ef
f1
f1
f1
f5
fb
fe
00
06
07
08
09
08
0a
04
02
fa
f6
f5
f4
f0
ed
e8
eb
ea
ec
f1
f1
fa
f9
ff
01
00
07
04
07
08
02
00
02
fd
fb
fc
f6
f6
f8
f6
f2
f5
f3
f4
f8
f7
f8
fb
fc
f9
f9
f7
fb
f5
f5
f2
ed
eb
e8
e7
e7
e4
e5
ea
eb
ec
f2
f9
f8
ff
05
0b
0f
10
17
15
19
14
15
14
0f
11
09
08
04
05
05
06
02
01
07
06
09
07
09
0a
11
10
0d
10
0e
0e
0e
09
0a
05
06
00
03
05
05
04
06
08
09
0c
0d
12
14
12
15
15
17
13
16
13
12
11
0a
0c
09
03
07
06
04
02
04
02
04
08
0a
0c
09
11
0e
14
12
12
11
0f
0d
0a
0d
08
09
08
0b
0c
09
10
0b
0d
0f
14
10
11
11
12
0d
0d
0c
0b
08
07
04
02
05
04
07
04
09
0b
09
0f
0c
0c
08
06
06
ff
fe
f8
f4
f1
ec
e9
e7
e6
e6
e0
e1
e0
e5
e5
ec
ec
ed
ed
ee
f1
ef
ee
e4
e1
e5
ea
eb
eb
ef
f1
ef
f2
f3
f2
f3
ee
f0
ed
eb
ef
eb
ee
f2
f0
f3
fa
ff
ff
06
07
09
06
0d
0b
09
08
01
03
ff
ff
ff
00
ff
fc
fe
00
02
00
06
04
01
03
01
fc
fd
f8
fa
fa
f8
f9
f8
fb
ff
02
04
0a
0d
0f
11
14
15
19
16
10
0f
0d
06
02
fd
f8
f7
f4
f3
f2
f2
f1
f2
f5
f6
fc
fd
fd
fd
00
00
ff
f9
f9
f5
ef
eb
ea
e4
e6
e4
e3
e5
e6
e8
ed
ee
f1
f7
fd
00
04
03
04
03
06
02
02
04
01
fe
fb
fb
ff
f9
ff
ff
fe
fe
02
02
04
04
02
05
05
03
08
07
08
0c
0e
10
10
15
17
14
11
14
0f
0d
0d
0c
05
06
02
ff
01
02
01
06
05
08
09
0a
0b
08
0b
09
04
04
00
fc
fc
fc
f8
fa
f8
fa
02
ff
06
0c
10
12
0f
16
15
18
1a
16
13
12
15
12
13
0f
0c
0f
12
13
12
10
11
16
0f
12
10
10
0b
06
03
02
fc
f7
f0
f2
ed
ea
ec
ea
ea
ee
ef
f0
f6
f1
f8
fa
f8
f5
f1
f5
f4
f4
f1
f2
f6
f6
f7
fc
06
0d
14
15
1f
22
26
2d
2a
2f
2f
29
2a
36
33
2c
22
1d
16
0c
03
fd
fa
f5
f1
f2
f4
f8
f9
f8
f8
fb
f7
f6
fa
f9
f7
f2
f4
ec
f0
ec
eb
e6
e4
e7
ea
e6
ec
eb
ec
ee
f2
f2
f5
f4
f5
f3
f7
f4
f0
f1
f1
ef
f0
f4
f3
f7
fb
02
08
0b
12
15
12
14
11
10
09
05
ff
f7
ef
ea
e7
e9
e6
e9
e7
ec
ed
f5
fa
f9
03
03
09
09
0d
0e
0b
0b
0d
07
08
00
01
f9
f4
f3
eb
ea
e6
e5
de
e2
e3
e8
ea
f4
f9
fe
02
0b
0e
13
11
10
0b
05
fd
f4
f2
e7
e5
de
e0
e2
e0
e7
ec
ef
f8
fc
02
ff
06
07
07
04
00
03
02
fe
ff
05
07
0a
0f
10
15
19
1e
1d
1d
20
1c
1b
1f
1a
1c
18
17
18
1b
17
1a
1a
1a
13
14
10
0f
0e
0c
0d
09
05
04
09
08
08
08
0b
0e
0d
12
12
10
0f
0e
0c
08
08
ff
fe
fd
fd
fc
fb
ff
fc
01
03
06
05
06
06
0d
09
0a
06
04
04
05
fe
fe
fa
fb
f8
f5
f3
f1
f3
f2
f0
f2
ef
f4
f3
f4
f4
f5
fa
f8
fb
fa
f8
f8
f8
f8
f8
f4
f7
f5
f3
f6
f9
fb
fb
fb
00
02
ff
04
03
02
00
fe
07
fc
04
fd
01
00
ff
ff
fc
f9
fa
fd
fb
fd
00
03
06
09
08
0b
09
09
0c
02
01
fb
f3
f4
ea
e8
ed
ec
f2
f3
00
05
08
11
14
11
17
0f
09
01
f8
f2
ee
ec
ea
ef
f2
f5
00
05
0e
17
17
1a
1c
18
0f
09
03
fb
f5
ee
e8
e5
e8
ec
f3
fb
ff
09
14
19
23
26
2a
27
28
21
1d
1d
13
10
10
0f
10
0e
0f
0d
0e
0a
04
fe
fa
f0
ed
e5
e5
df
e1
df
e7
ea
f1
f3
fd
fe
03
07
05
01
fc
f8
f2
ed
e6
df
d9
d8
e0
e1
ea
f2
fe
0c
16
20
26
2a
2a
28
25
1e
16
09
00
fd
f9
f8
f7
f4
f3
f6
fa
fb
f9
fb
f8
f8
fa
f5
f6
f2
f8
f7
fa
fc
01
04
08
0e
17
16
18
14
16
11
0d
09
00
fe
f9
fc
f7
fa
fb
fa
01
04
03
08
09
0a
06
fe
f9
f4
f2
ee
ea
ec
e8
e9
e9
ec
f5
f4
f7
fa
f9
fa
fe
fe
fc
f8
f2
ec
f0
e8
ea
e6
ea
ef
ed
ef
f5
f9
ff
07
0a
0a
0f
0f
0f
13
10
11
0b
08
0b
0a
09
0b
06
09
08
0f
0c
0a
09
07
08
fd
fe
00
01
07
12
1c
21
25
31
32
f5
f9
f8
fb
00
03
04
01
06
08
08
06
03
07
fe
fb
fc
f4
f7
f1
f2
f2
f7
f9
f8
fa
fb
fc
fd
ff
fe
ff
fe
fd
fb
fe
fb
00
01
02
06
06
05
07
07
0b
0a
03
03
fc
fd
f6
f5
f1
ee
ee
ed
ee
ea
f0
f2
f7
f7
fc
00
00
02
01
04
02
07
02
03
00
04
01
02
fe
fc
ff
fc
02
01
00
05
06
02
03
05
02
01
00
01
fd
fd
fc
fb
fc
ff
00
ff
01
05
06
02
01
04
04
00
ff
00
03
fc
fd
fe
fc
fc
01
00
fd
01
ff
04
02
04
04
05
08
04
06
08
04
05
03
01
01
00
fc
00
01
fe
02
02
04
00
07
08
03
03
05
04
06
06
03
05
02
00
fe
00
fe
00
fe
fe
00
ff
01
00
f9
f7
f4
ef
f1
ec
ea
ec
ee
ec
ef
f6
fa
ff
02
06
03
09
05
05
08
04
05
fe
02
00
fd
fd
fa
fc
ff
02
ff
02
00
01
06
04
05
09
09
08
06
06
05
0a
04
07
08
07
02
04
03
07
03
04
03
09
08
07
09
06
05
06
0a
09
09
06
09
04
04
03
02
ff
05
fe
00
00
00
01
00
02
01
05
04
06
0c
0e
0f
fa
fd
ff
fd
00
01
fb
00
ff
00
03
07
03
03
00
01
00
fe
03
01
01
01
00
02
fd
fe
fe
fe
fb
fd
fb
fc
f9
fe
fb
fd
fd
00
01
fe
04
fe
03
05
05
04
02
04
05
00
02
fe
00
00
01
fd
fa
fc
fc
fc
ff
fb
fc
fa
fa
fc
fc
fd
00
02
03
01
02
01
04
01
06
01
03
06
05
06
09
06
07
02
02
01
fe
fc
fc
fe
f6
f9
f7
f7
f5
f3
f6
f4
f4
fc
fe
fc
02
03
06
0a
08
08
0e
0c
0b
0a
0e
0c
09
08
04
00
ff
f7
f8
f3
ee
f2
ed
ed
e9
ed
ef
f4
f5
f9
fc
05
09
0c
10
13
15
15
14
14
0f
10
0c
06
03
ff
fc
fd
fa
f7
f7
f6
f6
f7
f5
f6
fb
fb
fa
fe
fc
01
03
02
03
ff
01
03
fd
fe
00
fe
ff
fb
00
fd
fd
00
fc
ff
fb
01
ff
01
ff
03
ff
02
04
ff
00
02
02
01
05
03
03
05
02
05
04
04
01
05
ff
02
01
02
fc
fc
fb
fd
ff
f9
fc
fb
fc
fd
fc
fd
02
fc
02
02
06
05
05
05
02
03
04
ff
00
fa
fa
fe
fe
fa
fe
fe
01
fa
fc
fc
fd
fe
fd
03
02
07
05
0a
fa
fe
01
02
00
04
ff
04
00
fd
fd
fd
ff
fd
fb
ff
fb
fc
fa
fd
fc
fe
fd
fc
02
00
fd
ff
01
ff
02
ff
ff
ff
01
01
03
04
00
01
ff
00
00
fe
01
fd
04
03
01
00
04
05
01
03
06
02
00
00
fe
fb
f9
f5
f7
f7
f5
f3
f4
f2
f6
fb
fc
fc
03
01
06
07
09
0a
0c
0e
0a
0b
06
07
02
02
fe
f6
f5
f7
f8
f1
f4
f4
fa
fb
fc
fd
fe
03
01
04
06
06
09
0c
0d
0c
0f
10
0c
11
09
0b
05
fe
fb
f9
f4
ee
ea
e3
e1
e0
db
de
e4
e7
ed
f2
ff
04
0b
0f
1a
1c
20
1f
1f
20
1b
15
15
0b
09
01
fa
f9
f3
ea
ef
e8
ea
e7
ec
eb
ee
f3
f4
f7
ff
05
07
0c
0c
0d
0e
11
0d
10
08
08
04
04
02
ff
fc
fa
f9
fb
ff
fb
00
01
ff
fb
00
fe
01
fd
ff
00
fd
fd
fb
fe
fc
fc
fc
fa
00
01
fe
00
04
02
04
04
02
07
03
04
04
01
01
00
fd
ff
f9
fd
fb
00
ff
fa
00
ff
03
00
fd
01
ff
00
ff
03
01
fa
fd
00
fd
fd
fc
fe
00
01
03
05
03
02
04
02
fd
fe
fb
fd
fa
fc
fe
01
01
fe
01
01
fd
fc
f8
fb
fd
fe
fe
fe
03
ff
ff
00
ff
00
fb
ff
fc
fe
fe
fa
fb
f9
fe
fe
ff
03
04
01
03
02
02
05
ff
fb
fd
f6
f8
fb
fd
fe
fa
fc
fb
fe
fe
00
00
03
03
03
01
02
fb
fd
fd
fc
fe
fa
fe
fa
f9
ff
fd
fd
ff
04
05
01
01
fd
fb
fc
fa
01
fb
fc
fa
fd
fb
fa
ff
ff
f9
fe
fb
fd
ff
fe
02
00
fe
00
ff
05
03
02
02
00
00
02
00
ff
fb
fb
fa
fd
fb
fe
fd
00
02
fe
fe
fb
fb
fb
fc
fc
fb
fb
fb
ff
fe
fc
04
04
01
01
02
fe
fe
03
01
01
ff
02
03
00
fe
fc
fe
00
fb
fc
fd
fc
fa
f9
f9
fb
fa
ff
ff
00
02
05
03
02
03
04
02
05
fe
fd
fd
fd
fd
fc
00
01
01
02
01
02
ff
02
00
00
fe
f9
f9
fb
fc
fe
fc
fb
ff
ff
02
00
ff
ff
01
fd
fe
01
fe
ff
fd
fd
fc
fd
fe
03
01
01
01
00
ff
fc
ff
f7
fd
f8
fc
fc
fe
fc
ff
ff
01
00
00
00
ff
fc
00
f9
fb
fc
fc
ff
04
01
ff
ff
00
fe
01
01
ff
fc
f9
fa
fc
01
fc
01
00
04
02
f8
fb
fb
ff
09
09
06
01
ff
fe
fc
fd
fa
ff
00
00
04
01
03
02
03
06
03
00
00
fd
ff
00
fe
fb
01
ff
04
05
04
07
07
03
05
02
fd
fb
fb
fc
ff
ff
05
06
07
06
09
0c
07
06
04
02
fe
ff
fc
fa
f9
f9
fd
fe
00
fe
00
05
04
03
06
02
02
02
03
03
ff
03
04
fe
01
ff
00
02
00
02
ff
03
ff
01
00
02
01
02
02
04
02
03
05
02
01
03
03
fd
00
fa
fa
fd
fc
f9
fd
00
01
fc
01
04
08
05
06
06
01
ff
01
fd
fe
fc
fd
01
00
04
04
0b
08
0a
06
06
02
fc
f9
f4
f4
f0
f1
f1
f5
fc
fb
00
08
08
08
0a
08
0b
06
06
03
ff
fe
fe
fd
f8
fb
fa
00
03
fe
02
01
00
01
00
02
ff
fb
fa
f9
fb
fc
fd
fb
01
fe
00
06
01
ff
00
fc
fc
fe
fc
00
fd
fd
00
ff
01
03
fe
00
fa
fe
fc
fb
fb
fc
02
fc
fc
03
ff
04
03
00
fd
ff
f9
fd
fc
fd
01
01
fd
fc
fd
fc
ff
01
fe
fb
04
fe
05
ff
01
02
fd
01
f9
f9
fc
00
03
03
06
07
01
00
ff
03
fe
fd
00
fe
03
00
01
ff
fc
00
00
02
02
03
01
00
02
04
01
00
01
fc
00
fe
ff
01
03
05
04
00
00
03
00
fe
00
fc
ff
01
00
fe
ff
00
02
04
04
02
02
fc
fe
fb
fe
00
fe
fd
fe
ff
01
00
05
02
04
01
02
05
02
00
00
ff
ff
f9
fe
fa
fc
02
ff
00
04
07
01
01
01
05
02
ff
ff
fc
00
ff
00
01
01
01
02
03
fe
01
03
00
00
ff
00
01
01
04
00
00
ff
04
fe
00
fc
02
02
fe
fe
02
02
01
ff
05
02
04
fe
fd
ff
03
02
fd
02
fe
ff
04
03
04
03
05
ff
01
01
ff
01
fb
fe
fe
01
ff
01
02
fe
fd
05
ff
01
04
02
04
04
ff
00
fe
03
00
fc
00
00
02
03
05
03
03
01
05
04
fe
fe
02
fd
02
fd
fe
ff
02
00
00
00
03
02
01
00
fc
fd
fe
01
fc
fc
fa
ff
01
01
03
03
05
03
06
01
01
01
fc
00
fe
ff
fd
fe
01
02
02
04
05
03
02
02
ff
fe
ff
fe
fd
ff
02
02
fd
01
ff
05
03
01
04
00
00
01
fc
fb
fd
fd
00
01
01
00
01
03
03
01
03
03
ff
00
ff
ff
fe
f9
fb
fe
fe
fe
00
01
fd
ff
ff
f9
fb
fb
f7
f9
f9
fd
ff
ff
01
01
02
01
ff
05
00
fe
fd
02
ff
00
fc
ff
fc
00
01
01
06
07
07
0a
07
06
03
04
02
03
01
fa
fa
fd
f8
fb
fb
f9
f8
fb
fb
fe
fc
ff
fa
ff
ff
00
fb
fd
fb
fc
fe
fd
fe
fc
fd
fc
ff
fb
ff
01
02
ff
03
00
04
04
01
02
fe
ff
fe
fd
fe
00
fc
00
fb
fe
01
02
ff
fd
ff
03
02
02
fe
fd
01
ff
fd
03
00
fd
02
00
ff
01
03
04
04
00
00
05
ff
fd
fd
fb
fa
fe
fc
fe
fd
ff
fd
ff
ff
00
01
00
02
ff
00
05
00
00
00
00
00
01
fd
fe
fc
fd
ff
fc
fa
00
fb
fe
fd
03
03
02
05
06
05
01
02
04
03
ff
02
fd
fe
00
fe
fa
00
ff
02
fe
00
02
03
04
03
05
04
04
04
00
ff
fe
fb
fc
fe
01
ff
ff
00
01
05
08
02
05
07
06
07
04
00
03
fe
01
fb
01
fd
ff
fb
fb
ff
00
01
ff
02
02
06
04
08
09
01
07
05
03
01
00
03
02
02
00
fd
fd
fd
fc
fe
fe
f9
fc
ff
fa
fd
fe
02
07
07
0c
0e
11
0f
07
07
02
03
02
04
ff
fe
00
00
03
00
01
00
02
01
00
fd
03
00
fe
ff
03
ff
fe
fd
fe
fd
fb
f9
f9
fb
f7
fe
fb
f7
fd
fc
ff
fc
ff
fe
ff
03
07
03
07
06
05
07
06
04
05
03
05
02
00
fd
fd
fb
00
01
fb
fb
fd
ff
ff
fd
00
fe
fe
fc
ff
00
fd
fd
ff
ff
fb
fe
fa
fd
00
fd
fd
fd
fd
03
02
ff
fe
00
00
00
fd
03
03
03
01
fe
01
01
ff
03
00
ff
ff
00
fc
fe
fb
fd
fd
00
fd
03
ff
04
05
04
06
08
07
01
02
05
02
00
ff
fc
fa
fb
fc
f9
fa
fb
fb
01
02
01
00
03
06
06
06
03
01
02
02
05
02
00
ff
00
fe
fe
ff
01
02
01
fe
02
01
ff
00
01
fe
02
00
01
01
03
03
ff
04
02
01
03
04
00
01
ff
00
02
02
01
02
fd
fb
fe
fb
ff
fe
fa
fe
fd
00
ff
fe
03
01
01
01
00
00
06
02
07
06
01
05
03
03
ff
04
fd
01
03
00
fd
ff
00
00
ff
02
00
00
03
00
03
02
fc
fe
00
fa
fe
fd
fd
fc
fd
fc
00
01
fe
fe
ff
04
ff
01
fe
02
02
00
ff
fd
fd
0a
05
02
07
04
04
05
05
06
07
08
04
06
08
06
07
04
03
ff
07
06
07
00
03
03
05
01
ff
fe
fe
00
00
01
03
05
03
05
03
04
02
00
02
ff
fd
00
fd
fd
03
04
04
07
08
08
0c
09
0a
07
04
02
fc
fc
f8
f7
fa
f8
fb
fe
fd
fd
05
04
07
fe
01
fd
fd
fa
fa
fb
fc
fc
fb
ff
fe
fd
02
02
04
04
05
00
01
ff
ff
01
fc
00
fb
fe
ff
fd
ff
fe
03
ff
03
00
00
04
00
00
00
ff
00
ff
ff
01
05
06
03
04
03
05
04
02
01
04
02
03
fd
02
fe
fe
03
01
02
05
04
06
01
05
03
03
ff
00
ff
02
fd
fb
fe
03
00
03
03
05
03
06
ff
02
02
ff
01
fd
fd
01
fe
00
ff
04
07
09
03
04
05
08
06
06
05
06
fd
fb
fb
fe
f9
fe
fd
ff
01
03
03
00
ff
04
05
02
fe
ff
ff
01
fc
00
fe
ff
00
00
01
06
06
03
05
03
05
00
02
ff
fc
00
fd
02
04
ff
02
01
03
04
05
05
06
00
01
00
01
fe
01
02
06
03
04
06
08
0a
06
07
06
05
02
01
fc
fe
fb
ff
fc
ff
ff
03
01
cd
da
e5
f2
f8
fd
02
01
07
0d
0b
0b
0d
09
06
04
09
06
07
09
0a
05
04
00
01
ff
02
00
fe
03
fe
fe
fe
f9
f3
f3
f1
f2
f8
fc
02
0c
12
17
1a
29
2e
2f
30
2e
24
26
16
10
0b
03
fc
f7
f1
f1
f3
f3
f9
f9
ff
fd
00
fb
f9
f9
f5
f5
f1
f3
ee
ef
f1
f2
f6
fc
fe
00
ff
fe
fd
01
fb
f9
fd
fa
fb
f8
fc
f9
ff
01
00
04
03
01
04
01
03
ff
ff
fe
00
fd
fe
fe
ff
00
01
02
06
ff
fe
ff
03
00
00
03
00
ff
03
03
fd
01
03
05
02
05
04
02
05
03
05
01
03
03
02
04
04
02
05
05
05
00
05
03
06
03
02
06
07
04
04
03
02
04
04
05
05
02
03
00
ff
02
02
01
01
04
06
07
01
01
01
06
04
01
ff
ff
00
04
02
01
08
08
02
04
07
02
03
00
fe
fd
f8
fc
f9
fc
06
08
0a
0a
0c
0e
0f
07
07
05
ff
f7
f5
f1
f2
f1
f6
f6
fc
fc
01
04
08
09
08
04
05
fe
fc
fa
f6
f5
ec
ea
eb
e9
e9
e6
ec
ed
ed
f3
f1
f3
f4
f4
f3
f9
f5
f1
e8
e9
ee
e9
e2
e0
00
01
ff
02
fc
00
02
00
ff
03
ff
03
01
02
01
ff
00
01
00
04
05
03
01
00
02
00
fd
00
fc
ff
01
00
fd
00
03
01
fe
fe
fa
fb
fb
ff
02
fd
00
01
02
06
02
03
01
00
fc
fc
ff
fe
fe
fd
fd
fd
fd
02
00
04
02
02
01
ff
00
fd
fa
f9
ff
fe
fc
ff
01
01
06
02
06
04
02
00
fc
fc
fe
fd
f7
fa
fc
fd
ff
00
03
00
03
04
01
01
ff
02
fc
fe
fd
f8
fc
ff
fc
fe
04
03
05
03
04
01
ff
fe
00
fd
fd
fd
fe
ff
ff
03
05
04
03
06
07
05
01
02
fe
fe
fb
ff
00
ff
fe
00
01
00
04
03
02
03
01
ff
fe
00
fd
fd
fc
fd
fe
02
03
02
04
04
03
03
ff
02
fd
01
00
00
fe
fe
fe
fa
02
02
03
01
03
02
01
00
03
01
02
01
02
ff
00
02
02
03
00
ff
03
03
00
00
00
ff
00
00
f9
fc
fd
fe
00
ff
03
02
05
02
01
02
ff
fe
fd
fc
fb
fc
00
01
05
02
05
07
02
00
ff
fd
fe
00
fb
ff
fd
04
03
01
05
ff
02
fe
00
01
fe
fd
fd
fd
02
00
02
02
02
ff
fe
fd
87
9a
b1
c1
d6
e1
f3
fd
04
0f
13
19
1f
1e
1e
1c
1c
1b
18
17
0d
0c
07
04
05
ff
ff
fd
fd
fd
fd
04
ff
ff
01
04
01
fc
fe
f9
fd
fc
f8
f8
f5
f6
fb
f6
f9
01
00
08
0b
09
10
0d
13
0c
0f
09
0a
05
03
00
ff
fe
ff
fc
fa
fd
00
03
00
06
07
05
0a
09
0a
08
09
0a
08
04
05
06
02
01
04
04
05
00
01
05
04
06
05
01
02
03
00
02
fe
fe
fb
01
fc
03
00
02
04
08
03
03
0a
06
04
06
03
04
ff
03
02
ff
fd
00
00
00
01
00
02
02
01
03
03
04
04
05
01
05
04
03
01
00
00
02
ff
02
00
ff
02
06
07
02
03
05
04
02
07
03
05
06
07
01
06
01
03
01
fc
fc
fa
fd
f8
fc
fb
fe
fe
ff
f9
fb
fc
00
fe
00
02
00
00
fe
01
fb
fb
00
01
fc
01
fc
fc
fd
ff
fd
01
fc
fc
fc
fd
01
fe
00
fd
02
00
03
ff
00
fe
00
fd
fd
fc
fa
f7
fb
f6
f8
f7
fc
f6
f8
fe
00
fe
00
04
02
03
06
08
07
0a
08
07
07
07
07
05
02
03
02
ff
ff
fb
fa
f2
ea
e1
d0
e2
e9
f2
f4
fe
03
04
0c
0d
0f
12
14
13
0d
0f
0e
07
04
00
00
fb
f8
f3
ee
ee
ec
ec
f1
f3
f0
f6
fd
fe
00
06
08
09
0d
10
10
0e
0e
0f
0c
08
08
07
06
03
01
02
01
fd
fe
fc
fc
fa
f8
ff
fc
fa
fa
fe
fa
ff
fe
00
00
fd
00
00
fb
fd
fd
01
fe
fb
fc
01
ff
00
fd
00
fd
01
00
fc
00
ff
fc
fe
02
01
ff
ff
ff
04
06
01
03
05
02
06
03
00
02
02
02
05
02
01
02
02
01
ff
02
01
fe
02
ff
04
01
03
00
01
00
01
ff
fe
01
ff
02
03
03
ff
03
01
00
00
01
02
fe
00
04
ff
01
ff
01
00
fe
01
04
01
ff
00
02
01
00
ff
ff
02
fd
fe
01
fe
fd
fd
fb
00
fc
fc
fd
ff
02
02
ff
fd
00
00
02
00
fe
02
01
02
02
02
01
fe
fe
03
03
01
01
ff
00
00
00
04
ff
ff
04
00
05
01
02
ff
fe
fd
fe
fc
fa
f9
fd
fe
fc
fe
02
02
01
03
01
05
02
06
03
03
05
02
01
04
00
fe
fe
fb
fc
fe
f7
f7
fa
fc
f8
00
04
01
03
09
0d
0c
08
0c
07
fe
fc
f0
e0
d7
eb
f6
fb
fb
f9
f5
f9
f3
f1
f6
ee
f2
ee
f1
f5
f5
f0
f1
f7
f5
f5
fb
fb
f7
fb
f7
f9
fd
f9
f7
f6
f4
fc
f7
fa
fb
fe
01
01
09
01
03
04
ff
fa
01
fa
f7
f3
f3
f1
f6
f4
f7
f3
f9
fb
fe
fd
03
02
02
07
03
01
01
fe
00
fd
fd
ff
fe
fb
fd
03
03
03
00
03
04
03
01
00
fc
fa
fc
fe
fc
fc
fe
fc
00
00
04
02
05
06
02
00
fd
fd
fa
fe
ff
fd
ff
00
01
03
00
05
05
03
01
02
00
00
fd
fe
02
fe
03
ff
00
02
05
00
04
03
ff
ff
02
ff
01
fe
03
ff
03
04
02
03
05
04
06
03
03
ff
ff
02
fe
fe
02
02
03
02
04
03
02
05
06
05
07
04
03
ff
fb
00
ff
fd
fa
ff
ff
ff
fe
fe
fd
ff
00
00
ff
ff
ff
fe
fe
01
fd
fc
00
02
fd
01
02
03
01
04
05
03
03
01
fb
00
02
fc
fd
fe
02
04
05
04
04
01
05
03
00
02
03
03
00
02
fe
fd
fe
fd
fe
f7
fe
f7
fb
fd
ff
fb
00
fe
01
06
05
05
02
01
05
03
fe
fc
fc
fd
fa
f7
fd
01
00
05
06
0a
ff
fd
e9
f5
fe
0b
10
14
19
23
1f
26
24
2a
28
25
1e
15
15
0b
06
08
09
0a
0d
0c
15
15
15
16
14
1a
17
14
1a
1a
17
17
13
14
11
0e
15
16
16
0e
0f
0e
0f
0c
09
08
01
ff
fe
ff
fe
fd
04
03
05
0a
0d
17
14
17
1a
1a
14
12
10
08
07
fd
fd
fd
fd
03
05
02
07
08
0b
08
06
04
fe
00
03
02
03
01
ff
ff
fb
fc
00
ff
fc
00
00
fc
fd
ff
ff
01
02
03
fd
01
fe
fc
fb
fc
fe
f9
fb
f8
fd
fc
fb
fd
fe
ff
fe
ff
ff
ff
fb
fd
ff
fa
fd
fb
fd
f7
fb
f7
fc
fb
fb
fd
fe
fc
fd
ff
fb
fc
fc
f8
f9
f8
f7
fb
f9
f7
f8
fb
fe
fa
fd
fa
fa
fc
f9
fd
fd
fa
f9
fe
fa
ff
fe
f9
fd
f7
fc
fc
fd
01
00
ff
02
00
06
00
01
fe
00
02
ff
fd
ff
ff
ff
03
03
0a
0b
0e
0b
08
08
06
07
05
06
00
01
04
06
03
09
09
0c
08
08
08
09
04
ff
fc
fa
fd
fa
f4
f9
fc
01
01
08
03
0c
0a
07
05
03
fe
fd
fe
f7
fa
fa
fb
fe
04
01
06
03
04
03
06
00
fe
f4
eb
e3
d5
fc
00
01
02
03
02
03
00
ff
02
ff
ff
fe
02
04
02
04
03
02
02
ff
ff
01
02
01
05
04
02
03
fe
ff
fe
fe
01
ff
00
01
02
03
05
01
04
01
03
01
ff
00
fe
ff
fd
fe
00
02
03
05
01
03
00
fe
01
04
ff
ff
03
01
00
ff
ff
03
04
00
01
ff
00
02
03
02
05
04
02
fe
01
ff
fa
fd
fe
01
02
fe
02
01
02
ff
02
02
ff
00
ff
fd
fe
ff
01
00
ff
fc
fb
ff
fd
00
02
fd
01
fd
ff
04
01
00
02
fd
01
fc
03
01
02
00
02
fe
fe
ff
00
fe
03
01
ff
04
ff
fe
00
00
fe
00
fe
00
fc
fd
02
01
00
01
ff
00
ff
fe
ff
fe
03
03
01
fc
fd
fe
00
ff
ff
00
06
04
00
02
00
02
01
ff
fc
ff
ff
03
03
00
ff
04
03
02
ff
ff
fe
fe
fe
00
00
02
03
01
00
00
05
ff
ff
00
04
03
01
01
02
04
02
06
02
03
02
01
ff
fb
fc
fb
fc
01
fe
02
02
00
01
00
05
02
04
03
01
ff
00
fe
ff
fd
fe
ff
01
ff
01
02
00
01
fd
fe
fb
fe
ff
00
fc
00
ff
02
05
00
02
fe
fc
3d
31
28
21
19
0f
05
04
fa
fb
f5
f9
f9
f6
fe
ff
04
05
09
0a
11
0c
12
11
16
0e
0e
0c
09
07
07
07
02
fc
00
fb
f6
f9
fa
fe
fd
02
04
03
09
0a
0d
0e
0d
13
14
0f
13
0f
0a
0b
0a
06
0b
08
06
0c
09
0b
09
0c
10
0d
0f
0c
09
0a
05
07
01
02
ff
fd
fb
fb
fc
fe
f9
fc
fe
ff
02
02
09
09
05
09
09
03
07
02
01
00
00
00
02
01
fc
fd
ff
04
02
04
00
03
00
03
01
00
00
fe
fe
ff
fe
01
fe
fe
fc
00
ff
fe
00
ff
01
06
05
02
03
01
03
02
ff
fc
fb
fb
f8
fa
fb
fa
fd
fd
fe
ff
ff
fe
ff
04
01
03
ff
fd
ff
f8
fa
fd
fa
fe
fa
fe
fd
fb
f8
f8
f9
f9
f8
f7
f7
fb
f9
fa
f7
f8
fc
fd
fa
ff
fd
02
00
fe
fd
00
01
fb
fe
fd
fc
fb
f6
f8
fa
fa
f3
f5
fa
f5
fc
f9
fc
fd
fd
fc
fe
fb
fc
fe
fc
ff
f8
fb
f8
f7
f9
f5
f6
f7
f9
f9
f8
fb
f9
fb
fa
fd
fa
fa
fb
fa
fb
fc
00
00
fc
01
02
ff
04
01
01
ff
01
02
03
fe
fe
f8
f3
ed
e3
db
26
19
11
07
fd
fb
f6
f6
f3
ef
f4
f9
f7
fa
fb
02
03
02
04
04
06
06
04
04
03
08
04
09
07
05
09
08
05
03
02
fe
ff
fb
fa
fd
f7
f7
fc
f9
fa
fc
fa
06
05
05
03
08
05
05
00
00
01
f7
f9
fa
fb
f8
f8
f8
fa
fc
fd
02
02
02
04
02
03
06
05
04
02
02
02
01
ff
03
02
03
06
05
01
02
02
02
03
00
00
03
00
00
04
01
00
02
fe
01
04
02
00
04
01
00
03
03
04
02
03
06
00
01
05
03
fe
fe
05
03
fe
02
00
ff
fc
fc
ff
fe
fc
02
04
ff
fe
fe
ff
ff
fe
fc
00
00
00
ff
ff
fe
fd
00
04
04
05
03
03
04
03
02
01
fe
fd
fa
fd
f9
fc
f9
fa
00
fe
ff
04
00
04
05
06
06
04
03
06
06
01
00
03
fb
ff
ff
f9
fe
fb
fb
fc
fb
fd
fa
fe
ff
ff
03
02
06
06
08
05
07
08
06
00
05
ff
01
fc
fd
fc
f8
fb
fa
fa
fa
fd
fe
fe
01
00
01
01
04
ff
01
06
0a
02
04
03
06
06
ff
fe
00
fc
f9
f6
f5
f8
f7
fb
fa
00
00
03
0a
0a
08
0e
0a
09
00
f3
e7
b7
d3
ee
f9
00
04
03
01
fd
f8
f6
f4
f5
f5
f8
f8
fb
f7
fc
fc
fa
fe
fe
fc
fe
ff
fd
fb
ff
fe
fd
fe
ff
03
fa
01
fc
fa
f7
f6
fc
f8
f5
fb
fb
f8
04
05
01
02
08
07
08
08
04
ff
03
01
fa
fb
fc
f9
f8
fd
fd
fe
fb
fc
fc
fe
ff
fe
fe
ff
fe
03
05
ff
00
04
03
00
02
fd
00
01
00
01
03
ff
00
fe
fe
01
03
04
ff
03
01
02
02
03
03
fe
02
05
03
03
00
ff
ff
02
00
00
ff
03
fe
04
ff
ff
ff
00
03
02
fe
02
01
fb
ff
fe
ff
02
ff
00
00
03
02
01
04
04
01
04
00
01
ff
fd
ff
fe
fa
fd
ff
fc
02
02
00
03
04
04
03
fe
ff
01
01
01
01
01
fc
ff
fd
ff
00
fe
03
00
01
02
fc
fe
02
fd
04
02
01
04
03
05
02
06
06
06
01
ff
04
00
02
00
00
ff
00
fd
fd
00
03
02
00
05
06
04
04
02
fe
04
fe
fd
ff
fb
00
fd
ff
02
09
04
09
08
06
0c
06
01
fe
00
fd
f9
f9
f6
fa
f9
f9
fc
00
00
ff
04
ff
fe
f9
f8
f9
f4
fa
f8
fc
05
0c
0d
0e
0d
c4
d4
e6
ea
ee
ec
ec
f4
ef
f0
f4
f2
fd
f9
f6
f4
f7
f1
f0
f4
f3
f4
fc
f4
f6
f8
f8
f8
fa
ff
04
03
10
0d
0d
08
0e
0a
0e
0c
10
11
0f
15
11
17
20
1f
25
24
21
22
1d
1e
16
0f
0f
0c
08
0a
0d
12
13
1b
1f
1d
23
1f
20
1c
16
12
0d
0a
03
06
04
05
06
08
0d
0c
09
05
07
06
07
06
05
05
06
03
01
04
02
03
05
00
ff
00
ff
02
02
00
03
00
00
fe
ff
01
fc
ff
fc
fb
fb
f9
f8
f9
fd
f9
fd
00
fe
fd
fc
fb
fc
fc
f8
f3
f4
f6
f5
f6
f7
f9
fc
fa
f9
fd
f9
f7
fc
fa
f7
f6
f4
f6
f7
f3
f9
fa
fe
fc
ff
01
fe
fc
f9
fa
f7
fa
fb
fb
f9
ff
fd
ff
fd
fd
00
01
00
ff
ff
ff
fd
ff
fb
00
fe
fe
01
05
06
05
04
04
05
00
ff
fe
ff
03
ff
05
ff
03
04
04
07
08
08
06
08
04
05
04
fe
00
00
fd
05
04
08
0c
0c
09
0e
06
06
06
06
04
06
06
01
06
06
08
09
09
05
09
03
07
0a
12
0d
0d
0f
11
11
11
0b
06
06
04
08
08
0c
0e
15
10
15
1b
ff
01
00
03
00
fe
00
fb
fe
ff
fc
00
fe
00
ff
02
01
fe
02
00
fd
fd
00
ff
fc
fc
01
02
00
fe
ff
00
02
01
ff
fd
00
00
01
fd
fd
ff
04
04
06
04
01
fd
03
fd
00
00
fc
fd
fe
04
03
02
fe
02
04
00
04
01
01
01
00
fd
01
fc
fc
fe
fc
fd
ff
03
01
ff
01
01
fd
01
02
ff
ff
03
03
00
02
01
02
02
00
00
fe
00
fe
03
02
00
06
02
02
fe
fe
00
fb
ff
03
fd
02
03
06
03
03
ff
02
ff
fc
00
ff
fd
ff
03
00
ff
fe
05
02
ff
00
00
04
01
fe
fe
fc
00
02
02
fd
01
ff
ff
00
fd
fe
ff
01
00
04
00
06
00
02
01
01
ff
fc
00
ff
02
fd
fc
01
02
03
03
03
05
01
ff
ff
fd
01
02
01
fe
01
02
01
02
fe
00
02
00
ff
02
00
00
ff
03
ff
ff
fe
03
01
00
fe
02
00
05
04
03
04
00
fe
fc
fb
fe
00
00
fe
fe
00
05
01
02
ff
01
fd
fd
ff
01
ff
fe
fd
ff
fd
03
03
06
ff
00
01
00
fd
ff
00
ff
fd
01
01
01
ff
00
04
00
00
05
04
00
ff
01
fe
fb
f9
00
ff
06
07
08
08
07
05
06
fc
01
fb
f8
f8
f2
f7
f4
f7
f9
ff
fc
03
03
00
02
05
01
fe
ff
fc
fb
fc
f9
f5
f5
fa
f9
fd
01
04
09
0c
11
13
17
19
17
13
17
11
0f
0a
09
04
01
02
fd
f6
fb
f6
f8
f8
f8
f9
fc
f9
fe
01
fd
fa
fb
fe
01
01
fe
ff
00
02
01
00
fc
00
fd
fa
ff
fe
fb
fc
fd
fd
fb
00
fe
00
00
01
02
00
00
04
01
02
ff
fd
ff
fc
fc
f9
f9
fb
fd
f9
fa
fe
00
ff
fe
01
00
06
04
04
ff
03
ff
01
01
fe
fc
ff
ff
fb
fa
fa
fa
fc
fb
fe
fe
02
00
00
00
02
04
05
06
02
02
01
03
02
02
02
02
ff
02
ff
01
01
02
03
01
03
03
03
04
fe
01
01
fd
fc
fb
fb
f9
fb
fa
fe
fc
fa
ff
00
ff
ff
00
fe
ff
01
ff
fd
fe
ff
00
02
03
05
02
ff
01
00
04
02
03
ff
04
ff
03
fc
02
fa
fc
00
fe
fb
fc
ff
f9
fe
fe
fe
02
02
03
fe
07
04
06
06
08
02
00
04
03
ff
01
fc
fd
fb
fb
f8
f7
f8
fb
f7
f7
fb
fe
ff
06
07
0d
0f
12
16
12
c9
cc
d4
da
e3
e7
ed
ee
f2
f3
fb
00
ff
fd
fd
05
00
04
03
05
05
03
09
01
01
05
02
fb
fc
f9
fb
fa
fa
f5
f7
f2
f8
f8
f5
f9
f7
fa
fe
fb
00
fd
ff
fd
fa
f7
f5
f0
ee
ea
ed
ec
e9
ee
f0
ef
f4
f6
fc
fa
fe
00
03
07
06
07
08
04
02
fd
02
02
ff
00
00
04
ff
00
00
02
02
fe
01
00
ff
ff
fd
fd
fc
ff
fb
fc
ff
01
02
05
01
03
01
04
02
01
fd
fc
00
f9
fa
fc
fd
ff
ff
fd
04
04
04
ff
06
04
03
ff
04
fe
fd
ff
fe
fd
fe
fe
fe
ff
04
03
01
03
04
08
0a
09
08
08
04
07
02
fe
fc
fa
fc
fe
fc
fa
fc
fb
ff
ff
00
ff
01
02
04
02
02
02
02
00
00
05
ff
05
04
05
04
06
09
07
0d
0b
09
09
0b
09
09
07
05
02
02
fe
fb
fd
fb
fb
f8
fb
01
ff
00
02
08
07
06
0a
07
06
05
09
04
05
03
01
01
ff
fe
ff
03
05
06
04
04
05
05
05
05
04
03
03
03
04
01
04
01
01
fe
03
ff
fe
fd
fe
ff
02
0a
08
08
08
08
08
08
06
0c
09
04
05
fd
f8
0d
12
11
0e
0e
08
02
ff
08
05
0b
0e
0f
16
19
19
18
13
10
0d
0d
07
10
10
0c
0f
0b
11
0d
0b
10
12
11
14
0b
0e
0b
0d
0f
0d
0e
08
08
0e
0d
08
0a
0c
0a
07
0c
0d
0a
0d
0e
08
0c
08
09
03
06
07
06
04
07
06
05
07
05
01
02
03
03
04
08
0b
09
0a
0e
0d
0b
0e
0d
09
09
03
07
06
05
03
07
05
02
07
06
06
09
0b
06
05
02
01
03
02
fe
00
fd
fe
fc
fb
fb
03
00
00
fe
fe
fd
fe
f9
fd
fb
fa
fd
fc
fc
fe
fd
fd
fe
fd
f8
fa
fc
fa
f9
fb
f7
f8
fa
fa
ff
f9
fe
ff
f9
fe
f7
f8
f5
f7
f5
f7
f7
f5
f3
f8
fb
f5
f7
f9
fc
fa
fa
f9
f6
f3
f2
f4
f6
f8
f8
f9
f8
fa
f9
f5
f8
f6
fa
f9
fa
f5
f9
f6
f3
f3
f7
f4
f8
f7
f6
f8
f7
fb
fc
f9
f8
fc
fb
f7
fa
fb
fc
fa
f6
f8
f6
fa
fa
fa
f3
f3
f4
f3
f1
f4
fa
f7
f6
fa
fa
fd
f5
fb
fa
fb
fe
fb
fc
ff
ff
fd
ff
fd
fe
fd
fb
fb
f6
f3
f4
f7
f2
f8
f8
fc
fc
fe
01
06
09
09
03
fa
f1
e2
20
20
21
1c
21
23
20
26
25
26
26
26
27
2d
2b
25
29
24
22
1e
21
22
20
1c
20
1b
1a
20
1c
1a
1f
1d
1f
1d
18
19
11
13
0a
0b
07
06
05
0c
0a
07
08
10
0d
14
12
0b
0e
08
03
ff
f7
f1
f5
f3
f4
fd
ff
03
08
02
03
03
08
05
02
02
01
00
01
01
01
05
06
07
04
05
03
ff
fd
00
01
02
03
01
03
03
01
ff
03
03
02
ff
fa
fe
fd
fb
fd
fc
ff
fc
f9
fe
fc
fc
ff
00
ff
fc
fd
f9
fc
f6
f9
fb
fb
fa
fe
00
fc
ff
fd
00
ff
fc
fb
fe
fb
f6
fa
f6
f7
fb
fc
fb
fb
ff
fb
00
ff
fd
fc
fa
f6
f6
fa
fb
f9
fb
f7
fe
fa
fb
ff
fc
fb
fd
ff
00
fb
fe
fe
fc
f9
fc
fc
00
fc
fa
fd
00
03
00
03
02
02
03
06
05
00
ff
fe
ff
fc
fa
fd
f7
fd
01
fe
06
08
07
0b
0a
07
07
05
00
02
f9
f8
fb
f7
fc
fb
fb
00
04
05
08
0a
06
06
07
05
05
fd
fe
fc
fc
f9
f7
f9
fc
fc
fd
fb
01
ff
01
08
0a
0c
0d
0a
07
01
00
fd
fa
f8
ee
f0
f6
f8
05
0e
0e
15
0d
ff
02
fd
fe
02
01
02
01
fe
ff
ff
ff
fe
fd
01
fd
01
fd
fd
fb
fe
fd
fc
01
ff
01
00
00
03
00
04
01
03
ff
00
02
00
00
ff
01
fb
ff
ff
04
02
01
00
02
03
01
00
fd
fe
fe
00
02
01
fd
00
01
04
02
fe
00
fe
ff
fe
01
ff
fe
ff
fe
04
02
00
04
ff
01
fe
fd
fd
00
00
00
01
ff
02
03
02
06
01
02
01
01
ff
fe
fe
02
02
00
02
ff
03
02
ff
fb
fa
fd
fc
fd
fc
fe
00
02
07
03
04
03
00
06
03
ff
01
fe
fe
fc
fb
fb
fb
02
05
ff
06
ff
04
02
ff
00
fa
fb
fd
fd
00
fe
01
ff
01
05
04
06
01
fe
01
ff
fd
00
fe
fe
ff
fd
fe
ff
05
03
07
01
04
04
ff
fc
fe
fa
ff
fd
ff
fd
fd
ff
01
05
04
03
ff
00
00
ff
fb
ff
fe
ff
ff
fb
fc
fc
fd
02
01
05
01
03
02
ff
fe
fe
00
fe
fd
00
fc
fe
fd
00
02
ff
fd
03
05
01
04
02
fd
fe
fb
ff
fd
fa
fd
00
04
00
04
05
04
01
01
00
00
ff
fe
fc
00
02
ff
01
01
02
04
03
05
02
03
04
06
01
fb
f7
e2
e7
ed
f0
f4
f8
fe
fd
07
04
09
09
10
0f
12
0f
12
10
0d
12
0e
0c
0f
0c
0c
0c
07
05
06
02
00
fc
fa
fc
f6
f7
f9
f9
f5
f9
f6
f9
fa
fc
05
02
05
0a
0b
0a
0b
0e
09
0b
0b
0b
0b
0b
0c
0d
09
09
0b
0c
0c
0b
0f
0d
0d
10
11
10
10
12
10
10
0e
0b
0c
05
07
04
00
01
fe
fb
ff
fb
fc
f8
f5
f8
f3
f4
ef
ef
ea
ea
ea
e7
e9
e7
ea
ed
ea
ec
f2
f2
f6
fe
fc
01
08
0c
0b
10
15
12
16
14
12
0f
0e
0e
08
04
03
03
fc
fd
fd
fc
f7
f7
f8
fb
fc
02
02
05
02
02
05
06
07
02
03
fe
fc
fa
f8
f5
f4
f7
f6
f4
f6
f7
fa
f9
00
fd
fe
fc
fc
fa
fd
fb
f6
f9
f7
f2
f5
f9
f5
fb
fc
fc
fc
00
00
04
fe
ff
ff
fb
fc
fb
f9
f3
f4
ed
f1
ea
eb
ed
ec
ef
f3
f5
f6
f6
fa
fd
fd
05
06
04
07
06
0b
09
09
0c
09
0b
0c
08
08
0b
07
09
07
09
06
04
03
06
00
02
04
fd
fb
fe
fc
fa
ff
fa
fe
fd
04
04
05
09
06
06
0a
06
04
fd
fb
f8
f6
f4
f2
f2
01
ff
02
05
07
0a
09
0e
0a
0b
0a
0a
0f
09
09
08
07
05
06
03
01
fa
fa
fa
f4
f4
f5
f4
f6
f6
f4
f1
f3
f3
ee
f2
f1
f2
ee
f4
f4
f3
f5
fa
fb
02
01
06
08
0d
14
14
18
1c
1a
1b
1c
19
15
14
14
0f
11
0d
0c
0a
02
00
04
ff
fc
fb
fc
f9
f7
f2
f4
f0
ee
ea
ec
ed
e9
e9
ea
f3
f5
f7
fd
03
0a
0b
0f
15
14
15
17
12
13
13
12
0c
10
0a
0a
0a
07
04
fe
fe
01
ff
01
00
fd
02
ff
00
02
01
ff
00
01
fa
fe
fc
f7
f3
f1
f1
ed
ec
eb
ee
ef
eb
ee
f4
f5
f7
fc
00
01
01
06
09
06
08
07
06
04
02
fe
fd
fd
fd
fc
fd
fd
ff
fc
fc
fc
fb
fa
f8
f7
fb
fb
fd
ff
01
00
00
04
04
06
04
05
0a
0a
06
09
04
06
00
04
fe
ff
01
fb
fa
fd
f8
fa
fa
f8
f6
fd
fd
fa
fb
fe
00
01
02
04
06
05
06
06
03
02
02
01
00
fa
fa
f8
f5
f6
f7
f6
f4
f2
f1
f0
f2
f1
f3
f4
f5
f7
f5
f7
f4
fa
f8
01
fd
02
00
01
03
04
01
04
00
00
ff
fc
fd
05
08
0c
14
37
25
12
06
fb
f9
f5
f5
fb
fe
00
04
08
0b
0b
0c
12
0f
11
0b
07
06
06
02
02
05
00
01
03
06
0a
0b
0b
09
0c
0b
12
11
0d
0e
0c
0b
05
01
07
04
01
01
ff
02
00
00
ff
03
01
02
01
02
fe
fd
fc
fc
fb
fb
fb
fe
05
06
09
0f
0c
11
0e
0d
03
fc
f9
f0
ea
e5
e2
e5
ed
f2
fc
06
0c
12
1b
22
23
25
24
1e
17
11
0d
08
04
fe
03
02
07
07
06
0a
08
09
07
07
07
06
01
03
fe
fe
fb
f9
f7
f6
f3
f4
f5
f7
f6
f5
f2
f8
f7
f4
f7
f2
f2
f2
ef
f0
f1
f1
f4
f3
ef
f3
f8
f4
f8
fb
fa
ff
fc
fc
fd
fe
00
01
fe
03
ff
04
04
02
04
03
ff
03
05
00
03
02
08
07
0a
09
0b
0d
0a
0e
0b
0b
0a
0a
03
05
05
01
01
01
00
06
08
09
05
07
08
08
06
02
02
fe
fe
fd
f6
f2
f4
f7
f4
f9
fa
f8
fc
fe
fd
ff
fc
00
f8
fc
f7
f2
f7
f3
f3
f2
f3
f5
f2
f4
f7
f7
f7
fc
fd
fd
fc
fe
fd
fd
fd
00
fd
ff
fc
ff
fe
fd
fd
f7
fa
fa
fb
fa
f8
ff
07
0b
21
34
33
2e
20
16
03
fc
f6
ef
ea
e7
ea
ed
ec
ee
fa
00
02
0c
0a
10
0b
06
07
05
00
f6
f2
ef
e7
ea
ea
f1
ee
f6
f4
f9
f9
fe
fc
01
fe
fe
ff
fd
f7
f6
f9
f5
f5
f9
fd
ff
ff
04
01
ff
f9
fa
f5
ed
eb
e5
e6
e7
e7
ef
fd
07
14
21
29
2b
2a
21
1e
14
06
fd
f5
f0
f1
f8
ff
10
22
31
41
46
48
42
36
25
19
06
f8
eb
da
cd
c6
c2
c7
cc
db
e4
ec
ee
f1
f3
f0
ee
ee
ec
e8
ee
ee
f4
f8
fd
06
0b
0d
10
10
10
0d
0a
0a
04
02
03
00
fb
00
ff
ff
fe
fd
fe
fe
fc
01
00
00
fd
00
fe
01
01
01
01
00
03
02
04
05
06
05
07
09
0c
0b
08
08
0b
08
0a
05
0c
0c
0a
0a
0d
12
14
13
11
13
13
13
12
0b
09
06
06
06
00
01
00
fb
f8
f7
fb
fb
fc
fe
fd
fa
fc
fd
fb
f8
f5
f4
f9
f6
f2
f1
ee
f6
f5
f3
f2
f1
ef
f2
f1
f0
ef
f3
f4
f5
f3
f9
f4
f7
f6
f7
f8
fa
fa
f5
f9
f8
f5
f4
f7
f3
f0
f0
ef
f0
f0
ee
e9
ea
f3
f8
fc
fe
fa
03
00
06
0a
06
0a
08
ff
f9
f9
f7
fb
fb
fd
fd
00
ff
04
01
ff
fe
fa
fd
ff
ff
ff
00
00
01
01
03
04
ff
00
02
03
00
01
fe
00
00
fe
01
02
04
01
04
04
03
04
00
03
fe
fc
fa
fb
fb
fb
fb
fd
00
fb
fd
03
ff
00
fe
fe
fd
fd
fd
00
fb
fc
fc
ff
03
02
01
03
02
00
04
00
fe
02
03
03
02
06
02
05
04
01
02
03
03
04
ff
ff
fd
03
01
ff
03
02
00
05
ff
02
03
02
fe
00
fb
00
fe
fe
01
04
00
05
03
fe
fe
02
02
01
02
fe
00
02
03
03
06
04
03
00
03
00
ff
00
fe
ff
ff
fb
fe
fd
ff
fe
00
00
ff
05
01
02
03
04
02
04
01
00
ff
fe
02
01
04
ff
00
03
01
02
fe
fe
fd
fc
ff
fd
fe
01
01
fe
03
02
ff
00
ff
fd
fc
fc
fc
fc
fb
fb
f9
f8
ff
fd
00
fd
00
01
00
ff
00
00
ff
fe
fd
fd
fb
fe
fe
fb
04
05
03
04
09
02
05
01
ff
01
03
03
00
02
05
00
05
05
fe
03
01
01
03
fe
fc
00
fe
fd
fd
fc
fd
fe
ff
00
03
02
00
02
ff
08
05
04
03
06
00
fe
01
04
f4
f7
fd
fa
01
01
04
04
05
01
05
05
04
03
01
01
03
01
ff
03
fd
00
01
fd
01
00
fb
fd
fb
f8
fb
01
01
ff
01
02
06
07
04
05
09
09
0b
0a
0a
08
09
0b
07
07
07
05
01
00
ff
fd
fa
f4
f2
f5
f5
f6
f5
f6
f5
f9
fc
fe
01
ff
03
03
05
03
02
02
07
06
08
06
06
05
05
06
07
05
0a
06
0d
0b
0a
08
08
04
02
00
ff
00
fc
fc
fc
fe
f9
f7
f6
fc
f6
fc
ff
ff
fd
fd
00
fb
fe
fc
ff
fc
fd
fd
01
02
ff
02
04
05
05
09
08
06
09
07
02
01
ff
01
ff
fb
ff
fe
fa
ff
fe
ff
02
03
01
01
05
06
02
ff
03
fd
fc
f9
fe
fc
f9
f9
fe
fe
01
01
05
04
03
07
07
09
06
02
01
01
ff
fe
ff
fb
fb
fe
fe
fe
00
fd
fd
03
02
01
01
04
ff
02
00
ff
fd
fb
fa
fe
f9
fb
fd
fd
ff
fd
05
02
02
00
07
03
02
05
03
05
01
00
fa
fa
fe
ff
03
fe
02
05
04
07
06
00
02
07
01
02
01
fe
fb
fb
fc
fb
fe
f8
f6
f8
f9
fb
fe
ff
03
05
05
00
04
03
04
02
04
02
07
0b
05
04
06
01
ff
ff
fe
00
fe
ff
00
fe
00
fb
fb
ff
ff
fe
00
fe
00
01
01
00
08
04
07
0e
09
0c
0d
0c
0c
09
07
07
03
01
00
fd
f9
fc
f5
f6
f4
f9
fa
f8
f4
f5
f8
fa
f8
f8
fa
fe
fe
02
ff
04
07
03
05
07
09
0b
0e
0b
10
0f
0c
06
09
08
07
00
ff
fb
fb
fa
f8
f7
f4
f5
f6
f5
f9
f8
ff
fe
02
03
03
09
03
0a
05
06
03
05
fe
03
ff
02
02
01
fd
03
00
03
02
06
04
09
09
09
07
03
02
02
fe
fe
fe
ff
fe
fc
f9
fe
fc
f9
fd
fa
ff
fb
fe
01
02
04
01
03
04
05
04
00
02
03
ff
00
01
00
02
01
00
fc
fd
fe
ff
ff
01
ff
ff
fe
00
ff
ff
02
fd
00
00
01
fa
fe
ff
ff
ff
fb
fe
fe
ff
fc
fe
fd
fe
01
03
05
06
04
04
06
05
06
05
02
ff
01
01
ff
ff
fe
fd
fd
fd
fa
fe
fd
00
01
00
ff
fd
00
fe
fd
00
03
00
fd
fc
fc
f7
fb
fb
f7
f8
fa
fc
ff
00
ff
01
02
01
07
07
04
09
09
09
05
08
05
05
03
02
ff
00
fb
fd
fe
fc
f9
fa
f8
04
fb
f9
f9
fe
fd
01
02
04
03
05
04
03
06
01
06
fe
00
fb
fd
04
02
05
01
04
05
09
08
06
09
01
ff
03
fd
ff
00
ff
fb
00
05
07
04
06
02
02
01
01
01
00
fa
fc
f9
fa
fc
fa
00
fe
fe
01
02
00
05
01
fe
00
f9
fd
f9
f8
f9
f9
fe
fa
ff
04
05
04
09
04
03
08
01
02
01
00
fb
ff
fe
fc
fd
fd
fd
04
03
04
07
02
03
02
04
02
00
03
04
04
06
05
0a
05
04
04
01
00
01
01
ff
fc
00
fc
fd
00
fe
ff
ff
ff
05
02
02
04
00
ff
ff
01
01
fe
00
00
00
00
03
04
01
06
04
05
07
03
05
00
02
03
00
03
00
01
07
04
05
08
03
03
05
01
04
03
04
04
04
00
00
00
05
04
01
06
01
03
02
05
07
03
06
06
04
00
01
00
fd
03
fc
ff
00
01
03
02
02
02
03
07
05
06
02
03
05
05
02
fe
fd
fe
fd
fa
fa
fa
fb
01
ff
01
05
04
08
09
07
0c
08
08
06
05
01
fb
fe
fc
fb
fc
04
04
01
02
06
02
05
01
ff
03
01
fe
fe
ff
ff
00
01
01
fd
05
02
ff
fd
cd
d0
cf
db
e3
e8
f6
f8
01
0d
0e
13
13
12
11
0d
14
0b
06
01
04
fe
fd
02
01
03
02
04
06
02
fc
f9
f3
ec
e5
df
de
de
d7
dc
e0
ec
ed
f1
f7
fd
01
fb
fb
f8
f5
f6
f1
f1
ee
f1
f8
f9
fc
03
01
08
0a
0a
0a
0b
0a
06
05
05
00
fb
ff
fe
fc
fd
fe
fc
fe
01
02
05
04
00
05
02
00
05
03
02
fd
ff
fd
fe
fd
fe
fd
03
03
02
ff
04
05
01
00
02
01
01
fe
fd
fd
fb
f9
fc
fc
00
ff
00
00
fe
fe
ff
ff
fc
f8
fc
f7
fb
fd
fe
f9
fe
fd
01
02
01
03
fe
00
ff
00
ff
fd
fd
fd
fc
02
02
04
07
07
09
06
08
03
04
07
03
09
04
04
06
0b
05
05
08
06
04
09
07
07
09
05
06
09
07
0c
09
0b
06
09
06
03
02
03
02
02
04
08
06
0b
0d
0d
0e
0e
11
0a
0b
06
02
07
02
ff
fe
ff
fc
ff
05
04
05
06
0a
0b
09
0c
0c
0a
06
05
ff
ff
f7
fb
fa
fd
fe
02
ff
02
05
02
03
07
02
07
00
fe
ff
fd
f9
f9
f7
f2
f0
ea
ee
f5
f6
ff
07
0d
18
17
1f
22
17
02
ff
fe
fe
fb
fd
fc
00
01
00
01
01
06
01
01
fe
fe
01
fb
fd
fd
02
00
01
01
04
04
fe
fd
fe
ff
fc
fd
00
ff
fe
fe
00
00
02
02
02
03
fd
fc
00
fe
f9
fe
fc
fe
ff
ff
00
03
02
02
fe
00
ff
fd
fe
fd
02
02
03
01
01
02
03
fe
04
01
01
fb
fd
00
fd
fd
02
01
01
03
fe
fe
ff
03
03
fe
03
02
02
02
01
fd
fd
fd
fd
ff
00
04
03
fd
fe
03
fd
00
fc
fe
02
02
03
00
fd
fe
fd
fe
fe
ff
03
02
01
03
06
02
01
02
fe
fd
fc
fe
f9
00
00
fe
01
03
08
03
02
03
02
fe
fe
03
ff
00
fe
fe
fd
01
00
00
01
01
00
ff
00
fe
fd
fe
fc
fe
fe
01
00
02
00
01
01
00
01
04
01
00
01
02
ff
fe
04
02
01
ff
fe
02
04
ff
ff
ff
02
fc
01
00
fb
fe
fc
00
00
00
00
02
03
01
02
02
fe
fc
ff
ff
fe
fe
fb
00
01
04
01
05
04
04
03
fe
fc
f9
fa
fc
fe
01
fd
01
04
00
03
03
02
04
01
03
ff
02
fe
fd
fd
ff
04
00
ff
ff
02
03
01
03
03
06
01
00
01
7f
64
4d
37
25
15
09
04
f9
f3
f1
f3
ed
ed
f1
f5
ef
f2
f5
f3
f4
f2
f3
f8
f7
fa
fc
fd
04
03
09
0a
0a
08
09
06
05
04
05
07
01
02
00
fe
03
00
ff
01
01
02
01
05
04
00
00
00
01
f9
fa
f8
fc
f8
fb
fa
fc
fe
01
00
01
03
06
05
07
09
06
03
03
05
02
fe
00
fb
f8
fa
f9
f9
fb
00
fe
02
ff
04
01
01
06
02
02
04
ff
01
ff
02
fd
fe
ff
01
03
03
ff
04
04
04
01
00
01
01
fb
fa
fd
fa
fc
fc
fc
f9
fe
00
00
00
01
03
fe
ff
03
02
ff
03
fd
fe
fe
01
fc
fd
00
02
00
01
fc
fd
02
00
04
05
02
00
04
ff
fe
00
fe
fb
ff
fc
fd
fb
fe
01
ff
fe
01
02
00
01
fe
fe
ff
ff
00
01
01
ff
fc
fe
fb
fe
fa
ff
fe
fd
fd
ff
ff
ff
ff
00
02
02
04
01
00
ff
fe
fe
fe
fe
fd
fa
fd
fd
00
01
02
02
02
03
01
00
00
fc
00
fc
fd
00
fd
fe
fd
02
00
00
02
09
07
05
05
04
01
03
fd
fd
fc
fb
f9
f5
f6
f7
f8
f9
fe
fe
03
08
0d
11
0f
0e
11
0a
4c
37
2a
1c
16
09
07
ff
fb
fc
fd
00
02
07
02
08
08
0b
03
07
04
04
00
01
fc
ff
fc
fd
03
01
08
0c
0d
0b
0b
0b
0c
08
0c
0a
09
06
02
01
04
03
04
09
0a
09
07
07
0d
0b
09
07
0a
0a
0a
08
0a
09
0c
0a
0a
0c
0b
09
06
08
09
05
06
04
01
00
ff
01
ff
02
03
ff
03
03
09
08
07
0b
09
09
09
06
0a
05
06
04
02
00
ff
fc
00
02
ff
01
00
00
fe
04
06
07
06
07
06
06
05
09
05
00
02
ff
01
00
fc
fa
fb
f9
f9
fe
fc
ff
00
02
03
06
06
04
00
02
00
02
fe
fe
fd
f9
fa
fb
fa
fc
fc
fc
fe
fd
03
01
03
00
fd
01
ff
fd
fe
fa
fd
f6
f9
f8
fb
fd
fc
fe
fe
fe
fd
02
00
01
fe
fc
fb
fb
fd
fb
fb
f8
fc
fa
f8
fe
fc
ff
00
00
02
fd
04
fd
01
fd
fb
f9
f6
f5
f4
f3
f4
f4
f6
f9
f9
f8
fd
01
03
04
02
04
ff
fe
fe
fd
fd
f7
f3
f7
f7
f3
f7
f8
fb
fc
fb
fe
02
00
00
04
00
03
03
01
04
02
09
07
09
0a
08
07
05
04
00
f9
ea
e1
cd
b6
08
0a
0e
0f
0d
09
09
03
05
0a
07
0c
10
0f
10
15
12
0b
0a
0c
05
04
06
03
06
07
04
07
09
0c
0e
0c
07
0f
09
0b
0a
06
09
05
04
05
08
06
01
03
03
08
06
02
06
03
03
05
03
02
07
04
02
06
03
06
05
09
07
05
08
06
05
04
05
01
00
03
04
04
06
01
03
01
03
05
ff
00
02
06
04
0a
06
06
09
02
00
ff
00
fd
ff
01
ff
fe
fe
01
03
04
04
05
04
07
02
02
02
00
ff
ff
01
fd
fd
fe
fe
00
04
01
fe
01
fd
00
fd
fb
fc
f8
f8
fb
fd
ff
fd
fc
00
ff
04
00
ff
ff
02
ff
fb
fc
fc
f7
f9
f6
f7
fc
00
ff
fd
01
fe
fd
fc
fe
fe
fd
fe
fa
fb
f5
f5
f7
f9
fc
fd
fa
fe
fd
fe
fd
fc
ff
fe
ff
fe
f6
fc
f6
f3
f8
f5
f6
f7
f6
fd
fd
00
fd
fc
00
00
00
fe
01
fc
fd
f8
f7
fa
f2
f6
f4
fb
f7
fd
fc
fb
ff
fc
00
01
fb
fc
f7
fc
f7
f8
f6
f9
fc
f7
fb
00
fe
fd
fe
02
02
fd
ff
fb
fc
fc
f9
fc
ff
f8
f8
fb
03
ff
03
07
05
09
0a
07
00
f7
e4
0e
0a
12
0d
0c
0b
07
0a
02
00
0a
04
11
11
0d
0e
0f
09
05
07
09
09
04
01
02
01
fd
fd
f7
01
03
00
0b
07
09
0c
0b
09
0f
0a
0d
07
07
05
ff
01
fc
f8
fa
fc
fa
f8
f6
00
fc
03
08
0d
0d
18
15
19
1b
18
1a
16
16
10
07
0a
07
03
06
0a
09
11
14
12
14
17
15
15
10
0a
06
04
07
08
05
08
0b
0c
0e
0e
11
0c
0f
0a
02
03
02
fd
fc
01
02
fe
01
04
06
07
05
06
02
ff
fe
f7
f6
f9
fa
f8
fb
fc
fd
fe
01
ff
02
00
fb
fa
f5
f7
f1
f3
f4
f7
f8
f8
f8
fc
00
ff
00
fb
fc
f6
f4
f8
f7
f1
f4
f9
f9
fd
fd
fc
fa
fd
fb
f8
f4
f4
f5
f2
f5
f7
f9
f8
fc
ff
fb
ff
fe
fc
f9
ff
fd
fa
fa
f9
f9
fe
fc
00
01
01
07
04
06
05
09
05
03
03
03
01
00
02
03
07
08
0b
0e
0f
11
0c
0e
0f
09
07
06
05
06
07
07
06
07
0a
0a
0c
10
0f
0d
0d
11
10
10
0a
0e
09
0d
03
06
04
fd
04
0a
0c
0c
0a
0d
10
0c
10
0d
0a
04
fc
fe
f3
f1
f5
fb
04
0f
18
02
00
ff
ff
03
00
ff
fe
ff
fe
ff
04
00
ff
fd
00
fe
00
ff
fd
02
00
02
02
00
00
fd
02
fe
04
ff
01
04
05
04
05
01
01
03
03
fe
ff
02
00
00
fd
00
00
00
05
00
05
03
02
ff
fe
02
ff
ff
fd
fb
fc
fd
02
06
03
04
06
06
01
ff
fe
00
f8
fb
ff
01
01
fe
02
00
06
05
03
01
fe
ff
fd
fe
01
fe
03
04
fd
03
02
00
05
04
00
01
03
00
02
fd
01
fc
01
01
ff
05
05
02
01
04
03
03
fe
fa
01
ff
00
02
01
03
01
fe
01
00
fc
02
fe
fe
01
00
fc
00
ff
01
04
01
02
04
02
02
03
ff
ff
01
fc
fe
fc
fe
ff
05
03
01
01
04
01
01
04
00
03
02
fd
fd
fd
00
00
fe
00
01
00
ff
02
04
03
05
00
02
ff
fb
fe
fc
fa
fa
fe
02
06
00
07
03
ff
00
04
fe
01
fc
fd
fe
fd
f9
fe
fe
00
02
03
04
ff
02
03
ff
01
fd
fe
02
fd
fc
fd
ff
03
04
03
02
05
01
03
ff
ff
02
02
fb
ff
02
fd
ff
fc
00
fe
02
02
fd
ff
fe
fd
fe
00
02
fe
02
fd
ff
ff
fd
f6
ea
ef
f2
f8
f9
fe
ff
fe
02
fc
fe
fe
01
03
fe
00
fe
fe
fc
fc
fd
fc
fd
f9
f8
fc
fc
fa
f6
f8
f9
f5
f6
f9
f6
f6
fb
fb
fa
00
fe
03
ff
04
02
04
02
03
05
01
05
03
03
00
ff
fe
fe
ff
ff
fd
fb
f9
f9
f9
f5
f2
f2
f7
f7
f4
f8
f9
fb
fc
f9
00
fe
fd
fd
fd
02
03
02
fc
01
00
01
fe
02
00
00
fe
01
ff
02
04
04
07
08
08
05
04
03
03
01
01
fd
f8
f9
f7
f8
fa
fa
f9
f5
f8
fa
fb
fd
fc
fb
fd
fd
ff
ff
fb
fd
02
06
ff
03
05
03
05
09
07
09
08
09
08
07
05
03
07
02
fd
00
fb
f9
f9
f6
f7
f8
f7
f8
f9
f7
fa
fa
ff
fc
00
fd
01
00
02
ff
02
05
00
02
fe
01
06
03
05
01
03
08
08
09
08
0d
0b
0b
0b
09
07
06
04
02
03
03
00
ff
00
fd
00
01
01
03
08
0a
08
08
0a
09
09
0c
07
06
02
06
fe
fc
fc
fc
fe
f9
fd
fb
00
00
ff
ff
04
06
ff
00
02
01
ff
00
00
fc
fa
fd
fe
fe
fc
fc
fc
f6
f8
f5
fc
f7
fb
fa
00
04
0d
11
1e
25
36
eb
f2
f4
f7
f8
f9
f7
fc
fd
fd
fd
f8
fd
fc
fe
fb
00
fb
00
05
08
0a
09
07
0c
08
0a
08
07
05
00
fe
fc
fb
f5
f8
f9
f4
f4
f3
f8
f6
fa
f7
f8
fc
fc
fd
fb
ff
fb
fd
fd
04
04
02
04
03
00
01
02
02
fb
fd
f9
f9
f8
f7
f9
f4
f9
f8
f8
fb
03
03
02
02
02
03
01
04
01
01
00
fb
fc
f8
f7
f7
f7
f7
f8
f5
f8
f9
fb
f9
fe
fe
fa
00
ff
00
ff
01
04
01
04
04
03
05
02
02
05
06
06
04
00
03
ff
00
fd
fd
fa
fb
f8
f9
f7
f7
f2
f0
f3
ef
f0
f3
f7
f6
f9
f8
fd
02
fe
02
03
04
05
05
05
05
04
03
08
06
06
0a
0a
10
11
0f
11
10
12
10
0f
0e
08
08
08
03
ff
fe
f7
f3
f5
f1
f4
f2
f3
f5
f4
f7
f8
f5
fa
fa
fe
fb
fc
fe
fd
00
00
03
04
05
05
0b
10
12
0f
12
15
11
10
0f
0f
0c
08
06
06
ff
fa
f8
f7
fc
f7
fb
fa
fd
fd
ff
00
05
00
09
07
06
07
03
00
fd
fe
ff
fb
fc
fe
ff
ff
fc
00
fb
fc
f9
fc
f8
fd
f7
fa
02
03
0e
19
29
3a
4b
1f
0d
04
fc
f6
f8
fe
fb
fe
00
00
06
00
02
fe
01
ff
00
02
02
01
03
fe
ff
fe
fd
02
02
fc
fc
01
fe
01
ff
01
fe
03
fc
fe
02
fb
fe
fe
fd
fb
f8
fa
f5
f9
f9
f9
fa
f9
f8
ff
fc
fc
fd
fd
f8
fd
f7
f9
f5
f6
f4
fa
fb
fb
01
02
01
ff
00
ff
ff
f9
f7
fa
f8
f9
f5
fa
fe
fc
01
01
ff
02
01
01
00
01
ff
fb
fe
f9
fc
fa
fa
fa
fc
fb
ff
00
02
04
04
02
03
06
02
00
02
00
fe
fd
ff
00
00
fa
fb
fb
fc
fc
ff
fb
00
fc
fb
fd
00
ff
03
02
04
06
03
05
05
05
02
05
09
06
03
07
07
06
06
ff
fd
fd
fc
ff
fc
02
01
02
08
0c
0c
07
09
0a
0a
09
01
03
01
01
fe
03
02
06
05
0a
08
09
09
06
04
05
ff
fd
fb
fc
fe
fd
ff
00
06
05
0a
08
08
0a
0a
0a
05
05
03
ff
ff
ff
fd
01
fe
03
02
09
05
09
08
0a
05
03
08
05
02
ff
02
01
00
07
03
09
0c
08
09
0c
0b
09
0b
09
06
07
08
05
06
08
0b
0f
0b
0f
0d
0b
08
02
00
01
fd
0b
0d
1e
2c
d6
f3
00
12
1e
2a
2d
2c
38
2e
2c
29
1c
15
0e
0a
00
01
02
f7
fa
f6
f2
fb
fd
fc
00
04
08
09
0e
0b
0e
0c
07
05
00
03
f3
f5
f4
f0
ea
e9
ea
e8
e5
e1
e8
e7
ec
f0
ed
f1
f5
f4
f6
f6
f9
f8
f6
f5
f7
f5
f6
f7
f9
fe
ff
ff
06
03
0b
09
08
09
0a
05
03
02
fe
ff
fb
fb
fc
ff
fe
fc
fc
ff
fd
fc
fa
f7
fa
f7
f5
ee
ee
ed
f2
f2
f0
f1
f5
f7
f4
f5
f5
f5
f7
f8
fc
fd
fb
ff
fe
01
fd
01
02
07
07
07
08
06
06
08
0a
0b
0f
0f
0f
0f
0d
0b
07
08
0b
07
08
09
07
0b
0c
0f
0f
10
0d
0f
08
0a
08
03
fd
fc
f7
fa
f7
fc
fc
fe
00
01
02
08
07
02
00
01
fa
fc
fa
f9
fb
f8
fb
fb
00
fb
fe
fe
fd
01
ff
00
ff
01
fe
fe
fc
f8
f9
fa
f8
f8
f9
f7
f6
f6
fd
f6
fe
fe
04
01
05
07
0a
0a
07
06
00
fb
f8
f4
ed
e7
e5
e5
e1
e0
e9
ed
f1
f5
ff
05
09
11
15
1e
1b
21
1d
19
12
0a
04
fe
fb
f3
f2
e7
e8
e6
ec
e9
f2
f5
f5
fb
f9
03
fa
f3
00
fd
ff
05
03
04
03
07
00
02
fc
fe
fb
fc
fd
fc
fe
02
08
05
04
07
04
05
00
ff
fe
fa
f7
f6
f9
fc
fc
02
04
02
07
04
05
02
03
02
fc
fb
f9
fb
f9
f8
fc
fe
ff
ff
fe
ff
01
05
05
fd
04
fc
fd
f9
fe
fd
fe
f9
fe
fa
ff
00
fc
fe
00
03
06
04
03
05
03
02
04
03
00
ff
fb
fa
fd
ff
ff
03
01
03
04
04
06
06
ff
fb
fb
fb
fc
f9
fb
fb
04
ff
03
07
ff
00
04
00
fc
fc
f8
fa
f9
fd
00
fe
02
ff
03
ff
01
fc
01
fe
fc
01
fe
fc
fe
fc
fc
00
00
fe
04
ff
fd
ff
fe
00
fd
fe
01
01
04
02
05
06
03
04
fd
01
fc
ff
fe
00
fe
02
04
03
03
03
fd
fd
fd
ff
ff
00
fe
00
00
06
03
03
03
08
00
ff
01
00
ff
fe
fc
fe
ff
00
01
05
06
07
08
06
06
03
03
01
fd
fd
ff
ff
ff
00
04
04
06
05
04
05
01
00
01
01
fe
ff
fb
fd
fc
00
ff
02
07
0c
06
06
06
07
01
02
fe
f9
fc
fc
f9
00
00
02
00
05
06
08
05
00
01
fb
fd
fc
fd
fd
00
00
02
08
f7
fb
02
00
00
fd
ff
fc
fe
fb
fb
f9
f8
f7
f9
fa
f6
f4
f4
f7
f6
f6
f9
f7
ff
00
ff
fe
01
00
03
ff
ff
00
01
02
fe
ff
ff
f8
f8
f9
f7
fa
f8
f9
ff
fe
fd
fd
00
fa
fd
fb
f7
fb
f7
f3
f5
f5
f5
f5
f5
f8
f7
f8
f9
fe
fd
fd
ff
fd
ff
05
fe
01
fd
02
fe
02
01
ff
fe
ff
ff
fd
00
fe
ff
03
02
fd
00
03
00
fd
fd
00
02
ff
fc
01
fb
fc
f9
fa
f9
fa
fc
fe
fb
fd
fc
fe
00
00
03
03
01
03
03
03
03
fd
fd
f9
f7
f8
f9
f8
f8
fb
fb
fb
fb
fa
fa
fe
fd
00
fe
fd
fe
03
04
03
05
08
04
07
07
06
04
05
07
05
05
04
02
04
fe
00
fd
fd
f7
f9
f7
f9
fa
f8
fc
f8
fc
00
01
01
03
09
06
0e
12
11
12
15
15
14
11
12
10
11
0d
0d
08
06
07
03
00
01
ff
fd
fe
00
00
ff
fe
01
ff
00
05
00
01
00
02
ff
00
fc
fc
00
fe
fb
fc
fb
fc
fe
00
ff
04
fd
00
ff
02
06
09
05
05
06
0b
0b
09
0a
0a
0d
07
07
09
0c
0a
0c
0c
0c
0b
0d
0a
0c
10
11
d1
d7
df
e9
ee
f6
fc
00
04
05
0a
0b
0f
0f
0b
0b
0f
0f
11
0d
12
0a
0b
0e
0b
05
06
03
00
fa
f5
f4
f1
f0
e8
eb
e6
e4
e0
e5
e7
e9
e9
f0
f1
f3
fc
fb
02
02
05
07
0a
0c
0d
0b
0b
0f
08
0a
05
06
03
01
00
ff
fd
fd
f9
fa
fa
f6
f5
f9
f7
f9
f5
fb
f8
f8
f7
f8
f7
f5
f7
f4
f6
f1
f2
f0
f3
f1
f6
f5
f5
f3
f4
f8
f6
f8
fd
fb
f8
fd
f8
f8
fb
f9
f7
f6
f8
fb
fb
fc
f8
00
ff
fe
03
01
04
02
02
05
07
05
02
04
03
00
01
00
fd
fd
fd
02
00
03
01
03
04
04
03
02
03
fd
fc
f8
fb
f6
f5
f5
f7
f6
f8
f9
fe
fe
07
0a
08
0f
10
12
16
15
16
13
0f
0a
08
03
02
fe
fa
fa
f8
f8
f9
f7
fd
fb
fe
01
06
06
0a
09
0c
0a
0c
0a
05
05
06
00
fe
01
ff
00
fb
fc
fa
fe
ff
02
04
06
08
0a
0c
09
0b
0d
10
11
0d
0f
0e
0d
0f
13
11
15
13
13
0f
10
10
0f
0b
0d
0d
0d
0d
08
0c
0c
0b
0f
0e
0c
09
08
07
05
08
04
00
fd
fa
fc
fa
ff
ff
07
fb
fe
fd
fe
03
02
03
04
04
03
01
03
01
fe
ff
f9
fc
fc
fc
fc
05
06
01
ff
04
05
03
02
fd
02
fc
fe
fe
ff
00
03
01
00
01
03
00
00
02
01
ff
fd
fe
fa
fe
fa
fe
01
fc
ff
05
06
02
0a
09
05
03
ff
00
ff
fd
fb
f8
fb
f9
fb
f9
fb
fa
fe
ff
f9
fc
fc
fc
fa
fe
fa
ff
fc
f7
f6
f7
f2
f3
f7
f3
fb
f9
fc
fd
fe
ff
02
ff
03
01
01
fc
fc
ff
ff
fe
f9
fc
fe
ff
00
fe
03
01
01
04
ff
06
03
03
03
05
06
06
06
09
04
05
08
09
04
05
04
02
01
03
04
00
06
05
03
08
07
06
06
04
05
05
02
06
05
04
00
03
05
04
06
07
09
03
07
01
03
04
fe
04
02
01
03
ff
fe
00
06
03
05
09
09
0d
0b
08
0b
07
09
08
09
08
07
09
08
06
07
08
05
09
07
06
09
06
0b
07
0b
0d
0b
0c
0a
07
0a
0a
0a
08
02
05
03
05
04
06
0a
0c
0b
06
06
0b
08
06
00
01
01
ff
00
01
01
01
ff
03
00
01
02
06
07
01
03
02
04
02
06
02
05
06
02
03
02
01
fe
fd
fa
99
ab
c2
cf
de
f3
00
0b
15
19
13
13
0e
08
01
fa
f7
f5
ef
ec
e7
e5
ed
ed
eb
f6
ff
ff
0a
0f
16
1b
19
1f
1a
1a
1d
15
12
11
0e
08
01
ff
fa
fa
fb
f9
f8
fa
fc
00
02
ff
01
01
ff
fb
fa
f5
f2
f5
f3
f4
f1
f6
fa
fb
fc
f9
fb
f8
fc
f8
f9
f4
f5
f6
f4
f6
f5
f9
fd
fe
03
02
02
01
fe
fd
fb
fb
ff
fb
fc
fc
fc
fe
00
fe
fc
fe
ff
fd
fa
f9
00
fd
ff
fb
fc
f9
f8
f9
fe
fc
f7
f8
fc
f9
fc
fd
fb
fd
fd
fe
fd
04
ff
01
04
01
02
03
07
06
06
07
07
06
07
07
06
07
08
0a
0b
0c
0c
07
09
06
08
07
06
04
03
04
08
03
06
07
08
03
06
00
05
fe
00
01
fe
ff
fc
f8
fa
f4
f4
f1
f3
f1
f6
f8
f2
f8
f4
f8
f7
f5
fb
f7
f7
f7
f5
f8
f3
f3
f1
ee
e8
ea
ed
ec
f3
f7
f8
f8
fc
02
03
07
07
06
02
fd
fc
fc
f9
f8
fa
fd
ff
03
09
0e
13
1a
1d
21
21
24
27
28
25
20
1d
14
13
0a
0e
04
0b
10
0d
0a
14
19
21
23
22
2b
2b
23
26
24
11
03
fa
ff
fc
fd
03
05
02
06
01
fe
fd
ff
01
fb
00
01
ff
01
fd
ff
04
00
01
02
fc
fd
fc
fd
fe
fe
04
03
00
07
03
03
00
fd
01
fe
fc
00
00
fc
f9
01
01
fe
fe
02
01
04
05
01
05
05
01
05
02
03
04
03
04
01
02
ff
fe
04
fd
01
fd
02
00
fd
ff
fd
04
ff
05
06
02
fe
fe
00
ff
fb
fa
fe
fe
fe
02
fe
01
07
06
08
09
07
03
fe
fd
02
fb
f9
fd
fc
ff
ff
01
06
03
05
08
02
00
01
01
fe
ff
fa
fd
fb
fe
ff
03
06
03
05
04
03
02
03
fd
02
fa
00
00
fd
02
00
fe
03
01
03
ff
02
01
01
fd
fe
fa
ff
fb
fe
f9
fa
ff
01
01
02
04
01
04
02
ff
fe
fc
03
00
00
00
ff
05
04
05
05
08
04
03
01
02
fe
ff
01
04
06
05
03
03
fd
fe
fb
f9
fc
fc
fb
f8
fe
fd
00
fe
04
02
02
04
00
03
ff
ff
02
ff
ff
fe
fc
fc
fe
02
02
01
02
04
04
ff
02
fe
fd
fe
fe
fd
fb
fc
fa
fc
fd
fe
04
01
03
ff
01
fc
f8
fc
f6
f9
f9
fe
03
08
07
09
0b
04
fb
f4
e8
fe
fa
f8
f9
fc
f8
fe
fb
fe
03
01
02
03
04
04
02
03
01
05
ff
01
fb
fb
fb
f7
f7
f8
fb
f9
fe
fc
01
01
01
01
05
01
04
05
02
00
02
02
00
fb
00
fe
fa
00
fc
01
00
01
ff
03
00
06
03
04
03
01
fe
fe
fb
f5
f6
f5
f3
f5
f5
f5
f5
f9
fb
03
01
03
04
09
0d
09
0d
0e
0a
08
05
ff
fb
f6
f3
f2
f2
ef
f2
ee
f6
f5
fd
03
03
08
12
18
19
1b
1b
1a
19
13
0a
08
00
fb
ef
ea
e3
e2
de
de
dd
e4
e9
ed
f2
fa
ff
06
0c
0e
19
19
1b
1b
1a
15
13
0f
0b
06
07
01
ff
02
fb
fb
f7
f7
f9
fa
f7
f3
f8
f9
f7
f6
f9
fa
fd
ff
ff
ff
fb
fe
fe
ff
00
02
01
01
01
04
08
07
05
0b
04
08
07
05
08
06
00
00
00
ff
ff
fe
00
fc
ff
fc
fd
ff
ff
fc
00
00
02
00
03
00
fd
01
fe
fb
fb
fe
fc
fc
fe
fc
01
01
01
ff
ff
ff
ff
00
01
02
00
ff
02
ff
fe
01
01
ff
02
00
ff
01
01
05
00
fe
00
01
ff
fd
fd
ff
fe
fd
00
fe
fe
01
ff
ff
03
02
ff
01
fd
fa
fe
fc
fe
00
00
ff
04
02
fd
fe
00
02
00
fe
fd
ff
fe
ff
fe
fd
fb
fc
f9
00
00
02
ff
01
03
06
04
09
03
08
0a
08
02
00
01
ff
fe
fe
f9
f8
f9
f3
f4
f4
f4
f7
f5
f6
f9
f9
fb
fe
01
ff
ff
03
05
07
06
09
09
0a
0b
0e
0e
10
0d
10
0c
0b
07
08
04
02
fe
f6
f3
ef
eb
ec
ec
eb
e9
ef
f2
f4
f5
fc
03
06
0a
0f
0f
12
15
16
16
17
10
0e
0a
01
ff
fa
f2
f0
e9
e4
e6
e5
e3
e5
ed
f2
f5
fe
09
0f
11
17
1a
1e
1d
1b
18
13
0e
0b
01
fe
fc
f6
f0
ed
ec
e9
e8
ed
ef
f0
f0
f5
f5
f8
fb
fe
02
06
07
0b
09
0d
0f
09
0a
0a
0a
0d
0b
0a
05
04
04
01
fc
fd
fc
fc
fc
fb
f6
fc
f7
f5
fc
fa
fc
fd
fb
fe
f7
fb
fb
fe
fd
fd
fb
ff
01
ff
04
03
03
02
03
01
02
03
ff
00
01
00
fe
00
ff
fe
fe
00
fc
ff
fb
fc
fc
00
01
fe
01
fe
fc
02
00
02
ff
04
fd
04
03
ff
04
03
fd
fe
03
ff
ff
00
ff
fd
00
00
00
fd
fe
fe
00
ff
fe
fd
ff
00
fe
07
01
ff
ff
fa
fa
fd
fb
fa
00
03
fe
00
ff
04
00
00
02
fe
fb
fb
fc
fc
fc
fc
00
01
ff
02
fe
ff
fe
fb
00
fb
fe
fc
fc
00
fc
fd
ff
f9
01
fe
fc
00
fe
fc
fd
00
00
ff
02
00
fe
01
01
ff
01
02
fe
02
01
01
00
fe
00
fb
fc
fa
fd
ff
ff
fe
ff
01
04
ff
fe
ff
ff
fc
01
02
02
fe
ff
04
01
ff
01
05
04
03
07
02
04
04
01
01
fc
fe
fb
fc
f9
fe
ff
00
01
01
ff
02
01
01
fd
fb
fc
fa
fc
00
00
04
01
01
01
02
01
00
fe
fc
f5
f8
f8
f9
f9
f9
fa
02
00
03
02
00
02
02
fd
fd
fc
fa
f9
fb
fe
fb
00
00
02
00
08
07
04
03
03
ff
fb
01
fb
fb
f9
f8
fb
fd
fc
fc
fd
fe
00
02
fb
f9
f9
ff
ff
fb
fc
fe
fd
ff
fc
fe
fe
00
fa
fb
ff
ff
00
fa
fd
fd
00
01
fb
fe
00
fd
fa
fd
fd
fc
fe
00
ff
fb
ff
fd
fc
fe
fe
01
fe
ff
fb
f9
fc
f9
fd
fe
ff
04
00
03
02
02
fe
fd
fc
00
ff
fb
fb
fc
f9
fd
00
00
00
03
03
02
01
00
03
fe
fe
fa
fa
02
fb
f6
fe
fe
00
06
05
02
06
02
00
ff
00
00
03
fa
fb
fa
fc
fe
00
04
02
06
04
00
02
ff
01
01
00
f9
fe
fd
fb
fd
fb
00
01
05
fe
03
08
05
04
07
03
ff
fe
00
fe
fc
fa
fc
fd
ff
03
01
01
06
02
04
02
01
05
fe
00
01
fb
fd
ff
fe
fc
fe
ff
03
03
05
07
01
03
00
ff
ff
03
03
00
03
05
0a
06
06
09
07
06
03
06
ff
fa
f8
f7
f7
f6
f4
fb
fd
fe
04
07
0b
0b
09
08
0a
06
07
03
fc
02
fd
fe
02
05
04
05
05
03
fd
fd
f9
f5
f2
f5
f4
f7
fc
03
06
06
0e
0e
0d
0d
06
02
fb
f9
f6
f2
f6
f8
fc
00
04
09
06
0e
0c
09
00
fd
f7
ef
f0
eb
e9
eb
f2
f5
fd
05
07
0f
12
0c
0a
07
02
fc
f8
f6
f3
f6
f2
f6
00
00
03
06
04
07
04
ff
fe
ff
f8
f8
fe
f8
fb
fb
fd
fa
fd
ff
03
03
03
02
fd
00
00
ff
fb
f8
f9
fb
f9
fd
fc
00
02
fe
ff
00
fd
fe
fe
fe
fc
fb
fb
fc
fc
fb
fd
04
01
02
02
f9
fd
ff
03
03
00
02
fe
fe
fc
fe
fe
fd
f9
00
04
02
06
03
02
00
01
fc
02
03
00
fe
ff
fe
fe
fe
01
fd
00
ff
04
00
02
00
04
01
00
02
02
fc
fd
fb
00
fe
01
03
02
03
01
fe
fe
02
fe
fd
fb
ff
ff
00
03
00
01
06
01
05
02
02
01
00
ff
05
01
02
02
03
fe
00
02
fc
fd
00
03
03
ff
ff
01
fd
ff
fe
fd
fd
01
fc
fe
02
02
02
01
ff
00
fc
fa
fc
00
fc
02
ff
02
03
ff
fe
fe
fb
02
01
fd
fe
ff
01
ff
ff
ff
00
ff
fe
00
00
04
00
07
03
00
01
ff
01
00
fe
02
00
fd
fe
fd
fe
fe
01
01
fe
01
01
01
01
03
fd
ff
fd
ff
fc
00
fe
fe
05
03
01
03
01
ff
ff
fe
fb
01
fd
ff
fd
fd
03
ff
ff
00
00
00
00
ff
02
01
ff
ff
ff
02
ff
00
00
fe
fc
03
01
fd
ff
fd
fe
03
02
ff
04
01
ff
ff
00
ff
ff
fd
fe
04
00
08
06
01
08
06
02
fd
fa
fe
fe
fc
fd
fa
fe
ff
02
04
02
01
04
08
01
01
fa
f9
fa
fc
fd
fe
02
07
04
06
04
04
01
05
00
fe
fb
fd
fa
00
fc
00
03
ff
04
04
04
03
fd
fd
fd
d1
d8
e7
ea
ef
f8
ff
fc
01
03
05
05
04
02
02
04
ff
03
fd
00
01
03
01
01
01
05
02
04
05
fe
02
ff
fa
fa
f9
fb
fa
f3
f1
ef
ef
ed
ea
ea
ea
ed
ef
ef
f2
ee
ed
f2
f1
f6
f4
f7
f7
fa
fc
00
03
03
04
04
06
06
08
0e
0b
0c
0b
0a
07
08
05
06
07
03
05
01
07
06
04
03
05
05
05
01
01
ff
fd
fc
fa
00
f9
fc
fc
fb
fc
00
fd
fe
02
fc
fd
ff
fb
f9
fe
f9
f8
fa
fd
00
fc
00
06
07
07
05
09
08
05
09
05
05
02
04
02
ff
03
03
00
02
00
01
02
02
09
09
06
05
0a
08
05
05
04
05
02
01
ff
ff
00
02
02
02
01
02
00
ff
02
01
05
ff
03
04
03
05
04
04
04
01
04
02
00
03
05
05
03
04
05
08
03
05
03
04
04
01
fe
02
fd
fb
fd
f8
fb
f6
fa
fd
fe
00
fe
04
04
07
08
0d
09
09
09
0c
0d
07
0a
06
05
03
06
05
06
07
09
06
08
0c
08
08
0b
0c
0a
04
08
0a
07
09
03
04
09
08
03
05
05
06
00
fe
00
fb
f7
f8
ee
ed
e5
df
dd
dc
db
d9
06
06
07
0a
08
09
03
02
06
06
02
fe
fc
fc
f9
f8
fb
f4
f7
f7
f9
f2
f8
f4
f5
f6
f8
f8
f5
fc
f7
f8
fc
ff
ff
fe
ff
08
08
0b
10
0d
11
14
12
11
12
12
12
10
0f
12
0e
0f
0e
07
09
09
03
05
fd
03
fe
f7
f9
f7
f6
f1
f2
ee
ee
f2
ee
ee
eb
eb
ed
ee
ef
ec
f0
ee
ee
f3
f1
f3
f0
f4
f4
fa
fa
fc
ff
fe
ff
04
02
06
07
06
08
07
07
0a
0c
0c
0e
0b
08
07
0d
0b
0c
06
06
08
0a
05
05
02
04
01
00
02
fd
fd
fc
fd
fb
fb
fa
f3
f4
f3
f1
f2
f1
f0
f1
ef
f1
f0
f3
f3
f7
f9
f9
ff
01
02
02
04
0a
08
06
0c
09
0a
04
01
02
02
fb
fa
fd
fb
01
01
00
04
08
07
0a
10
0e
13
10
0e
0f
0d
0b
06
05
00
03
fc
fa
fe
f7
f8
f7
f6
fb
fc
fc
fd
fe
fb
fd
00
fd
02
fd
01
fe
fb
fa
01
fb
00
fe
fd
00
04
08
06
08
0e
0f
0c
10
0e
0d
10
0a
0b
09
06
06
02
04
fe
00
fd
fc
fb
f8
f9
fb
f7
fa
f6
f4
f9
f7
f2
f6
f9
f8
ff
fa
04
05
0e
17
21
30
1e
0e
06
04
fd
01
02
07
07
0b
0b
09
0c
09
0c
07
0a
08
08
05
06
08
05
01
03
03
01
00
fc
fd
02
02
00
ff
02
ff
01
07
02
05
00
04
03
00
02
03
00
05
07
03
05
08
05
04
06
01
04
01
00
fc
fa
fa
fd
f7
fd
fc
f9
fd
ff
fc
fd
fb
fa
fb
f8
f9
fd
ff
02
00
04
06
08
08
08
06
04
05
06
05
01
05
01
fe
02
02
05
04
05
0a
05
0a
05
08
08
06
07
06
07
07
03
09
08
09
0c
09
0d
0b
11
0b
0a
0c
08
07
05
05
06
00
03
04
00
04
05
03
00
01
ff
ff
00
fd
ff
ff
fd
fb
fb
fc
fd
fb
fc
00
01
00
02
00
01
01
fc
ff
fa
f8
f9
f6
fc
fc
ff
ff
04
09
06
09
06
0a
08
07
05
04
07
04
05
00
ff
ff
fe
fe
01
04
05
06
05
02
00
00
fb
fb
f9
f5
f5
f4
f1
ef
ed
f3
f2
f1
f1
f8
fe
fc
00
00
00
02
00
ff
fc
ff
f9
fa
f8
f8
f9
f8
fb
fb
fc
fa
f7
f3
f6
f0
ed
ef
ed
ec
e9
ee
ef
ed
f9
fc
fa
fe
fb
01
03
fc
fe
ff
fe
fd
f7
01
02
07
0f
0a
17
24
27
2a
2c
29
25
2d
2b
25
21
1e
19
13
14
14
19
1b
19
15
18
19
1f
1d
23
24
2a
2a
2f
33
39
39
3d
3c
3d
31
30
29
22
17
12
00
f7
eb
e3
e0
dd
d7
d3
d6
d8
da
dc
d8
de
df
dd
df
db
df
de
df
e3
e1
e4
ea
e9
eb
ed
ec
ef
ec
f0
f3
f2
f6
f5
f9
fd
05
02
07
07
0c
0a
06
05
04
05
04
fe
03
01
03
01
02
02
03
04
05
00
fc
ff
f8
f5
f8
f1
f0
f7
f7
f6
fd
f9
fb
fb
fb
fd
f8
fd
fc
fa
fa
fd
fd
fd
04
06
09
0a
07
09
0a
0d
0c
0b
07
08
07
07
0a
0a
07
09
09
0a
0e
0b
0b
0d
0b
07
09
08
05
03
fd
fb
01
02
01
00
02
fe
fb
fe
fc
fa
fd
f9
f7
fa
fb
f9
f6
f6
f6
f6
f6
fa
f7
f8
fb
fa
fc
f8
fd
f8
f8
f8
f7
fc
ff
00
02
05
06
08
06
0d
0f
0e
10
14
10
0d
0e
0d
0d
0d
0c
10
0d
0a
10
11
16
17
1e
22
20
1e
19
11
03
fb
f0
e6
dd
d5
d0
d0
c9
cb
ce
db
dc
de
ea
eb
f0
f6
f2
e9
e2
e2
dc
d5
d0
da
d6
d4
d8
e4
e2
ec
04
03
06
06
01
02
05
01
01
fb
fb
fc
fa
fa
f8
fd
00
03
04
03
05
08
06
02
fd
fa
fb
f7
f9
fc
fe
00
01
05
03
04
04
05
00
01
fc
fa
fc
fc
f9
fb
01
fe
03
06
04
08
06
08
06
00
fd
fb
fc
f7
f8
fc
fb
fb
ff
fe
02
04
03
01
02
fc
fd
fb
f8
fb
fc
fb
fd
ff
ff
fd
00
00
00
00
fb
f9
f9
fa
fc
fe
fe
01
fe
00
02
01
ff
ff
fe
f9
fd
fe
fa
f9
01
00
fa
fe
00
02
03
06
06
04
ff
02
03
fe
fe
fa
fa
fe
fb
ff
05
05
06
08
06
06
05
04
03
03
05
02
ff
fd
f9
fc
fb
fe
ff
00
03
06
03
04
03
04
01
01
fe
fc
fe
fc
fb
fe
00
fd
fd
ff
fd
01
00
01
fd
fe
fe
02
fe
fc
fb
fc
f9
fc
fc
fd
02
02
05
02
04
07
03
05
05
ff
fd
01
fb
fd
fc
fe
02
ff
00
03
04
06
03
08
04
01
03
04
07
04
01
02
ff
fe
01
02
ff
02
00
04
0a
0a
0b
0a
0b
0a
08
03
00
fe
f7
f8
f5
fa
fc
02
04
04
0a
09
07
05
08
02
ff
fb
f7
f6
f4
f6
f9
f8
01
08
09
18
05
04
0a
0b
0e
07
07
08
05
06
01
06
02
05
03
07
05
07
0c
0f
0b
0f
0c
0f
0f
09
0c
0b
07
04
03
05
fe
fd
fc
fd
fe
ff
ff
fc
fe
00
02
04
06
07
08
05
07
03
08
08
07
06
05
07
06
04
05
07
02
07
ff
00
fe
01
01
04
01
03
06
02
07
05
09
07
06
0c
0d
0b
0c
07
06
0a
04
05
03
fd
ff
00
fc
ff
00
ff
05
04
07
03
02
02
05
06
02
01
03
01
01
03
03
05
ff
03
04
07
02
06
03
02
03
04
03
02
00
03
fe
02
fb
ff
fb
fc
fe
fd
fb
fe
fc
fd
00
00
ff
02
00
02
00
01
ff
ff
03
01
02
01
ff
fe
01
fe
fe
fc
00
ff
fc
fe
fd
02
ff
ff
01
00
05
ff
01
ff
fc
fb
f8
fd
f8
fb
f6
f9
fc
f9
fc
f9
fb
00
01
00
ff
fe
fd
ff
fb
fd
fa
fe
fb
fc
fa
fd
f9
ff
ff
fa
fa
fe
fb
f8
fe
fc
fd
fe
fc
ff
01
00
02
02
01
06
00
00
ff
01
fb
fc
fb
fa
f4
f0
ed
f0
f0
ef
ee
f5
f5
fc
fd
ff
09
06
09
12
12
13
14
11
0e
0e
08
04
f9
f1
e4
d7
cc
ba
e7
ec
ef
f4
fb
ff
00
01
01
02
04
06
02
04
05
03
05
05
03
ff
02
fe
00
04
01
04
02
02
02
04
05
0a
09
07
04
01
04
00
00
ff
fe
ff
02
00
ff
02
00
05
07
06
08
06
0a
06
0a
06
04
05
09
07
05
06
02
01
04
03
04
05
04
02
05
02
02
05
04
fe
00
01
02
00
01
ff
01
00
02
04
04
02
05
02
06
05
03
06
02
09
07
09
09
07
02
01
03
ff
fe
00
fc
fc
fa
fc
fb
fe
02
00
03
03
06
06
03
05
07
04
04
02
06
00
02
02
01
01
01
03
03
01
04
02
06
01
00
03
fe
02
fd
02
02
01
ff
02
01
00
00
01
01
05
ff
ff
fe
01
fd
fb
ff
fc
00
ff
04
fe
fe
ff
01
00
05
01
ff
03
01
02
01
ff
02
fe
fc
fd
fd
fa
ff
fe
fc
00
fe
00
00
00
00
01
01
02
04
ff
00
02
fd
fd
fb
f9
fa
fb
f7
f7
f9
f9
fd
fe
fe
02
04
04
05
01
06
06
04
00
fd
f9
fb
f5
f6
f7
f1
f5
f4
f1
f5
f3
f5
fd
fb
01
01
06
09
0e
16
12
15
18
14
14
0f
0a
07
fa
ec
d7
c2
ac
19
16
0e
06
00
fe
fb
f7
f8
ff
fd
fb
01
02
01
05
03
00
fe
01
fe
ff
ff
02
00
06
04
04
03
04
00
fe
fc
ff
fc
fd
f6
fa
f9
f5
fe
f8
fa
fe
fd
f9
fe
fd
fd
fe
ff
f8
fb
fc
f8
f9
f5
f9
f8
fa
fb
fe
02
00
01
03
06
00
02
fe
fe
fd
fa
f7
f5
f9
fa
f7
fc
fa
00
ff
fc
ff
02
02
01
fe
03
fb
fd
f9
f8
f9
fd
f9
fe
00
fe
01
ff
fd
ff
00
ff
02
02
03
fd
ff
ff
01
00
fb
fc
ff
fd
fe
fe
00
01
02
02
07
04
03
02
06
00
00
01
ff
01
00
fc
fc
fd
01
ff
fd
04
02
05
04
04
06
05
04
04
01
00
00
01
05
03
03
01
03
03
02
00
04
03
04
07
07
06
03
02
07
05
02
01
00
01
00
01
02
05
03
06
04
02
05
04
03
03
03
00
03
02
06
02
04
04
01
06
04
04
01
04
01
03
ff
03
02
05
00
03
01
fe
ff
05
01
02
fe
03
01
00
01
00
01
ff
ff
02
05
04
01
00
02
04
03
09
07
04
03
04
05
05
03
02
07
03
02
00
05
04
02
01
00
02
ff
02
fb
f9
ec
2d
2c
2b
25
1f
15
0a
0a
04
05
01
00
ff
ff
fb
fe
02
fe
01
03
02
03
03
02
04
fd
ff
00
fc
f8
fb
fc
fe
f8
f5
f0
ec
ea
ec
ec
ed
f5
f6
f0
f2
f6
ff
00
01
0d
0d
12
14
12
14
0c
0c
07
01
01
00
01
fd
fb
ff
fa
fd
01
02
ff
04
07
06
09
08
0e
0f
0e
0c
0c
0b
0a
09
06
01
01
05
04
07
0b
07
0b
0c
0a
0b
0d
0d
09
03
05
04
01
fe
ff
03
04
04
02
04
0b
08
09
03
03
ff
02
fe
fd
ff
fd
fd
fd
01
05
01
ff
ff
00
01
fd
f8
fa
f7
f7
fa
f5
f8
f7
fd
fb
fc
fb
fc
fc
fd
f9
fa
f7
fc
f7
f8
fb
f9
fb
fb
f9
fb
fc
fd
fc
fd
ff
fc
fc
fe
01
00
ff
00
ff
00
fe
fd
fb
fc
fc
ff
ff
03
00
02
00
03
06
06
00
00
fe
ff
fd
fd
fe
ff
00
02
04
08
08
08
07
06
09
08
02
01
fd
ff
fc
fc
fb
fa
fb
02
04
04
05
06
04
07
03
03
fc
f8
f9
fe
fc
fa
fa
00
fe
fb
fa
fa
f7
f1
f3
f5
f7
f6
f4
fb
fd
03
04
03
ff
f9
fe
fe
f9
f8
f3
ee
ec
ed
fb
fe
ff
03
fe
00
04
04
ff
ff
fe
01
ff
fa
fc
fc
fe
fd
01
03
03
fd
02
02
03
01
fe
fb
fb
fb
fd
ff
02
01
02
03
00
03
01
00
01
02
fe
ff
fe
fc
fd
ff
fa
fe
01
01
03
01
05
05
04
01
03
fc
fd
ff
fc
ff
02
04
ff
01
05
05
03
02
ff
ff
fc
f9
00
fe
fe
ff
ff
02
03
02
01
03
03
04
02
ff
ff
fc
fc
00
fe
fd
ff
01
01
03
05
03
01
ff
02
fe
ff
fe
01
00
04
01
02
04
05
03
ff
01
fe
ff
fd
fe
03
ff
03
00
00
01
04
03
02
01
fd
fe
fe
fc
fd
ff
fd
00
03
00
01
02
01
05
01
02
04
00
01
01
fc
ff
fb
04
01
02
02
02
00
03
fe
01
02
fe
03
02
fe
01
00
fe
01
02
00
03
ff
00
00
ff
00
00
03
fe
fd
ff
fe
ff
fe
04
ff
02
02
fe
00
00
02
04
05
02
00
ff
02
fa
fa
fa
00
fe
fc
fe
00
03
01
05
01
00
02
02
ff
ff
fb
fa
fb
00
ff
02
02
05
02
07
01
03
03
02
fd
fa
fc
fb
ff
fd
ff
fe
02
ff
02
01
03
01
fe
00
00
fb
fb
01
ff
00
01
f0
f0
fa
fa
fc
fa
ff
03
02
04
05
03
09
03
05
03
07
04
fb
fc
fb
fa
f9
f3
f8
f6
f6
f8
fd
fd
ff
05
0a
0d
0b
0c
10
0e
0e
0c
09
0a
04
07
00
fe
f9
f7
f8
f7
f6
f5
f8
f8
f8
fb
f8
f9
fd
fd
01
03
05
04
06
01
05
01
fe
fe
ff
fc
fa
f9
f9
fa
f9
fe
fa
fe
00
fe
02
03
05
03
00
04
05
04
01
00
00
02
fd
fe
ff
02
01
ff
02
01
04
00
01
06
04
07
08
05
05
04
06
01
03
01
00
fd
fd
f9
fc
fc
f9
fd
ff
fb
fe
01
fe
01
01
03
01
04
00
ff
01
ff
ff
02
02
fe
fd
01
fd
fe
01
03
03
05
02
04
04
00
02
03
03
00
02
fd
00
00
ff
00
fd
fb
fc
fc
fc
fe
fd
00
00
07
05
09
06
08
04
03
03
00
00
00
00
fe
00
ff
fe
00
fe
02
fe
03
06
08
07
07
08
02
05
02
05
02
ff
fe
fd
fb
fd
fc
fa
fc
ff
fa
fc
fc
fc
02
02
ff
ff
04
04
06
03
06
02
00
01
01
01
02
fe
fe
00
03
01
ff
00
03
fd
ff
ff
01
fe
fe
00
02
03
04
04
05
02
00
fe
f9
17
13
09
0a
04
04
05
01
06
06
06
03
03
02
00
ff
00
ff
fd
f9
fa
fb
fb
fc
fb
fc
fb
01
00
03
08
0c
0d
10
10
0a
0a
09
09
04
01
02
ff
fe
fb
f5
f7
f4
f6
f7
f8
fa
f8
fe
ff
ff
03
03
07
06
09
07
0b
07
0b
03
06
07
06
00
00
fe
fe
fe
fe
01
05
01
00
04
02
03
04
03
02
02
01
03
06
04
04
03
01
01
fe
02
00
04
fd
fe
fd
00
fc
fd
02
fe
00
00
01
00
ff
fd
ff
fe
f9
ff
ff
fc
ff
00
00
fe
02
06
01
04
04
09
04
07
07
03
02
04
04
00
ff
fe
fa
fe
fd
fe
fa
ff
fe
fd
ff
01
00
05
00
03
01
05
00
01
02
fc
fe
01
00
fd
fc
fc
ff
fe
02
02
03
ff
ff
03
00
fe
01
04
00
fb
02
00
fd
fb
fc
00
fd
fe
00
00
ff
00
fe
fe
00
fc
fd
fc
fe
ff
fc
fc
fd
fe
fc
00
00
00
ff
00
01
03
05
02
04
ff
02
ff
01
02
02
ff
00
fa
fd
f9
f7
f7
fa
fb
fc
fa
fb
f7
fd
fb
fb
02
01
05
07
06
0a
09
08
08
06
09
07
0a
03
03
fd
fc
f3
ee
e5
db
2d
18
08
00
f7
f7
f8
f4
fe
fe
05
08
08
09
09
0e
0b
05
03
ff
05
00
fd
00
01
ff
00
05
02
09
05
09
08
07
02
03
00
fc
fc
fe
ff
ff
fe
ff
02
02
06
08
08
05
07
06
00
01
ff
fb
fd
fd
fe
fd
fd
fe
00
05
06
02
09
02
04
07
02
03
02
02
01
ff
01
01
00
01
01
02
fe
01
fd
01
00
02
03
fe
02
fd
03
02
00
01
01
fd
02
02
02
ff
00
01
03
ff
05
05
02
ff
04
03
00
01
ff
00
04
04
05
03
05
03
03
ff
fe
01
00
ff
fd
ff
fe
01
ff
05
01
03
06
02
03
01
03
fe
fd
ff
01
ff
fe
00
fe
05
01
03
04
ff
01
01
02
ff
02
fe
04
ff
02
01
02
ff
02
fd
03
04
02
02
04
01
02
00
01
ff
02
03
01
02
04
05
05
07
04
02
05
00
fe
02
ff
fd
fa
fe
fc
ff
fd
01
ff
ff
03
02
06
06
05
04
04
05
01
04
01
04
00
00
02
01
fe
06
00
00
fe
fc
01
01
fd
00
fe
ff
01
02
04
02
00
fd
00
fc
ff
fe
fe
fd
00
fe
00
05
03
03
06
06
04
ff
01
00
fb
fc
fd
04
fe
fe
f7
f2
eb
e9
e6
e7
e8
e7
e8
e7
e4
e9
ea
f0
f0
f3
f1
f6
f9
fa
fa
fa
f8
fa
fd
04
04
04
02
01
00
fc
f8
f4
f2
e7
eb
ec
ed
e2
e6
eb
eb
ee
f0
f6
f8
f8
f9
fb
fe
ff
fe
fe
02
01
04
03
ff
00
01
01
06
03
02
02
06
03
07
0a
06
09
07
04
06
02
06
03
05
04
06
03
06
08
05
08
05
04
05
05
00
01
01
03
01
fd
01
03
03
05
00
04
01
03
01
03
00
ff
04
02
ff
fd
fd
ff
fe
ff
00
00
ff
ff
01
01
fc
ff
fd
01
fc
00
ff
00
fc
00
fe
fc
fc
ff
00
00
fd
fc
ff
fd
fe
ff
ff
ff
03
ff
ff
02
ff
ff
fd
fb
fc
fe
01
02
07
02
05
05
06
02
01
fc
fd
fd
fa
f8
fd
02
02
07
06
09
0b
05
06
02
03
fc
fa
fa
fa
fa
f7
f8
00
01
05
09
0a
0b
09
0b
09
0a
fd
fd
fb
f6
f8
f4
f5
f7
fd
01
04
0b
0f
13
15
0d
10
09
05
fc
fa
f7
f5
f1
f3
f2
fb
01
06
0f
0e
16
1d
20
20
1c
1b
11
0f
05
fa
f1
e4
e3
da
d6
d7
df
e9
fd
0d
2b
45
61
ff
fd
00
01
00
03
03
03
02
01
fc
ff
ff
fc
fe
fd
fd
ff
01
03
04
04
02
04
05
01
00
fa
fc
fb
fd
00
ff
01
04
05
03
03
02
01
fe
00
01
00
00
fb
ff
02
fe
02
04
fc
ff
01
03
00
00
01
00
fc
00
fe
02
00
04
00
02
04
fe
ff
fd
00
fe
02
fe
01
01
03
04
02
03
00
00
03
fd
fb
fb
00
fd
ff
00
04
03
05
03
ff
05
ff
ff
02
ff
ff
fc
fe
00
fd
01
ff
01
01
02
01
05
00
03
01
03
fe
03
fe
fd
00
01
fe
00
02
00
01
03
02
ff
02
03
05
00
03
01
02
ff
00
fe
fe
03
fc
00
01
00
03
02
01
00
fc
fd
fe
ff
fe
01
ff
00
01
fe
01
01
02
02
04
01
00
ff
ff
03
03
02
ff
ff
01
01
00
ff
00
00
02
01
01
01
01
fe
ff
fb
fa
fe
00
fb
01
04
00
01
01
04
01
ff
01
fc
fc
01
fe
00
01
01
00
00
01
01
01
00
01
00
03
02
00
ff
fc
fc
fd
00
fd
fe
00
04
00
01
fe
fc
fc
fb
00
ff
fc
fc
01
03
01
04
02
ff
00
05
00
ff
ff
fd
fe
fd
fa
fc
fe
01
ff
ff
fe
00
04
04
09
07
0a
09
08
06
03
08
03
04
01
00
01
fb
fd
fc
ff
fd
ff
fe
01
05
03
08
0c
10
0e
0d
10
0c
0a
0a
05
01
f7
f8
f3
ea
eb
e8
e2
e0
dd
da
d6
d7
db
d9
dc
dc
d9
e0
db
e0
e0
e7
e8
ec
eb
f3
ef
f8
fa
fc
fb
00
03
07
0a
0c
0d
0c
0c
10
10
10
13
11
12
12
10
0f
0f
14
10
11
0d
0f
0a
0d
0c
0a
09
06
07
07
0d
0c
0f
10
14
16
14
17
18
1a
19
1c
1b
17
12
10
12
0c
08
09
0b
09
07
0c
0a
0f
11
0e
12
18
14
1b
1b
1d
1a
1d
1c
1e
1d
1c
18
1a
1d
1a
18
1a
14
16
14
0c
0b
08
02
00
fc
f7
f3
f4
ef
ee
f0
ef
ef
f0
ed
ef
f5
f2
f2
f1
f4
f3
f4
f1
f2
f1
f1
ea
ee
eb
ec
ec
f0
ed
ee
f3
f5
f6
f8
f4
f7
f9
f7
f7
f7
f9
f9
f5
f5
f9
f9
fa
fa
f9
fc
fe
00
03
07
08
07
05
04
07
07
04
ff
fd
01
fa
f8
f6
f6
f4
f2
f1
f1
e8
e6
e6
e4
e3
de
de
d7
d6
d7
d4
d6
d5
d7
d9
dc
e2
e9
eb
f2
f9
01
01
08
0d
0b
d0
d3
d5
d9
db
e2
e8
e8
ee
ee
f7
f8
fb
f9
fa
fb
fb
f9
f6
f6
f8
f8
f9
f6
fe
00
01
03
05
08
0a
11
10
10
0e
0e
0a
07
02
06
ff
fe
fd
f5
f8
f7
f7
f5
f8
f6
fb
ff
fd
fb
00
fd
fe
f9
f6
f7
f2
f0
ee
ed
e7
e7
e6
ea
ec
eb
ee
ef
f2
f2
f7
f9
fa
fb
fe
ff
f9
f9
fc
fa
fb
fa
f3
f1
f4
f3
f2
f4
f5
f2
f4
f1
f4
f3
f8
f6
f7
f5
f7
f6
f4
f4
f6
f6
f5
f4
f3
f6
f7
f9
f8
fa
fb
fe
fd
f9
fd
fe
fe
00
02
03
04
05
08
0b
0d
0c
0e
0b
0c
07
04
00
fb
f8
f7
f2
f1
ef
ea
f0
ed
ee
f3
f5
f6
fa
fe
fe
fe
00
02
05
01
04
00
05
04
04
08
0a
0a
0b
10
15
15
17
1b
1d
1d
1a
1b
1c
19
1a
13
12
0f
0d
0e
0b
0e
0c
09
0b
0d
0a
10
0e
0f
12
0b
0c
0a
09
0c
09
0a
08
03
05
06
06
08
0c
08
0d
11
0e
10
14
11
0e
0f
0e
0e
08
08
06
08
06
02
00
04
00
01
05
02
00
03
ff
03
00
fc
00
ff
fd
06
05
0a
0f
15
18
20
25
29
2c
2b
2f
2b
26
bb
c7
cf
d3
d7
dc
dd
dd
df
e0
e2
e6
e5
e7
e9
ea
e7
ea
ea
e9
e3
e7
e5
e4
e5
e1
e5
eb
eb
ec
ec
ec
ef
f9
f4
f6
f3
f5
f6
f7
f6
f6
f6
f3
f5
f7
f7
fc
01
01
04
0c
0e
0e
0e
11
10
12
13
11
11
10
0f
10
0f
0f
0e
14
16
14
18
1a
18
18
16
17
13
12
12
0c
0d
0b
06
04
06
08
08
05
05
02
05
00
00
ff
fb
fc
f9
f5
f4
f3
ed
ec
ef
ed
f0
f2
f6
f9
fe
03
06
09
10
0d
0d
0e
0f
09
0a
07
06
01
04
05
08
05
0a
07
08
0e
0e
10
0d
10
0d
10
0f
0a
0a
0d
0b
09
08
08
05
04
02
02
00
00
01
03
00
00
fe
02
fe
fc
fd
fc
fb
f8
fb
f7
f8
f5
f6
f4
f6
f5
f9
f7
fd
f9
fa
fb
00
fe
fd
00
00
ff
fe
fe
fc
fd
fc
fc
fa
f7
f5
f5
f4
f7
f6
f6
f5
f6
f4
f2
f4
f5
f4
f3
f7
f9
fb
fd
fa
ff
03
05
09
0b
08
09
0f
0b
0d
07
05
02
01
f8
f8
f7
f2
f5
f9
f8
fc
ff
06
07
0e
10
0f
14
17
18
14
17
11
10
0d
0b
09
09
0b
08
0b
10
0f
10
0b
08
01
f9
f4
ed
e9
e4
da
d8
d0
d1
ce
ce
d6
e3
ea
f4
00
0b
16
25
2c
36
3b
39
39
34
35
31
25
26
21
17
12
12
0f
0a
07
07
02
04
05
07
04
07
09
0d
10
13
1b
1f
1c
20
1d
1e
1a
17
16
0e
05
02
fd
f1
ef
e7
e1
db
d9
d1
d2
d3
dd
dd
e9
f1
f9
03
07
0f
15
16
1d
18
15
14
0c
0b
07
06
01
00
01
03
06
06
05
03
02
07
01
fe
fd
f8
f4
ef
ed
eb
ed
f0
f2
fa
fb
00
02
05
06
09
0b
0b
0f
0f
0e
0e
0b
0d
08
0b
06
04
05
03
ff
01
ff
fb
ff
fc
00
fe
00
02
fd
02
03
00
fd
fc
fd
f7
f9
f2
f1
f1
eb
f0
ee
ee
ed
ef
f1
f3
fb
f9
fd
ff
ff
00
00
04
02
05
06
04
03
02
00
05
fe
ff
02
fd
ff
00
fd
ff
fe
fd
fe
05
02
07
08
06
07
04
06
04
ff
01
00
00
00
02
ff
fd
ff
03
00
07
05
07
09
05
08
0a
06
05
00
fd
fd
fb
fa
f7
f5
f9
f9
f7
fb
f8
fd
ff
fe
01
09
06
0a
0b
12
13
0d
0d
09
08
02
00
fa
f2
ef
f0
f4
f8
ff
0b
15
13
17
19
f7
fa
fa
fc
fb
fb
01
00
04
08
07
0e
0c
0c
07
02
03
00
00
fe
fd
fe
ff
01
03
06
02
04
03
01
04
03
01
ff
fc
fa
fe
fb
fa
fa
f8
f6
f3
f6
f2
f0
ed
f2
f2
f0
ef
f1
f3
f9
ff
fe
ff
00
02
04
00
fe
ff
fe
fb
f7
f7
f4
fa
fc
fa
fb
03
02
02
04
fe
fd
fc
fc
fa
f8
fa
f8
f8
fa
00
fb
00
fb
fa
f8
fc
f8
f6
f6
f8
fb
f7
f9
f7
f9
f7
f4
f8
f9
f9
f9
fb
00
fe
ff
05
09
0c
0c
0b
08
05
02
02
ff
f9
f6
f4
f6
f4
f2
f5
f7
fd
fe
06
08
0b
0a
0d
0a
0b
08
06
03
00
01
fd
01
01
07
03
05
07
04
04
01
02
03
04
ff
fe
00
01
01
04
00
05
ff
04
fe
fe
01
00
ff
fd
fd
ff
02
05
0c
0c
0b
0f
0e
0e
0e
08
08
01
05
02
ff
fc
fe
fc
fc
ff
fe
03
02
01
06
05
05
03
05
03
04
fe
fe
01
fd
fe
00
01
01
05
05
08
05
05
07
01
03
01
01
00
04
00
06
03
09
05
07
0e
0b
0f
0a
0d
0e
09
08
0d
09
0a
0b
0a
0a
0a
0a
06
08
02
01
ff
fc
fc
f8
fe
ff
02
01
fe
02
02
fd
fc
fb
fe
fb
fb
fd
fc
fe
fb
ff
fe
fb
fe
fe
fc
fd
00
fe
fd
ff
ff
fe
02
ff
ff
00
03
08
05
06
06
08
04
08
04
04
02
02
fe
fd
f9
f7
f7
f8
f4
f1
f5
f1
f3
f5
f5
fd
fb
fe
01
02
07
06
08
06
03
02
03
00
ff
00
fe
fe
fe
fd
fe
01
fc
ff
02
00
02
02
00
03
04
01
00
02
fd
fc
02
fd
01
00
fd
04
00
00
00
ff
fd
00
fd
fd
fb
ff
ff
00
01
01
02
00
ff
00
03
04
06
03
ff
05
00
04
fe
ff
02
00
03
fd
fb
00
fd
00
00
00
00
fd
fc
fe
ff
fd
fc
00
fd
01
fd
fc
f9
fa
ff
fe
fd
fc
fc
03
05
02
04
03
03
07
06
05
06
02
06
02
06
05
06
00
03
06
01
01
00
02
ff
fe
ff
01
02
fe
fe
00
fd
fe
fc
ff
fc
ff
02
03
02
fe
02
fd
ff
01
00
04
03
01
01
fd
01
01
fd
fe
00
01
fd
00
fe
fd
fc
01
03
ff
ff
04
ff
00
02
03
04
05
03
04
01
08
07
08
07
04
09
05
03
01
fd
fb
fb
fb
f8
fd
f5
f7
fd
fc
01
09
0c
17
08
07
04
03
03
01
01
ff
04
02
04
00
07
08
07
09
06
04
08
07
04
02
03
01
01
00
00
00
fd
02
ff
fe
fd
ff
02
fc
fc
fc
fe
ff
fb
01
fe
fd
fc
fd
01
ff
02
00
06
05
06
07
07
06
0a
0a
0e
08
0a
06
08
04
02
ff
02
00
fe
fd
fa
f8
f8
f5
fa
f8
f8
fc
fe
fb
ff
03
04
08
08
08
05
07
09
05
03
01
01
fc
fa
f5
f8
f4
f5
f4
f9
f9
f8
fd
02
04
07
04
06
07
07
04
08
01
05
05
fe
ff
fe
00
fa
fd
fd
ff
fe
fd
00
03
03
04
04
01
04
03
ff
02
00
00
fc
00
00
00
01
fe
03
02
00
02
ff
00
00
03
01
ff
fd
ff
fc
fc
ff
fe
fc
fc
fa
fb
fe
f9
fc
fc
fe
00
01
ff
fc
fe
01
01
02
fb
04
fd
00
fe
fd
fb
fb
fe
f9
fc
fd
fe
fc
00
00
03
ff
02
01
03
06
03
01
fd
fe
fc
fe
fd
fc
ff
fc
f9
f9
fa
f7
f9
f9
fa
fc
fd
02
00
05
01
01
03
04
01
07
04
0a
08
08
06
05
03
00
04
01
01
fa
fa
fa
f8
f5
f5
f0
f2
f3
f6
f2
f8
fc
01
04
09
0d
16
09
07
03
06
05
03
05
03
0d
08
0c
09
05
05
01
01
00
fe
fe
fd
02
fd
fd
03
01
06
06
07
07
08
04
05
08
03
03
00
00
ff
02
06
09
0a
09
09
0d
06
03
06
ff
fd
fc
f8
fb
fb
f8
f9
fe
01
00
ff
07
03
05
04
08
06
08
03
00
05
03
02
fe
fc
fe
01
ff
fb
00
fe
00
ff
00
03
02
ff
00
03
01
01
00
00
04
06
01
01
01
00
01
02
04
fe
03
00
01
06
06
07
01
00
ff
fd
fd
fe
fb
ff
fc
fe
01
03
03
02
03
05
06
05
02
fe
ff
02
01
fd
fc
fe
02
03
00
03
01
02
03
05
03
02
03
03
ff
ff
01
00
03
fd
00
ff
03
ff
ff
ff
03
fe
ff
ff
fe
02
03
02
ff
00
ff
06
05
01
02
06
02
03
fe
00
01
00
03
fe
01
fe
05
02
ff
02
05
02
03
00
03
00
01
fb
fd
ff
00
ff
00
01
01
02
04
03
02
03
00
fe
fd
fd
fc
fb
f7
fa
fd
fe
fc
ff
ff
ff
ff
fd
00
03
00
fd
fd
fe
fd
ff
00
01
02
01
fe
02
01
04
00
ff
03
02
ff
01
fe
fd
ff
ff
fd
fe
01
03
0b
0f
30
25
1e
13
09
fa
f4
ec
e3
df
df
d7
e0
e4
e6
ed
f1
00
06
0c
0d
0b
0b
0c
05
fa
f8
ee
ec
e4
e0
dc
de
e1
df
e6
ea
f1
fa
fb
01
08
09
02
fe
02
fe
f9
f7
f8
f2
f8
f7
fa
fe
ff
04
02
02
03
00
fc
fa
f8
f6
f3
f3
f4
f7
f9
fc
fc
ff
01
02
05
05
08
02
02
02
ff
fc
fa
fa
fa
fe
ff
01
03
05
02
05
04
07
03
07
03
05
00
fe
00
02
ff
00
01
ff
01
03
02
06
03
03
00
03
fc
fc
fd
f9
fb
f9
f9
00
ff
fe
fb
fe
ff
03
02
01
fe
00
02
fe
01
fd
ff
ff
ff
ff
fe
ff
00
ff
fd
00
00
02
02
ff
04
00
05
06
03
01
03
02
04
01
05
04
02
01
fe
01
fe
ff
03
00
04
05
01
05
03
02
ff
00
ff
fc
00
f7
fc
fc
fd
04
06
04
05
03
05
05
03
01
fb
f7
f5
f0
f7
f7
fb
00
05
0b
0c
11
12
11
0e
0d
04
ff
f7
f3
f1
f6
f2
fd
fe
08
07
10
17
1b
1e
1e
20
1c
12
0a
06
fb
f6
ed
f2
f0
f0
f5
00
0a
1b
21
2f
34
3c
3e
38
31
24
18
09
f6
de
cc
b5
01
00
01
03
03
04
02
03
02
fc
fe
fc
fd
fb
00
ff
02
04
04
04
02
04
fe
ff
03
fc
fe
f9
fc
fd
00
03
04
00
04
02
fd
fd
ff
00
fd
fc
01
fd
03
01
01
ff
01
01
02
fe
fe
fc
fd
fd
02
ff
ff
00
01
00
03
04
02
02
03
03
04
02
fd
01
fe
fc
02
06
03
01
01
06
00
06
00
fe
00
ff
fd
fe
fd
ff
fe
02
fe
04
00
00
02
ff
00
02
01
03
fd
01
fd
ff
01
fd
fd
ff
02
01
01
01
02
01
01
00
01
02
fd
fd
01
00
02
02
01
ff
ff
fd
00
ff
ff
04
01
02
fe
01
ff
ff
ff
02
fd
01
00
05
05
00
02
02
fd
fc
fa
fe
fe
fc
fd
01
fd
02
02
00
04
ff
03
00
00
00
fd
00
00
02
05
fe
01
03
00
00
fc
01
fc
fc
fb
fe
01
01
fe
03
03
ff
fd
fd
ff
02
02
01
fe
02
03
ff
00
03
ff
06
02
04
ff
00
00
fb
fe
ff
fc
fe
fe
01
02
01
03
02
02
fe
00
fe
fc
fc
fd
01
fd
fd
01
00
fd
01
02
03
05
00
01
ff
fe
fd
fc
00
00
fb
00
04
03
05
05
00
fd
fc
f7
f3
01
fd
fe
fd
fc
fc
fd
01
ff
03
ff
02
01
00
01
fc
fe
00
ff
fe
fc
fc
fc
04
fe
01
05
04
02
08
02
03
02
fd
fc
fd
f9
fb
fa
fe
fb
ff
ff
fe
ff
ff
00
02
ff
00
00
ff
00
01
fe
fe
01
ff
fd
03
02
fe
02
01
03
02
02
02
05
03
05
07
05
08
05
06
04
fe
fe
f7
f7
f3
f3
f3
ed
ef
ef
f4
f5
f8
fd
05
09
0a
11
14
10
14
10
0f
0c
07
01
fb
fc
f4
f3
ef
ec
ed
ec
f0
f2
f3
fb
ff
00
0b
0a
14
13
15
1b
19
15
16
10
0c
0d
04
00
fe
00
fa
f8
fc
fc
fa
f8
f7
fa
fc
f8
f6
f8
f9
f7
f5
f2
f3
f6
f6
f5
f6
fa
fb
fb
fd
05
02
06
09
0b
0a
0b
0d
0c
0b
0a
0a
06
09
03
ff
02
00
fe
fa
f9
fa
fb
f9
f7
fa
fc
ff
ff
00
fd
00
fe
01
01
fe
ff
ff
fd
fd
ff
fc
fc
02
fd
04
ff
04
04
04
05
02
ff
01
fd
fd
01
fe
fd
00
fb
fe
fb
fe
ff
fc
fe
03
ff
05
04
08
02
03
05
05
04
fe
02
00
fd
fd
00
fb
fe
01
02
00
03
fe
02
02
01
fb
ff
00
00
00
02
fe
06
01
03
03
ff
04
fd
ff
fe
ff
fc
fc
fa
fe
fe
fa
fc
fd
fd
fe
fd
01
03
04
05
03
01
03
ff
02
fe
fe
fe
02
ff
03
00
01
ff
02
01
02
02
07
07
01
05
01
01
fe
fe
fe
fe
fb
fc
fb
f9
fd
f8
f7
f8
fc
f9
f9
f7
fd
ff
fc
fe
fd
01
00
fd
00
fe
f9
fe
fb
fa
fc
fd
fc
01
01
04
09
0d
0c
12
12
14
11
10
11
0b
08
00
fb
f3
ec
ea
e1
e3
df
e0
e0
e1
e5
ed
f4
fc
03
0e
12
1b
1f
1f
24
23
1f
1f
1b
17
0f
08
02
fc
f1
f0
ea
e8
e2
e1
e5
e6
e6
e6
ec
ef
f3
fb
ff
02
07
09
0d
0c
11
14
14
13
0e
0b
0f
0b
09
08
03
fc
ff
fa
f9
fb
f8
f6
f6
f6
f6
f7
f4
f7
f8
f7
f8
fb
fd
ff
00
02
04
04
05
02
04
07
03
04
04
04
01
03
04
03
fe
fe
01
fe
01
fc
fe
ff
fd
fe
fe
fe
fa
fc
fd
f7
fe
fe
fe
fc
01
00
01
fd
06
ff
05
08
06
05
04
01
fe
fd
fd
ff
fc
fb
fb
fb
fb
f9
fc
fd
ff
ff
02
02
03
04
06
03
00
03
01
01
fd
fa
fa
fc
f9
05
00
fe
fc
fd
fe
fe
01
fb
fe
ff
01
01
01
01
02
03
fe
fe
fe
fc
ff
03
fe
fe
ff
fc
fe
fb
fa
fd
fa
fe
01
02
03
02
01
ff
fd
00
f9
fd
fc
fb
fe
fe
fe
fc
fc
ff
04
07
04
04
06
02
06
02
02
fb
fc
f9
fb
f9
f6
f8
f3
f9
f9
f9
ff
04
00
01
02
05
00
ff
02
00
01
ff
00
ff
fb
02
fe
fe
00
fe
fe
00
00
fc
fa
fd
fb
fb
f7
fc
f9
ff
00
fe
00
04
00
03
02
01
08
08
08
06
05
04
05
01
02
fe
fd
fe
fd
fb
f9
f9
f9
f7
f9
fb
fb
fd
fb
00
fe
fd
ff
fc
fc
fd
fe
fc
fb
00
01
02
03
04
ff
01
02
05
00
01
04
03
00
01
fe
fe
fc
fe
fa
01
fe
fd
03
02
02
00
01
02
02
ff
00
fc
01
fd
ff
fd
02
03
ff
01
02
ff
fd
fb
00
fd
fb
fc
fb
fc
fe
01
fc
01
ff
03
00
ff
fe
00
fa
fd
00
00
fc
fc
00
fe
fc
fd
00
fc
ff
00
fb
fe
fd
ff
fe
00
ff
00
03
02
ff
00
ff
01
fd
fc
fe
fd
fd
ff
00
fe
00
01
01
ff
00
01
00
fe
fe
fb
03
fd
fd
fd
fc
0a
fc
01
00
fe
03
fe
00
ff
fb
ff
05
00
04
04
05
ff
01
02
02
01
00
03
ff
02
04
ff
05
01
fe
fe
00
02
03
05
02
05
03
07
04
01
ff
ff
02
02
fd
00
02
05
04
04
05
07
03
07
06
00
01
fd
00
fa
fb
f9
fc
ff
fd
00
00
03
05
07
03
02
07
03
03
03
01
01
ff
01
01
01
01
00
fe
02
00
ff
ff
ff
00
01
ff
ff
ff
00
05
06
01
02
05
fe
00
fe
ff
ff
ff
fe
fc
00
fd
fb
01
01
ff
ff
00
fe
fd
f9
fb
f9
fa
fa
f9
fb
fe
01
04
08
07
03
06
08
04
03
03
fa
f9
f8
f6
f5
fa
ff
fe
01
04
08
0a
0a
09
07
05
ff
fe
fd
f3
f3
f1
f0
f3
f5
fa
02
04
05
09
0a
0a
0f
08
04
01
fd
f8
f9
f8
fb
fc
fc
ff
03
04
07
07
01
02
ff
02
fb
fb
fb
f5
fa
fc
fe
fe
03
ff
02
03
02
01
00
04
fc
fb
fc
fe
fe
fb
fd
fe
fb
fd
03
04
01
01
00
03
04
fd
fd
01
fd
fe
fc
fe
00
02
01
00
05
04
01
02
02
fc
fc
fb
fe
fc
03
ff
ff
03
00
02
fe
02
ff
fd
fe
06
ff
00
ff
01
02
04
03
01
ff
00
fe
fb
00
00
01
fe
02
02
03
03
03
ff
02
ff
fc
fe
ff
00
01
fe
ff
ff
04
03
00
ff
00
ff
05
02
04
01
fe
fe
02
00
02
01
03
02
ff
05
03
01
fd
ff
00
00
fd
00
fe
01
01
00
fd
01
02
ff
00
03
01
04
04
fe
fd
fd
fe
fc
00
00
00
01
04
01
00
04
04
00
02
00
fd
fd
fd
fd
04
00
01
06
04
00
01
02
02
ff
02
02
fc
02
ff
ff
fb
fe
01
02
02
07
05
02
04
00
03
fe
fb
00
fd
fd
02
04
02
04
03
02
02
01
03
01
00
ff
fc
fe
03
ff
03
05
00
02
03
00
00
ff
fc
ff
04
03
ff
ff
ff
03
fd
01
02
02
07
01
ff
ff
00
01
00
00
ff
01
ff
01
ff
fd
ff
04
03
fe
fe
03
fd
02
02
ff
00
ff
01
fd
fd
fc
fe
fc
ff
fe
00
fc
01
03
03
ff
01
01
02
03
00
02
00
ff
01
fe
fe
02
ff
00
fe
03
02
03
02
fc
fd
fe
ff
fd
fd
01
ff
04
05
01
05
06
03
00
01
fc
fe
fe
ff
00
00
ff
04
02
02
05
00
fe
fb
ff
fc
ff
fc
fe
f9
fb
ff
fd
fe
01
ff
03
ff
01
fe
02
01
ff
01
00
fc
fb
00
fb
00
ff
00
04
ff
02
00
05
02
05
03
03
01
ff
fd
ff
fc
fe
fd
fb
ff
fd
fc
ff
fb
fe
fd
ff
00
ff
fc
fe
01
00
02
02
05
0a
08
0a
09
07
07
08
03
fc
fc
f8
f5
f0
ec
eb
e9
e8
ed
f0
f0
f5
fa
06
0a
0e
13
16
1b
1d
1e
1c
17
18
11
10
07
03
fb
f6
f0
eb
e6
e7
e3
e1
e1
e6
ea
ed
f1
fa
ff
05
06
0e
12
14
17
13
19
15
15
15
0f
0a
0c
09
ff
03
fd
fb
f7
f6
f3
f4
f0
f4
f3
ee
f2
ee
f0
f4
f1
f5
f6
f7
f7
fe
fd
ff
03
0a
08
0c
0b
0d
0f
11
10
0f
0d
0c
08
07
06
04
01
ff
f8
fa
f7
f9
fa
fa
fb
f9
fa
f9
fa
f9
00
ff
02
01
00
ff
01
fd
fe
01
fd
04
00
04
01
01
03
00
01
02
06
04
05
01
01
00
00
00
fc
00
fd
01
02
00
00
03
00
07
04
03
04
ff
fe
fb
fe
fe
fb
fe
fd
fe
fc
fc
01
ff
ff
fe
03
ff
00
ff
02
03
07
03
05
02
ff
ff
00
ff
00
01
fd
fa
ff
fb
00
fd
fc
f9
01
ff
01
01
fe
00
01
01
01
04
00
00
04
05
05
02
03
03
02
03
fd
01
fe
fe
fc
f8
fd
fb
fa
fd
fd
fa
fc
fe
fd
fe
00
01
01
01
03
00
01
fe
ff
ff
ff
00
01
ff
00
02
03
03
01
08
06
08
06
05
04
05
03
01
f9
fc
fa
f7
f5
f9
fa
fc
fe
00
ff
02
03
09
0a
08
0b
06
0a
03
02
ff
fd
f6
f8
ef
ee
ec
ec
e8
ee
ed
ea
ef
f2
f5
fc
03
03
0e
12
15
18
1a
1b
1c
16
1a
15
0e
0f
08
07
01
00
fa
f4
f0
ee
ea
ea
e3
e5
e6
e6
ea
ea
ee
f3
fa
fb
00
02
08
0f
11
10
16
17
1a
16
14
16
12
0d
0a
05
00
fb
f7
f1
f3
ee
eb
ec
ee
ee
ee
f4
f5
f6
fc
fc
00
02
03
07
07
08
08
0b
0c
05
09
03
02
01
01
fd
ff
fe
fa
fa
fb
ff
fd
fe
01
02
02
ff
01
01
00
01
03
fe
fd
fc
ff
fe
fe
ff
00
fe
02
04
02
02
03
03
01
02
05
00
03
06
fd
02
fe
fe
01
fd
01
02
01
fd
ff
fd
00
fd
fd
fd
fc
fa
fd
fe
fe
00
00
00
02
03
01
00
01
00
f8
f9
fa
05
03
00
fc
fb
ff
fc
00
fd
fc
01
fe
01
fd
00
fe
ff
00
01
01
f9
fa
fb
fd
fb
00
ff
01
00
00
03
03
fd
00
fd
fe
fb
fc
f8
fc
f9
fc
ff
03
07
07
06
02
04
03
fd
fa
fc
fa
f7
f2
f4
fa
f7
ff
01
02
02
04
08
07
03
00
fe
ff
fb
fc
fd
fe
fb
fb
fc
03
02
03
ff
04
03
fe
fd
fa
f8
f6
f6
f9
f5
fc
fa
f8
fc
01
00
03
01
05
02
04
05
03
01
01
01
01
00
05
02
02
01
ff
00
fe
ff
f9
f9
f7
fa
f9
fb
ff
ff
fe
01
02
02
01
ff
fd
fc
fb
fb
fa
fd
fd
fe
00
01
04
05
07
03
08
06
01
00
ff
fe
00
f9
fd
fb
fb
fc
00
ff
ff
fd
00
ff
fd
01
02
fe
fd
02
00
fc
fc
fe
fb
fc
fc
01
ff
fe
02
03
04
00
01
ff
fe
fc
fe
fa
f9
fd
ff
fd
fb
ff
ff
01
fd
03
ff
02
00
00
00
fd
ff
00
fd
00
00
03
00
fe
01
00
ff
01
02
fd
fd
fe
01
fe
04
02
01
01
02
01
fd
fd
01
fe
01
01
01
01
03
02
fe
02
fe
fd
02
fd
fd
00
02
02
03
02
03
00
00
01
ff
01
f9
fc
fc
fd
06
02
09
04
04
01
fe
fa
fc
fc
04
04
03
00
00
fe
04
04
fd
04
01
00
00
ff
fe
02
00
00
03
02
03
ff
ff
ff
fe
fb
fb
ff
03
04
01
00
04
07
06
06
02
01
fe
fd
fa
fb
fb
f9
f9
fc
00
03
07
06
0b
05
06
08
06
ff
fc
f9
f8
f9
fa
fd
01
01
03
03
03
08
04
04
ff
ff
fc
fa
ff
fd
00
05
04
07
05
08
08
02
ff
02
ff
fc
fb
fb
fc
fc
fc
00
03
02
01
01
02
01
ff
fe
fa
f8
f5
f9
fa
fc
00
01
09
08
05
08
06
04
00
fb
fa
fb
fa
fc
ff
ff
04
04
09
07
07
08
04
05
ff
f8
f7
f3
f1
ef
f0
f5
fe
ff
06
0a
0f
10
0b
09
07
04
03
fc
fa
fb
fc
fe
ff
00
00
04
02
02
01
05
fe
fc
ff
fb
fc
f8
ff
ff
ff
02
02
04
03
04
03
06
ff
00
00
00
fb
fe
fb
01
fc
fd
03
ff
01
03
00
fe
01
fe
02
fc
ff
fe
00
fa
04
03
ff
02
01
02
ff
ff
00
fe
fd
ff
00
ff
03
00
ff
ff
04
02
fc
fe
fa
fe
ff
04
04
05
06
01
fd
fd
fc
fa
fc
01
01
08
04
03
fd
fb
fb
fc
00
ff
fe
02
03
ff
00
04
02
ff
fe
ff
fd
fd
fe
ff
01
ff
ff
03
01
00
02
01
01
00
fe
02
ff
01
00
00
02
fe
01
fe
ff
fe
00
fe
00
ff
03
01
06
01
00
ff
ff
fd
fe
ff
ff
03
ff
01
00
00
02
01
fe
00
00
01
ff
fc
fc
fd
fe
fd
fd
fe
fa
fd
00
03
ff
00
05
03
ff
00
ff
00
00
ff
fe
ff
03
03
03
05
06
02
03
02
01
01
01
fb
01
fb
fe
fd
fd
00
ff
02
02
00
01
ff
fe
02
ff
00
01
00
ff
ff
00
fe
03
ff
fe
ff
01
00
03
00
00
fe
00
03
ff
ff
01
ff
ff
ff
fe
ff
ff
00
00
01
02
00
ff
fe
00
ff
00
fe
02
03
01
01
03
02
01
03
00
ff
04
01
04
02
fd
01
ff
00
fd
01
04
03
02
ff
01
ff
02
fd
fd
01
fe
ff
04
00
04
02
01
01
05
03
fd
fe
fd
ff
fd
fe
03
ff
02
02
03
fe
ff
fe
03
02
01
fe
fc
fb
02
00
02
01
00
fd
01
04
04
00
00
ff
01
fc
fd
fd
fd
00
ff
03
05
03
05
04
06
04
00
01
00
fc
fe
01
03
05
0a
08
08
07
02
04
02
fe
fb
fb
f7
f7
f5
f2
f3
f5
f8
fa
fc
fb
02
04
0a
0b
0b
0f
0e
09
0a
07
03
fd
fa
f9
f1
ee
ec
ed
ec
ec
eb
f1
f2
f9
00
05
0a
0e
10
10
13
14
0f
0e
08
07
00
fa
fc
f6
f9
f7
f3
f7
f9
f5
f9
fa
f7
fb
fc
fb
fb
f8
f8
f9
f9
fc
f8
fb
f9
ff
00
fb
ff
02
00
02
fe
02
ff
fe
f9
fe
fb
fe
fd
fe
fe
fc
04
ff
05
04
02
05
01
fe
ff
00
02
fe
ff
fe
01
fb
fe
02
ff
01
03
05
06
01
04
03
02
04
02
05
03
fe
00
fc
fa
fe
ff
fa
fb
ff
00
02
04
00
06
05
05
03
09
09
04
06
05
01
fe
fe
fd
00
fc
fb
fc
ff
00
01
03
03
04
08
08
0a
05
05
02
04
02
fc
fe
f9
fb
f9
fc
fa
fa
fe
ff
03
fe
04
08
09
08
06
05
09
0a
0a
06
04
04
06
03
02
03
07
06
08
08
07
05
05
07
04
04
ff
02
01
00
00
fd
fb
fe
04
02
05
03
03
03
04
01
01
00
fd
fe
fc
fb
fc
fd
fd
01
04
00
ff
00
fe
02
03
02
ff
02
00
00
05
04
04
10
14
1c
ff
03
ff
fe
fd
02
00
01
03
fe
01
fd
02
01
02
00
ff
fd
fe
00
02
fd
fc
fe
fd
ff
fd
03
02
02
03
08
08
0a
08
09
08
09
08
07
05
03
03
01
f9
f7
f3
f6
f2
f2
ec
f0
f1
f1
ef
f7
f6
f9
fe
06
05
0b
0b
0f
12
13
13
10
0f
0b
0a
08
05
01
03
00
01
fe
fd
fc
01
00
02
06
07
05
07
06
06
04
01
06
02
01
fd
fe
fa
fd
fe
fe
fc
fc
f9
f9
fb
f8
fa
fc
fa
fc
f9
fd
fb
f9
fd
ff
fd
02
fd
fd
fd
fc
fe
01
fe
fd
02
01
02
03
02
01
04
04
04
08
07
08
05
07
07
07
03
02
ff
02
00
fc
fb
fc
fd
fe
fd
fb
fe
fe
f9
fb
fc
fe
f9
fe
fc
ff
fa
ff
00
fe
fe
00
ff
01
00
04
06
05
05
01
09
04
05
03
00
02
05
01
06
01
04
06
01
06
03
04
01
03
02
fd
03
ff
fc
fb
f8
f5
fc
f7
f7
f8
f8
f8
fb
fc
ff
fe
05
05
03
05
08
04
04
06
06
05
05
03
03
02
07
05
01
ff
01
05
04
04
03
ff
04
00
01
ff
fd
00
fe
ff
fc
fb
fc
00
fe
00
05
0b
0c
0e
f9
f5
f8
f7
fd
fd
fc
ff
01
05
01
03
07
01
05
06
03
05
ff
fd
01
03
fc
ff
fd
00
03
03
03
00
02
03
00
00
ff
01
fe
fd
fc
fe
ff
ff
fe
fd
fb
f7
fb
f9
fd
fd
fe
01
03
00
04
07
0a
0c
0a
0c
0b
07
09
04
01
01
ff
ff
fe
04
02
06
05
02
03
09
06
08
06
04
04
01
02
fd
00
fa
f9
f9
fe
fa
00
01
fe
ff
01
01
01
00
02
ff
fd
fb
fe
fb
ff
fe
00
02
00
04
08
02
05
04
00
02
01
01
00
00
03
00
fd
ff
fe
02
06
04
03
02
00
00
01
02
02
01
02
01
03
01
02
00
05
06
02
01
05
03
02
07
04
04
03
04
02
02
ff
02
01
04
07
04
03
05
03
ff
04
ff
05
01
03
02
08
03
07
05
02
03
06
04
01
01
01
01
03
03
01
03
03
05
06
04
09
04
03
ff
03
06
ff
00
00
01
06
06
06
04
07
01
01
03
04
fc
fe
fd
fb
fe
fc
00
ff
02
01
00
04
05
07
04
06
06
01
04
03
04
fd
02
01
fe
01
02
fc
fd
fd
fb
ff
03
ff
02
01
05
06
02
02
02
06
03
07
03
33
35
2e
29
22
14
12
07
00
fa
fb
f6
f1
ec
ee
ef
f7
fe
fe
03
ff
fc
00
03
fe
fa
ff
f9
00
01
04
01
07
0a
06
0b
08
08
02
06
05
06
07
05
08
05
0a
0a
0f
0b
0d
0e
12
11
10
0d
0b
08
08
06
ff
fe
fe
fe
f8
f6
f5
f6
f3
f5
f3
f1
f0
f2
ec
f1
ec
ec
ee
f1
ed
f1
ef
ed
f2
f5
f6
f4
f5
f6
f9
f8
f8
fa
f7
fb
fd
fe
00
fe
04
05
03
07
05
06
09
08
06
0c
08
09
07
09
08
0a
09
09
0c
0a
10
0b
0b
0c
08
08
05
06
03
05
06
05
06
06
02
08
06
02
01
00
ff
00
fc
fe
00
fd
01
04
05
07
03
09
03
01
00
00
ff
fe
01
01
ff
04
06
06
0a
05
05
04
04
03
00
04
02
fc
00
01
00
02
00
04
04
04
ff
00
05
01
01
ff
ff
fc
fa
fa
fa
fb
fb
01
fd
01
fc
fe
00
ff
fe
03
05
fc
fd
00
00
fe
fc
f9
fc
fb
ff
00
04
00
0c
07
0f
09
0d
09
0a
04
02
00
02
fb
f7
f7
f0
f0
ef
f7
fa
f4
fc
fe
fd
03
ff
fe
fa
f7
f6
ef
ea
e0
d3
cf
c8
cd
cd
ce
00
03
ff
fe
01
ff
00
04
00
03
01
02
00
01
ff
fe
ff
00
00
fe
01
fd
ff
fe
02
ff
00
fe
03
03
05
06
01
01
01
04
fe
fc
fd
fd
00
fc
fe
00
00
03
07
00
03
05
01
00
ff
fe
fe
00
05
00
03
ff
fc
fd
01
02
02
03
fe
02
00
00
00
01
00
00
fc
fb
01
ff
01
00
fe
ff
00
01
01
02
04
06
01
03
04
00
ff
00
fa
fa
fe
fc
00
00
03
00
03
05
05
01
04
00
ff
fe
01
fe
fc
ff
fb
fa
fe
fe
00
01
fd
03
04
00
04
02
ff
01
00
fe
01
ff
fd
fe
ff
04
04
02
06
02
02
02
00
fd
02
fe
fb
fd
fe
01
fc
03
02
00
04
01
01
fe
02
00
fc
ff
fe
fa
fc
ff
02
01
08
03
08
06
03
04
ff
fd
01
ff
fc
ff
00
00
03
00
03
02
ff
fc
00
fc
fb
fe
fc
fb
03
fd
ff
05
01
01
fe
01
ff
fc
fe
f9
fe
fd
00
fa
fc
fb
01
00
fe
ff
fe
00
ff
ff
02
fd
fe
03
02
03
03
02
02
00
fc
fd
ff
00
04
00
03
03
fe
ff
02
fc
fa
f9
f8
f7
fe
fc
00
02
04
ff
03
03
fe
fc
0c
0c
09
07
09
04
08
09
09
07
09
0c
0f
0f
0f
14
10
14
13
10
11
08
07
05
02
fc
fb
fd
fd
ff
fc
00
00
06
09
0b
0b
0f
11
16
12
15
11
12
0d
0a
0a
05
04
05
05
fe
00
00
05
02
04
06
05
06
05
06
04
01
05
00
02
fe
fe
fd
fe
fe
fe
f8
f9
fa
f7
fb
f4
f5
f7
f4
f4
fa
f6
fb
f6
f7
fa
fb
fc
ff
fe
fd
fc
fd
fb
fc
ff
fe
fc
fe
fc
fc
02
00
01
fe
fe
fe
fd
00
00
00
fd
fa
fe
f9
fa
f9
fa
f8
fa
fb
fb
fb
fa
fd
ff
fd
01
fe
04
02
06
01
01
02
02
01
04
02
01
00
02
01
fe
fc
ff
ff
f8
f8
f8
f4
f4
f6
f0
ef
f1
ea
eb
e9
eb
e7
ea
ed
ef
f1
ee
f0
f2
fb
fa
fd
03
01
06
08
07
08
07
0b
0b
07
07
05
08
02
04
02
00
fe
01
fe
fc
fe
02
fe
fd
02
fe
fe
00
00
fa
fc
ff
fb
fe
fc
fe
fe
fc
fe
fa
fa
ff
f9
fe
00
00
04
02
00
04
04
05
08
09
10
0d
08
0b
0c
0c
0b
05
09
04
06
05
00
01
03
ff
01
05
04
03
08
07
07
03
04
ff
fc
e2
e9
ec
f5
f5
fa
fe
06
09
08
0d
11
0f
0d
0b
08
09
06
fe
ff
fb
f4
ee
e9
eb
e6
e8
e9
e6
e8
ee
ec
f2
f4
f4
f7
fb
fb
fa
fc
fc
fe
fd
fc
05
02
04
04
08
0a
06
09
09
04
06
ff
fd
f8
f9
f4
f4
ee
f4
f1
f3
f5
f9
ff
04
09
0d
0f
11
13
17
15
13
0f
12
10
0c
06
05
04
01
ff
f9
fd
fb
fa
fb
fb
fa
fe
ff
03
00
04
02
02
07
07
09
04
05
04
ff
05
01
01
00
fd
00
ff
fe
fd
ff
fd
fb
fd
fe
fc
fe
f8
f8
fc
f9
f9
fe
fb
00
02
ff
ff
ff
01
01
ff
f8
f7
f5
f5
f6
f3
f4
f3
f8
f4
fa
fe
03
00
03
0b
0b
0e
11
11
0e
0e
0e
0d
12
10
10
0d
0c
0d
0d
0d
0b
0b
09
07
03
02
fe
fc
f5
f4
f3
f1
f2
f4
f4
f5
f6
f8
fd
01
04
07
0e
0f
11
15
13
13
14
10
11
11
0e
10
0f
0d
0a
0b
0b
0b
0c
0d
0e
0b
0a
0c
07
03
04
04
ff
fc
f8
fb
fc
f8
fc
fc
00
03
01
04
07
04
04
06
01
00
fc
f8
fb
fa
f5
f9
f5
fb
fd
fd
fe
03
04
02
ff
f9
f0
e7
49
43
41
35
2b
22
19
12
0c
0f
10
0d
12
15
1a
1a
1c
1c
1d
1b
1a
18
18
11
12
0c
08
08
04
04
08
06
05
0c
06
08
08
08
0a
06
05
04
fb
fb
f4
f3
f4
f0
f2
f3
f2
f7
fe
fc
ff
03
03
01
01
fd
fd
fc
f5
f5
f2
f1
ee
ec
ef
e9
ef
eb
f0
ef
f6
f8
f7
f9
f8
fb
f9
fe
f8
f8
f9
f0
ef
f0
ee
e8
e6
e6
e7
ec
e9
eb
ee
f6
f2
f8
f9
fa
f7
f8
f7
f1
f2
ed
e9
e7
e8
e8
ea
ee
f0
f5
f2
f6
f9
fb
f8
f5
f5
f7
f7
ef
f0
ef
ef
ee
eb
ed
ee
f4
f0
f3
f5
f3
f4
f5
f2
f0
f4
ee
ef
eb
ea
ea
f0
ef
ed
ee
f2
f4
f9
fe
05
06
09
0a
0e
0c
0f
0f
0a
0b
06
08
05
03
07
06
03
04
08
06
0a
0d
0e
0b
11
0e
11
13
15
12
13
16
15
13
16
13
13
17
16
18
14
18
15
15
13
17
12
10
14
10
0f
11
11
13
10
12
0e
0e
12
11
11
0f
11
10
16
11
0f
13
10
0f
15
12
0c
0e
0a
0a
08
09
07
06
05
03
03
03
07
06
03
07
07
0b
09
0e
09
0d
10
0e
05
ff
ef
df
f4
f5
f3
f2
fc
fb
02
03
02
ff
fd
ff
01
04
fd
03
fe
00
05
07
0a
07
0b
0a
09
08
04
03
f9
f8
fc
fc
ff
fb
04
03
03
05
05
01
05
00
fe
fc
fa
01
fe
00
fe
ff
ff
01
04
06
00
00
fe
ff
fc
00
fb
fe
fb
ff
02
05
09
07
0a
09
07
05
04
01
00
00
ff
fc
fd
fe
fe
fd
fe
f7
f8
f6
f7
f6
f8
f6
f6
f8
f7
fb
fe
fd
02
02
04
0a
0c
0d
0a
09
0a
07
07
09
09
05
05
07
08
09
09
0a
0d
0f
0b
08
0a
05
01
04
fe
fc
fd
fa
fc
fa
fa
fd
f7
fc
fb
fb
fa
f8
fd
fd
f7
f8
fa
f6
f5
f7
f4
f3
f2
f4
f5
f4
f3
f4
f3
f4
f9
f3
f7
f6
f6
f7
f4
f4
f4
f8
f5
f2
f2
f6
f7
fa
fa
f9
fa
00
ff
01
01
04
04
01
06
07
0a
07
0a
09
0a
0a
07
03
03
fe
01
fe
00
04
05
07
07
0c
0e
0f
13
16
1b
1b
1d
1a
1a
15
11
14
07
05
00
fe
fa
fa
fc
02
00
04
08
0b
11
12
17
17
17
19
10
12
0d
05
00
06
fd
fe
fd
f9
04
02
04
05
05
0a
0e
10
12
17
11
06
02
f5
1a
13
0f
0c
05
02
01
fc
fc
fe
fb
fd
ff
02
02
ff
05
00
05
ff
01
fe
fe
01
fe
fe
fc
00
fe
ff
00
02
01
ff
01
00
ff
00
ff
00
fe
fe
00
fe
fd
00
fe
fc
fd
fc
ff
fc
fd
02
00
01
05
03
04
05
01
ff
01
02
04
01
01
04
02
02
04
00
02
f9
fc
fa
f5
f7
f8
fa
fe
fb
01
03
02
03
03
01
05
fe
ff
fc
f8
fc
fc
fe
fd
02
04
04
02
02
01
04
ff
fd
fd
fc
fe
fb
fc
00
fe
02
04
01
03
00
01
ff
fb
00
fd
fe
02
fd
fd
03
04
08
05
05
08
09
08
03
03
03
05
04
03
03
ff
ff
fa
fe
fe
fc
fc
ff
fd
fb
fa
fe
ff
ff
fd
fb
fa
fa
fb
f9
fd
ff
ff
fe
01
00
04
02
06
03
01
ff
fa
fb
f9
fc
fc
fe
ff
06
05
09
09
10
0c
0e
0d
0a
0c
09
01
fe
fb
fc
fb
fb
fe
fc
fe
fb
fb
fd
fb
02
fe
04
fe
ff
fe
00
fe
04
03
03
06
06
06
0a
07
09
09
04
ff
fe
fd
fb
f9
f8
fb
f8
fc
fc
fb
fc
ff
01
ff
fc
00
fd
fd
ff
fc
fc
fa
f9
fe
01
03
04
07
05
0d
10
f2
f8
fb
fd
01
fe
01
00
04
04
05
09
07
06
07
08
05
08
03
fe
fb
fd
fa
fc
f9
fc
f9
fb
fc
fe
00
03
06
08
05
05
08
05
06
01
fd
fd
fe
fd
f6
f8
f7
f7
f6
fd
fb
01
00
08
03
0a
07
0a
0c
0c
09
0a
08
06
04
00
00
fa
fd
ff
ff
fe
00
06
02
09
06
07
07
05
01
01
fe
00
fb
fa
f9
fa
f6
f7
f7
fb
f9
f8
fb
fb
fb
fd
01
01
ff
04
01
05
06
07
05
08
08
06
02
06
09
07
04
04
06
04
06
03
ff
fd
ff
fb
fa
fc
fc
f9
ff
ff
00
ff
00
02
02
00
01
01
fe
fd
00
fd
fc
01
fd
fb
00
fd
03
01
01
05
02
02
04
05
ff
02
fd
02
fe
ff
fd
02
00
ff
03
fe
ff
04
04
02
02
02
04
03
fd
02
fe
fb
fc
fa
fb
fe
fe
ff
fe
04
01
01
06
09
08
07
0d
0c
07
04
05
02
01
f9
f9
fb
fd
f6
f5
fa
fc
f8
fe
ff
03
ff
01
07
01
01
05
04
05
02
05
03
00
02
00
fa
fe
01
fd
ff
02
01
03
05
08
08
0b
0c
08
05
0a
07
07
01
01
fe
fd
01
fc
fa
f8
f9
f5
f4
0a
10
07
05
08
07
05
fe
04
04
fd
ff
01
fe
fe
ff
fc
01
04
04
03
05
05
03
04
06
01
01
ff
ff
fd
fa
f8
f9
f8
f5
f1
f4
f5
f9
fb
fd
00
03
08
0a
0a
0c
10
10
0e
11
0e
0c
0c
0b
0a
05
ff
ff
fb
f7
f6
f3
f4
f0
f3
f2
f6
fb
fb
fb
ff
02
07
08
0a
06
04
05
05
02
05
05
01
02
03
05
04
01
02
02
03
03
05
06
06
05
09
02
08
04
02
02
00
02
fd
fd
00
ff
fe
ff
fb
fc
fa
01
01
00
02
03
ff
fd
03
00
04
fe
ff
01
ff
fe
02
ff
00
ff
00
fd
05
03
01
06
02
03
02
03
00
02
00
00
00
01
01
00
01
ff
fb
01
00
fd
fd
02
01
03
01
ff
01
03
02
03
01
02
00
fe
fd
00
fe
ff
01
fd
03
fb
03
ff
01
02
01
05
01
04
01
ff
fc
fd
fa
f8
f9
f7
fb
fc
fe
fa
ff
fc
02
00
01
05
04
06
09
07
06
04
05
03
03
01
03
06
04
fe
00
fd
fd
00
fd
fd
ff
01
00
00
00
fd
ff
ff
fe
01
fd
01
fa
fe
fe
ff
fc
fc
01
ff
fe
00
ff
01
01
03
02
fe
fa
f8
0f
07
08
04
ff
fe
01
fb
ff
ff
fe
02
03
05
04
08
09
06
06
05
02
04
00
fe
ff
fc
fb
fa
f9
fd
fb
00
03
03
01
08
01
02
05
06
02
02
00
01
00
fd
fb
fe
03
04
02
07
05
0a
09
09
0a
07
07
04
02
02
00
00
fb
fa
fc
fb
fd
02
04
04
fe
04
05
05
ff
00
00
04
06
04
08
07
07
09
04
07
07
06
ff
00
00
01
02
00
01
fb
01
00
03
00
02
fe
01
00
02
02
fe
02
02
00
00
ff
ff
05
05
03
05
00
02
ff
04
ff
01
02
00
00
05
03
01
03
03
03
03
01
02
ff
fc
00
ff
00
fb
fd
00
fc
02
00
03
02
03
ff
01
00
02
fe
01
fc
ff
fd
03
fe
01
02
ff
ff
fe
ff
00
00
05
fe
03
03
01
00
02
00
ff
03
00
fe
ff
02
00
05
08
05
0a
08
05
05
02
02
fe
02
01
00
01
fe
ff
ff
04
04
04
02
04
01
02
00
00
fe
ff
fe
fe
fd
ff
fc
ff
fd
02
00
04
03
04
06
03
fd
ff
ff
fe
fc
ff
00
fc
fc
00
00
04
04
05
02
01
00
03
ff
06
01
01
ff
04
fe
01
fc
f8
f5
f6
07
0f
10
15
10
0d
0c
0e
13
10
0b
16
0f
05
fc
fe
fa
fa
fb
f5
f7
f7
fc
f7
f3
fc
fa
fc
fe
ff
fa
ff
00
fe
01
02
05
03
07
0e
0a
0f
0e
12
11
14
0c
0f
06
07
01
f7
f4
e9
e8
e4
e5
e7
eb
ec
f4
f4
f9
f6
f7
f8
f8
fb
f2
f5
f0
f6
f0
ee
f3
f3
f7
f7
fd
00
fd
00
fa
fd
f8
fc
f7
f5
f7
f3
f8
f7
fa
fe
fe
fe
02
ff
01
ff
02
ff
fd
fc
fa
fc
fa
fe
fe
fd
ff
fd
03
03
05
00
03
03
01
03
05
04
01
00
04
00
04
08
05
06
08
06
07
07
04
04
fd
ff
ff
02
ff
04
02
01
ff
fb
fe
fc
fc
fe
fe
fe
ff
fb
02
fe
fd
fe
fe
fe
ff
fc
f8
f8
fb
fb
fa
fb
f5
f7
fd
00
fb
01
02
03
03
ff
ff
fd
fe
fa
f6
f8
f5
fc
fe
01
ff
05
09
02
06
02
ff
fc
f8
f1
f0
f3
f1
f4
f6
fa
ff
04
07
08
10
0f
0f
0b
06
02
02
fe
f9
f8
f1
f6
f0
f1
f7
fd
06
0e
13
1c
22
21
24
21
1f
18
18
0e
08
03
f9
f8
f6
f0
f2
f6
f8
fc
06
10
1c
2a
34
40
46
42
3b
04
02
02
00
00
04
ff
ff
fe
01
02
ff
00
ff
03
01
02
04
ff
03
ff
fe
fc
fd
00
fc
fe
ff
ff
fb
01
02
00
03
01
02
ff
00
ff
fd
ff
fd
00
00
00
03
02
03
01
05
00
ff
01
03
ff
03
01
02
fc
fe
02
00
fe
00
01
fd
fd
02
01
03
02
fd
03
01
00
02
fe
ff
01
ff
00
00
ff
ff
fc
02
01
02
00
01
03
00
00
01
ff
fe
ff
fe
fa
fc
00
02
03
fe
02
ff
05
fe
fe
03
fd
03
ff
fe
fd
fa
fc
00
fd
00
01
04
05
04
01
04
fd
fd
fe
fe
01
fe
fc
fd
fc
03
fe
01
01
02
ff
01
01
fe
00
ff
fe
fd
01
fd
ff
ff
02
03
03
02
03
04
05
fe
00
00
fb
fc
ff
02
ff
ff
02
02
05
02
04
00
fc
fd
ff
fc
fb
01
03
ff
00
00
00
01
03
fe
02
02
fd
fe
fd
ff
ff
fe
fe
00
01
01
fd
05
05
02
02
fd
ff
00
01
fe
01
ff
ff
06
05
01
04
01
03
ff
02
03
00
fe
fd
fe
02
01
fd
00
ff
fe
fc
02
01
03
02
02
00
02
05
ff
fc
01
fe
fe
01
fc
fc
02
fe
fd
04
00
03
02
13
11
0e
0b
08
02
fe
fe
fd
f7
fb
f7
f6
f8
f9
fa
f5
f7
fc
fc
fe
fc
00
fd
00
ff
fe
fc
fe
01
02
01
01
01
01
fd
04
04
01
03
03
01
01
01
02
05
06
05
03
01
06
03
01
04
04
04
03
04
05
05
03
03
00
ff
fe
00
fe
fc
fc
f8
fc
fa
f9
f8
fa
f7
f9
fc
f7
f9
fa
00
fa
fe
fc
ff
00
01
05
05
04
08
07
08
07
03
01
ff
ff
fc
fd
ff
ff
00
fd
ff
05
04
05
09
0b
0f
0e
0a
0a
09
09
03
ff
ff
fd
fb
f9
f5
f5
f3
f6
f6
f7
f8
fb
fc
fb
fd
ff
01
fd
fe
fc
00
fe
fe
ff
fe
ff
fd
00
ff
00
02
05
04
05
0a
09
04
07
06
08
06
08
03
03
03
02
00
00
fc
fa
fe
fb
fb
fe
fc
fc
f9
f9
ff
00
00
04
01
05
01
02
06
02
06
07
08
03
02
05
03
00
fd
ff
fa
fa
fc
fa
fa
f8
fa
f9
fd
fb
fa
ff
00
04
03
08
08
05
04
08
08
01
01
fc
fb
fe
fb
f7
f4
f7
f6
f1
f2
f2
f9
f8
fd
ff
fd
ff
00
06
03
07
0b
06
08
07
07
0a
08
07
03
00
fd
fc
f8
f6
f4
f0
f1
fa
fa
fd
ff
04
04
05
04
04
08
07
06
06
03
02
02
03
03
01
fa
fc
00
04
fc
00
03
ff
02
fe
01
01
00
fc
02
fe
01
fd
00
ff
ff
00
02
00
02
fe
fd
01
00
fe
ff
f9
ff
fa
fa
fc
fd
f9
f7
f6
f5
f6
f8
f7
fb
f9
fa
fd
02
01
07
0e
0b
0e
0f
0c
0c
0e
0c
07
07
08
06
02
ff
04
02
fd
01
01
ff
fe
fc
01
fe
fd
fc
f9
fa
fd
fc
fb
fb
fb
fc
fe
fd
fa
fa
fa
fa
fc
f7
fc
fc
fe
ff
ff
ff
03
00
01
02
04
05
01
ff
fd
fe
fb
fc
fe
ff
01
06
06
0a
0e
0c
0f
0f
0e
0e
0c
04
01
00
f9
fa
f7
f6
f3
f2
f7
f4
fb
f9
fd
00
01
08
03
03
07
07
03
03
07
05
01
03
03
ff
fc
fe
fc
fa
f6
fb
f8
fb
f9
fa
fa
fc
01
fd
04
01
02
04
03
09
07
07
ff
00
fd
fb
f9
f7
f4
fa
f6
fb
fa
fc
fe
03
ff
05
02
06
05
05
02
05
05
06
00
ff
02
00
03
07
03
04
02
05
02
04
05
05
05
02
03
00
01
01
fd
fd
fe
00
fe
02
00
ff
fe
fd
fc
fa
f6
f8
f3
f4
00
fa
f5
f5
f9
fe
fe
02
05
02
07
05
03
03
ff
fe
fe
00
02
02
00
ff
00
02
fe
02
02
03
fd
00
04
01
ff
ff
ff
ff
ff
00
02
04
00
01
00
ff
ff
03
ff
fd
02
ff
03
02
01
fd
02
00
ff
01
01
01
fe
ff
ff
04
05
02
04
05
06
08
07
06
04
03
02
fe
02
02
00
01
fe
01
03
04
03
01
02
02
ff
03
ff
02
fe
ff
ff
fa
fa
f9
f5
f5
f7
fd
fb
fe
ff
ff
ff
ff
00
fb
fa
f6
fa
f9
fa
fb
f8
fe
fc
00
01
06
06
06
08
09
06
08
05
01
00
fa
00
fc
ff
01
08
0b
0d
0f
0a
09
08
07
05
02
00
01
ff
00
00
01
00
00
02
04
02
05
06
0a
03
02
00
ff
fa
f8
ff
f9
fa
f9
f9
fc
fc
fc
fc
fe
fc
fc
fd
fb
fb
fb
f9
00
01
fc
ff
fe
03
00
00
02
00
fd
04
02
fe
03
03
06
03
03
09
07
05
04
08
05
04
fe
03
03
03
03
03
05
01
05
06
06
07
05
04
04
04
02
04
04
02
01
05
09
03
03
05
04
03
06
04
ff
00
fd
fb
fc
02
02
02
05
06
04
07
04
05
fc
f7
f0
05
ff
ff
f9
f5
f8
f9
f9
fe
fe
01
fb
00
ff
fe
fb
f8
fb
f9
f8
fb
f6
f7
f8
f9
fb
fe
fc
02
fc
f9
00
fa
fb
fd
f9
f8
f7
f5
fc
f9
f8
f8
fc
02
fb
ff
ff
00
fa
f8
fc
f9
f9
fa
f3
f3
f3
f5
f4
fc
ff
01
fe
00
02
02
03
fd
f8
f4
f2
f2
f7
f6
f7
f7
fa
fa
fc
fb
ff
00
ff
fe
fb
f9
f5
f4
f7
fb
fa
01
03
05
04
07
09
0a
08
02
02
03
ff
00
02
00
ff
04
05
03
02
04
06
08
04
06
06
06
04
05
04
08
05
06
0c
08
0a
0a
09
03
02
00
02
04
01
04
00
01
02
03
05
03
ff
02
04
03
01
01
03
fd
fe
ff
fd
fe
ff
01
fe
fc
00
fd
fd
ff
fa
fa
fb
fb
fc
fa
fd
ff
fd
fc
02
ff
fd
ff
ff
fc
f9
fa
f9
fa
fc
fd
01
01
00
ff
02
03
03
04
03
00
01
04
00
01
03
02
fe
03
01
02
01
00
01
01
03
03
02
ff
fd
fd
02
fd
ff
fd
ff
fd
01
02
02
00
00
fe
ff
f9
fe
fb
fe
fd
fc
fc
fd
fb
f9
fd
fe
fd
fe
01
f8
ff
fc
00
fe
fe
fb
fd
fc
fe
fe
fa
f2
04
03
00
ff
fd
fb
fe
00
05
03
01
01
02
01
fd
fe
fd
fa
00
ff
00
04
ff
ff
00
00
01
02
fd
00
ff
fd
fc
00
fe
03
02
05
01
04
03
00
ff
fc
00
ff
01
01
fd
02
fe
04
02
02
00
ff
ff
01
04
01
03
ff
01
00
fe
01
00
fe
fd
ff
04
01
02
02
00
05
03
ff
02
01
01
02
02
00
fc
fb
fc
00
fe
02
01
00
03
04
02
04
02
01
ff
fc
fe
ff
fe
00
01
03
ff
03
02
02
01
03
00
ff
fd
fe
fe
01
04
fe
00
01
01
01
fd
01
ff
fd
01
fe
fd
03
00
ff
01
fe
04
fe
fe
fe
03
ff
fc
fd
ff
00
04
05
03
00
03
ff
02
00
fd
fd
fd
fb
fe
00
02
05
06
01
03
01
00
01
fe
fc
fb
fd
00
03
00
01
00
01
03
ff
03
03
04
00
02
fd
fe
ff
fd
ff
00
00
02
02
00
05
01
00
00
fc
fb
ff
02
fb
fd
fc
fb
fc
01
03
03
04
00
ff
01
ff
fd
fe
00
ff
02
03
02
03
03
ff
02
fe
02
01
01
fe
01
01
fe
fe
00
01
01
fc
02
ff
ff
fe
fc
fd
01
01
01
00
00
02
00
ff
00
fb
f3
fc
fe
04
09
08
08
0a
08
0c
0b
09
03
08
08
07
08
04
03
05
02
05
04
ff
fd
fd
fa
f4
f5
f6
f7
f6
f8
f4
f9
f6
f8
f9
fb
fd
f9
f8
f9
fc
fc
fd
04
06
03
04
07
0c
0f
09
0f
0f
0e
0b
0a
0a
0a
0a
0a
05
05
06
07
ff
fe
02
fc
fd
fc
fc
f7
f6
f9
f7
fd
fc
f8
fa
fa
fe
fc
fe
02
00
00
02
02
ff
fd
fb
01
fd
fb
fe
ff
00
00
fc
fe
fe
00
ff
00
fd
fe
01
fc
03
01
01
fd
02
ff
00
01
ff
03
01
02
00
ff
ff
ff
01
03
01
03
07
06
02
01
06
05
04
01
ff
00
ff
fc
fc
fd
fb
f6
fb
f7
fb
f7
fc
ff
fc
ff
fd
ff
ff
03
04
03
ff
00
02
fd
fb
fe
ff
fd
ff
fb
ff
ff
01
03
06
01
07
03
05
04
04
03
02
03
02
00
00
fc
fd
fe
fc
fc
00
fd
05
06
03
04
03
04
05
05
05
07
05
00
ff
ff
02
fc
03
03
02
04
03
06
05
07
07
0b
07
06
05
01
03
fe
fc
fb
fb
fb
fd
02
03
01
09
06
07
0d
09
07
04
06
01
fd
fe
fb
f6
f9
fa
fa
00
03
08
0f
18
08
02
03
00
fb
ff
f9
fb
fb
fb
fb
f9
fc
fa
f7
fd
fa
fa
f9
f9
fe
f9
ff
fe
fc
fc
fc
00
00
00
01
fe
ff
fd
01
01
ff
01
06
05
09
06
08
0b
0e
09
0d
0d
0d
08
04
05
03
00
fa
f9
f4
f0
ee
f2
f1
ef
f5
f8
fd
ff
ff
05
09
07
07
07
09
06
06
06
04
02
01
fb
fe
fb
fe
01
01
01
fe
01
04
02
00
04
01
03
fe
01
ff
00
01
04
01
06
01
05
03
03
07
07
02
04
05
ff
fd
00
fc
00
01
fe
fe
ff
ff
fc
fd
fb
fe
00
02
00
01
00
01
fd
ff
00
fe
fc
01
fe
fe
fc
01
01
03
02
01
05
03
07
08
03
06
02
06
03
02
00
03
00
fd
fe
ff
fe
00
04
04
02
06
04
03
00
04
01
01
ff
00
ff
00
ff
01
fd
fc
00
02
01
fe
ff
00
02
00
08
02
06
05
05
02
06
05
01
02
04
03
ff
01
fe
02
03
00
01
fc
fd
00
fd
ff
fe
fc
fe
03
06
07
04
07
01
01
05
02
04
05
04
03
02
00
03
05
00
01
05
03
01
fe
ff
03
ff
00
fb
fd
fe
fa
fe
fe
fd
fe
02
02
07
08
0d
05
03
07
07
03
03
00
ff
01
fd
fd
fb
fc
fd
fb
00
01
01
fd
ff
03
02
ff
fe
ff
fc
fd
fd
ff
00
fa
fd
01
02
ff
04
00
fe
04
01
01
07
03
03
03
02
08
0a
08
09
0a
05
06
00
02
fd
fb
f9
fc
fd
fc
00
00
05
05
06
0c
0d
09
0a
08
09
04
03
02
01
ff
ff
00
03
02
05
03
04
05
04
06
01
02
00
ff
fc
00
fb
01
ff
fe
01
ff
ff
fe
03
ff
01
00
05
02
06
05
01
ff
00
fe
fe
fe
ff
01
02
04
02
00
03
03
03
fe
ff
ff
fe
fd
00
fa
fc
fd
00
02
02
05
02
ff
02
03
00
02
ff
03
fd
02
01
ff
fd
fc
ff
fd
fd
00
00
04
06
04
04
04
03
03
04
fb
fc
f8
fc
f8
fd
fa
f7
fd
02
ff
04
03
05
07
06
03
05
00
ff
01
fd
fe
00
ff
00
00
05
04
09
06
06
0d
09
06
05
05
ff
00
fc
ff
fc
02
fd
01
ff
03
04
06
09
09
08
03
03
05
05
03
00
00
01
02
04
ff
02
ff
02
00
02
04
06
03
04
03
05
03
01
00
ff
fe
fb
fb
fe
fd
fc
fb
fa
ff
01
05
01
02
03
4a
43
3b
30
25
15
02
fa
ef
ea
e3
e2
e3
e2
e6
ec
fd
fe
00
01
fe
f8
f5
f2
f4
ed
f0
f6
fc
fe
07
0f
19
1c
1e
1f
1d
1c
11
07
fd
f4
e9
df
d6
d4
d2
d1
d6
db
e5
f2
f3
f5
ff
fc
fe
03
00
03
fe
00
fa
fd
fc
fb
fb
fd
fa
fc
fa
fa
fc
fa
ff
00
ff
fd
03
03
00
00
02
fd
04
00
00
03
06
05
07
04
06
06
04
01
02
01
00
fe
01
00
fd
fe
fc
01
fd
02
02
00
03
00
fe
fd
fc
ff
f8
fa
f8
f9
fc
fd
f7
fb
fb
fb
fa
fe
fa
fd
fc
ff
fe
fb
fb
f8
fa
f8
fb
fd
f7
fc
f8
fc
fc
fd
fd
fb
00
fe
ff
fe
fd
00
fe
ff
fe
fc
fc
fb
fd
fe
01
03
01
05
02
02
04
ff
02
03
02
fe
fd
ff
03
04
07
02
08
04
08
0a
05
03
03
05
04
00
04
01
02
06
05
09
06
07
09
08
0c
08
0b
0b
05
03
04
fe
ff
fd
fd
f9
00
fe
03
07
09
0a
11
0d
12
09
0b
0a
0a
07
07
0b
0b
05
09
09
04
04
04
00
06
04
01
01
01
07
03
03
01
04
0a
0d
13
21
24
21
17
0a
f5
de
fa
ff
01
02
02
05
02
04
00
04
02
02
fd
fe
ff
fd
fe
01
00
fe
03
fd
ff
fe
03
00
03
02
ff
00
fd
fd
01
01
fd
fd
fc
fd
ff
ff
03
02
01
05
03
04
00
fe
fb
fd
00
fe
fa
01
ff
00
05
03
00
03
fe
01
01
ff
ff
fd
fd
03
01
fe
02
fd
03
fe
00
fe
03
fd
fe
00
01
02
01
02
ff
02
00
01
02
ff
02
01
02
01
fd
fd
fb
fc
fd
01
00
00
00
01
00
01
01
02
fd
ff
00
02
fe
ff
00
fd
fe
01
03
ff
02
01
05
03
ff
02
fe
fd
fb
fb
fe
fa
fc
fd
fe
05
03
02
07
02
ff
fc
fc
ff
ff
ff
fb
fd
01
01
01
00
00
00
02
05
ff
01
ff
fe
fd
fe
00
ff
01
00
ff
03
fe
00
00
ff
fd
fd
fa
ff
fc
fe
03
01
01
03
04
00
01
01
00
01
fc
fc
00
fb
fc
00
03
00
02
05
02
05
01
05
fd
02
fe
f9
fd
fb
fd
fc
00
ff
02
02
01
00
03
03
02
00
fd
fd
f8
fc
fe
fc
04
ff
03
04
03
04
fe
fd
00
ff
fd
ff
fe
01
ff
01
00
00
00
02
05
04
03
02
01
02
fd
fd
00
ff
e8
e6
e8
ec
ef
f0
ec
f1
eb
ed
e5
e8
e7
e7
e9
ed
ef
f1
f2
f2
f7
f6
f6
f8
f4
f3
f8
f9
f4
fa
fb
fc
fe
ff
01
05
ff
02
01
02
fd
fe
f8
f7
f1
ef
ee
ea
e7
ec
ea
ec
f1
