e4
eb
ec
f3
f1
f7
f7
fd
ff
fa
01
ff
02
01
03
02
06
05
03
07
05
08
06
0a
06
07
08
06
08
03
08
01
05
03
ff
00
01
01
ff
fd
ff
fd
fe
01
00
fe
02
01
03
ff
00
01
00
05
03
05
05
04
06
02
04
01
04
02
02
01
05
02
03
04
0c
0b
0f
0b
0d
10
12
16
17
17
13
12
15
10
11
0b
0a
04
02
03
ff
fc
fd
fc
f6
f6
f9
f4
f3
ef
ee
ef
ed
e9
e9
e7
e6
e6
e8
e9
f1
f2
f5
f8
fc
01
08
08
0d
0e
13
13
14
12
10
0f
0e
0a
0c
07
08
04
ff
01
fe
fd
fc
fb
ff
fe
00
fc
02
fe
ff
00
01
01
01
fb
fd
fa
fb
f9
ff
fa
ff
00
01
fe
05
05
06
04
07
07
06
0a
07
03
01
01
01
fc
fa
f9
f6
f8
fa
f4
f7
f8
f8
f6
fb
fb
fb
fa
fa
fc
fb
f9
fc
fc
f8
f6
f5
f4
f5
f3
f0
f2
f7
f6
f6
f6
f6
f6
fc
fd
01
00
fe
01
02
07
05
04
06
03
02
06
02
01
fe
01
02
ff
fa
f8
f7
fc
f9
f9
fa
f9
fa
f9
fb
fa
02
01
02
02
03
02
01
04
ff
ff
fa
f8
fa
f6
f9
fa
06
05
0b
0d
0d
0b
0e
0b
0c
0b
06
05
02
ff
02
fa
ff
ff
00
fb
fa
fd
fe
fa
fe
fe
fe
fe
01
01
fe
04
04
01
01
01
00
02
06
03
04
05
06
06
06
04
04
01
ff
03
fe
00
fb
fd
00
ff
fd
03
04
06
0a
10
0e
12
12
14
17
15
14
0f
0d
08
04
03
00
f9
f1
eb
ea
e2
e0
df
d9
db
d9
dc
de
df
e4
ed
f8
fa
00
0a
11
17
1b
1c
19
1d
1e
1b
18
1c
16
15
14
16
15
14
12
0e
0c
0d
0c
09
01
fe
f9
f5
f3
f2
f0
e8
ec
e9
ec
f0
ef
f3
f0
f3
f8
f8
fa
fa
ff
ff
00
fd
fd
00
01
ff
00
03
01
01
00
ff
fc
fe
fd
fe
fc
fa
fe
fb
fc
f8
f8
fb
f7
f9
fb
fb
fb
01
03
01
00
fe
ff
01
02
ff
fe
01
fb
ff
fc
fd
fb
ff
fe
02
ff
05
05
01
02
06
06
00
00
fd
fc
ff
fe
fd
fb
fe
fc
fa
fd
ff
ff
fd
00
ff
fe
00
04
03
05
05
04
01
01
04
00
ff
01
02
00
fd
fb
fb
f7
f5
f6
f3
f4
f6
f2
f1
f2
f2
f4
f6
f8
fb
f8
fa
fd
fb
fe
ff
fe
fe
fa
fc
01
05
0d
14
26
16
0b
04
04
fb
ff
fc
fe
01
00
06
08
05
0a
0a
0d
10
0f
0d
0e
11
0e
0b
08
0b
07
08
01
04
01
05
07
05
09
0a
0e
0b
0b
11
0e
10
0e
0c
0c
0a
08
09
07
08
02
01
01
00
01
03
03
04
06
04
07
0a
09
06
02
05
ff
fd
01
fd
ff
02
01
03
01
04
04
05
05
02
fa
f9
f5
ef
ee
eb
ef
ee
f2
fa
fa
03
08
0b
10
13
17
18
15
0e
0a
0b
07
05
04
03
07
0c
0c
0f
0d
0d
0e
09
09
08
00
ff
fa
f8
f8
fb
f8
f9
fa
fd
fe
01
02
fd
01
fd
f5
f4
f3
ed
ed
eb
ef
ec
f1
f0
f3
f5
f6
f7
fb
01
fc
00
fd
01
ff
fe
ff
fc
fd
f8
f9
f9
fb
fa
f6
fb
f8
fa
fa
fd
00
ff
fe
02
01
08
02
05
04
07
08
0b
08
0c
08
0a
0b
0b
07
0c
09
05
04
03
05
00
03
01
fd
00
ff
00
00
fb
00
ff
fe
fa
fc
fd
fb
fd
fd
fc
f6
f8
f9
f6
f3
f5
fb
f6
f8
fc
fc
fe
f9
f9
fc
fc
fc
fb
fa
fa
f4
f4
fa
f4
f6
fb
fa
fc
fb
fc
00
fb
fc
fc
f6
fa
f4
f4
f5
f6
fd
0c
1a
27
15
17
12
0e
06
05
06
05
03
05
04
05
03
01
03
01
fe
fa
fe
fc
f9
fb
f8
fc
f7
f7
ff
f6
fb
fc
f9
ff
fb
fc
f5
f7
f5
f6
f8
fb
01
fa
fd
fa
fb
f8
f8
f1
f1
f0
ee
ef
f0
f3
f0
f8
ff
04
0d
07
0a
03
03
fb
f3
ef
e8
e7
e0
e2
e6
eb
f4
f8
05
0b
14
18
1c
1a
18
13
0a
ff
f6
f2
ea
ec
ee
f1
fd
07
11
19
27
29
2c
31
2b
21
16
06
fd
f5
e9
e0
dc
db
e1
e4
ed
f1
f9
fe
ff
02
01
02
ff
f9
f6
f9
f8
f9
fd
01
07
08
08
08
0a
07
0a
07
05
ff
fd
fd
f8
fb
fd
fc
fc
02
02
04
04
00
00
00
fc
fc
f9
fc
fa
fc
01
ff
01
05
03
04
08
03
01
01
01
00
ff
02
02
01
02
05
06
07
06
0a
08
08
09
0d
09
09
0c
0b
0b
07
07
08
0a
09
06
09
05
06
04
07
02
01
02
fd
00
ff
fe
fc
ff
fa
f9
fc
fc
fc
f9
f5
f8
f9
f4
f7
f5
f8
f6
f6
f6
f6
f3
f0
f5
f1
f4
f7
f9
f9
01
fc
fc
fd
f9
f7
f4
f3
ef
ed
ee
e9
eb
f0
f5
f9
f9
ff
00
ff
f9
f6
ed
e6
0d
07
06
01
00
fe
02
fe
fe
fd
00
03
02
fe
00
00
fe
05
03
04
04
03
05
04
03
00
05
01
fe
fe
03
ff
ff
fe
00
fe
fe
02
04
02
fc
ff
fc
ff
fe
fe
fe
fd
fc
00
fd
02
00
02
00
02
01
02
03
00
01
02
02
01
fc
fb
ff
00
fb
00
03
03
00
05
05
05
00
04
fe
02
fc
fd
fc
fc
f9
fa
f9
f7
fa
ff
00
01
00
03
03
03
00
fc
ff
fc
ff
fa
fe
01
01
00
ff
04
01
ff
06
03
03
06
01
01
04
02
02
fe
01
fe
00
fe
05
06
03
08
07
07
04
04
06
03
fc
01
fe
fe
00
fe
fb
ff
fb
ff
fd
ff
ff
ff
ff
01
03
03
04
03
04
02
01
02
fd
fd
00
fd
fd
fd
ff
01
fd
01
02
fe
fd
fd
fe
fe
fe
fd
fc
fc
fd
04
00
ff
05
04
08
06
06
fe
01
01
fb
ff
fd
f9
fa
f9
f8
fe
00
fe
02
fe
05
04
02
fe
01
fe
fe
fd
fe
fa
fc
fe
fe
01
fd
ff
00
00
03
01
fd
ff
fe
ff
fe
fd
fe
fe
fe
01
ff
02
01
fd
02
03
fd
fd
02
02
fe
03
ff
fd
01
01
ff
02
00
04
06
06
07
09
f6
fb
fe
fd
fd
01
01
fc
01
00
03
01
02
ff
03
04
01
00
04
06
02
05
04
01
ff
01
00
fa
fa
f8
f9
fa
f6
f5
f8
f3
f5
f5
f3
f7
f5
f9
fa
fe
fc
fd
03
06
02
06
04
07
0b
09
03
07
06
02
04
ff
fe
fe
ff
ff
fe
fd
fe
00
fb
ff
ff
fe
00
ff
00
fc
fb
fe
fb
f9
f6
fa
f6
fa
fb
f6
f8
f8
ff
01
ff
02
00
fe
03
04
07
05
06
07
06
00
05
ff
03
ff
fb
ff
fc
fc
fd
ff
02
ff
02
00
ff
02
ff
fe
00
fe
ff
01
ff
00
01
00
ff
01
02
02
03
01
02
03
02
04
04
05
04
04
01
fe
02
fe
ff
fe
fe
fd
03
03
02
03
fe
03
05
05
01
04
01
02
02
ff
fd
fe
01
00
fc
fd
fe
fb
02
03
01
00
02
04
04
01
ff
02
00
fd
fc
fb
fd
fa
fd
fe
fc
fc
fd
01
ff
05
03
07
07
07
08
09
04
05
08
06
07
07
03
05
00
00
00
ff
00
ff
fe
03
05
07
09
04
02
ff
01
fc
ff
fb
fb
fd
f9
fd
fd
ff
fd
01
04
05
07
04
05
02
03
01
fd
fb
fa
fb
fa
f9
00
00
ff
04
07
0a
fe
fb
f8
f8
f8
fc
fb
fd
fc
fd
fc
fb
fa
fa
fb
fc
fd
fe
00
00
fe
fe
00
ff
02
03
04
01
01
01
01
04
02
02
00
02
ff
fe
03
01
02
07
07
08
07
0a
07
0a
09
09
05
03
01
ff
fa
fa
f6
f0
f2
ef
ef
ef
f0
f7
f6
fc
fb
ff
02
05
03
06
06
07
05
06
02
02
06
ff
02
00
04
01
ff
00
02
02
02
fe
01
fd
02
02
03
ff
00
02
fe
fe
fd
00
00
00
fe
ff
fa
fd
fb
fa
fe
f9
fd
f9
fd
fd
00
fd
01
fd
00
fc
01
fe
ff
fe
02
00
fc
fe
fc
00
ff
fd
fe
00
ff
03
02
03
02
00
04
00
00
ff
01
02
00
01
fb
fe
fb
ff
fd
fe
02
03
ff
ff
02
01
ff
00
fe
00
02
fc
ff
fe
ff
fb
fb
fd
fe
00
fd
01
05
01
05
04
09
04
07
0a
05
06
03
08
05
01
02
ff
00
03
01
ff
01
01
00
ff
ff
03
01
02
ff
02
02
ff
00
00
fd
fc
fe
00
fb
03
00
fe
03
00
04
08
02
01
01
04
02
02
02
00
ff
ff
fb
f7
f4
f8
fa
f9
fb
f9
fb
fb
03
04
03
08
09
0a
0d
0e
0a
0b
0e
09
00
04
00
fd
fd
fa
ff
fa
fc
fb
ff
ff
00
fe
ff
04
06
01
03
ff
00
05
00
03
00
00
01
05
00
07
05
06
08
03
07
01
00
01
00
ff
fe
fe
04
03
07
08
0c
09
0a
0d
0c
07
04
03
02
00
00
fa
fe
fc
02
03
03
07
03
02
04
08
06
02
05
05
fd
01
00
00
03
03
03
05
05
05
02
05
03
04
03
00
fd
fc
00
ff
00
fd
fe
fe
01
fe
03
05
00
03
03
00
05
04
08
03
05
01
02
02
04
04
ff
02
00
04
01
03
07
01
00
04
03
02
05
00
ff
fe
00
ff
02
01
01
ff
02
02
fd
fe
fe
02
fd
00
04
fd
04
01
03
fe
01
fe
fc
fe
f9
fb
01
ff
01
04
06
07
06
0b
04
05
04
01
fe
fd
f9
f8
fa
f9
fd
03
01
06
09
08
07
06
06
06
01
03
03
03
02
01
00
00
01
fe
fe
ff
02
02
01
04
05
03
03
03
04
07
03
05
04
01
04
01
01
fe
ff
ff
fd
fd
00
01
00
02
04
03
0a
07
06
08
06
04
06
01
03
01
fd
fc
00
ff
01
00
fe
00
03
03
06
08
0f
0f
0d
0a
06
02
00
f6
ec
e4
42
3e
30
29
22
11
0d
09
0d
07
01
f9
fe
fa
fc
f9
03
fb
fc
f4
f7
ef
e7
ea
e6
ec
ee
f7
01
07
0d
15
18
1e
1e
1c
18
13
07
01
00
f7
f1
eb
ea
ed
ea
e9
f2
f3
f8
f7
ff
fd
fd
fc
fd
00
fe
01
fd
fe
01
00
01
03
08
07
06
05
04
03
03
02
02
04
03
03
07
03
07
08
09
08
05
08
03
03
03
fc
fe
fc
ff
fb
ff
00
01
03
01
fe
02
01
00
fc
fe
fc
00
00
ff
ff
fb
fc
fe
ff
03
02
05
02
ff
00
03
03
00
fd
fa
fb
fe
fb
ff
01
fe
03
00
00
fe
fc
ff
fd
fb
fe
f9
f9
f9
fa
fc
fb
ff
fc
00
00
03
06
05
01
ff
00
fe
00
ff
00
01
01
05
06
08
0e
09
0e
0b
0a
0c
0c
0c
07
06
07
04
06
05
09
09
05
08
09
0a
08
0b
08
0b
0a
04
03
04
02
03
02
04
fe
ff
ff
02
04
02
03
05
00
06
04
02
ff
00
fb
fa
fd
fe
fb
00
fb
fd
fb
02
01
fe
00
01
fc
fb
f4
f1
ee
f0
ea
ea
ed
ea
f3
f8
f9
ff
00
02
05
00
fa
f5
f3
f5
f0
ea
e4
da
d5
d1
d4
d0
d7
0a
01
fd
fa
fa
fe
fd
fc
ff
01
01
ff
00
00
03
fd
fe
fe
ff
ff
fc
fc
fb
00
ff
01
03
02
00
04
07
00
01
ff
00
00
03
00
ff
00
04
03
05
02
fe
fe
ff
00
ff
02
ff
ff
02
01
01
01
01
fd
fe
fb
ff
ff
fe
00
fa
00
02
00
ff
01
01
01
fd
01
ff
ff
00
01
00
02
04
08
07
02
06
01
02
03
ff
ff
00
00
05
04
ff
00
00
00
00
02
03
01
04
01
02
03
01
03
04
00
00
02
ff
03
ff
01
fd
fd
02
02
04
04
01
ff
00
ff
fe
fb
fc
ff
fb
00
fd
fe
01
fe
00
02
03
ff
03
00
03
05
02
01
ff
03
01
ff
fd
fd
02
01
00
fc
01
ff
02
01
00
fe
02
fd
01
fd
ff
fe
00
01
fd
fb
00
ff
fd
fa
fc
fc
ff
fe
fe
fd
fe
04
04
03
01
05
01
ff
ff
ff
00
ff
02
fe
03
01
00
01
ff
02
00
03
00
ff
fc
ff
ff
01
02
fd
ff
03
04
ff
02
ff
fd
01
fd
00
fb
fb
00
00
00
fd
01
00
02
00
ff
00
01
fe
01
02
fc
00
fd
fc
fa
fc
f9
fe
01
fd
04
01
02
ff
02
04
fe
fc
ff
02
01
01
ff
01
00
03
00
00
ff
02
01
03
02
fe
02
ff
ff
03
04
00
03
fe
fd
fc
fc
fb
fd
f9
f7
fa
fc
fa
fc
fc
00
01
04
03
02
05
09
0b
09
0c
09
08
06
04
05
00
fd
f7
f5
f5
f5
f3
f1
ee
f2
f2
f3
fb
fc
07
06
0f
14
14
1b
1a
1d
1b
15
11
0f
07
00
fb
f2
ec
ea
e5
df
e2
df
e3
ea
ec
f1
fa
ff
03
09
0e
15
15
1a
19
17
16
13
10
0d
05
01
00
f8
f2
f0
ee
e7
e6
e6
e8
ea
ea
f2
f1
fb
fb
01
06
08
10
0e
14
12
18
18
19
16
12
15
10
10
0a
08
05
09
05
00
02
fe
fe
fd
fa
fa
f5
f7
f2
f3
f7
f6
f5
f5
f7
f5
f6
f6
fa
fb
f7
f9
f9
fd
fa
fe
fc
ff
00
fd
02
03
ff
06
06
07
05
07
04
06
08
07
07
01
06
01
04
02
00
02
00
00
fd
03
00
03
01
05
06
02
07
01
01
00
02
fe
ff
fd
ff
fb
fc
fd
fe
ff
02
fe
ff
00
01
06
02
04
06
02
08
02
00
ff
ff
ff
fc
00
fe
00
fd
fd
fb
fe
00
00
fc
fc
fa
ff
fe
02
01
01
00
02
05
05
05
04
00
01
06
04
00
02
02
fd
ff
00
ff
02
fd
01
fd
fc
01
fd
ff
00
fe
fd
02
06
02
06
06
06
04
0a
09
08
0a
06
07
05
04
04
02
00
fb
f9
f9
f6
f5
fa
f7
f4
f8
f8
f5
f8
f5
f9
fb
fa
fc
fa
fd
fe
ff
00
03
02
03
04
06
08
0f
0c
08
09
0a
06
04
01
ff
ff
fd
fc
fc
fb
f9
f8
fa
f9
ff
ff
00
00
05
07
09
06
09
07
04
04
06
00
01
fe
f9
f7
f3
f0
ed
e8
e7
e8
eb
eb
ee
ee
f2
f5
ff
01
07
10
13
14
16
18
1f
18
1c
1a
16
13
13
0e
0d
0a
03
04
02
fd
01
fd
fa
fb
f9
f7
f4
f6
f5
ef
ec
ed
ea
eb
ed
f2
f1
f6
f8
fa
00
04
07
0b
0c
0e
0e
0c
0d
08
09
06
02
01
fd
fb
fc
fc
fb
fb
f8
f9
fe
fa
fe
02
01
02
fd
01
00
01
03
ff
ff
fd
02
00
02
fe
fc
ff
02
01
00
fe
ff
04
ff
01
01
04
03
00
02
05
03
02
fe
02
fe
fc
fd
fa
f9
f9
fa
f8
fa
f7
fe
01
00
01
ff
05
07
09
06
08
09
05
02
00
05
03
03
fe
00
fe
fd
00
fc
02
01
ff
02
fd
01
00
ff
01
04
02
01
ff
01
00
fe
fe
00
02
04
00
03
04
02
01
03
05
02
fe
01
fb
00
fe
fe
fb
fb
ff
02
ff
04
02
02
01
00
ff
00
fc
fc
f7
fe
fc
fb
fe
ff
01
02
04
03
04
02
02
03
00
01
ff
fb
fc
fa
fe
fc
fe
fe
fd
fd
fc
fd
01
fe
ff
f9
fa
f7
f9
fb
f8
ff
fe
04
03
08
0b
07
07
08
01
04
fe
ff
f7
f5
f9
f6
fb
fc
00
fc
01
02
03
ff
03
00
fe
fb
ff
fd
00
fd
00
fe
ff
ff
fe
04
01
06
04
06
05
00
04
00
fd
00
ff
ff
f6
fa
fa
fa
fa
f8
fd
fe
fa
fb
fe
fd
fc
fc
f8
f7
f6
f9
f9
f7
fb
fa
fb
02
01
07
04
06
05
09
05
07
05
04
fd
fc
fb
fc
fc
fd
ff
ff
fc
fe
03
01
01
fe
01
02
ff
02
01
fd
fd
fc
fc
fb
01
fa
fd
fe
01
02
ff
02
fe
01
fe
ff
fc
fc
fe
01
00
02
ff
ff
00
00
fd
00
ff
ff
00
fe
fd
fb
00
02
ff
03
fe
04
02
00
ff
fd
ff
fb
fc
fc
fa
fe
fd
fe
02
ff
02
03
00
00
01
ff
fd
fb
fd
fb
fa
fe
fe
ff
01
04
00
f8
00
fe
01
02
ff
01
01
ff
02
07
02
04
06
04
00
03
00
fd
fb
fd
03
00
03
03
01
05
04
04
09
04
04
ff
02
02
fc
00
fe
fc
00
fe
00
00
00
ff
03
02
ff
04
03
ff
03
fe
01
02
fd
fd
fd
00
fb
fb
fc
fb
fc
fd
fc
ff
01
03
06
08
04
03
05
01
03
00
ff
fc
fd
fb
fd
03
fe
00
02
03
05
02
03
01
04
03
00
fe
00
fb
01
ff
04
ff
04
ff
04
01
03
fe
01
fd
fd
01
00
fd
fd
00
02
05
05
03
01
ff
05
00
00
fe
fe
00
fd
ff
ff
fe
fe
ff
00
00
00
fd
fd
ff
00
03
05
03
00
02
02
00
fb
fd
f9
fa
ff
fb
01
fe
05
05
06
05
04
ff
ff
fe
00
fa
fa
f5
fa
f9
f8
fd
fb
00
01
06
02
05
06
01
02
02
fd
fd
fc
ff
00
fc
ff
ff
03
04
04
08
02
01
00
00
04
ff
fe
fc
fb
fc
ff
01
01
fe
ff
01
04
00
04
01
04
01
fd
fc
fe
fb
fb
fe
fe
fe
fd
fd
ff
02
ff
02
00
ff
03
01
02
03
fb
fc
fa
fe
fd
ff
ff
02
06
ff
fc
00
fd
ff
00
04
01
fe
03
ff
02
02
ff
ff
00
00
ff
fb
fe
ff
fd
fb
fc
02
fb
fd
02
fe
04
00
02
02
05
04
00
00
fe
fe
fd
fe
fd
01
00
02
00
03
00
04
03
01
01
00
fd
fe
fe
05
06
02
07
03
07
04
05
03
02
01
ff
00
fc
fe
fe
00
fe
01
03
02
00
fe
01
fd
02
00
00
fe
04
00
04
ff
ff
01
fe
01
01
01
03
04
fd
fe
02
fe
00
ff
01
fe
01
ff
ff
ff
00
01
fe
fe
02
02
fe
fe
02
02
01
01
02
05
ff
00
ff
fe
fd
03
02
fd
00
fd
00
ff
00
01
03
04
ff
01
02
fe
ff
fe
ff
ff
ff
fc
01
01
01
04
02
03
fe
03
03
fc
fc
fd
fc
ff
00
fe
01
00
fe
fc
ff
fb
ff
fe
fc
ff
fd
ff
00
fc
fd
00
ff
04
00
00
04
03
00
fe
00
fe
00
fe
00
fb
00
fa
fb
01
01
03
00
05
04
02
02
fd
fe
ff
01
fe
00
fe
fe
02
ff
01
03
04
04
01
fe
fe
01
fb
ff
01
01
fc
fd
fc
01
fe
fe
fe
02
02
00
01
fc
fc
fe
01
04
03
ff
02
ff
00
00
ff
fc
02
fe
ff
01
ff
01
00
00
fe
ff
fd
fd
01
04
04
ef
f3
f4
f5
f8
f9
f7
fb
fc
fe
01
04
03
05
01
03
02
ff
01
00
ff
00
fe
fe
fa
fa
fa
fc
fb
fe
fc
ff
00
08
06
0a
0c
11
0f
0c
11
09
0c
0b
09
02
fe
fe
fd
f5
f4
f0
f3
f2
f4
f2
f1
f5
f5
fa
00
fe
03
03
05
07
08
0a
0b
0b
0b
07
05
02
02
fd
ff
f7
f7
f9
f8
fa
fd
fc
fe
fb
fd
00
01
01
04
0a
06
0b
0c
0e
0e
0c
10
0f
0f
14
13
0e
11
0c
0c
0c
06
02
02
fc
fa
f7
f8
f5
f1
f0
ef
ec
ee
eb
ed
ee
ee
f2
f1
f4
f2
f8
fa
fe
fe
01
01
0a
0c
0d
0f
10
11
10
11
10
0c
0d
0c
06
06
04
02
03
04
02
02
01
02
02
00
01
05
03
01
02
fe
00
02
00
ff
fa
fd
fe
f8
f9
fc
fa
fb
f7
fc
fb
fd
01
fd
02
ff
07
06
08
06
09
07
09
0b
05
06
05
05
02
03
fe
fe
fd
fb
fd
fb
fb
f7
fa
f7
fa
fb
fc
f8
fb
f8
fc
fd
f9
fa
fb
fb
fc
fc
fb
fc
f8
fd
fc
ff
fe
00
04
01
04
05
04
06
01
02
04
05
02
04
03
06
fe
00
fe
fd
fe
fa
fe
f9
f9
f6
f7
06
0b
0d
0c
08
0a
05
09
05
02
02
01
03
ff
fe
01
fc
fc
f9
fa
f8
f9
f6
f4
f8
f5
f5
f7
f8
f5
fa
f9
fa
fc
fe
fe
01
04
01
02
03
05
06
04
0a
05
0c
0a
0a
0b
0f
11
0d
10
14
11
10
12
11
0f
0c
0b
0a
09
05
fe
fb
f4
f6
f3
f0
ec
ef
ea
ed
ed
ed
f0
f2
f8
f7
fc
fb
00
fe
02
03
00
00
07
09
05
09
0a
11
13
14
14
13
16
12
11
10
0c
0a
09
04
fe
fb
f9
f2
f3
eb
ea
e6
e3
e6
e9
ea
eb
ee
ed
f4
f8
f7
fd
04
06
07
0a
11
11
13
12
17
13
14
12
11
10
0b
08
09
01
03
ff
fc
fd
fa
f5
fb
f5
fb
f7
fc
fa
fa
fe
fe
fe
01
04
03
07
06
05
05
0a
08
0b
05
08
06
08
07
03
ff
fd
fb
fa
fd
f8
fa
fa
f9
f5
f7
f7
fc
f9
fb
fd
fc
fc
f9
fa
f8
f7
f7
f4
f7
f9
f5
f7
fd
fe
00
01
01
07
05
07
09
06
08
08
06
05
00
01
fe
01
ff
f9
fc
fc
fe
fd
f9
ff
fd
00
02
05
04
ff
02
05
ff
fe
fb
fb
fa
fb
fc
fc
fb
f8
fb
fb
f7
fe
fa
00
fe
03
fa
fd
fd
fb
fe
ff
fc
fb
f9
f9
f9
fa
f7
f6
f9
f6
f5
f9
f8
fb
f9
ff
ff
04
06
02
01
ff
01
fe
fc
fc
f9
f2
f4
f4
f4
f8
f7
f7
fc
f9
fb
ff
02
03
ff
00
fd
ff
fc
fe
fa
fd
fd
ff
fc
02
fd
00
03
04
06
03
09
04
03
05
02
02
02
07
06
05
06
04
03
03
01
06
01
00
fc
fe
fb
f8
fa
fa
f4
f8
f5
f6
f9
f9
fe
ff
fd
00
ff
05
03
03
03
01
00
03
ff
fd
f7
f7
f5
f8
f5
f9
f8
fd
02
00
05
01
05
05
09
0a
0b
0c
0f
13
12
12
17
16
0f
0e
0c
05
03
04
00
ff
fb
fb
fb
f7
f6
f4
f6
f9
f4
f7
fb
f8
f9
fa
f9
fb
f9
fd
fa
fa
f9
fc
f7
f6
f8
f9
fb
00
fb
fc
fc
fc
fd
fb
fb
fb
f8
f8
f6
f8
f6
fa
fb
fc
fe
fb
fd
03
04
06
03
04
06
05
08
03
03
04
05
00
02
05
01
03
00
fe
fe
ff
fd
01
00
fc
03
01
02
00
04
00
04
ff
02
01
03
00
01
01
02
04
03
04
05
02
04
fe
fe
00
fe
ff
00
fe
fb
fd
fe
fd
00
02
00
fd
fb
fa
f9
fc
f6
f7
f4
f6
f9
f8
fe
fc
fe
03
01
ff
fb
fd
00
02
03
ff
04
02
fe
01
ff
fd
f9
fa
fd
ff
fd
fe
ff
04
07
06
05
09
04
06
04
fc
ff
fe
f9
fe
fd
fc
fc
fe
01
05
04
0a
09
06
03
03
03
fc
f9
f9
f9
f6
fa
fb
fb
fd
fe
03
02
01
fe
fe
ff
fa
f5
f5
f1
f0
ef
f2
f5
f5
fe
02
01
07
08
0d
11
10
10
0b
0d
07
07
04
03
ff
ff
fd
fe
fd
00
03
03
04
09
09
06
09
03
01
01
fd
f8
fa
f7
f6
f0
f2
f5
fa
fa
fe
03
02
06
0e
0d
10
0b
0b
0d
07
06
ff
01
fa
f9
f5
f3
f3
f4
f7
f9
ff
00
06
04
07
0a
05
06
0a
05
03
02
fe
00
fd
fe
fc
fb
fb
fb
fb
f8
f9
f7
fc
fe
f9
fd
fd
fa
fd
fd
fe
fc
f9
f7
f8
f9
f9
fa
f5
fa
f9
fc
00
ff
ff
01
00
02
07
03
06
03
06
07
07
08
0a
06
08
03
09
04
06
06
04
07
02
00
05
01
04
05
04
ff
02
fe
00
00
02
04
03
00
01
04
01
03
01
fd
fc
02
fd
04
ff
ff
00
fe
02
fc
fd
00
04
04
01
ff
00
fb
fc
fe
03
04
07
09
0b
09
03
00
fc
f9
fd
fd
02
02
03
02
01
06
07
04
03
03
ff
02
fc
fc
fe
00
00
02
ff
01
03
00
00
02
ff
01
02
00
fd
fc
fd
fe
ff
ff
fe
01
fd
fe
fd
ff
01
fe
fe
fb
fc
fc
fb
01
fe
fe
fc
ff
01
fd
fc
fe
fe
00
fc
00
fd
fd
02
fe
00
02
04
fe
fd
ff
02
01
01
02
fe
02
02
02
00
02
02
01
03
00
01
01
00
fe
fc
fd
fd
fd
ff
fd
fa
fa
fe
fb
fc
fa
00
ff
fc
fa
00
ff
fe
fc
03
ff
03
00
fe
fe
03
02
fc
ff
fb
fb
ff
fd
ff
fe
02
fd
01
00
01
03
fe
00
fe
00
fd
ff
00
fd
fa
01
fd
00
03
02
06
06
04
05
06
08
06
01
04
03
03
02
02
ff
ff
fd
01
01
fe
fe
03
ff
06
01
05
04
08
04
07
05
07
06
05
06
01
01
03
06
03
03
01
03
05
03
02
ff
00
fc
02
fd
fd
fe
fc
01
ff
00
ff
01
03
02
03
05
06
05
05
05
00
00
00
00
fc
f9
fc
fa
f6
fb
f8
fd
fd
ff
04
02
05
0a
07
07
08
06
07
06
02
00
ff
fe
ff
fe
02
02
00
02
01
ff
ff
f8
f8
f2
f6
f9
fe
01
00
04
05
03
04
04
fe
01
fe
02
ff
fe
fe
fd
fe
fc
fa
ff
fc
fc
fc
01
fe
ff
fd
01
fc
ff
01
01
01
01
01
02
ff
ff
fc
fe
fc
fe
fd
f6
f7
fa
f4
f8
f7
f4
f3
f8
f9
fc
fa
fe
fc
00
02
06
02
04
02
02
04
02
02
00
ff
fd
fe
f9
fc
fd
fe
fa
fe
fa
fe
ff
fd
ff
fb
fc
fb
fb
fc
fe
fb
00
fa
ff
01
03
ff
fb
ff
02
01
02
fc
fc
ff
fd
fb
ff
fc
fb
00
fe
fe
00
03
04
05
01
01
05
00
fe
ff
fc
fa
ff
fc
fd
fc
fe
fd
fe
fd
ff
ff
fd
fe
fd
fc
01
fb
fc
fc
fe
00
02
ff
02
01
03
06
02
01
04
01
02
ff
04
02
fe
01
01
00
fa
fc
fd
fe
fa
fe
fb
fd
00
ff
fb
01
01
03
00
02
04
04
05
04
07
07
05
07
04
05
05
02
03
02
04
00
ff
fe
ff
02
03
fc
fd
00
ff
01
01
fe
02
fe
02
ff
05
02
03
00
fe
02
03
02
00
01
ff
03
03
03
04
fe
03
03
00
fc
fc
00
01
00
ff
fd
fd
fd
ff
fe
00
fa
fe
ff
f9
fc
fc
ff
03
03
08
09
0d
0e
fa
fd
fc
fe
00
02
fe
fe
00
01
02
01
01
01
02
01
fe
fd
02
00
00
02
04
02
01
01
02
ff
fc
fc
fa
fd
f8
fd
f9
f7
fb
f9
fd
fa
fc
fb
fc
ff
01
fd
01
ff
00
00
00
01
03
04
07
07
06
04
03
01
04
03
fc
fa
fb
fc
fc
fc
fe
fd
fb
fa
fe
01
fe
fd
02
02
ff
02
fd
fe
00
fb
fc
fb
fa
ff
fd
f8
fa
fc
fd
fd
fc
02
02
03
00
fe
00
00
fd
00
fc
fc
fc
fd
f9
fc
fa
fb
fd
01
fd
03
ff
03
03
01
03
05
03
fd
00
02
00
ff
00
fd
fd
ff
01
fe
fe
ff
fe
03
02
00
fd
00
03
01
00
fd
fb
fd
fe
01
fd
fd
fc
fe
fc
fd
ff
01
02
01
fe
03
02
00
01
05
01
05
04
06
06
08
06
01
05
02
00
01
00
fe
fc
fb
fc
fe
fc
fd
fe
f9
f9
fc
f8
ff
fc
fb
ff
00
01
01
00
04
01
02
03
01
01
08
02
07
07
02
04
04
06
02
05
ff
03
04
00
ff
fd
fe
fd
fc
ff
fc
fb
00
00
00
00
fc
ff
03
fe
00
02
01
00
01
ff
03
02
fd
fc
fd
01
fe
ff
fd
02
03
05
07
0a
10
0a
04
00
04
01
05
02
02
01
02
04
ff
01
00
fe
00
fc
fd
fb
fd
fe
00
fb
fe
fd
ff
fe
fb
fa
fd
00
ff
01
03
04
02
04
00
01
00
fd
00
fd
fc
00
fc
fc
00
ff
ff
00
02
03
06
04
06
06
04
03
01
02
fe
fd
01
fd
00
01
ff
fe
05
03
08
00
04
ff
01
fc
fb
fd
fe
fb
fa
fd
fb
f9
fc
fe
ff
01
02
00
02
01
01
04
ff
02
fd
ff
ff
fd
ff
fd
01
fe
00
00
ff
04
01
01
02
02
04
02
01
03
04
05
03
03
03
03
03
03
04
07
06
07
01
05
00
ff
03
00
00
01
02
04
00
04
04
04
02
03
03
05
00
ff
00
03
02
03
04
06
04
08
03
05
07
04
05
02
01
02
ff
00
fe
01
04
04
00
ff
02
07
07
07
07
08
02
00
ff
00
fa
00
fe
fe
01
02
03
00
00
05
06
03
03
04
04
06
01
04
02
00
00
ff
fd
01
ff
ff
01
02
06
03
05
05
00
06
03
06
09
04
05
02
03
02
04
05
06
03
03
03
03
ff
fe
ff
02
00
ff
02
04
05
03
04
08
08
08
07
03
05
01
03
fe
ff
ff
03
01
be
d2
e2
f4
00
09
14
15
1d
20
17
12
11
0c
08
02
09
05
04
04
07
01
03
fe
fe
fe
ff
fb
00
09
0c
11
1b
22
2b
32
35
34
32
2d
2c
26
1d
16
0c
0c
07
fe
fd
fb
f7
fe
f8
fa
fd
fc
f8
f6
f5
f3
f4
f2
f4
f3
f7
f5
f8
f3
f2
f5
f3
f4
f1
f5
f0
f1
f3
f2
f2
f7
f8
fa
f8
f9
f7
fc
f7
f6
fa
f6
f9
f7
fb
f7
fc
fe
fc
00
ff
fd
01
fe
01
ff
ff
00
01
00
02
01
01
00
03
03
08
02
03
03
08
03
03
06
02
02
05
06
01
04
06
08
05
09
06
03
08
04
07
02
06
06
04
07
06
04
07
07
06
03
06
04
06
03
03
05
06
02
02
02
01
01
02
03
04
02
02
00
fe
02
02
01
01
01
02
02
fa
fa
fa
fe
fe
fc
fb
fc
fe
01
ff
fe
02
03
fd
fc
ff
f9
fb
f7
f8
f6
f4
f8
f6
f9
02
02
04
04
07
05
09
01
02
ff
fb
f4
f5
f3
f5
f5
f8
f8
fb
fd
fc
02
06
08
05
05
06
02
04
06
03
02
fc
fc
fa
f5
f5
f1
f2
f2
ed
f2
ef
ee
f0
ee
ee
f0
f3
f8
fa
ff
05
04
04
05
00
04
02
05
00
02
03
00
fe
01
fc
03
00
01
04
01
02
02
fd
02
01
02
ff
fe
03
02
ff
04
01
02
04
02
ff
ff
02
02
ff
00
ff
01
ff
04
05
fe
fe
ff
fd
00
fd
fe
fe
ff
fe
ff
03
04
04
05
02
02
fe
01
ff
02
ff
fe
fd
fd
fc
fd
fe
fb
01
ff
fd
fc
ff
00
03
ff
02
ff
ff
fe
fc
ff
02
02
ff
01
03
03
03
00
03
ff
00
01
fe
fb
fc
01
ff
01
02
fe
00
03
fe
fd
02
00
01
ff
01
ff
fd
fd
01
fe
00
ff
ff
ff
ff
01
03
00
01
03
04
04
00
01
ff
fe
fc
fe
00
fe
fd
fe
00
fe
01
00
fe
02
01
01
03
05
02
02
fe
fe
ff
01
01
ff
00
00
00
02
ff
05
fe
03
02
00
fe
fc
fd
fa
ff
01
02
00
02
03
ff
ff
02
00
00
ff
01
fd
fe
00
01
01
ff
fe
02
02
02
03
02
01
01
00
fd
fd
fd
fd
fe
fe
00
00
04
02
03
03
02
01
01
01
fd
fe
fe
ff
01
fe
00
01
fd
fd
00
fe
00
00
fd
ff
fd
05
03
01
03
ff
03
fe
00
02
02
01
00
ff
04
00
02
02
01
01
00
00
34
23
1d
12
0e
07
02
fe
fb
fc
f8
fa
fa
f9
fb
f7
f8
f8
f6
f8
f3
f2
f2
f1
f6
f6
f9
f9
fe
fd
00
08
06
0a
0b
0d
0b
08
07
03
05
06
00
ff
fe
fd
00
fb
fc
ff
fa
ff
00
fc
ff
fb
ff
f8
fd
f8
fd
f8
fd
fd
01
01
02
00
00
02
03
05
00
04
04
ff
02
00
ff
fc
fe
ff
fe
f9
fc
ff
fe
ff
01
04
04
ff
ff
04
02
05
04
00
01
01
fe
01
fe
fc
fc
01
fc
03
00
03
04
08
03
03
07
02
ff
02
fd
ff
f9
fb
fb
f9
f7
fd
fc
fd
01
fe
01
01
03
05
05
06
06
06
02
06
04
03
02
00
ff
02
00
04
01
ff
01
05
05
00
00
01
01
ff
02
fe
01
01
03
fd
03
01
04
03
00
01
00
04
01
04
03
05
04
04
fe
ff
fe
01
01
02
01
00
01
ff
03
fe
ff
02
05
01
05
03
02
03
03
00
03
01
00
ff
fe
02
ff
00
00
03
02
02
01
03
01
04
00
02
03
01
ff
03
ff
02
02
07
01
03
08
09
05
07
08
05
01
02
01
fc
fb
fa
f5
f3
f3
f6
f3
f7
fb
fe
01
08
0c
11
14
15
18
16
1f
18
13
0b
0d
08
04
09
06
06
09
08
0a
04
07
0a
07
06
05
0b
0a
08
06
03
01
fe
fd
fe
fe
f8
f6
fa
f6
f4
f8
f9
f7
fb
fc
fc
fb
ff
03
02
01
06
09
08
07
09
0a
0a
06
0a
09
07
04
05
0a
07
06
06
09
06
0a
06
08
08
02
05
07
01
03
02
05
03
fe
00
05
02
04
03
05
01
06
03
01
04
04
ff
00
02
00
fe
fd
fd
01
01
fd
ff
01
fd
02
ff
ff
ff
ff
00
02
00
00
00
00
ff
fe
00
00
ff
03
01
06
04
04
03
03
02
02
ff
fd
fe
fb
fd
fe
ff
fb
ff
fe
fe
fe
01
03
ff
03
05
ff
01
fe
00
ff
fc
fe
00
fc
fa
fd
fe
00
01
01
01
05
02
03
06
01
01
00
fc
fe
fb
f9
f8
f8
fa
f9
f7
f6
f9
fc
00
ff
fe
04
02
05
06
06
05
01
01
04
04
ff
01
fe
fc
fc
fa
ff
fb
fc
03
fe
03
01
00
01
fe
02
ff
fc
fc
fb
fc
fc
fb
fc
fe
fe
fa
fe
fb
00
fc
01
fe
ff
01
01
01
05
01
ff
00
fe
00
01
fd
fc
00
03
fd
05
08
04
04
09
0b
07
03
03
fe
f6
f3
e9
de
37
36
31
29
22
19
14
17
16
14
1c
1b
24
24
27
2e
2a
23
21
24
1e
1d
1e
1b
15
16
10
14
17
15
15
12
12
19
12
14
16
14
17
15
19
11
10
10
0d
0e
13
0e
0a
08
0a
07
0c
09
0a
05
09
0a
0c
09
0c
08
08
0c
05
03
04
03
07
07
0a
0b
0d
0d
0d
11
11
0f
0a
0a
0b
09
06
06
02
01
05
06
06
06
08
06
09
07
09
07
07
06
00
fd
fa
fa
f6
fc
fd
fc
00
ff
00
00
fc
fe
00
fd
fb
fb
fa
fa
f9
fb
ff
fb
ff
fb
fb
fc
fe
f8
fb
f8
f3
f3
f6
f4
f8
f4
f9
f6
fa
fa
f7
f9
fa
fa
fb
f7
f8
f3
f3
f7
f3
f1
f6
f6
f8
f7
f9
f7
f6
f9
f9
f8
f9
f7
f5
f3
f0
f5
f6
f4
f2
f7
f6
f7
f7
f5
f5
f7
f7
f4
f2
f1
f2
f2
f2
f6
f0
ee
f4
f4
f2
f5
f7
f8
f8
fc
fe
fe
ff
ff
fa
fe
fe
fa
f7
f7
fa
f8
f4
f3
f1
f0
f4
f2
f0
f1
f4
f8
f9
fc
fb
fb
ff
01
02
fa
ff
fa
fd
fb
fc
f8
f8
f9
f9
fe
fd
fe
fa
fb
ff
ff
fb
fa
ff
ff
fb
fb
00
00
ff
fd
fc
f9
ea
e3
09
14
17
20
23
28
25
27
22
20
20
1f
1b
1a
1a
16
17
17
19
1f
21
28
27
29
32
2c
2a
2a
1f
1e
13
0d
06
03
fb
fe
fd
fc
01
0b
0e
12
1a
1d
1f
1d
19
17
0d
09
fd
f3
ee
ea
ec
e9
ee
f5
fa
07
0d
1e
1f
21
23
20
1b
18
15
0d
0c
05
06
06
08
0c
0f
0d
12
12
13
0e
09
03
fd
fe
ff
fc
fe
fd
fe
ff
fd
00
05
05
00
03
00
fa
f7
f8
f8
f9
f9
fa
f7
fd
fc
fa
f9
fb
fe
f7
f9
f5
fa
f8
f7
fa
f9
fa
fa
fb
fb
fa
f7
f9
fc
f9
fc
f9
fe
f8
fc
f8
fd
fc
fc
fc
fc
fa
f9
fb
f8
fa
fc
f9
fd
ff
ff
04
02
ff
01
04
03
fe
ff
fb
f9
fb
fa
ff
01
fd
ff
05
03
07
08
02
03
fd
02
fd
fd
01
fe
fe
02
02
07
03
07
04
05
07
05
04
04
01
00
03
01
04
04
06
04
03
03
05
09
06
0a
03
03
07
07
01
04
03
02
fe
fd
fd
fd
fa
fb
fb
fe
03
02
00
05
04
0b
08
07
00
03
fe
f7
f3
ee
eb
ee
f0
f0
f8
fc
00
06
09
0a
10
0a
09
00
ff
f9
f6
ec
e5
ec
ef
06
04
02
01
ff
ff
00
fc
fb
fe
fe
00
ff
01
04
03
05
02
00
00
fe
fc
01
02
02
06
04
04
05
02
04
01
01
04
00
03
00
ff
ff
00
fd
ff
fc
fe
fc
ff
01
01
03
04
02
04
04
02
02
fe
ff
fe
fd
fe
01
fc
fe
03
03
01
01
00
04
02
fd
fd
fc
fb
ff
00
fe
05
03
00
00
03
02
ff
ff
00
ff
ff
fa
fc
fb
fd
fb
01
01
01
02
01
01
02
01
05
02
01
fd
fc
ff
fa
ff
02
fe
04
ff
02
06
03
02
02
fa
fe
fa
ff
fe
01
fe
00
fe
fc
fe
02
00
05
00
ff
03
fc
fc
fe
fe
fe
01
fe
03
00
01
06
05
02
04
01
01
00
fc
fc
fb
ff
00
01
fd
fd
ff
01
02
02
02
05
04
ff
01
ff
02
01
ff
fe
00
01
03
03
02
fe
03
02
01
00
fe
fd
fc
fd
ff
ff
02
04
03
01
01
04
00
fe
ff
04
06
02
fe
fe
00
fe
01
fe
01
00
02
00
fc
fe
fc
fd
00
fc
02
ff
fd
fd
fe
04
01
04
04
02
01
01
ff
02
ff
00
01
02
02
03
06
03
03
fd
ff
fc
00
01
03
00
04
ff
01
03
ff
ff
fb
fd
c6
cf
db
e9
f2
f8
fe
0b
0d
15
16
20
22
22
28
28
26
1f
1d
17
16
08
07
fe
01
f6
f6
f6
f7
fa
00
04
04
04
0d
0b
08
0d
0b
0e
0c
0b
09
06
08
05
07
08
08
11
13
10
16
13
13
16
15
11
13
0c
06
08
05
03
00
02
06
04
09
06
0c
10
11
17
16
19
18
16
12
10
0f
0d
05
03
01
fd
ff
fc
02
03
01
08
08
08
0c
08
0a
0a
0a
0a
0a
07
02
01
02
04
03
05
01
06
03
0a
08
09
0a
07
07
08
05
06
03
02
fd
01
fd
fd
fe
fd
fd
03
03
00
03
03
07
05
04
00
00
00
fd
fe
00
fc
ff
ff
ff
ff
ff
fe
01
07
05
08
04
03
05
ff
00
02
fe
00
fc
fc
fa
f8
f5
f4
f6
f7
f6
f8
f9
fd
fd
fd
fa
fc
fe
fe
fa
fb
f8
f9
f6
f2
ef
f2
f4
f0
f6
f7
f8
f9
f4
f8
fc
fd
f6
f7
f9
f4
f7
f2
f1
f1
f1
f1
f2
f1
f4
f8
fb
01
ff
04
02
02
03
fc
f9
f9
f7
f4
f0
f2
ee
f0
ee
f2
f2
f2
f6
fa
fd
fe
04
05
01
08
07
04
06
03
01
ff
fe
fd
fe
f4
f2
e9
de
d1
c1
af
e4
e5
ed
f1
f3
f8
fa
01
03
02
09
0e
0e
0f
0d
11
10
0d
0c
07
07
03
fb
fa
f4
f8
f3
f7
f4
f4
fa
fb
fa
fd
ff
ff
02
03
03
09
03
03
06
04
02
01
fd
02
ff
fe
fa
ff
fb
fd
fb
fd
ff
fe
ff
03
04
04
03
03
04
03
02
05
02
ff
00
fb
fc
ff
fd
fd
fa
f9
fa
f9
f9
fe
fe
00
03
03
00
02
02
03
03
01
01
05
03
01
04
01
00
03
ff
ff
02
ff
fe
02
ff
fe
ff
00
04
01
03
05
02
02
05
03
ff
fe
04
02
fd
01
00
ff
fb
fd
ff
00
fd
02
06
01
00
00
02
02
00
00
03
04
02
01
00
fc
fb
fc
ff
fe
ff
fc
fd
fe
00
01
01
01
01
00
02
fd
00
fb
fc
00
fc
fa
fc
f8
fa
fb
fc
fd
fd
ff
03
06
03
04
07
02
07
05
00
03
01
00
01
ff
fd
fd
00
03
00
03
03
05
06
06
03
04
03
01
fa
fe
fa
fd
f9
fc
fd
fc
01
02
02
04
09
09
08
08
06
05
03
02
fc
fb
fc
fd
f5
f7
f5
fa
fb
f7
f9
fd
fe
ff
00
02
06
08
0d
0b
11
0e
10
15
11
0b
0b
02
fb
eb
d9
c7
e5
ed
f8
fa
fb
fd
fb
fd
fe
fb
fc
fb
fd
fd
ff
fb
fe
f8
fd
f9
f9
ff
00
fd
ff
fc
fb
fb
fd
fd
f9
fe
fe
02
fa
02
00
00
02
04
07
05
01
04
06
ff
05
01
fb
f7
fa
f9
f9
f8
f6
f3
fa
fd
f9
fe
03
02
01
07
07
07
01
03
03
03
03
02
01
02
02
06
08
03
02
07
03
00
03
fe
ff
fe
fe
ff
01
fe
00
fe
ff
01
04
06
00
04
01
00
ff
01
00
fb
fe
ff
00
00
fe
ff
00
04
02
04
02
05
00
04
fe
00
fe
00
01
02
fd
01
01
fd
01
02
03
04
01
01
00
03
01
ff
02
03
02
05
01
05
03
01
04
02
00
01
03
fe
04
02
ff
01
03
04
03
ff
ff
02
03
03
01
01
fd
ff
fd
fe
fe
fd
02
00
02
01
fd
00
04
fe
05
03
00
02
00
02
ff
00
02
01
ff
fc
02
00
04
03
03
04
05
02
03
03
05
05
01
05
03
04
01
00
fb
01
fd
fc
fc
fa
fc
fa
fc
fa
fe
fa
fb
fb
fb
ff
02
00
ff
04
06
04
06
05
07
05
02
04
06
05
04
06
03
03
03
02
05
00
06
ff
ff
fc
fb
f3
ec
e7
da
ed
ff
08
12
1b
22
27
28
24
27
20
21
1b
1a
14
19
0f
11
15
13
13
19
17
1c
1a
1a
1c
19
1b
1b
16
1a
15
14
13
15
12
15
19
1b
1e
1d
1c
12
10
0f
06
01
fd
f9
fc
fd
fe
04
03
08
0c
0c
10
11
13
13
13
0f
0b
0d
06
08
06
06
04
04
05
03
07
06
08
06
06
07
04
fe
fc
fe
fb
fe
fd
fd
fe
02
ff
fe
02
03
05
06
03
02
01
fe
ff
00
fd
00
fe
00
fe
01
03
ff
02
00
01
01
fd
fc
fd
fe
f8
fa
fd
fa
fa
fb
fc
ff
02
ff
fd
fe
00
fe
fe
fb
fc
fd
fb
f9
fd
fa
f9
fe
ff
fe
fe
fe
fd
fd
f9
fc
fa
fe
f9
fb
fc
f9
f8
f8
fc
fa
fe
00
02
ff
03
00
00
fc
fb
fc
fc
fb
fb
fc
fd
fe
fe
fd
04
03
02
03
07
07
04
01
00
01
fc
fc
fb
fd
02
02
05
04
06
08
08
09
09
07
01
04
fe
fe
fe
f6
f6
f7
f4
fc
f9
00
02
03
ff
05
ff
03
02
01
02
02
fd
fb
fe
fc
fc
f9
fb
f7
fd
f5
f7
fa
fe
ff
fb
03
06
03
07
01
fa
f8
ef
e6
e3
e7
e9
f0
f2
01
17
fd
ff
ff
02
02
00
04
fe
ff
00
fd
00
fe
00
00
02
00
ff
03
04
02
03
05
03
00
ff
02
01
00
fd
fe
ff
02
02
00
ff
05
03
04
00
ff
ff
ff
ff
00
fe
ff
fb
02
ff
06
04
01
02
03
05
03
01
fa
fd
ff
f9
fe
fd
00
00
02
fe
05
01
02
04
00
ff
00
03
02
00
02
01
00
03
02
00
fe
02
01
fc
00
fd
fc
00
fe
01
ff
03
03
04
04
01
05
01
00
fb
fb
fc
f8
fc
ff
fb
fe
01
03
01
00
ff
01
fe
fd
00
00
00
00
05
00
00
01
04
03
00
00
01
04
03
00
fd
fd
00
01
01
fd
01
ff
00
03
01
03
04
04
02
04
fe
03
fd
ff
fe
ff
fd
fb
ff
ff
03
ff
ff
03
03
04
03
01
02
ff
fd
fd
fd
01
03
02
ff
04
06
04
03
00
01
02
ff
fd
00
fe
fd
fe
01
ff
fd
fd
01
00
ff
fd
00
ff
01
00
fe
00
fd
fd
fb
fb
ff
ff
00
ff
00
ff
04
00
03
01
05
01
01
02
05
02
01
ff
ff
fc
01
ff
02
ff
00
01
00
00
02
02
00
fb
fd
fe
fb
fd
fc
02
01
00
05
07
03
02
03
ff
fd
4b
3c
2f
23
18
0e
07
ff
fb
f7
ee
f5
f1
f1
f8
f7
fd
fe
02
03
0b
0a
10
10
0b
0d
0d
08
05
05
03
04
06
04
02
03
04
04
03
07
08
0b
0b
0c
10
0e
0f
0c
0a
0f
0c
0b
08
0b
09
09
0c
0b
08
0c
0b
0e
0c
0b
0c
0e
09
0d
0b
09
04
03
06
08
05
02
02
03
04
04
04
00
03
03
00
05
05
03
02
05
06
04
06
03
05
02
02
05
02
00
05
02
03
01
ff
01
00
02
fe
ff
01
04
00
00
04
04
03
02
03
00
06
04
03
00
04
02
03
04
03
01
04
03
01
00
ff
ff
00
ff
02
00
04
01
01
01
02
04
03
04
ff
fe
fd
fd
fc
fb
fa
fa
f8
fa
f8
f9
fb
fb
fe
fc
ff
01
01
00
fc
fe
fe
fb
fd
fa
fb
f9
fa
fa
fe
fc
f9
fe
00
fe
fe
fe
fc
fc
fe
f9
f7
f9
f8
fb
fb
fc
fe
fe
fb
fd
fb
00
00
ff
fc
01
fb
00
f8
fd
f7
f6
fa
fb
f6
f7
f7
f2
f6
f6
f4
f9
f9
f9
f4
fa
f8
fa
f9
fb
f7
f6
fc
fc
fa
ff
fe
00
01
05
03
04
05
05
06
02
04
03
00
02
fe
fb
f4
ee
e6
da
2b
1a
10
06
02
fc
fc
f7
f9
fa
00
04
04
03
03
0b
07
0a
07
0a
09
08
0c
06
06
0b
09
05
07
05
08
0b
07
03
03
fd
00
fc
f7
f7
f7
f6
fa
f9
fe
ff
05
03
07
07
09
07
08
06
06
04
ff
03
ff
fd
fc
fc
fe
f9
fa
fb
fe
01
01
03
04
03
04
01
08
07
02
03
03
07
03
03
03
03
06
01
04
04
04
04
01
02
00
04
00
ff
00
01
03
04
02
04
01
03
03
03
00
fd
05
fc
ff
fe
ff
02
02
fe
04
03
02
fe
04
02
00
fe
02
fd
fc
00
ff
ff
02
02
00
ff
02
ff
fc
fc
fa
fc
ff
fd
fc
fd
fb
ff
fd
fc
fc
fc
00
03
01
00
02
fe
00
01
00
fe
fc
fe
ff
fc
fe
fd
fd
fc
fb
01
fc
02
00
fe
fd
fe
fd
fb
ff
fc
fc
fa
fd
fc
00
fc
ff
fd
00
ff
fe
02
ff
02
ff
00
04
00
fe
fd
01
fe
fc
fe
fc
fa
fc
01
01
ff
ff
fe
fe
fd
fb
fb
fe
ff
ff
fa
fa
fb
fb
fb
fb
fd
fe
00
02
04
03
06
04
07
01
06
01
03
00
fe
fe
02
08
07
08
09
07
08
09
06
07
01
f8
f0
e0
d5
a0
c3
da
ed
fd
ff
01
00
03
fc
fb
fc
f7
fb
f9
fa
f8
f6
fa
f9
fc
fc
03
03
01
05
01
07
05
04
05
03
00
02
fa
fd
fa
fb
fb
fa
fd
fa
fe
07
09
0b
0b
0f
0e
06
09
04
ff
00
fc
f6
f9
f9
f9
f7
fc
00
04
05
08
09
06
07
06
01
00
fd
fb
fb
fd
fd
fc
fd
01
01
ff
06
06
06
09
06
09
08
06
03
05
02
00
01
01
ff
02
03
00
fe
ff
ff
03
03
01
04
02
02
ff
fe
fe
03
ff
fe
fe
ff
ff
02
fe
02
00
01
04
04
03
05
02
02
03
01
fd
ff
03
04
02
05
00
01
01
00
03
fd
ff
02
fc
01
fb
fe
fd
00
00
01
02
01
00
04
06
00
ff
00
02
ff
00
fe
fe
fc
fb
fd
02
05
05
03
01
ff
00
fa
fc
f9
ff
fc
01
fd
03
02
00
02
03
01
03
02
ff
fe
fe
00
00
fd
fb
ff
fc
f9
fc
fd
00
ff
fa
fd
fb
01
00
02
fc
00
00
ff
fd
fd
01
fe
fd
ff
fe
ff
fb
fd
fa
f8
fe
f8
f8
fd
fd
fb
fe
ff
01
00
ff
fe
fa
f7
f7
f6
f3
f6
f8
f7
f4
f7
f9
fc
05
05
07
03
02
fe
a6
ac
af
af
b7
c0
c7
cf
dc
df
eb
ed
fd
00
02
fd
fe
fb
f8
f2
ec
e4
e6
e0
e5
e0
e7
f2
f8
03
0d
12
17
1b
1c
1b
17
1a
12
10
06
05
05
0e
11
17
1d
2d
32
37
38
3a
32
27
1b
10
02
fa
f1
ed
ed
f7
fd
08
14
17
23
2a
32
2f
30
2d
27
21
1b
19
13
15
11
12
0e
12
11
0d
0d
0f
10
10
0f
0a
09
06
01
fe
00
00
01
fe
fc
00
ff
fc
fe
fd
ff
fd
f9
fd
fa
f9
f9
f8
f6
f6
f8
f3
fa
f6
fb
ff
fe
fe
00
ff
f9
fa
f6
f8
f6
f5
f4
f9
f9
f6
fc
f9
fc
ff
01
fd
fa
fd
f8
fa
fa
f7
f6
f7
f5
f7
fd
ff
fe
ff
fb
01
fb
fa
fd
f8
f7
fa
fc
fe
fe
00
00
fe
fc
ff
ff
01
fc
fe
ff
01
06
02
06
04
05
05
07
07
04
05
04
07
05
03
07
01
05
0a
06
0b
0d
0a
0d
0d
0a
0a
06
01
03
fb
fc
fe
fa
02
00
03
0b
11
12
11
15
10
12
0e
0f
08
04
07
05
03
02
02
fe
03
fe
02
01
08
03
0a
12
0b
11
0d
11
0f
08
08
07
05
05
fe
01
00
06
0b
13
11
21
28
0a
0a
04
00
03
00
ff
ff
fe
ff
01
02
02
01
05
01
06
fd
fd
fe
ff
fd
fb
02
00
03
01
01
04
00
04
00
ff
ff
fe
02
00
01
03
05
ff
02
03
06
01
01
fe
02
03
00
00
fd
fe
fe
02
03
04
00
ff
02
06
05
01
01
01
01
fe
01
ff
fe
fd
fb
00
00
fb
02
00
01
fe
fe
fc
ff
fe
fc
fc
fa
fd
fc
fb
02
fd
ff
fe
02
fe
fe
fd
02
01
fd
fd
fc
00
01
ff
fd
fc
01
ff
00
00
02
02
04
04
fc
fd
fa
f7
fe
fc
fc
01
02
03
03
02
ff
00
05
03
fe
03
fb
00
ff
00
ff
fc
fe
fe
00
02
00
02
fd
fe
01
01
02
fe
fe
01
00
ff
02
01
02
02
fe
ff
00
05
00
06
fe
00
02
fc
fb
fe
fb
00
00
02
00
ff
ff
01
04
02
02
ff
fe
01
ff
fd
02
01
01
00
fd
01
fe
00
01
ff
02
ff
01
01
fe
fe
ff
01
ff
fd
00
fb
fb
fb
ff
01
ff
fd
03
05
02
05
03
00
00
00
01
00
fb
fe
ff
01
fe
ff
01
02
01
02
04
02
03
02
00
01
02
fe
fe
fd
ff
02
01
03
01
04
02
05
03
fe
ff
f2
f8
fc
fd
00
01
07
05
0e
0b
10
0f
14
10
15
12
14
10
0d
0f
08
07
08
04
03
04
fd
fe
ff
fc
fc
fa
fb
fe
f9
fb
fe
fb
fb
fc
f7
f9
f8
f7
fd
f7
fa
fc
fd
fe
01
04
04
05
06
09
0b
0d
0e
10
0e
0d
11
13
10
0f
11
0d
0c
0c
09
06
02
01
fd
f9
f5
f2
f1
ea
ed
ed
e9
ed
ed
ed
f3
f4
f7
f5
f3
f8
f6
f7
f3
f4
ef
f0
f2
ef
f3
f3
f6
fa
f9
fc
02
01
04
0a
08
0b
0e
0f
0c
0e
10
0b
0c
09
06
02
02
04
fe
fb
fd
fe
fa
fe
fe
fe
f9
f8
f8
fb
fb
ff
fd
fe
f9
fa
fd
ff
01
ff
03
00
02
03
03
03
02
06
05
03
02
00
00
fc
ff
fa
f9
f4
f4
f1
f4
f4
ef
f3
f3
f0
f1
f5
f2
f6
f4
f4
f2
f3
f3
f5
ef
f0
f2
ef
f3
f4
f4
f2
f4
f0
f5
f0
f0
f2
f1
f1
f5
f5
f5
f1
f7
fb
fa
04
06
07
0c
0f
14
15
14
17
13
13
14
0d
09
0b
05
05
01
03
01
fe
ff
03
ff
04
07
04
04
09
08
07
0c
06
08
05
0a
08
07
06
03
01
05
02
01
fd
fe
00
03
08
0a
13
f6
f6
fa
fd
ff
02
02
04
02
02
01
ff
04
fe
fd
fc
fd
fb
fc
fa
f9
f3
f5
f6
f4
f5
f5
f4
f8
f7
f8
f6
fa
fa
f8
fe
fe
00
fd
04
03
05
02
06
04
0a
05
08
08
07
0b
07
08
08
06
08
07
05
01
01
02
ff
02
01
01
ff
f8
f6
f9
f2
ed
ec
ec
e8
e8
e4
e9
e9
ec
ec
f1
f7
f7
fb
fe
07
07
08
0a
0d
10
0d
0e
12
0d
0e
0f
09
09
0a
0a
04
07
01
ff
fe
fa
f5
ed
ea
ea
e7
e8
e6
e1
e6
e5
e7
ec
ed
ed
f3
f7
f3
fb
fd
fd
fc
ff
01
ff
ff
ff
03
01
fd
fe
00
fe
fd
fe
00
fe
fd
ff
03
02
06
06
06
07
05
03
02
02
02
00
01
ff
01
fe
fe
fe
fc
fc
fb
fb
ff
fe
01
02
04
02
04
07
07
09
07
07
0e
0f
0c
0f
0d
10
0d
12
0c
0d
0e
09
03
05
fd
fc
fb
f7
f3
f6
f4
f1
f1
f5
f8
fb
fd
01
06
04
07
09
07
06
08
08
06
01
fe
fe
fb
fc
fc
fc
fa
f9
f7
f7
f8
f6
f9
fb
f9
fa
f7
f8
f5
f9
f6
fd
f7
fc
fa
fb
fd
fe
fe
03
02
05
08
0a
11
1c
25
2c
3a
24
1c
10
0c
08
08
05
04
09
08
08
09
0b
0b
08
08
0c
0b
0a
07
04
03
06
05
03
0a
05
05
05
06
07
07
04
02
03
fe
04
02
fd
00
01
03
02
01
07
06
07
07
03
06
00
ff
fb
fc
f6
f5
f1
f3
f1
f2
f6
fb
fc
00
ff
01
05
03
00
fe
f7
f7
f1
ef
e7
e6
ea
eb
f3
f8
fe
03
0d
0f
16
1b
18
17
17
18
11
0e
0a
08
03
05
07
08
09
08
0d
0b
0f
0b
08
07
02
01
fd
fb
fb
fb
f8
fc
f9
fe
fc
fc
fb
f9
f6
f5
f4
f5
f2
f0
ec
f1
f1
ef
f4
f3
f5
f8
f8
fc
ff
00
02
01
fd
ff
01
fb
fc
fe
fa
00
fa
fa
fa
fc
fe
fe
fe
03
01
06
06
05
09
08
05
09
0b
07
09
06
0b
0c
0c
0c
0b
0d
0a
0e
09
0a
08
08
02
02
03
fe
ff
ff
ff
07
07
08
03
06
07
07
06
00
00
fa
fc
fa
f3
f0
f1
f2
ee
f4
f4
f0
f7
f7
f7
fb
f6
fa
f4
f7
f3
ee
f2
f0
f1
f1
f2
f3
f3
f4
f7
f9
fa
fe
ff
fe
fd
fe
fb
fc
fc
00
ff
04
03
08
09
09
0b
05
09
09
07
06
ff
07
09
0b
1e
2c
1b
17
0b
04
f4
ec
ec
e3
e2
e1
e6
ed
ef
f5
fd
07
0b
18
19
20
1e
1a
1f
1e
19
17
18
14
11
0f
10
11
0c
0e
0b
0a
05
08
03
04
04
03
08
06
02
03
00
fb
f4
f0
ec
e1
d9
d4
ca
c8
c6
ca
d2
d6
e4
ec
f9
07
0d
16
22
21
22
20
15
08
fb
ee
e9
e6
e6
ea
f6
04
1a
34
4c
66
74
6f
66
53
40
29
13
fa
ea
d5
c7
bd
b1
ae
b3
be
cf
d6
e4
e9
eb
e9
e9
e8
e3
e2
e2
e4
e6
ef
f4
00
06
0c
13
16
18
19
16
14
0f
0a
08
01
fe
fe
fe
fb
00
01
04
05
04
05
06
04
08
07
07
02
03
02
02
02
00
ff
ff
01
fd
fe
00
01
00
01
02
05
04
02
03
08
05
08
05
0a
0b
09
08
0a
0c
0e
0c
0c
0e
0d
0e
0d
08
08
07
07
09
03
07
07
04
01
01
05
07
07
07
06
02
04
02
fe
fc
f7
f5
fa
f7
f4
f2
f1
f7
f6
f7
f6
f8
f6
f9
fb
f9
fb
fc
fc
fc
f8
f9
f3
f3
ef
ea
e9
ed
ea
e6
e7
e6
e5
ea
ef
ed
f3
f8
fb
fd
ff
03
fe
fd
01
fe
fd
f5
ec
e5
db
d9
d5
cf
cd
f3
f4
f3
f8
f8
ff
01
03
02
03
ff
04
00
fe
fe
fb
fe
02
00
ff
01
00
00
ff
fe
fe
fa
fa
fb
fb
f9
fb
fb
ff
01
00
05
06
07
05
05
03
02
04
01
05
03
03
01
02
05
04
03
06
04
ff
fe
01
fd
fc
fa
fc
fb
ff
ff
04
00
02
03
05
09
08
07
06
07
04
06
02
01
03
03
02
01
01
00
02
03
00
01
03
03
04
00
ff
fe
02
ff
fd
01
00
ff
03
fe
00
01
ff
fb
fd
f8
fc
fa
fb
fd
01
fe
04
05
01
02
06
05
03
04
fc
fd
fe
fd
fe
ff
ff
00
fd
01
fd
fe
00
fc
ff
fd
f9
fe
fa
fe
fb
fc
fd
fb
01
fd
fd
ff
00
ff
03
ff
00
01
02
06
05
07
00
fe
00
fb
fb
f7
f5
f6
f7
fc
fd
01
04
04
01
06
05
01
01
ff
fc
f8
f8
f7
f8
f8
f8
f8
f8
02
02
06
06
09
0a
07
07
08
07
05
01
00
01
ff
02
02
ff
07
05
03
03
08
00
03
ff
fc
ff
fe
00
fa
fe
ff
fd
02
02
ff
03
02
00
03
fe
fb
fe
fb
fa
f8
f8
fb
fd
00
01
08
07
05
08
06
0b
07
03
00
01
fa
fa
fc
ff
ef
f3
f9
f6
ff
02
02
06
08
04
09
08
05
03
01
00
03
01
01
04
fe
03
04
03
07
08
05
06
03
00
ff
01
fe
fb
fb
f8
fb
fb
f6
f9
fd
fd
ff
ff
03
04
07
08
06
07
0a
09
05
06
08
07
06
01
00
04
05
05
05
04
02
04
04
02
03
00
02
00
02
fe
fe
fc
01
00
00
00
fd
fc
fb
fa
f9
f6
f9
f4
f9
f8
f7
f6
f8
f6
f8
f8
fb
01
01
02
04
09
06
05
04
09
02
06
06
05
02
02
03
fe
00
fd
00
ff
fe
ff
02
02
ff
ff
02
02
02
04
01
ff
00
00
fc
fa
fa
fd
fd
fa
00
01
fc
02
00
01
04
04
03
00
02
02
ff
fc
01
fb
fa
f8
fe
fd
fc
fb
01
00
03
01
04
01
00
03
00
01
fe
fb
fb
fc
fb
fc
ff
fb
fd
02
02
03
05
04
05
09
06
05
05
09
04
06
04
01
ff
fb
fa
fe
fa
fb
fd
fc
fd
fb
03
fe
00
00
04
00
00
03
02
05
04
02
00
ff
05
04
08
02
05
06
06
05
02
fd
ff
03
fb
fb
ff
fe
fc
ff
02
02
05
04
01
01
03
01
02
02
01
01
01
fa
fe
fe
02
03
06
09
0d
0c
07
02
05
ff
fe
fd
fd
ff
fc
00
00
ff
00
fb
f9
fe
fe
fc
fd
fb
fc
fb
fc
f9
ff
fb
fc
03
ff
ff
02
ff
01
02
01
01
fe
00
00
fd
fe
02
fb
fe
fd
01
01
ff
fd
fc
ff
01
01
ff
00
05
03
06
00
03
05
fd
00
fe
ff
ff
ff
fc
fd
fc
fb
f5
f9
f9
fa
f7
f9
f9
fc
00
02
04
03
05
08
07
09
07
0c
08
0a
07
06
07
01
05
00
ff
fc
00
f9
fe
fb
ff
fe
fe
fa
fe
fc
fe
fe
02
ff
02
03
04
04
01
ff
02
00
01
01
03
03
01
00
03
02
fe
01
fe
ff
fc
fe
ff
fe
00
fc
fe
00
00
ff
fd
ff
00
fd
ff
00
ff
01
01
02
fd
ff
ff
00
00
02
ff
ff
ff
01
01
01
03
ff
03
02
04
fe
03
03
03
02
ff
00
00
02
fd
00
fd
fe
00
ff
02
02
00
ff
00
00
01
fe
fd
fa
fd
fe
fe
fc
fc
fe
fd
fc
fd
01
00
03
05
06
04
05
06
02
01
02
04
00
fd
fa
fc
f6
fa
fa
f5
f7
f9
fa
fd
01
ff
ff
02
03
07
06
04
07
08
07
04
06
00
03
01
ff
fd
fe
fb
fc
fc
fa
f6
f8
f5
14
0c
07
07
08
04
04
01
fe
fd
00
00
00
02
02
05
00
02
fe
fe
04
03
05
ff
00
00
07
04
02
05
ff
ff
04
ff
00
ff
fe
fa
fb
00
ff
fe
00
ff
01
03
06
08
09
06
08
03
07
06
04
07
05
03
04
07
06
0b
09
07
09
04
08
06
03
03
01
03
fd
ff
03
02
00
06
03
03
07
03
05
05
06
01
06
04
00
ff
ff
fd
01
01
00
03
fd
00
ff
03
02
ff
02
04
03
04
03
08
02
02
02
01
00
02
03
ff
00
03
fd
01
03
02
01
02
02
07
04
03
04
01
01
ff
03
01
00
00
00
00
fe
ff
fe
fc
00
ff
ff
02
00
03
00
01
03
00
02
ff
00
05
fe
00
02
fd
fd
fe
fc
fe
ff
01
01
03
fe
fe
fd
02
02
ff
02
fd
fe
ff
00
01
fe
02
03
00
fd
01
00
fe
03
fe
fe
fe
ff
00
ff
00
fe
ff
04
01
03
ff
ff
02
01
01
fc
fc
fc
fe
fa
fa
fa
fa
ff
fe
fd
00
01
02
04
03
06
05
05
03
02
fe
fb
fb
fc
fb
fb
02
01
ff
03
05
01
02
00
fd
01
ff
fc
fe
fc
fe
fd
00
01
fc
01
fc
f6
f2
41
36
1d
10
00
ef
ec
df
d9
db
db
e3
ea
ef
f7
fc
0c
0d
0f
11
16
0d
0b
0f
07
08
03
07
07
04
00
03
05
ff
fd
fa
f9
f6
ec
ea
e8
ed
e6
e9
ef
f7
00
04
0e
13
1a
1f
23
29
28
27
28
22
1a
16
0b
09
03
fd
fa
f7
f4
ef
ef
f0
ef
ed
f4
f5
f5
f7
f9
f5
f7
f9
f9
fa
f8
f6
fb
f9
f9
01
00
02
ff
02
00
01
00
01
fd
ff
fe
fa
f7
fb
fd
fb
fc
01
01
05
03
03
04
02
00
01
ff
03
01
01
01
ff
ff
01
01
ff
fe
03
fe
02
03
02
fb
fe
fb
fd
fd
fc
00
fd
02
02
04
04
02
00
ff
fc
00
00
ff
01
01
03
00
02
ff
ff
04
01
06
ff
00
01
06
01
02
05
02
00
05
03
05
03
00
00
01
00
05
02
04
00
05
03
02
01
03
00
ff
00
ff
fc
00
ff
00
fe
00
04
03
05
04
02
06
03
01
ff
01
fb
fd
fe
fa
fa
f8
fb
fd
fc
fe
00
00
02
03
01
01
fe
01
ff
01
03
04
02
02
07
05
03
0a
07
0a
07
06
0a
05
01
ff
f6
f1
ea
e6
e1
e8
e6
f1
f7
01
11
1b
27
2f
31
fd
fd
fc
00
fe
fe
ff
01
02
ff
00
00
02
fe
01
fd
fe
ff
fa
fc
fc
01
ff
ff
fe
02
04
00
ff
00
03
fe
fd
fd
fe
fc
fa
fb
fc
ff
ff
00
02
fd
fe
01
01
ff
02
ff
01
03
02
01
04
02
03
ff
ff
00
ff
ff
fe
03
03
03
02
ff
00
01
ff
03
02
03
fd
01
03
02
00
05
02
00
02
fa
f9
fb
ff
fd
fa
fe
00
00
05
04
03
03
03
01
03
00
03
02
fd
ff
05
ff
02
00
01
04
05
04
02
fe
ff
ff
fe
fd
fd
ff
00
00
ff
03
01
ff
02
ff
00
fe
01
fe
02
ff
fd
fe
ff
04
00
ff
02
02
fe
00
04
00
01
fe
fd
fe
01
00
00
01
02
02
03
03
02
00
ff
fc
ff
fe
00
fe
01
00
00
00
ff
ff
03
01
ff
fe
ff
fb
fb
02
fe
00
fd
ff
03
04
00
00
02
05
ff
03
03
fe
fe
fe
02
00
01
ff
00
00
00
01
01
ff
fd
ff
00
01
01
00
01
02
01
fe
02
02
02
03
ff
01
ff
01
03
02
05
ff
02
03
fc
fe
00
ff
01
00
02
00
04
00
fe
ff
ff
03
01
00
ff
01
00
ff
01
01
03
ff
fe
01
f7
f8
fc
fc
f7
f7
f8
f8
f2
ef
ef
f0
e9
e9
ec
f2
f0
f8
00
04
08
0d
14
19
1c
1c
1b
16
17
10
0a
05
fd
f5
f0
eb
e6
e7
e8
ec
ea
ee
f0
f4
fb
fa
fc
00
02
03
03
07
06
02
03
06
07
05
06
06
09
07
0c
09
0a
08
09
02
fe
fc
fd
f9
f8
fb
f6
f4
f6
fa
fa
fa
00
00
01
05
04
04
06
08
07
09
04
06
02
01
05
01
00
03
ff
02
01
04
01
01
00
02
05
03
fe
02
02
02
fd
fe
ff
fe
fb
fc
ff
fd
02
03
03
01
08
08
08
07
07
06
01
fe
01
fd
fa
fe
f8
fa
fb
00
00
ff
06
08
09
0b
06
07
0a
07
08
09
02
ff
02
fc
fc
00
fe
fd
01
ff
02
01
03
07
05
03
05
03
02
01
fe
fb
fa
fb
fd
00
01
03
03
06
07
09
07
0c
0b
09
07
06
03
ff
ff
fd
ff
fc
ff
fd
01
01
02
04
04
06
06
04
05
02
01
fd
fb
f8
f5
f2
f3
f5
f5
f6
fd
fd
02
09
0a
0f
0e
12
0f
0c
0a
0b
06
ff
fc
f9
f4
f5
f2
f5
f9
fb
fc
fe
01
05
09
0a
0c
09
07
06
06
04
fe
f9
f8
f2
23
19
15
11
0f
0a
09
05
02
03
01
01
01
02
fa
fc
fb
00
fc
fd
fc
fe
fc
fb
f8
fb
f8
f9
fc
fb
fd
00
ff
fc
f9
fb
f9
f8
fe
ff
02
00
01
01
06
07
0a
0c
0e
0a
07
07
0b
08
05
fe
01
ff
fc
fa
f7
f8
f8
f9
fa
ff
01
01
ff
03
09
06
0b
0c
0b
0e
0c
0e
0a
0c
0b
05
04
00
03
00
fd
fe
f9
fb
fd
f9
00
ff
02
fe
00
00
00
00
03
04
00
02
00
ff
fc
00
00
01
ff
01
01
00
00
06
04
ff
02
01
04
04
00
ff
ff
ff
ff
04
00
03
04
03
04
04
03
02
ff
01
ff
01
ff
01
ff
fc
fd
ff
fe
00
00
ff
01
fe
03
00
03
fe
fd
00
ff
fe
01
fd
02
fc
00
fc
00
02
fe
ff
fd
fd
fb
ff
fd
fe
fb
f9
fa
fa
fc
fc
fe
fa
00
fc
fb
02
fd
01
ff
00
02
fe
03
fe
03
fe
ff
fe
fc
fc
f9
f9
fb
fb
fb
fd
fd
fa
fe
01
01
02
01
04
00
01
01
01
05
ff
fe
00
01
fb
fd
fd
ff
ff
fa
f8
fb
f8
f7
f9
f7
fb
fb
fd
ff
01
07
05
09
0a
0a
08
07
07
04
ff
f5
ef
e5
d6
0b
08
05
06
04
02
02
ff
04
07
05
0c
0d
0b
0a
0e
0b
04
04
ff
00
f9
f5
ef
f3
f6
f3
f8
fb
00
03
05
06
0c
0a
0d
0b
08
09
05
01
01
01
ff
fa
fa
fb
00
03
00
04
04
04
04
00
01
02
fe
f9
fc
fb
f8
f7
fb
f8
f8
fd
fd
fc
ff
03
01
02
05
05
06
06
02
03
00
00
02
fa
fb
fc
01
ff
04
01
03
08
03
05
06
08
05
07
07
02
01
fd
fe
fe
fe
fd
fd
00
05
02
05
06
06
06
07
06
01
ff
fd
fb
fc
fe
fc
fa
fd
fd
04
04
04
07
04
05
06
07
06
02
fe
fe
fb
ff
fa
fa
fb
ff
ff
fe
02
02
01
03
ff
00
03
03
ff
fb
ff
fb
f9
fb
fd
00
00
05
03
07
02
03
06
06
05
05
ff
01
fe
fc
fa
f7
fc
fd
fe
01
fd
05
02
01
07
04
04
05
01
04
ff
01
fb
f8
fc
fb
fc
fb
01
ff
03
05
05
09
07
0a
08
0c
08
0b
07
05
05
ff
04
01
fb
fe
fa
fb
f6
f7
f5
f8
f7
f3
f7
fb
fc
fd
fe
04
06
04
07
06
09
07
02
02
00
f9
f5
f4
f6
f2
f5
fb
f9
02
04
0c
0d
12
10
01
10
1e
23
30
36
32
34
36
33
30
20
1e
13
0f
07
01
f8
f3
f2
f1
ec
e9
eb
eb
ed
e6
ec
ef
f2
f1
ed
f2
f0
f0
f3
f1
f4
f7
f7
02
09
0d
12
14
19
1b
17
16
14
09
07
fa
f4
ed
eb
e4
ea
f0
f8
fc
06
0f
14
1c
1d
25
24
1b
1a
11
07
03
ff
f8
fa
fa
f6
f7
fb
fb
03
01
01
01
00
01
01
fa
fa
fa
f6
f7
f6
f9
f6
fc
fd
fa
fd
ff
fd
fe
04
03
ff
00
01
00
01
fd
fc
f8
f9
fb
f7
f8
fd
ff
ff
00
00
fe
fd
fc
f9
fc
fc
f8
fa
f7
fb
f7
fb
fc
ff
fe
fe
fa
fc
00
fd
fe
f8
fc
f8
f9
fd
fd
f9
fb
ff
fe
01
01
00
fd
ff
02
01
fe
ff
02
fe
00
00
02
fd
01
00
fc
00
02
ff
00
05
07
04
04
06
06
0a
05
05
03
00
02
fd
fe
fb
ff
fd
fc
00
05
04
06
06
05
09
06
04
02
00
00
f7
fb
f9
f6
f9
fb
fe
01
04
05
07
09
0b
09
08
0a
05
ff
fd
fc
f7
fa
f5
f9
f7
fe
fc
01
04
06
12
17
1c
1b
1b
18
17
0e
07
00
fa
f4
ec
ef
ed
f4
fd
09
16
21
32
fb
fc
fd
fc
03
00
00
fe
fd
fb
fc
02
fe
fe
ff
02
fe
02
00
fe
02
00
00
00
ff
fe
fc
02
fd
02
fe
fe
01
03
00
01
fd
fe
00
01
fd
fe
00
fe
fe
fd
01
02
01
05
00
04
01
02
fe
fc
00
fe
fe
fe
fd
fd
fc
02
05
02
03
05
07
04
01
02
02
fc
fc
ff
02
fe
ff
01
01
06
03
03
03
fe
fe
00
00
02
ff
04
04
ff
02
01
ff
02
01
ff
00
03
00
03
01
03
ff
03
01
fe
02
02
ff
00
03
02
03
ff
fd
02
01
01
01
ff
01
ff
fd
ff
00
fb
02
ff
00
04
03
ff
02
ff
01
03
ff
00
04
00
03
05
02
03
05
00
02
fe
ff
00
03
00
fd
fd
ff
fd
fd
ff
fd
00
00
ff
fe
01
03
01
ff
01
01
fd
fd
ff
04
ff
04
01
05
01
01
04
02
ff
00
01
ff
02
fb
00
00
fb
fe
01
ff
04
00
03
04
03
00
04
00
03
03
01
05
00
ff
01
fe
01
fc
fa
fd
fb
f8
fb
fd
00
02
00
02
05
01
01
ff
01
01
01
fc
00
01
fe
01
fe
03
01
04
03
ff
ff
fe
fd
fd
00
01
fe
02
ff
02
04
04
00
27
24
21
21
1b
1b
15
12
10
08
06
01
02
00
fb
fb
f9
f9
f9
f7
f9
f8
fd
f9
f9
fe
00
02
02
04
05
03
07
09
09
0a
0e
10
0e
13
10
13
0e
12
0c
0d
0b
07
09
02
09
04
08
04
07
07
0c
10
12
13
14
14
15
17
10
0c
08
09
05
fc
fc
f7
f3
ef
e9
ec
ea
e7
e6
e8
ed
f0
f0
ed
f3
f5
f6
f3
f8
f4
f6
f2
f3
f2
f4
f4
f4
f6
f8
f7
f6
f8
fb
fe
00
04
04
04
08
08
0d
0f
0f
0d
0a
0b
0b
08
08
07
02
02
02
01
01
fe
fe
04
04
fe
ff
ff
fd
fa
fd
fa
fc
f8
f8
f6
f6
f5
f4
f9
f8
f8
fe
fd
fe
02
02
04
06
06
06
04
ff
fe
fa
fc
f5
f6
f0
f2
ee
ee
ea
ed
f0
ec
f0
f0
f1
f8
f6
f9
f7
f8
fd
fa
f8
f7
f9
f7
f5
f3
f0
ef
ee
ed
ed
f4
f6
f6
fb
01
01
07
0b
0e
11
18
1a
1a
17
17
17
15
14
0e
08
04
03
fa
f7
f7
f7
f8
f4
f5
f6
fc
fc
fb
ff
03
06
01
02
04
05
03
05
04
02
01
02
03
04
01
03
02
fc
fe
fb
01
fa
fb
f9
fc
fc
ff
ff
08
0a
16
16
1b
1b
19
16
13
0e
0f
0d
0a
07
01
01
00
00
f9
fc
f5
f4
f7
f7
f6
f3
f1
f7
f5
fa
f9
fe
fe
00
02
06
09
08
0d
11
0c
0e
0c
0f
0d
0e
09
06
09
05
06
01
03
fe
ff
fe
06
06
04
06
06
02
01
02
00
fd
fb
f6
f6
f3
f3
f1
ed
f0
ef
ef
f3
fc
fd
02
02
04
0a
0a
0e
0f
11
13
0f
13
0f
11
10
0f
10
0f
0a
0b
0a
0a
05
07
05
fe
03
01
00
fd
fe
01
ff
01
00
ff
03
fd
fc
fe
fb
f9
f5
ed
ee
e9
e9
e5
e6
e5
ea
ea
f0
f5
f9
f9
fd
03
03
06
0a
0d
07
09
04
04
04
fb
fc
f9
f5
f4
f2
f1
f0
ee
ee
f4
f3
f2
f7
f8
fe
00
fc
01
00
04
02
02
04
00
00
05
06
03
06
02
03
06
06
0b
09
09
0d
0b
0b
0a
06
07
03
04
ff
ff
fe
fa
fc
f9
fd
fb
fd
fc
01
05
04
02
01
06
02
00
ff
ff
fb
f6
f6
f4
ef
ea
e9
e6
eb
e6
e8
e9
ed
ec
ee
f3
f9
f6
01
01
03
08
07
07
05
08
09
07
08
09
08
09
05
07
01
01
fe
00
fb
fe
f7
f8
fb
fc
02
05
0e
17
21
27
1a
15
0e
0c
0b
0e
0b
0b
0b
0b
10
0b
0c
09
09
0a
0c
10
0f
0d
10
0f
16
11
10
17
13
0f
0b
0c
09
08
04
05
01
04
fd
fe
05
fc
01
02
00
fd
f9
fb
f5
f8
f4
f0
f5
f2
f0
f9
f5
f7
f8
fb
f8
fa
f2
f1
e9
e2
d9
dc
da
d7
de
df
e4
ea
f3
fc
03
08
0e
16
16
18
13
15
13
0d
0e
0b
09
0b
08
09
09
09
07
04
04
ff
ff
fb
f9
f7
f7
f6
f9
f9
fa
fa
f9
f8
f7
f9
f5
f0
f2
ef
ec
eb
ed
ee
ef
ec
ef
f1
f4
f7
fc
f9
fe
fa
f7
f8
f9
f6
f8
f6
f8
fa
f8
fc
ff
02
04
09
0e
0d
0b
10
10
0d
0e
07
06
05
02
05
04
0a
08
08
10
14
14
11
12
14
16
13
0c
0b
0a
09
05
08
06
06
05
07
03
00
00
fd
fb
fe
fa
fa
f9
fb
fe
fa
fc
fa
fe
fd
fe
fc
f9
fa
fa
fc
f8
fa
fc
f5
f7
f7
f5
f7
f0
f4
ef
f2
ee
ec
ea
ef
ec
ee
f4
f6
fa
fd
02
04
04
0b
07
0b
09
06
03
04
01
01
02
03
03
08
09
0a
0f
0f
10
10
10
10
0b
0a
08
06
0a
0c
11
1f
25
37
45
f0
fb
fd
08
0e
19
1e
1f
28
27
2a
2c
28
26
27
24
20
1e
1c
13
13
09
04
00
fd
f6
f2
f0
f3
eb
ef
ef
f0
ed
ea
ed
ed
f1
eb
ee
ef
e9
e3
dd
da
d5
ce
c8
cb
cd
d4
d9
df
ea
f5
fd
0a
0e
15
13
10
0d
0c
04
ff
fd
fc
00
05
0c
21
2e
45
55
60
66
6a
5d
50
3f
2a
16
ff
ec
dd
d0
c5
bc
b8
bb
c1
ca
d3
da
e5
e9
ec
e8
eb
ea
ef
ef
eb
ef
f4
f7
f8
fd
ff
02
06
08
0c
0c
08
09
07
07
ff
fe
fb
fd
fb
fa
fb
f8
fa
fb
fe
ff
05
06
07
07
08
06
04
06
08
06
07
06
04
07
07
09
08
09
05
07
02
04
06
04
01
05
03
08
07
0b
0a
0a
08
08
06
09
07
03
03
05
01
04
03
06
0a
09
0c
0a
0e
08
08
07
07
08
04
06
03
04
02
04
02
01
03
03
00
00
ff
ff
fe
fe
ff
fa
fd
fa
fe
f9
fa
fb
fe
f9
f9
f7
f5
f1
ee
f1
eb
e9
e6
ea
e5
e3
e5
e1
e4
e1
e4
e6
e4
e7
e8
eb
ea
ec
ee
f0
ed
f3
f1
f2
f2
f0
f7
f3
f6
f4
f8
f8
fb
ff
fd
ff
f9
fa
f6
ec
04
ff
fe
03
ff
00
ff
04
01
06
00
03
01
00
fc
fb
fa
fb
fe
fa
f9
fd
fd
01
fd
00
05
02
02
ff
00
01
00
03
02
00
06
02
03
ff
02
00
fb
fc
f9
fc
f8
f9
fb
fb
fc
fe
fb
fc
fd
ff
ff
f8
ff
fa
fa
fa
00
00
03
00
05
03
07
07
03
03
04
05
05
04
ff
04
00
02
06
06
04
05
03
02
05
03
04
05
ff
fe
ff
fc
00
00
f9
f8
fa
fa
fb
f8
fa
f8
ff
fb
fe
01
fc
ff
03
02
ff
fe
fc
fe
fe
00
00
fe
00
fc
01
fc
00
fd
00
ff
fb
00
fc
f8
fb
f7
f7
fb
fd
fd
04
02
03
06
08
09
06
05
07
04
04
01
02
02
00
00
fb
ff
fa
fd
fd
02
fe
02
00
00
02
04
ff
fe
02
03
02
04
ff
00
fe
03
ff
01
00
07
03
04
07
08
08
08
09
09
08
05
03
05
05
03
04
02
04
03
06
08
06
06
07
05
03
03
01
fc
fa
f8
f7
f8
f5
f5
f9
fc
ff
03
00
03
02
04
00
00
03
03
fe
fb
ff
01
fd
02
03
fe
01
03
ff
04
03
01
fd
fe
fc
fc
f9
f7
fa
f6
fa
fb
fd
fe
01
03
08
0b
df
ea
f3
f6
f8
fa
fd
fd
03
02
02
01
fe
fe
00
02
fd
fc
fd
fe
fd
fb
fe
fb
fe
00
fe
f8
fc
fa
fa
f8
f7
f7
f9
fb
f8
fb
fc
f6
f7
fb
f7
fa
f6
f8
fc
fa
f8
f7
f9
f3
f6
f4
f1
f5
f2
ef
f2
f5
f6
f6
f9
fb
f9
fb
fb
ff
fd
fd
ff
fd
ff
05
ff
03
01
05
03
07
06
03
02
02
00
fc
ff
fb
fb
fc
fb
f7
fb
fd
fc
f8
f8
fb
fc
fb
f8
fe
f8
fa
f7
f9
f6
f7
f6
f9
f5
f6
f6
f7
f8
f8
fb
fc
fa
ff
fe
00
02
fd
fe
fc
fa
fa
fc
fa
fa
fb
fb
fa
fb
f9
fb
fe
fe
01
ff
fe
ff
04
06
05
07
07
02
03
02
00
fc
fd
00
fe
ff
ff
00
04
00
06
06
08
04
09
09
0d
0c
0b
0f
0a
0b
0e
0e
0b
0c
0f
0a
10
10
0c
0b
0a
08
06
01
00
fe
fe
fa
fa
f4
f2
f5
f5
f4
f6
f6
f8
f8
fb
fd
fe
fd
00
01
01
05
01
02
01
03
00
03
00
00
05
07
04
08
08
07
0b
0e
0c
10
08
0b
09
0a
0b
0d
07
07
08
0c
0c
0a
0c
0b
0e
09
07
0a
0b
0c
09
08
08
06
06
03
04
06
08
d5
db
e5
ed
f2
f9
fc
ff
01
00
04
04
07
08
03
02
07
06
05
01
04
fd
fb
fd
fa
f4
f4
f2
f1
ee
eb
ed
ef
f2
f0
f5
f6
f6
f5
fc
fd
fc
fb
fe
fb
fa
fe
fb
ff
fb
ff
00
03
07
0b
0a
0d
12
0e
12
0e
0f
0b
05
03
00
fc
f9
f2
f1
f0
ea
e8
ec
ea
ed
eb
f2
f2
f4
f5
f8
f7
f6
f8
f6
f8
f2
f4
f4
f7
f3
fa
fb
fb
fa
fa
fe
fc
fd
02
ff
fb
fc
f7
f6
f8
f6
f3
f3
f5
fa
fc
fe
fb
04
06
06
0c
0a
0d
0c
0b
0c
0b
07
01
01
fc
f6
f4
f3
f0
f0
f1
f9
f7
fc
fd
02
05
06
09
08
0c
08
05
03
06
01
00
ff
01
ff
fe
fe
02
ff
05
06
02
06
06
05
08
06
07
04
00
00
fe
fd
ff
fe
fc
fe
00
00
03
02
07
04
05
05
05
02
04
01
02
fe
ff
fe
fb
fd
00
fd
ff
06
07
0a
08
0b
0b
0e
10
12
12
12
0e
10
0d
09
0b
0d
0d
0f
09
0b
0a
0a
0b
0d
09
0d
0b
0a
03
05
04
01
ff
01
01
01
03
01
04
03
07
0c
0c
09
07
07
05
05
07
03
01
fb
fb
fc
fb
03
03
0b
09
09
04
00
04
01
02
01
00
01
00
05
05
03
04
fe
03
04
00
00
06
05
01
fd
ff
00
ff
fd
fc
ff
fb
fd
00
01
04
06
06
04
03
06
03
02
02
03
00
ff
00
fb
fd
f8
fa
fd
f7
f8
fd
fd
fb
01
03
01
00
ff
ff
00
ff
fe
fb
ff
fb
fc
f8
fb
fb
ff
00
fc
fd
fe
ff
fd
02
fd
02
ff
fc
f9
fb
f7
fa
fc
f9
00
fc
00
01
02
04
07
05
0a
0a
09
04
03
06
04
02
fc
ff
ff
fd
ff
fc
02
03
05
0c
0a
12
12
13
12
11
11
0c
0a
09
03
01
02
03
ff
01
03
03
05
0a
0e
0d
12
11
0c
0f
0a
06
01
fb
fa
fb
f6
f9
fc
fd
fb
01
06
06
0b
0d
11
0b
0e
08
09
07
00
03
00
fd
ff
fc
fa
fd
05
03
07
0e
0e
12
10
0e
0f
09
0b
06
06
04
02
01
ff
fd
ff
ff
fa
00
fe
fb
00
fd
02
fe
03
05
02
03
04
01
05
08
08
06
01
01
fe
fe
fc
fc
fb
fc
f9
f7
f7
fd
fa
fc
f7
f8
f9
fa
fe
ff
fb
fd
f9
fc
f7
f5
f5
fa
fb
f6
f9
f6
fa
f7
fd
f9
fb
fc
f9
fa
f7
f4
ef
ed
e9
b0
bd
cd
da
e7
ff
0c
1d
28
2b
27
29
25
1e
18
0e
0b
01
f7
f3
f2
eb
f2
f3
f6
09
12
19
24
28
2e
30
2c
2b
21
15
0e
03
f7
f5
f4
ed
e5
e7
e7
ee
f5
f6
fa
fe
00
03
05
02
00
00
fd
f7
f7
f0
ed
ef
ec
ec
ea
ee
ef
ee
f0
ec
f1
f1
f4
f5
f8
f4
f7
f9
f6
f8
f7
f9
fc
fb
ff
fe
fe
fd
fb
fc
fc
fd
02
fe
fe
ff
fe
ff
fe
fb
f9
fa
fb
fa
f9
f9
02
00
03
00
02
ff
fe
fb
fe
fc
f6
f4
f6
f4
f5
f8
f7
fc
ff
02
03
0b
08
08
0b
08
06
04
06
04
01
03
04
03
06
06
07
0b
0d
10
10
11
10
0a
0b
06
08
05
03
01
01
02
07
03
04
06
08
03
04
00
03
fb
fc
fe
fc
fb
fa
f5
f8
f3
f2
f0
f0
eb
ee
ef
e9
ea
e6
e8
e6
e5
e9
e8
e8
ea
ea
ed
e9
eb
ea
e7
e1
e0
e4
e1
e7
e9
e7
ea
ef
f5
f8
fb
02
04
06
07
07
0c
08
09
09
0c
09
0f
11
13
16
1d
1e
29
31
37
3e
44
49
48
47
42
40
37
35
29
28
23
18
11
15
17
1c
1f
1f
28
29
25
27
27
16
13
07
07
00
00
03
03
ff
05
01
fd
fd
fe
00
fb
00
00
ff
01
fd
fd
02
fe
ff
01
fc
fe
fe
fe
00
ff
04
02
ff
02
01
02
01
fe
04
00
ff
04
04
ff
fc
01
01
fc
fc
ff
ff
01
01
ff
03
02
fe
02
ff
ff
fe
fc
fb
f9
f9
f8
fa
00
fb
01
ff
05
04
03
01
ff
03
fd
01
02
fe
fa
fc
ff
02
ff
01
04
04
04
06
00
00
02
00
01
03
02
ff
fe
ff
04
00
fd
fe
fc
00
fe
ff
03
00
04
06
01
02
03
04
01
01
fd
fe
fb
fc
fa
ff
03
00
04
05
04
04
04
01
05
fe
03
03
ff
03
02
fe
03
01
03
ff
03
02
03
fe
01
fc
ff
fc
fd
f9
f9
fe
00
ff
01
02
00
04
03
01
02
00
06
03
03
01
ff
03
01
01
ff
ff
fd
fd
fd
fe
fb
ff
00
02
06
07
04
06
00
02
fe
fd
01
00
fe
fb
01
fe
01
fc
03
03
01
03
00
03
02
00
04
03
01
ff
fd
fb
fd
01
02
ff
00
01
02
fe
03
01
00
01
02
02
ff
fd
fb
fb
fb
fb
01
fc
fe
fd
02
ff
fe
01
fd
fe
fc
fe
00
03
ff
00
05
03
00
00
fe
02
fd
fc
fb
ff
fa
ff
fb
fd
03
ff
00
02
02
03
01
02
02
07
03
04
00
00
01
fc
fc
fc
00
fb
01
ff
03
02
01
00
03
00
02
05
01
ff
02
04
03
fe
02
02
00
04
02
05
03
05
03
04
03
05
00
03
01
ff
fc
fc
fa
f6
f6
f5
f4
f6
f5
f5
f4
f8
f9
ff
fe
ff
01
07
0b
09
0f
11
0f
0f
0d
09
08
04
fe
fd
fa
f5
f3
ec
ef
e9
ec
ed
e9
eb
f4
f8
fb
00
05
0a
10
13
13
19
18
1c
16
16
13
11
0b
09
03
01
fe
f8
f0
ee
e7
e5
e4
e2
e9
e8
eb
ee
f4
f4
fc
ff
05
07
10
0f
14
1a
17
1a
16
15
18
15
10
0b
0a
08
03
fd
fb
fa
f8
f6
f6
f4
ef
f2
f3
f3
f7
f9
f7
f9
f9
fe
00
01
01
02
fd
02
01
01
05
03
00
00
01
03
04
05
07
02
04
02
01
03
02
ff
02
05
05
02
05
02
01
06
03
00
01
03
ff
ff
01
ff
01
02
01
fd
fd
fd
fc
fe
fe
ff
fc
fd
00
ff
fd
02
00
ff
02
02
00
03
02
04
00
fc
fd
fe
fb
fa
fc
ff
fe
fd
00
fe
00
03
03
02
06
05
02
06
01
01
05
01
01
02
02
01
04
02
fd
fd
ff
04
00
ff
fe
01
00
01
01
00
fd
fd
fa
fe
ff
00
fd
fe
fe
01
ff
02
fe
02
02
04
fe
fe
00
ff
01
02
fe
ff
00
fd
00
00
00
05
01
02
03
01
00
03
02
ff
fd
fe
01
00
fd
fe
fd
fc
fa
fb
fb
fe
fb
ff
fd
fe
fe
03
04
06
08
04
05
06
04
05
05
01
fc
00
fe
f8
f5
f7
f6
f6
f6
f8
f8
fa
ff
01
04
09
08
0e
0e
0c
0f
10
0b
0c
06
02
03
ff
f8
f2
f3
f0
eb
ec
ed
ec
e9
ed
f0
f6
f9
fc
01
04
0a
0f
10
14
19
17
16
12
10
0c
08
06
02
00
f9
f7
f2
f1
ef
f0
f1
f2
f4
f6
f6
f9
fb
f9
fc
fe
01
06
09
08
07
0a
0c
0b
09
0b
0b
0b
0c
09
04
07
01
ff
03
ff
03
00
fd
00
f9
fc
fa
fc
fc
fc
f7
fb
fb
f8
fb
fb
fa
fc
fc
fe
00
01
ff
00
03
03
04
07
07
05
05
05
01
05
fe
00
ff
03
03
00
02
fd
fb
00
fd
00
fa
ff
fa
ff
02
fe
02
02
ff
ff
03
01
00
01
03
00
04
04
03
ff
02
00
01
ff
ff
fc
ff
fd
fb
03
02
01
02
fe
fd
ff
fd
fa
fe
00
fd
00
fe
02
01
02
04
00
ff
fe
fd
fe
fc
fe
01
00
00
05
fe
03
02
fd
02
fc
ff
fc
fc
00
fb
fd
ff
fa
02
fe
fe
03
ff
ff
ff
01
00
fd
00
ff
f9
fc
fe
fc
fc
fe
fb
00
fe
ff
fe
fe
00
fd
fe
ff
00
01
00
fe
fc
fe
ff
fa
fb
fa
fa
f7
fe
fc
fe
fb
fb
ff
fc
fa
fb
fe
fd
fb
00
fe
02
03
04
07
04
06
05
05
01
02
00
fe
fd
fd
f9
fe
fd
fd
fc
fb
fa
f9
fb
fe
fc
ff
fb
fb
fa
fd
ff
00
02
02
01
04
06
06
07
04
02
08
03
05
01
00
02
01
fe
fe
fd
fc
fd
fb
fe
fb
fe
fc
fd
fb
00
00
fe
fe
fe
fc
fe
05
01
03
01
01
01
03
00
ff
fe
00
fe
02
fc
fc
fe
03
03
01
01
02
ff
ff
fd
fc
fc
ff
f9
fa
fe
ff
00
fe
fe
fe
02
04
fd
01
03
00
fe
00
fe
fd
ff
01
01
fe
03
ff
00
02
04
05
00
02
fe
fd
fe
fd
fc
ff
fe
01
ff
00
00
01
fc
fe
fd
02
ff
fc
fe
ff
fd
01
01
ff
ff
02
01
00
01
fd
01
ff
00
ff
ff
fc
ff
00
07
02
02
01
00
fc
02
fe
00
fd
01
ff
03
fe
02
ff
01
01
04
02
ff
02
ff
fe
fe
fc
00
05
06
02
06
04
01
03
fc
00
ff
00
f9
ff
02
02
02
06
08
03
05
06
05
01
00
ff
fe
fd
fe
fa
fc
01
fe
01
00
02
08
05
07
08
02
03
04
01
fd
fb
f9
fa
fc
fe
ff
fc
01
00
00
02
05
05
01
05
04
04
00
ff
01
00
01
01
04
02
ff
01
02
03
01
fc
fe
fe
f9
fc
fd
fe
fe
fb
fc
03
01
06
08
03
07
03
01
04
03
00
fe
fd
fd
f7
fd
fd
ff
01
07
06
08
07
06
01
fc
fc
f7
f4
f5
f1
f2
f2
f6
fd
00
06
09
09
0b
0a
0a
03
07
02
00
fa
fc
fb
f7
fd
00
00
03
06
05
04
06
01
05
02
fb
f8
fa
f7
f8
fb
fd
fe
03
00
02
06
05
03
00
fd
ff
fe
fa
fa
fe
f9
fe
03
fe
03
01
ff
ff
ff
ff
fe
00
fd
02
ff
00
01
02
00
fc
fe
00
00
04
01
01
01
fd
fc
ff
fc
fc
fb
fd
fe
fe
fc
ff
fe
ff
02
02
00
02
01
fa
fd
02
02
00
fd
00
fd
02
02
04
05
01
fb
f7
03
00
04
02
02
ff
00
fd
02
04
02
02
03
02
01
fe
00
fc
fd
fc
01
ff
00
ff
06
03
04
04
05
fe
fd
fb
fd
fd
fe
01
01
02
01
00
02
04
01
00
fe
00
00
ff
01
00
01
03
00
04
01
01
01
ff
00
02
fe
ff
fc
fe
fa
fc
00
fc
fd
00
03
03
00
02
04
00
04
02
00
ff
01
fd
fd
02
02
01
02
00
01
ff
00
00
03
01
04
00
02
05
00
00
00
fc
01
01
fe
fd
fd
01
01
01
01
00
ff
fd
fe
fe
00
fd
01
00
fd
ff
fe
ff
00
fe
03
02
ff
01
01
02
02
05
03
ff
01
ff
ff
00
03
ff
ff
ff
01
00
03
fe
fe
01
01
fd
fb
fb
fa
fd
fd
fb
03
00
03
ff
01
06
02
01
01
02
ff
fe
fd
00
ff
fc
fc
00
02
00
01
01
ff
ff
04
01
fe
00
ff
01
04
02
00
03
01
00
01
02
00
ff
fd
fb
00
fe
01
01
00
05
06
02
00
fe
ff
00
fc
fe
fa
fd
fd
00
02
ff
ff
03
07
03
04
00
fe
fd
fc
fc
fe
00
03
01
01
ff
01
fe
07
03
01
00
02
fe
03
fd
00
03
fe
03
05
05
05
fd
fd
fd
11
10
13
0e
0a
0a
0a
01
04
00
ff
ff
fd
f7
fc
fc
f7
fb
f6
f9
fa
fd
fc
fc
fd
00
ff
01
03
fd
00
ff
fc
fd
ff
00
02
fd
fd
fe
fe
00
ff
00
01
04
09
0a
0e
0c
0c
0e
0c
10
0c
0b
09
06
05
03
01
fc
f7
f4
f1
f1
ee
f5
f4
f4
f7
f6
f4
f5
f4
f8
f5
f2
f4
f0
f6
f4
f4
f1
f4
f6
f7
f9
fc
fe
ff
02
05
0c
08
0b
0f
0d
0c
0e
0b
09
0c
05
05
05
01
fe
03
fd
fc
fd
ff
01
fc
ff
04
03
02
ff
03
00
fe
00
fb
fc
f9
fb
fa
f9
fd
fd
fc
ff
fd
ff
00
01
07
05
02
01
07
04
01
02
00
01
fd
fd
fb
fb
fa
fc
fa
fc
f8
f6
f4
f3
f4
f5
f9
f2
f7
f6
f6
f7
f6
f6
f6
f3
f4
f3
f2
f6
f7
f7
f4
f7
fb
fd
fa
fe
01
06
07
07
09
0f
0d
0e
10
0b
0d
0a
09
09
08
08
04
04
01
05
02
07
04
04
04
07
0a
06
0b
0a
07
06
0a
05
05
02
04
fc
fc
fd
f9
f7
f7
f7
f5
ef
f3
f5
f3
f5
f3
f3
f7
f8
f6
f7
f8
fd
f7
fc
fd
fe
fd
02
00
04
02
03
06
0e
15
1b
eb
ee
f1
f9
f7
fa
f7
f7
fc
fc
fa
f9
f8
fa
fa
f9
fe
f9
f9
fd
01
fb
00
00
01
03
01
00
fd
02
fd
fd
01
02
fe
fb
f9
ff
fc
fd
ff
fa
fc
fe
fa
f8
f8
f8
f6
f4
f2
f4
ef
f0
f0
e9
e9
ec
e8
ea
e6
ee
ed
ec
f1
f9
fc
ff
01
05
07
0e
0e
10
0e
0e
10
12
12
0e
0f
0b
08
0c
07
08
00
01
fc
ff
fb
f7
f8
f2
f0
f2
ed
ef
ef
ec
ee
ed
ee
f1
f4
f4
f7
f4
f2
f3
f9
f9
fb
f6
f7
fa
fb
f7
f8
f8
fb
fa
fb
fd
f9
fc
fc
fc
fc
fd
fd
f6
f7
f8
f6
fa
f8
fa
fb
f9
fb
fb
fe
fd
ff
01
ff
03
03
ff
00
fe
03
ff
fe
05
05
07
03
06
08
0c
08
08
0c
0b
0f
0d
07
07
06
01
ff
01
fa
fd
f7
f6
f7
f9
f8
f9
fd
fe
04
02
08
0d
0a
0c
0d
0e
11
10
0d
0f
09
06
03
05
ff
00
fa
fc
f6
f4
f1
f6
f0
f7
f3
f3
f6
fa
fe
fa
fc
02
04
04
09
07
08
0d
0b
0f
0d
0d
10
0e
13
10
16
16
15
15
15
15
1a
16
18
13
13
15
14
0c
0c
0c
09
0a
03
05
03
08
0b
10
1e
12
06
00
00
fb
fe
fd
02
00
05
04
02
06
04
05
05
05
05
05
03
03
09
05
01
04
04
04
04
02
03
04
03
ff
fe
fc
fc
fb
fe
fa
fa
f7
fc
fb
f6
f9
fa
f8
fb
fd
f8
f9
f9
f5
f1
ef
ea
eb
e8
e9
e7
eb
ed
f4
f4
fe
01
03
0c
0e
0a
0b
0b
06
06
ff
fd
ff
fd
fd
f9
fb
fd
ff
01
01
02
01
00
03
00
fc
fd
fa
f5
f6
f4
f6
f2
f3
f5
f0
f5
f0
f3
f4
f1
f3
f3
f5
f7
f4
f9
f8
f8
fa
f8
fb
fb
02
ff
ff
03
00
00
02
04
04
00
03
03
01
03
04
03
02
06
05
08
0c
0a
0f
10
0d
0a
08
0a
09
04
04
06
07
08
0b
0b
0e
11
0e
15
0f
0f
10
0a
09
05
05
01
02
02
ff
00
00
05
03
05
06
06
07
02
03
fc
f8
f3
f3
f1
f4
f6
f8
fd
01
02
04
08
08
0a
0b
09
09
0a
06
02
01
02
00
fe
00
04
08
0a
0c
0e
10
10
0d
11
0c
0c
05
03
02
ff
02
fe
01
00
03
04
07
0a
0d
0e
0f
14
12
0d
0a
0e
0a
04
0b
0a
05
0a
07
0b
11
0c
0e
10
0e
0b
05
04
ff
f8
f2
19
10
0d
05
fe
fa
f9
f7
fd
fb
f9
fa
fa
fa
f8
fa
f6
f9
f6
f5
ef
f0
ee
ef
ec
ed
ed
ee
f4
f4
fc
fb
fb
f9
fa
f8
f2
f6
f5
f9
fc
fe
00
05
0f
17
1e
27
2a
2a
2d
25
22
18
07
03
f6
ed
ee
ec
f6
fe
0b
1b
2b
3f
4f
55
54
4c
38
28
11
00
f0
dc
d0
be
b9
b3
b8
b9
c8
d2
e1
e6
e9
ed
eb
eb
e6
de
e2
dd
de
df
e4
eb
f3
fc
05
08
0b
0e
0c
06
08
fd
f9
fb
f9
f5
f8
f5
f8
fd
00
06
02
08
08
05
04
04
03
00
04
03
04
03
01
01
01
06
08
08
04
06
06
04
09
07
05
05
04
06
0a
08
06
0a
0a
08
0a
0a
0a
09
06
03
09
09
09
07
09
07
05
09
07
07
0d
0b
0a
0d
0c
0a
05
05
02
00
fe
00
fa
fd
00
fd
00
fd
02
fd
fe
fe
fd
01
00
fc
f9
f7
f6
f4
f0
f5
f4
f0
f0
f3
f1
ed
f2
f1
f4
f3
f6
f7
f6
f1
f0
f4
f4
f3
f7
f8
f3
f9
f7
f3
f0
ec
e6
e4
e7
e4
e4
e5
e5
ea
ed
f9
f9
00
07
09
0c
0c
0e
0a
0a
09
04
fe
f8
fb
f2
f0
eb
f0
f3
f9
f7
f9
ff
02
fc
fe
04
01
03
03
01
03
01
00
fd
ff
02
05
03
ff
03
09
09
06
00
01
04
fe
ff
ff
01
00
00
01
fd
00
01
04
01
05
01
02
06
05
01
ff
02
ff
ff
fd
fb
00
ff
02
03
04
04
04
07
05
06
07
06
04
01
fd
00
00
fe
fc
ff
fc
ff
ff
fe
03
02
03
02
04
03
ff
04
01
ff
ff
fa
fa
fb
fd
00
02
04
06
05
04
07
06
03
00
01
fe
02
00
fd
fc
03
03
fe
00
ff
fe
fe
00
01
fd
f8
fa
fa
fb
fc
f8
fb
00
fe
02
05
07
03
02
fe
fb
fa
f6
f8
f9
f9
fa
fc
fb
fd
02
00
07
05
02
03
04
fe
ff
fb
fa
f9
fd
f9
f9
ff
fc
fd
00
02
ff
fd
00
fb
00
ff
fe
fe
ff
01
05
02
02
02
06
03
04
03
00
02
00
02
fc
fe
ff
fe
01
03
00
ff
04
00
02
01
03
03
fd
fd
ff
fc
fe
fa
00
fd
fe
ff
02
05
04
02
04
00
00
01
02
fb
ff
fa
fb
01
ff
fe
fe
03
05
05
03
02
03
fd
ff
f8
fb
fa
fc
fb
f9
ff
01
02
02
0a
0a
07
06
04
05
05
03
03
fe
00
01
fa
fd
e2
e1
ec
f2
f8
f7
fa
ff
00
03
00
06
01
05
00
01
00
fa
fe
fd
f5
f3
ee
f0
ef
ee
f2
f3
f2
f5
f6
fc
f9
fd
01
04
04
08
07
04
05
05
03
03
03
04
01
fd
00
ff
00
01
ff
01
00
00
fd
fe
fd
fc
f7
f8
f1
f2
f2
f3
f4
f9
f8
fb
00
fe
05
04
0a
07
07
09
09
08
07
01
ff
01
fb
fd
fb
f4
f8
f8
f8
fd
fd
ff
06
07
0a
08
08
06
09
0a
05
04
05
00
ff
00
00
00
fa
fe
00
02
fe
04
ff
01
02
01
02
03
01
04
ff
04
fd
00
fc
fc
fd
fc
fa
fe
fd
fd
02
01
01
06
04
07
05
04
02
01
05
02
04
02
ff
fd
02
00
02
00
06
08
05
07
06
09
06
05
05
03
07
00
03
fe
fb
fc
f9
fd
f9
fd
fb
fe
00
ff
01
ff
02
05
06
04
04
01
fe
01
fc
fd
f9
fe
fb
fb
fc
00
fe
06
06
04
04
09
06
05
0b
0a
08
09
06
05
07
03
02
02
fd
02
fc
fb
fb
fd
f9
fc
fd
fe
fd
fd
fa
ff
00
ff
ff
06
03
06
04
03
07
02
02
06
04
04
03
02
01
04
03
07
05
05
04
02
03
ff
d1
d2
d5
d8
de
e3
e4
e9
ed
f0
f5
fc
f9
fd
fe
fe
01
00
00
fa
fe
f9
f9
f9
f5
f7
f6
f5
f5
fb
fc
04
06
07
06
0a
10
0f
0e
11
0c
0d
0f
0b
0a
0b
07
08
08
06
05
00
04
ff
02
ff
fd
00
04
06
03
06
03
03
08
05
08
09
07
05
08
06
05
07
04
00
00
ff
01
fe
fd
fc
fa
f9
f9
fc
fc
fb
fc
fa
fd
fb
fb
fe
fc
01
02
04
05
07
02
02
05
02
03
05
02
02
ff
ff
fd
fe
02
00
02
03
05
04
02
04
06
05
05
03
06
03
03
04
03
03
03
04
03
02
04
03
08
02
02
07
02
05
00
02
02
fe
fa
fc
f9
f8
f7
f9
fc
ff
fe
ff
01
08
04
06
09
05
0a
08
09
04
00
ff
ff
fd
00
f9
f9
fc
fa
fe
fd
fd
ff
fc
fc
fe
ff
fc
01
01
ff
02
02
02
01
02
02
06
05
07
08
02
04
08
04
02
01
ff
01
fe
fa
f6
fa
f8
fa
fa
f9
fc
fc
fc
fe
f9
ff
fe
00
ff
ff
fc
02
ff
03
03
00
04
04
00
02
fe
ff
03
fd
01
fd
fe
fb
fe
01
fa
fc
fd
fc
fe
00
00
04
03
02
f9
f3
ed
f6
fe
fe
fc
fa
fb
f8
f6
f3
f6
f4
f3
f7
f2
f4
f5
f5
f4
f2
fa
fa
fa
fa
fb
f8
fb
f6
f7
f3
f1
ea
e6
e5
e5
e4
e6
e3
e8
ec
e9
f3
f0
f5
f8
fe
fc
ff
fd
fe
fc
fa
f2
f5
f4
ef
eb
e7
eb
e8
eb
e9
ec
f1
ef
f1
f4
f7
f3
f6
f3
f8
f7
fa
f8
f8
fc
fe
fc
fe
fc
ff
fe
fa
fb
fd
fc
fb
f8
fd
f6
f9
f7
f7
f7
fd
f8
fe
ff
fc
fe
fc
fb
fb
fe
fd
ff
02
02
fe
03
02
04
04
00
01
03
01
00
fe
01
ff
00
00
04
01
00
fe
05
ff
ff
04
00
05
04
01
01
01
06
03
00
05
03
04
04
04
04
04
04
06
04
04
04
06
09
07
07
05
04
02
00
fe
01
01
02
08
0a
0b
0a
0a
10
0e
0a
07
03
02
fe
fd
fe
01
fd
ff
00
01
06
09
08
0a
0c
09
0d
0a
0b
06
06
03
02
06
03
04
05
09
05
09
05
07
07
08
02
04
03
fd
ff
06
04
04
03
09
0a
0c
0e
0c
0e
07
09
0c
08
08
04
01
03
07
08
0a
09
07
07
09
0a
08
06
04
07
05
03
00
04
02
04
06
08
0d
0e
16
14
15
0e
09
fd
f8
e6
df
d8
cf
cf
cf
d1
d1
d5
db
e6
e7
ee
f3
f0
f5
f6
f2
ef
eb
ea
e8
e3
e2
e8
ed
f2
f8
03
09
08
0d
11
17
17
18
19
14
19
19
15
16
16
1a
18
18
1c
16
14
13
0b
0d
05
05
04
00
02
0b
11
15
17
1b
1b
1c
1e
1a
11
11
0e
09
0b
08
0b
0e
0f
0f
12
14
15
12
0f
0a
06
05
01
00
01
fc
fe
fe
fd
ff
04
05
07
02
04
02
00
fd
fb
fd
fc
fa
f9
f8
00
fe
01
fc
fe
fd
02
00
ff
00
fd
fc
f8
fa
fc
f8
f5
f6
f8
f9
f8
f6
f9
f9
f9
fc
f7
fa
f8
fe
f9
f9
f7
f6
f6
f7
f2
f5
f4
fa
f6
f8
fb
fb
fd
ff
fc
fc
fe
fd
fd
fd
fd
f9
fb
fd
00
01
01
07
04
08
04
04
02
04
00
02
ff
03
01
05
02
06
0b
0d
08
09
0b
0c
0c
0b
09
09
09
0a
05
09
05
06
07
06
0a
0a
08
09
08
0d
0b
0e
0d
0a
0d
0e
0f
08
05
06
03
05
00
02
fb
f9
01
04
08
07
09
0c
0b
05
03
04
02
fa
f8
f7
f8
f8
f5
fe
fe
04
05
0e
13
10
17
19
11
12
08
fb
ee
e1
da
f3
f8
03
00
03
07
07
02
00
ff
00
ff
fb
fc
fc
fe
fd
fd
00
02
fb
00
02
04
02
01
ff
fe
fc
fe
ff
00
fd
fc
fe
fc
fe
ff
ff
02
03
03
03
03
00
03
04
ff
02
04
00
03
00
03
04
02
00
05
ff
01
02
fc
00
ff
01
fc
ff
02
01
ff
03
03
04
00
01
07
04
05
05
00
04
04
02
ff
ff
00
01
ff
fb
fc
f8
f9
fe
fd
ff
ff
01
00
01
02
00
fd
fc
00
fe
00
fe
04
02
06
02
01
03
03
ff
fb
fd
fb
fd
fb
fd
02
00
05
02
03
05
05
02
03
00
fd
ff
00
ff
fe
02
fe
00
03
ff
ff
00
fe
02
ff
00
01
fe
01
02
fe
fe
fc
03
fe
01
01
ff
fe
00
fa
fd
00
f9
fc
fd
fa
fc
fa
fb
00
00
02
05
02
03
03
03
03
04
08
02
03
03
00
01
ff
02
fd
01
00
fe
fe
fd
fe
01
01
01
fe
fe
01
fb
fe
fd
03
02
ff
00
01
01
ff
00
fe
fc
fe
00
ff
02
ff
ff
ff
04
01
03
01
03
fc
00
fb
fd
fd
00
fe
fc
00
ff
05
05
06
03
06
00
02
02
02
00
fe
01
ff
fd
ff
02
01
02
05
fc
f9
ff
fd
fe
fa
fd
00
fe
ff
00
fe
04
ff
04
04
09
07
02
05
06
04
02
fd
fd
f9
f7
f6
f6
f5
f1
f4
f7
fc
f9
f9
fe
00
02
03
07
0c
09
11
0e
0f
0d
0c
0e
0b
0a
05
04
01
fd
fa
f5
f2
f2
f0
ef
f1
f4
f3
f7
f4
fc
f9
fa
00
02
01
01
00
ff
fe
fb
fe
f8
fa
fa
f5
f9
f9
fb
fb
f8
fd
01
02
03
03
05
09
07
09
09
0d
0b
07
09
05
07
00
fe
01
fc
fe
ff
fa
fb
fa
fd
fa
fd
fc
fd
fb
fd
fb
fc
fd
fb
fe
00
fc
fd
00
fc
ff
fe
01
fe
02
fe
fd
00
fe
ff
03
03
ff
fd
02
fe
01
04
04
04
04
01
03
02
fe
00
01
02
fe
01
fc
fe
ff
fe
ff
fd
fb
fb
fd
fc
fe
fe
00
00
07
05
0a
08
09
03
04
03
00
02
01
02
ff
00
00
00
02
01
04
01
06
08
08
06
07
09
02
02
00
01
ff
fc
fb
f9
f9
fa
fa
f8
fd
01
fc
00
00
02
08
08
05
06
09
07
08
03
07
00
ff
fe
fe
fe
fe
fc
fb
fd
01
01
00
00
05
00
01
01
03
fe
fe
ff
00
02
03
04
05
07
08
09
09
15
12
08
09
03
01
00
fb
01
00
00
fd
fd
fe
fe
fd
00
02
02
00
02
04
05
05
04
04
01
03
01
02
05
05
06
07
05
01
01
01
03
ff
ff
01
01
02
01
fd
ff
fb
ff
fc
fd
00
fb
00
ff
fb
fb
f9
fd
fb
fc
fa
fe
fc
02
fe
02
06
06
04
05
05
05
07
06
06
0a
06
04
06
03
01
03
02
00
ff
fe
ff
02
00
02
00
fd
ff
fd
ff
fe
01
f9
fb
f9
fc
f9
fb
00
fd
00
02
04
05
07
06
0a
0a
04
08
08
03
04
03
00
fe
fe
02
fc
ff
fe
02
00
01
04
02
02
04
04
01
00
ff
fb
fe
fd
ff
fa
fd
fe
fb
fd
ff
ff
03
fe
01
00
04
01
01
03
fd
ff
02
01
fd
fd
fc
ff
00
02
01
01
ff
fe
02
ff
fc
00
02
ff
fb
00
ff
fc
fa
fb
fd
fb
fc
fe
fe
fe
fe
fe
ff
00
ff
00
fe
00
01
fe
fd
fe
fe
fd
00
ff
ff
fe
fe
ff
02
03
00
03
ff
01
ff
ff
01
00
ff
ff
fb
fd
f9
f9
f8
fb
fc
fe
fb
fc
f8
fd
fd
fd
01
00
04
05
03
07
06
04
03
01
04
02
05
fd
fd
f9
f9
f2
ef
e9
e2
25
12
04
fe
f8
f8
f8
f5
fc
fc
04
07
06
06
09
0d
09
04
02
ff
04
00
fc
ff
fe
fe
fe
03
02
08
05
0a
0b
0c
07
08
07
05
04
03
02
03
ff
01
02
02
06
08
08
06
09
09
04
03
00
fb
fa
f7
f6
f5
f6
f5
f9
00
00
ff
06
02
04
06
01
00
00
ff
fc
f9
fc
fc
fc
00
01
03
01
06
03
07
07
07
07
02
04
fd
02
ff
fe
ff
ff
fb
01
01
04
03
04
04
07
02
08
08
05
01
06
04
00
00
00
ff
02
02
00
02
04
02
03
00
01
04
03
02
ff
00
00
02
ff
05
00
01
04
01
02
00
03
00
ff
00
03
00
00
01
00
05
01
02
04
ff
03
02
02
00
02
fc
03
fd
01
fe
ff
fe
01
fd
03
04
03
05
04
01
04
02
02
ff
01
ff
ff
fe
fe
00
fe
01
01
01
06
02
02
09
06
05
00
05
00
02
ff
00
fd
fc
fc
fe
ff
00
00
02
03
06
01
06
01
04
00
fd
fd
fc
fa
01
fc
fe
fd
fe
01
00
fe
ff
fd
fd
fe
00
02
fe
fe
fe
03
00
05
05
05
03
05
01
03
06
00
01
03
01
00
ff
02
06
03
06
f3
f0
e6
e3
de
da
d7
d5
da
dd
e3
e2
ea
ea
eb
f1
f2
f7
f5
f8
f8
ff
ff
00
02
02
02
06
05
08
09
06
07
07
07
02
00
fc
f9
ef
f3
ef
ec
e3
e4
e8
e7
ec
ee
f4
f9
f7
f7
f6
f5
f3
f0
ed
f2
ee
f4
f3
f3
f8
fd
ff
05
04
03
01
04
ff
02
04
fe
03
02
fe
01
00
04
03
04
06
05
02
05
05
01
03
00
ff
03
03
00
02
04
07
05
01
03
04
03
05
fd
01
ff
00
00
02
00
ff
05
05
00
ff
ff
ff
fd
ff
fe
ff
fb
fb
fd
fe
f9
fd
fa
fe
f8
fc
fa
fb
f9
fc
fc
fb
fc
ff
00
01
fd
fb
fe
fa
f9
fb
f9
fa
00
fd
fe
03
00
02
ff
ff
ff
fe
fe
fd
00
fb
fd
fe
00
fd
fe
fc
00
02
fe
fe
01
04
02
03
fe
ff
01
fc
fe
fd
01
fe
ff
02
08
09
06
07
0c
09
06
06
02
fe
fc
fc
fd
00
fb
ff
03
06
10
10
12
13
16
17
13
12
0d
0b
07
fd
fe
fb
fa
fc
04
09
10
15
1d
20
28
2c
2b
28
1f
1e
15
0d
07
01
fd
f6
f6
f6
fa
00
04
10
18
26
2c
37
38
37
2a
1d
00
e8
06
01
01
02
ff
00
00
02
01
00
ff
02
02
00
03
01
ff
fe
ff
fd
ff
fe
fc
00
01
01
02
ff
ff
fd
fe
ff
fc
fc
ff
00
00
00
00
00
fd
02
03
01
01
fd
ff
02
fd
ff
03
fd
00
00
04
02
01
03
01
fe
00
fb
01
fd
00
fe
01
04
00
02
01
03
01
04
00
01
01
04
03
01
01
fe
fe
ff
fc
fa
fb
00
ff
ff
fe
02
03
06
03
ff
06
00
ff
01
fe
ff
fe
ff
01
ff
02
00
00
00
00
fe
01
fc
fe
fe
00
fc
01
fe
00
04
03
01
05
04
03
01
01
00
fc
fe
fc
ff
fa
ff
ff
01
ff
01
00
01
04
00
02
02
01
03
00
02
02
fe
ff
01
00
ff
04
01
01
02
00
02
01
01
03
04
00
ff
fe
ff
03
02
01
ff
ff
ff
fe
fe
fc
fd
fb
fd
fd
01
02
02
04
05
fe
ff
00
00
fb
fe
01
fe
01
02
07
05
04
07
04
00
03
ff
fe
fd
fc
fc
fd
ff
ff
01
00
01
00
05
04
02
ff
fc
fb
fc
fe
f9
fc
fd
04
01
03
00
ff
01
00
03
03
ff
ff
02
02
00
02
ff
fd
fe
03
ff
ff
02
01
03
02
fe
fc
fc
bd
bc
c2
c8
cf
d8
df
e6
e9
f0
f2
f5
f7
f9
fe
fc
02
03
06
0a
06
0b
0b
10
0f
11
0f
10
11
0e
0e
11
12
0f
0a
0c
06
05
03
00
fc
f6
f9
f8
f4
f8
fa
fa
fd
00
ff
00
03
09
07
0d
0e
0c
0f
0a
0c
08
0c
09
08
02
03
fa
fe
f9
f5
f1
f1
f1
f4
f6
f8
f8
f9
fc
01
04
07
0c
0b
0f
10
0e
0d
0c
11
09
0a
06
05
ff
01
00
fc
fb
f7
f7
f7
fc
fa
fc
fb
fe
00
fe
00
03
04
06
0b
0b
0b
09
0b
0e
0b
09
0b
0c
0a
08
0a
06
08
07
00
02
02
fe
02
03
02
fe
04
02
05
05
04
01
02
07
05
02
06
ff
03
02
fe
00
00
fd
ff
01
01
01
04
02
03
06
06
08
09
04
04
07
02
01
fe
00
fe
fd
fc
fe
fe
01
fc
01
00
01
00
04
ff
00
01
01
00
00
fb
fc
fc
fa
fc
fc
00
00
fe
00
01
03
04
02
01
01
00
01
ff
01
00
fd
fa
fc
ff
00
00
fe
fe
05
03
03
03
07
07
07
08
08
00
01
01
03
02
fe
fe
f9
fa
fc
f9
fc
fa
ff
fa
fd
fe
02
01
04
07
09
05
08
07
02
e4
e5
e3
e6
e8
eb
f3
f4
fb
fb
04
05
0c
08
09
0b
0a
09
06
02
02
00
00
f8
fc
fa
fb
f9
f5
f5
f5
f8
f8
f5
f1
f4
ee
ec
ea
ef
eb
ee
ed
e9
ef
f1
f2
f2
f5
f5
fa
ff
ff
fc
02
00
00
00
fe
ff
fd
fc
f9
fc
f6
f6
f7
f8
f9
f8
fb
f9
fb
f8
fd
fe
fd
fe
00
01
fb
fc
00
fd
00
ff
fb
fa
fd
fd
fb
fe
ff
fd
00
fd
00
ff
05
03
05
02
05
04
01
01
01
02
00
ff
fd
ff
00
00
ff
01
01
03
02
fd
00
01
ff
ff
fe
fd
fc
fb
fa
fc
fc
fd
ff
fd
01
fe
00
fe
fe
00
03
03
04
04
ff
05
02
00
04
02
00
02
05
02
01
01
02
05
02
05
01
03
02
00
04
04
02
00
01
03
01
03
07
09
0a
08
0b
0d
0c
0e
09
09
07
04
08
04
06
03
ff
00
ff
fd
02
01
02
06
01
04
05
06
0a
0c
0d
0f
0a
0a
0c
08
0c
0c
07
08
09
05
04
05
03
fe
fe
fc
00
fb
fb
fb
02
02
03
05
0d
0b
0c
12
11
0d
12
0c
0c
09
02
03
fd
f7
fc
f4
f6
f8
fe
fc
07
0b
10
14
14
1a
16
15
19
16
13
0a
06
02
fe
fd
fd
00
04
0a
0b
0e
12
12
10
11
10
0f
08
0b
0b
08
09
07
0a
0f
12
13
12
14
14
1c
15
13
0e
0c
0e
0b
09
07
08
03
08
07
08
08
0c
0b
0b
10
11
0a
09
08
05
04
02
01
02
02
02
04
04
04
03
07
09
04
09
09
06
06
05
06
05
06
08
05
08
09
06
07
09
0a
0a
07
06
02
05
01
04
02
01
05
04
02
01
02
fe
fd
01
fd
ff
fd
fe
fc
fb
fc
f9
f9
fe
f9
fa
fa
fe
fd
ff
ff
02
ff
03
02
04
ff
02
fd
fc
ff
fc
fc
f8
fc
f8
fc
fb
f6
f9
fe
ff
fe
fe
00
ff
00
fe
fe
fd
fc
ff
ff
fc
fd
fb
fd
f9
fa
fb
fa
fd
f9
fd
fb
fe
fb
fe
fa
fc
fa
fd
f7
fb
f6
f6
f4
f7
f5
f6
f9
fa
f9
fb
fb
f9
fd
fb
fc
fb
f9
f5
f6
f6
f7
f7
fc
f9
fa
f9
f5
f9
fa
fa
fa
fa
fe
fc
fe
f9
fb
fa
fb
fb
fc
f3
f4
fa
f7
fb
f6
f8
f9
fb
f6
fb
fd
fc
fc
fe
fb
fb
f9
f9
f7
f9
f5
f4
f6
f8
fb
f6
fb
fa
f9
fa
fc
fd
00
02
ff
02
04
01
fd
f3
ec
34
32
34
34
37
3b
34
36
31
2e
27
24
1d
20
1a
1a
15
13
15
1b
19
22
21
1e
1f
20
1e
1e
15
18
12
0f
0a
07
09
07
04
01
fc
fc
fa
fd
fa
05
03
04
08
07
0b
0d
07
0d
08
09
08
07
03
fe
fb
00
04
02
08
05
04
05
04
ff
00
ff
04
fc
01
00
02
05
03
05
06
06
0b
06
04
05
00
01
00
02
ff
00
02
04
04
04
03
03
01
07
02
00
00
fc
fb
f7
f7
f6
f8
fa
f9
fe
fc
fd
fb
f9
f8
f8
f6
f3
f8
f8
f8
f8
f5
f8
f7
fd
fb
fc
fd
ff
fd
00
ff
fa
fe
f7
fa
f5
f6
f7
f2
f6
f6
f6
f4
f6
f9
f6
fc
f8
f9
fc
f7
fc
fa
fb
f6
f6
f6
f7
fe
fa
fc
fe
fd
fd
fc
02
00
02
03
01
00
ff
fe
03
fd
00
03
ff
01
01
ff
01
00
00
ff
04
02
05
06
03
07
05
09
08
06
07
06
06
04
07
03
00
03
04
01
09
04
09
0b
09
0c
10
0d
0c
07
02
05
00
00
fe
f7
fc
fd
fb
ff
00
05
07
09
0b
10
0c
09
04
05
01
f9
fa
f3
f3
f4
f7
fb
01
05
0c
0e
15
1c
20
1d
10
03
f7
fe
ff
00
00
01
ff
02
00
01
03
01
06
02
03
01
fd
01
fd
01
00
fe
00
02
03
05
05
ff
00
00
fe
00
01
fe
fe
fb
fb
00
fe
ff
00
00
01
fe
02
01
01
fe
01
02
00
fd
fd
fc
fe
02
00
01
02
03
06
02
00
04
05
05
00
01
ff
03
03
01
fe
05
02
03
05
ff
00
01
01
00
fe
00
fd
fd
ff
02
fe
03
fe
fd
fe
03
02
00
02
05
05
02
03
00
00
ff
fa
fe
fd
fd
fc
fd
03
fe
ff
05
07
08
06
05
02
00
ff
00
01
fc
fd
fc
fe
fe
fa
fc
fa
fe
fe
00
01
00
ff
02
00
00
02
00
fe
fb
fe
fc
00
00
06
02
02
06
01
01
fe
01
02
01
fd
fa
fc
fe
ff
03
01
08
01
08
04
03
05
04
01
ff
fb
fa
fd
fd
02
02
fe
05
02
02
06
fe
01
fc
01
00
ff
fc
fe
ff
fc
fe
fd
04
02
00
05
04
04
01
04
02
04
fe
ff
01
00
ff
02
01
02
03
00
03
fe
ff
02
fc
00
fe
ff
fd
05
00
05
ff
04
fd
fc
03
ff
00
fd
01
02
fe
01
03
02
01
01
01
02
03
02
fe
01
ff
03
02
fe
ff
fb
f7
fc
ff
01
fe
04
02
00
ff
fe
01
fc
fb
fc
fb
fb
f9
fb
fa
f8
fa
fa
fa
fb
ff
fe
fd
01
01
00
04
01
00
01
04
06
02
03
03
04
00
05
00
01
01
02
ff
fe
fc
f9
fa
fb
f5
f1
f6
f0
f0
f1
ef
f7
f4
f7
fb
fe
02
03
06
05
02
02
05
01
01
02
00
00
ff
fe
ff
03
fe
02
06
03
05
06
05
06
07
03
02
03
fc
fb
ff
fa
fc
f9
f7
fd
fa
f8
fa
f8
f7
fb
f7
f9
f8
fc
fe
ff
00
01
02
00
fe
00
02
04
06
02
01
06
00
06
ff
01
02
00
03
ff
fd
01
fe
01
00
fe
00
fc
fa
fb
fc
fb
fb
ff
fe
00
fd
fd
fb
fc
01
ff
fe
fe
fd
03
04
00
01
00
01
05
03
02
02
00
04
00
05
03
05
fe
02
04
ff
ff
00
00
fd
fc
fd
01
02
00
ff
01
00
02
00
03
00
01
02
03
02
fd
02
fd
00
02
ff
04
04
02
04
00
03
03
00
02
03
04
01
04
01
ff
ff
01
05
ff
fe
03
ff
fe
00
02
01
02
01
00
fd
03
02
04
04
03
07
06
04
05
01
00
00
02
fd
01
f9
f8
fe
fb
fe
06
06
0f
fb
fc
fe
fe
01
01
02
00
05
03
05
01
08
08
09
08
04
03
07
06
02
01
00
00
fe
fe
fd
fc
fc
00
fe
fd
fe
ff
04
00
fe
ff
01
02
ff
02
ff
fc
fb
fb
fd
f8
fa
f5
f9
f8
f9
fb
fc
fd
01
05
0a
07
0b
08
0d
0a
08
07
09
09
07
05
00
fe
fe
fb
fe
fb
fa
fe
fe
f9
fc
fc
fc
00
ff
fe
fb
fb
ff
fd
fe
fe
01
fe
ff
fb
01
fe
ff
fe
02
01
fe
00
04
06
06
03
03
04
04
03
08
03
05
06
ff
fe
fd
ff
f8
fa
fa
fb
fa
f8
f9
fd
ff
00
00
ff
02
02
fe
02
00
ff
fb
ff
fe
ff
ff
fb
01
ff
fd
00
fd
fe
ff
01
00
fe
fc
fe
fd
fd
ff
ff
fd
fd
fb
f9
fd
f9
fa
f9
fb
ff
fd
fd
fa
fc
ff
00
01
fc
03
fe
02
00
01
fe
fd
01
fc
ff
ff
00
fd
01
01
05
01
04
03
04
08
02
01
fd
fd
fb
fd
fc
fa
fc
f9
f7
f8
f8
f8
fa
f8
fa
fd
fd
02
01
04
03
01
03
04
fe
03
00
05
03
04
01
01
03
00
02
03
03
ff
01
02
01
00
fe
fa
fa
f9
fd
f7
fa
fa
fa
fb
fb
fd
03
12
0a
04
03
ff
fd
ff
fc
04
00
04
03
01
03
02
03
03
ff
03
ff
04
ff
fe
02
fe
02
03
03
04
07
04
05
09
06
06
03
02
fe
ff
00
02
01
ff
00
04
00
ff
02
fe
fe
fd
fc
ff
fe
fc
fe
01
04
00
ff
06
01
02
01
03
02
03
00
fd
01
02
02
01
ff
01
06
04
01
07
05
04
02
01
01
00
fb
fc
00
ff
ff
00
01
06
07
04
04
04
03
03
03
05
fe
01
fe
fe
00
02
03
fe
ff
fe
fd
00
02
ff
01
ff
00
01
03
01
ff
00
05
05
05
01
ff
ff
03
03
fe
fe
00
03
04
01
02
01
00
01
05
02
01
01
01
00
00
01
01
02
fe
00
01
05
01
01
01
06
01
01
01
fe
03
01
00
fc
fe
fc
04
02
ff
01
06
03
08
03
04
05
02
05
ff
ff
fd
03
03
ff
03
07
05
07
05
07
04
04
00
ff
00
00
fc
fe
00
fe
02
04
04
04
05
06
03
02
02
01
ff
fc
fe
01
01
03
06
06
06
05
03
05
06
01
fd
ff
fc
fb
fe
ff
fd
fe
ff
00
04
05
07
02
00
04
05
01
03
ff
00
02
ff
fe
ff
fe
ff
02
03
2a
20
14
09
ff
f0
ef
e7
de
d8
d8
d1
d5
d8
db
de
de
e1
e2
e5
e5
e6
e9
ef
f1
f2
fb
fc
03
02
04
00
05
01
fb
fa
f4
f3
f2
f1
f7
fa
fc
f8
fb
04
02
01
02
05
ff
00
fe
fd
00
00
01
00
03
03
03
00
04
04
05
02
02
ff
00
ff
ff
fa
fa
f9
f9
fc
ff
02
fe
01
02
03
01
ff
ff
fc
ff
ff
fe
fe
00
fd
ff
ff
04
01
06
03
06
02
00
02
04
01
02
02
00
01
02
ff
04
00
01
fe
01
fc
fd
01
fd
01
fd
fc
01
00
fd
fa
fd
fd
01
ff
fe
fc
fe
02
fe
01
00
01
02
02
02
02
02
05
03
02
05
06
05
04
01
04
02
04
05
00
fe
01
03
03
01
07
08
06
05
05
07
02
02
04
01
01
02
fd
00
ff
01
ff
02
05
03
08
00
04
02
00
02
02
fd
fd
fb
fd
fe
fe
00
fd
fd
fe
fc
02
ff
01
03
04
05
02
04
02
00
fc
fd
f8
f9
f8
f7
fa
00
01
0a
0d
13
11
16
18
16
13
0d
0d
09
02
fa
f8
f3
f3
ef
f4
f8
fc
01
0a
0e
18
1c
25
27
2d
2c
24
21
14
0a
ff
ee
da
c5
b2
02
00
01
03
02
03
00
03
03
fc
fe
fc
fb
f9
ff
fc
00
02
03
02
01
06
00
01
04
fd
fe
f9
fa
fb
ff
01
03
ff
06
06
02
02
05
07
02
ff
04
fb
fe
fc
fd
fb
fe
fe
02
00
02
00
01
00
04
01
00
01
01
00
04
04
01
00
02
02
03
02
fd
01
fd
fb
ff
02
ff
ff
fd
03
ff
03
00
fe
02
02
ff
01
01
01
00
05
00
04
02
00
03
fe
fe
01
ff
01
fb
00
fe
ff
02
fe
fe
00
02
00
00
fe
00
ff
01
fd
ff
01
fd
fc
01
01
03
03
02
01
02
ff
02
01
ff
03
01
02
fe
00
fe
ff
00
02
fc
ff
fe
01
02
fe
00
00
fd
fd
fe
02
00
fd
ff
01
fc
01
00
fd
02
fd
01
00
00
ff
fe
02
01
01
07
01
03
03
00
01
fd
02
fd
fe
fc
ff
02
00
ff
04
02
ff
fe
ff
01
01
00
ff
fc
01
01
fe
fe
01
ff
05
01
04
00
02
00
fe
01
02
fe
fe
fc
01
01
ff
02
01
00
fc
ff
fd
fc
fa
fc
03
ff
ff
00
00
fd
01
01
01
04
ff
ff
fd
fb
fd
fb
fe
ff
fb
ff
02
02
06
05
00
fe
00
fa
f8
05
ff
00
fb
fa
f9
fa
fd
fa
ff
fd
02
02
01
06
02
05
05
05
02
00
ff
fc
01
f9
fc
00
fd
fc
03
00
01
02
00
ff
01
fd
ff
fd
00
fc
fe
fd
fa
fa
f9
f9
f9
f8
fa
fb
fa
ff
00
01
02
08
07
09
0f
10
0b
0d
0b
0c
08
06
00
01
fa
f8
f8
f4
f5
f2
f4
f5
f3
f7
f4
f9
fb
ff
03
01
04
04
09
08
06
06
09
09
03
05
04
fc
fe
fc
fa
f9
f5
f2
ef
f4
f1
f4
f4
f5
f9
f9
fe
01
02
08
0a
0a
10
0e
13
11
11
14
10
0c
0d
08
05
08
01
00
ff
02
fe
fb
00
00
fd
fb
f8
f9
fb
f7
f3
f4
f3
f0
ef
ed
ed
f1
f0
f0
f2
f6
f6
f8
fa
02
ff
05
0a
0d
0d
0e
13
13
11
11
11
0e
12
0d
09
0b
09
06
01
00
ff
00
fd
fb
fe
fd
01
00
02
fd
ff
ff
ff
fe
fc
fe
fe
fd
fb
fd
fb
fa
ff
fb
02
fe
02
01
02
06
03
03
04
01
01
04
ff
ff
01
fd
fe
fc
fe
ff
fd
fd
03
ff
03
03
06
01
04
06
04
05
fe
00
fd
fa
fa
fc
f8
fa
fd
fe
fd
02
ff
02
04
03
ff
02
02
03
01
01
fe
05
02
03
02
ff
04
fd
01
fe
00
fd
fc
f9
fd
fd
f8
fa
f9
fb
fb
f9
fd
00
ff
01
00
fd
00
fc
01
fb
fd
fd
00
ff
04
01
00
ff
02
02
04
05
09
0a
06
09
08
08
05
05
04
03
01
00
fe
fb
fe
f7
f6
f5
f9
f5
f4
f3
f6
fa
f7
fb
fc
02
03
05
0a
0c
09
10
0e
0d
10
11
0e
0f
0b
08
0a
07
01
02
fd
fb
f6
f3
f4
ee
ee
ea
e8
e6
e6
e9
e8
ee
ee
f3
f5
f9
fc
03
08
0d
0f
18
18
1d
1d
1b
1c
1b
17
17
13
11
0c
09
05
01
fa
fc
f8
f7
f4
f1
f6
f3
f4
ef
f1
f0
f0
f4
f3
f4
f6
f7
fa
f9
fe
03
05
08
06
06
0c
0b
0b
0c
0a
06
0a
05
03
04
00
fe
fd
fd
f9
fa
f5
f6
f6
f3
f5
f5
f7
fb
fa
fe
00
01
04
01
03
08
05
06
07
06
04
07
06
05
00
03
05
02
05
00
01
02
ff
01
01
01
ff
00
01
fa
00
00
00
fc
00
ff
ff
fb
02
fc
00
03
01
ff
ff
fd
fb
fa
fd
ff
fd
fe
fd
fd
01
fd
01
02
02
02
05
05
04
04
06
01
ff
00
fe
ff
fc
f9
f8
f7
f2
0e
08
06
ff
00
ff
fd
ff
f9
fd
fd
01
03
03
04
07
07
01
ff
ff
fc
fb
ff
f9
f9
fc
f8
fd
fc
fd
02
fe
04
03
05
04
00
ff
fc
f9
fa
f6
fa
fa
fb
fe
fe
02
fe
00
01
05
03
00
ff
00
f8
fc
fa
fa
f5
f9
f9
fc
fd
fc
ff
fb
ff
00
ff
03
05
01
00
01
02
fd
fc
ff
fd
fd
fc
fb
fa
f7
fd
fb
f9
fb
fb
fd
fd
ff
fb
fb
ff
fe
fd
f9
fe
fa
ff
fe
fc
00
02
00
03
03
03
09
0a
09
07
05
04
02
ff
fe
fb
f9
fb
fa
fa
f8
f9
fc
fc
fd
fe
fe
ff
fd
00
fe
fc
fe
fb
fa
fd
fe
fd
fb
01
03
05
05
08
03
02
04
09
03
05
08
07
05
04
01
01
fd
00
fb
01
fc
fd
01
01
01
ff
00
04
04
01
00
fc
00
fd
fd
fb
00
00
fc
ff
ff
fd
fd
fe
02
00
ff
01
00
ff
00
03
fd
ff
fc
ff
fa
fb
fa
fe
f9
fe
00
00
fd
ff
ff
ff
fd
fb
ff
fb
fe
ff
fa
fd
fe
00
fe
03
01
01
04
00
01
ff
ff
00
ff
fd
ff
fe
fe
ff
01
00
00
01
01
ff
00
02
00
fd
fe
fc
02
fe
ff
03
03
fc
fb
02
03
01
04
ff
00
00
fe
01
05
01
04
01
01
fd
00
00
ff
ff
ff
00
fd
01
01
fc
02
fe
fc
fd
02
01
05
03
ff
02
ff
05
02
00
ff
fe
01
01
fe
fe
01
03
02
ff
03
01
fd
ff
fe
fa
fe
fa
01
fd
ff
ff
00
04
00
02
ff
01
03
04
01
02
07
02
03
02
02
01
fc
fd
fc
fc
fb
fa
f9
fe
fe
00
04
05
08
09
09
09
08
07
0a
09
02
02
02
fc
fb
f8
f9
f9
fb
fc
fb
01
00
00
06
08
06
05
04
00
fe
fa
fa
f7
f7
f5
f5
f7
fb
ff
02
05
07
03
07
08
05
02
02
fb
fa
f9
f7
f6
fb
fe
ff
01
03
07
09
09
0b
08
09
05
06
05
fe
fe
fc
f9
fa
f8
f9
fc
fc
fd
01
01
03
08
06
04
06
05
00
01
00
01
00
fb
fd
ff
01
04
04
02
02
01
02
fd
fd
fd
fb
fd
fb
fb
fc
01
fb
fe
00
fd
fd
fe
02
fc
fe
fd
01
ff
fc
fd
00
fb
fc
02
01
ff
ff
ff
01
01
fc
fd
00
fc
fe
fa
fd
fd
01
fe
fd
03
02
00
02
01
fe
fd
fd
00
00
02
fe
f9
ff
fc
00
fe
03
00
fe
fa
fd
0a
06
00
fc
fc
fe
fd
fe
fd
01
01
ff
04
05
05
ff
01
00
ff
00
00
fd
00
fe
ff
02
03
03
03
ff
ff
00
03
03
00
01
00
00
03
03
04
00
00
00
06
02
03
02
03
03
fd
05
01
02
fd
00
03
02
00
02
ff
03
02
02
fd
00
ff
fd
fe
01
fe
03
06
00
fe
00
01
fd
03
03
00
01
02
01
fd
00
01
fd
ff
fe
fe
ff
fe
00
05
03
02
06
04
00
ff
fe
fc
f9
fc
fe
f8
ff
ff
01
fd
03
08
09
05
0a
07
02
04
fe
02
fc
fa
ff
fb
fc
02
03
ff
03
03
02
02
02
03
01
00
fe
fb
fc
01
fe
01
05
01
06
06
04
03
02
ff
01
03
02
fc
fe
fd
01
fd
00
01
00
06
00
ff
fd
fe
01
ff
ff
01
02
ff
00
fd
fc
fd
00
ff
fc
fc
01
fc
00
02
01
01
ff
02
fe
ff
fd
ff
fe
01
00
fe
fc
00
03
03
fe
ff
02
04
04
02
04
02
01
02
ff
fe
03
00
ff
ff
03
03
02
04
ff
ff
00
02
01
00
03
fe
02
02
fd
00
01
01
fb
fe
f9
fc
fd
ff
01
01
02
05
05
05
08
04
00
fd
fe
fb
fb
f8
f9
00
01
03
00
00
01
01
02
fd
fd
f9
fe
fd
fc
ff
fe
fb
fc
02
fe
01
01
01
02
fe
00
fd
03
01
04
04
03
04
02
02
04
04
04
04
03
06
02
00
02
fe
00
fd
fe
fe
fc
f8
fa
fa
f8
f7
f8
f9
fd
fc
ff
fe
ff
02
07
07
05
09
09
0d
08
04
04
00
fc
fb
fb
f4
f2
f0
f2
f1
f0
f2
f5
f9
fd
00
04
08
10
11
18
15
16
16
16
12
0f
09
08
00
fa
f3
f2
ed
e9
e6
e9
e6
ea
e8
ee
f3
f7
fe
fe
08
0a
0f
15
15
16
18
18
12
14
0e
0b
04
01
fb
f9
f2
f3
f0
eb
ee
ea
eb
f1
ef
f4
f6
f7
f6
ff
fe
01
06
0b
0a
0e
0e
10
11
13
12
0f
0d
0b
07
05
03
02
fd
fb
f6
f8
f5
f7
f7
f9
f9
f9
fa
f9
fb
fb
01
01
04
03
01
02
04
ff
01
02
fd
03
fe
02
ff
fc
01
fc
ff
fe
02
02
04
01
02
02
04
04
00
02
00
04
04
01
ff
03
00
05
02
02
02
fe
fc
f9
fe
fd
f8
fd
fc
fd
fb
fa
00
fe
fe
fe
04
ff
01
ff
03
02
07
04
05
03
02
00
02
01
02
03
01
00
03
ff
08
03
f4
f5
fe
fe
00
00
fe
01
01
01
03
03
00
ff
01
04
04
ff
01
01
00
02
fd
02
ff
ff
fe
fa
fe
fc
fc
fe
fe
fb
fc
fc
fc
fb
fe
fe
ff
01
05
01
04
ff
01
01
01
02
01
fe
ff
ff
ff
fe
f9
fe
fd
fe
00
02
04
08
09
0b
05
09
0a
05
02
04
01
00
fc
fb
f4
f4
f3
f7
f9
f8
fe
fd
04
01
04
07
0a
07
0b
06
06
03
01
fd
ff
fa
f2
f3
f0
f0
f2
f6
f4
fc
00
02
08
0a
0e
12
10
16
18
15
1a
16
14
10
11
0a
02
fd
f9
f0
ee
e5
e2
e2
de
e1
df
e2
e8
ee
ee
f5
f8
00
09
0b
0d
13
15
18
17
14
16
15
10
0d
0a
05
02
ff
f8
fb
f5
f4
f4
f6
f5
f4
f7
f7
f6
fb
f9
fb
fc
fd
01
03
04
05
08
0a
04
07
01
03
01
01
ff
01
01
fa
fd
fd
01
00
00
04
04
04
02
02
02
01
02
04
fe
fb
fa
fb
f8
f9
f9
f9
f8
fc
fe
fe
00
03
04
04
07
0b
06
09
0b
03
07
03
02
05
fe
03
01
fe
fc
fe
fe
01
fe
01
00
00
fe
01
02
00
00
fd
fd
ff
fe
fb
fb
00
ff
fa
fd
01
07
05
01
fe
fc
01
fe
02
fd
fd
00
fe
01
fe
00
00
02
02
02
03
fa
fd
fe
fe
fc
fe
fd
00
ff
ff
03
02
fe
01
ff
00
ff
01
fd
00
fd
fd
fe
fd
01
02
01
fe
02
03
00
fe
02
02
00
fa
fa
fe
f8
fb
fb
f9
f7
f8
ff
ff
01
ff
00
04
00
02
01
01
fb
fc
fb
ff
fd
ff
fc
04
05
02
04
05
04
02
01
01
fa
fd
f6
f3
f3
f6
f4
f8
f7
fc
fb
ff
01
01
00
00
01
fe
fe
02
01
01
02
02
05
06
08
03
02
fe
00
fd
01
fe
fc
fb
fc
fd
fc
fd
f9
fb
f9
fa
f9
fb
ff
fe
fe
00
01
03
02
04
00
05
05
ff
ff
ff
00
01
fa
fe
fc
fa
fa
ff
fe
ff
fb
fe
fd
fc
01
ff
fb
fb
00
00
fb
fd
01
ff
ff
ff
04
00
ff
03
03
04
02
00
ff
fc
fc
ff
fc
fb
fe
02
00
00
03
00
02
fd
01
fc
00
fd
fd
fd
fb
ff
02
fe
03
02
05
ff
ff
02
01
00
01
02
fa
fa
f9
fc
fa
00
fe
ff
ff
03
ff
ff
fe
ff
ff
00
fe
fd
fb
ff
ff
fb
00
ff
fe
01
fb
fa
fd
ff
00
01
00
01
00
fc
fe
fb
fb
f9
00
01
02
06
fe
02
fd
fe
00
02
01
ff
fd
00
02
02
01
01
fd
03
03
fd
04
01
ff
00
00
fe
03
00
ff
05
00
02
00
ff
ff
fe
fc
fc
00
02
04
00
fd
02
04
02
05
05
05
00
00
fe
ff
fe
f9
fa
fa
fd
fd
ff
fe
03
fe
02
05
05
02
02
02
01
01
01
02
02
01
ff
fe
fd
02
fc
ff
fc
fe
fc
fd
01
ff
00
03
ff
01
fe
01
02
fe
fd
03
02
01
00
03
04
04
04
07
08
05
04
03
03
01
ff
fd
fa
f8
f4
f9
fa
fc
ff
ff
07
09
06
0a
0a
0a
08
03
02
01
ff
fd
ff
fc
02
01
06
06
08
0a
07
09
04
ff
fd
f8
f5
ef
ee
f2
f8
f7
fb
01
07
0a
0a
08
0b
08
07
00
fe
fe
fe
fb
fa
fb
f7
fa
f7
f9
fb
02
ff
00
02
00
01
fc
ff
ff
fc
ff
fc
fe
fe
fe
ff
02
ff
01
05
03
02
03
00
02
fd
fb
00
fd
fd
ff
fe
fd
02
02
04
00
03
02
00
fe
03
01
fc
fd
fd
01
fe
fd
ff
fe
fc
fe
01
fd
01
01
02
fd
03
01
fc
00
fd
ff
02
04
ff
fc
00
fe
fe
ff
00
03
05
03
00
01
ff
02
fe
fd
ff
00
05
03
02
04
05
00
02
03
03
ff
00
02
ff
fc
ff
00
01
00
fc
00
fe
fe
02
01
02
02
00
04
01
04
05
01
01
fe
00
fe
00
ff
00
ff
00
01
03
01
05
02
ff
ff
ff
fc
fc
fe
fd
02
ff
02
02
02
02
02
fd
fe
00
00
02
00
ff
00
02
01
ff
01
fc
fc
ff
02
ff
ff
03
00
fd
fe
fd
fe
fe
fc
fb
fc
00
01
00
02
04
ff
01
02
00
00
00
fc
01
fd
01
fe
fe
02
02
03
03
ff
01
fe
fd
00
fe
fe
00
fe
ff
ff
ff
fc
02
fe
fd
01
02
03
05
01
02
ff
02
04
02
03
03
01
01
01
02
02
02
03
03
02
03
01
02
fd
ff
fe
00
fe
02
04
02
02
03
04
02
04
01
fe
03
00
01
ff
fa
ff
00
01
fe
03
06
03
03
ff
01
fd
ff
fb
fd
ff
fb
fd
02
fd
02
00
00
01
03
02
00
fe
00
02
ff
01
04
02
02
02
03
fe
fe
ff
03
03
01
00
fc
fe
03
01
03
01
00
fd
00
03
02
01
02
01
02
fe
00
ff
fc
fe
fc
fe
02
ff
01
fd
01
00
fe
ff
fd
f9
fc
fe
00
02
07
00
02
ff
fc
fe
ff
fc
fa
fc
fd
fe
fc
fc
fc
fd
ff
00
fe
fb
fd
fc
fd
fa
fc
fa
f8
f6
f9
fb
fb
f9
fc
00
fc
02
02
05
07
08
03
07
03
07
06
05
06
05
01
00
02
01
fd
fe
fa
fd
f9
f9
fd
f8
fc
fb
f7
fb
fd
f8
fa
fa
f8
fb
fe
fd
fd
fc
fd
fe
fd
00
fc
fe
fc
00
00
fc
ff
01
fe
00
fc
00
fe
00
fc
03
00
02
03
05
02
ff
05
ff
02
02
fe
01
fb
f9
fa
fc
ff
fb
ff
00
03
ff
01
04
02
02
03
04
03
fe
00
fe
ff
ff
01
04
03
fe
02
ff
ff
03
03
fe
fd
00
00
ff
fe
f9
fe
fc
fc
fb
02
02
ff
03
05
03
01
04
04
08
03
02
00
02
00
01
01
ff
ff
ff
01
02
ff
ff
ff
03
03
ff
01
ff
00
00
03
00
00
02
02
03
ff
01
03
03
01
00
fe
01
01
02
00
ff
fe
03
01
01
02
05
05
06
07
07
06
04
07
05
04
ff
02
01
01
01
fc
fb
fb
00
ff
01
ff
01
01
02
02
03
04
03
05
04
06
06
07
06
07
07
05
00
01
fd
ff
fd
fd
f9
fd
fc
fd
03
03
08
12
17
20
f2
f8
f7
f7
f8
fe
fe
00
02
fe
03
ff
02
03
02
02
00
ff
fe
01
02
00
ff
02
01
03
ff
03
03
01
00
05
03
05
02
04
03
04
01
04
01
00
01
ff
fb
fb
f8
fd
fa
fb
f5
fb
fc
fd
fa
00
fc
fd
00
06
03
06
04
05
06
05
04
03
02
ff
ff
ff
fd
fa
ff
fe
01
ff
fd
ff
03
01
01
03
03
00
01
fd
ff
fe
fb
ff
fb
fc
fa
fd
fb
ff
00
01
ff
00
00
fe
ff
fe
fe
ff
fe
00
fc
ff
fc
fc
fc
fe
fd
00
fd
fc
fd
fb
fc
00
fc
fb
00
ff
01
00
fe
ff
01
ff
01
05
04
05
01
05
05
05
00
03
ff
02
01
fe
fc
fd
00
00
01
ff
02
02
fe
00
01
03
ff
03
01
03
ff
03
03
00
ff
01
fe
ff
fd
02
02
00
00
fc
02
01
02
00
fd
fe
02
ff
02
fe
01
02
fb
01
ff
fe
fc
ff
fd
fa
01
fe
fd
00
ff
fe
04
02
03
02
ff
ff
01
00
02
fe
00
00
fe
fd
fe
fd
fc
02
03
03
08
04
05
07
0a
06
01
fd
fd
01
fe
fd
fb
f7
fc
f8
fb
fb
fa
ff
fd
ff
fd
fd
fe
02
00
01
06
0a
0c
0d
0b
04
04
ff
03
fe
fb
fe
fe
02
ff
00
03
fe
02
04
03
05
01
02
03
07
01
04
01
04
06
04
03
00
01
05
fe
02
ff
03
02
00
01
01
04
04
03
05
02
fe
00
fd
02
ff
00
01
03
ff
00
01
03
05
02
04
04
ff
03
00
fc
fe
fe
ff
fc
01
ff
03
02
fd
fd
03
ff
02
01
01
02
ff
01
fe
01
fc
fc
fe
03
ff
05
04
03
02
04
04
03
01
04
01
00
fe
01
ff
03
00
02
02
ff
03
04
fe
01
00
fc
ff
fe
00
fe
00
05
02
00
04
01
06
07
05
04
01
00
ff
01
01
02
02
03
03
05
04
04
03
06
07
02
00
03
00
00
02
ff
01
ff
00
00
02
ff
01
01
05
09
06
06
05
04
00
02
00
02
00
01
01
04
00
06
06
03
06
0a
07
06
06
03
02
02
00
ff
fc
fe
ff
02
00
06
02
01
ff
ff
05
fe
fd
fc
fc
01
01
00
fe
05
ff
ff
03
05
01
02
ff
fe
02
fd
ff
ff
02
fe
fd
00
02
03
ff
01
01
ff
fe
ff
01
fc
ff
ff
00
02
04
fe
00
01
00
fe
01
fc
fd
f9
fc
fe
fa
fb
fc
02
06
0b
0f
ff
07
10
11
12
13
1c
1e
22
20
23
22
1e
1b
19
18
15
12
0f
12
0b
09
0b
0b
0b
09
0f
0d
10
0f
0e
08
0a
02
f9
fb
f3
f3
eb
ef
f0
f6
fc
02
0b
0f
1b
21
29
29
26
1c
19
0f
05
fd
f6
f2
f1
ee
e8
e7
ea
ed
ed
ed
f0
f5
f2
f4
f2
f0
ef
f0
eb
f3
ef
ef
f2
f7
f4
f9
f7
f8
fa
fc
fd
fb
f9
f9
fd
fb
fa
fe
fa
ff
01
01
04
ff
05
04
00
04
00
01
04
03
00
06
02
03
01
04
04
07
06
05
06
04
08
03
03
05
02
03
ff
04
00
02
03
03
04
03
00
07
06
03
02
02
02
03
ff
fd
ff
fb
fd
01
00
02
ff
05
01
00
00
01
ff
fe
ff
ff
fa
fd
fe
ff
02
fe
fe
fd
ff
ff
fe
02
ff
fc
ff
ff
fb
fc
f9
fd
fa
fb
f9
f9
00
ff
ff
fd
01
fe
ff
01
00
00
fe
03
fb
fe
fa
f7
fc
fa
f9
ff
00
fc
01
06
07
07
07
06
08
08
0a
07
06
fd
00
f9
fe
f8
fd
f9
fe
fd
fc
fe
05
04
04
06
04
01
fe
02
03
00
04
05
01
05
0b
0c
10
0e
0b
08
06
03
f6
f3
e1
d6
c9
bc
fd
01
ff
fd
00
ff
ff
01
fe
01
02
01
fe
00
01
ff
01
ff
ff
fe
00
fd
ff
00
02
fd
fd
fd
03
01
04
06
04
04
05
07
01
ff
00
ff
00
fd
fb
fd
fb
fe
02
fd
01
04
01
00
00
fd
fd
fe
00
fd
fe
fd
fb
fc
00
02
02
02
fd
00
00
ff
00
01
ff
00
fc
fd
ff
00
00
ff
fe
fd
fd
fd
fd
fe
fe
00
fe
01
00
00
00
02
fe
ff
02
01
02
02
02
fd
01
02
01
fd
01
ff
ff
ff
01
00
fe
02
ff
fd
02
00
00
02
fd
00
01
fd
03
01
01
04
05
02
05
03
fe
ff
fd
01
01
fd
ff
fd
00
ff
00
ff
02
00
ff
02
01
04
fd
00
ff
fc
ff
fc
fe
fe
02
04
03
06
05
01
01
02
03
fe
04
fd
00
00
fd
00
ff
fc
02
04
01
03
04
02
04
02
02
01
fe
fb
01
fc
fb
ff
ff
fd
04
fe
00
04
01
01
fe
00
00
fc
fd
fb
01
ff
03
fd
02
fe
04
00
fd
00
fe
00
ff
fe
00
fd
fe
02
01
03
02
05
05
03
fd
fe
fe
ff
02
fd
00
00
fe
ff
04
02
03
01
02
ff
04
fe
ff
ff
fe
f9
fe
00
02
08
7f
67
52
3e
33
25
1d
17
11
0c
09
0b
0b
0a
09
0e
08
0b
08
06
08
00
01
02
02
01
ff
01
06
08
08
0b
09
0e
0f
0f
0f
0f
0c
10
0c
0e
09
0b
0b
07
09
06
08
0b
0b
05
06
06
09
03
04
06
03
03
01
03
03
01
07
02
06
03
05
05
08
0a
0a
06
05
06
05
07
03
03
05
01
00
05
01
05
01
01
02
05
05
07
06
04
03
04
02
03
04
02
00
ff
fc
fb
00
fe
fd
fc
fd
fe
fc
00
01
02
01
fe
01
fd
ff
fb
fd
fd
fe
fe
fd
ff
fd
01
04
00
04
00
05
02
04
fd
fa
fa
f8
f7
f8
f7
f6
f4
f7
f7
f7
f6
fe
ff
fc
fe
00
fe
fe
02
fd
fc
fe
f7
f8
f6
f7
f2
f4
f7
f7
f6
f3
f4
f3
f9
f8
f8
fb
f7
fa
fb
f8
f9
f7
fb
fc
f9
fa
fa
ff
f9
fe
fb
fb
f9
fd
fa
f6
f9
fc
f7
f4
fa
f5
f7
fb
fb
f9
fc
01
00
04
03
06
05
03
03
fd
fb
fd
f6
f7
f6
f3
f6
f4
f0
f4
f5
f9
fc
00
07
07
03
06
07
05
04
ff
00
fb
fd
fb
f6
f6
f9
f6
f8
fe
00
01
08
06
05
01
fb
f7
ef
26
1c
0f
0a
02
f9
fa
fb
fa
f7
f8
fd
fb
fa
fa
fa
fd
ff
fa
ff
01
fe
fb
fa
fd
fb
fd
fe
fb
fa
00
ff
00
01
ff
01
04
03
03
01
04
05
03
02
0a
04
04
01
02
01
fd
fe
00
fb
fe
f9
fa
fa
fe
fd
00
fe
05
02
04
04
05
06
07
07
08
04
02
02
05
02
00
00
03
04
03
00
03
02
03
02
fb
02
01
00
00
fe
fc
01
01
05
00
04
02
00
06
06
05
01
01
00
fb
01
00
00
02
ff
04
05
05
05
08
06
05
06
06
02
02
fc
fa
fd
f7
f7
fc
f7
fb
fe
fd
fd
fe
00
04
04
00
00
01
01
03
01
03
00
05
01
03
04
07
00
01
05
02
02
02
03
fd
fe
fd
fd
02
03
02
01
02
04
05
07
07
07
07
06
04
04
02
03
00
ff
00
ff
02
05
04
04
03
02
05
05
05
03
06
04
02
02
01
fc
fe
fa
fc
ff
fc
00
04
01
01
04
06
06
08
09
0c
06
04
08
05
02
02
01
00
fc
fb
fe
00
fb
03
02
06
07
04
06
08
02
01
03
fe
ff
fa
f7
fd
fb
f8
ff
fb
00
03
02
03
09
07
05
02
f8
ec
e0
fb
09
14
16
15
10
0e
07
02
06
04
00
04
07
0a
0d
0f
10
15
16
16
17
17
14
14
0f
08
09
07
07
0c
0a
0a
0e
0a
0e
0a
0a
0d
08
0b
09
00
01
fc
ff
01
fe
00
02
05
07
0c
0b
0d
10
0d
0e
0d
0a
09
0a
06
06
03
03
02
fe
02
fc
01
fc
00
fe
03
04
02
04
01
02
ff
04
fe
fe
01
fb
fa
fe
fe
fb
fb
fa
fd
00
fc
fc
fe
00
fc
fe
fe
fe
fb
ff
00
fc
01
ff
fd
fb
fd
fc
fd
fe
fc
fd
f6
f8
fa
fa
f6
f5
f6
fb
fc
f7
f9
f9
fc
fc
f7
f8
f9
ff
f8
fa
fb
f9
fa
fc
f9
f9
fc
f9
fa
f8
f8
f7
fd
fd
fb
f9
fb
fa
fe
fd
00
ff
fe
fc
fe
f9
fc
fc
f7
fb
f8
fa
fb
fb
00
ff
fc
fb
ff
fa
fc
fe
ff
f8
fd
f7
f9
fa
fc
f8
fc
fd
ff
fc
00
ff
ff
03
02
04
fe
01
fd
fd
fb
fe
f9
fb
fd
fb
fc
ff
ff
02
00
03
01
ff
02
fe
fc
fa
fc
f7
fb
f6
f5
f9
f8
f6
ff
fe
fc
03
00
03
01
05
05
03
00
fc
fa
fa
fc
f8
f7
f9
fd
00
ff
06
04
06
10
0d
07
ff
f1
e0
fe
04
ff
02
09
07
09
08
07
02
01
fe
02
04
fe
ff
f9
f6
f7
fa
f8
f6
f6
f7
fa
f9
f9
01
f9
ff
04
07
08
07
0d
05
08
06
07
03
ff
f8
f5
f6
f0
f5
f7
fd
ff
06
08
11
13
16
12
12
10
14
0d
13
0a
0e
07
05
04
06
07
04
07
07
09
08
0a
09
0b
0a
08
03
04
03
02
01
02
fc
fe
fc
01
01
05
05
06
08
04
07
07
01
02
fd
fb
01
00
ff
fe
ff
01
02
05
09
09
06
04
03
01
ff
fc
fa
fb
fd
fc
fa
02
ff
fe
05
01
00
00
ff
fe
fd
fb
fa
f5
f7
f6
f6
f8
f6
fe
ff
fa
fc
fe
fb
fb
fa
f6
f5
f5
fa
fb
fa
f9
fa
fa
fa
fd
f7
fa
f7
f6
f6
f5
f6
f6
fb
f7
f7
f6
fa
fa
fc
fa
f9
f9
fb
fa
fc
fb
fc
fc
f9
fb
ff
03
02
03
05
06
07
06
02
04
02
08
02
09
0b
0b
0b
09
10
0c
0a
0f
0b
11
11
11
10
10
0e
10
17
0f
10
0e
0a
0b
0b
0d
0e
0c
0e
0e
0c
11
0f
0f
12
11
12
0c
10
0b
0a
0c
0c
0a
0e
0e
0b
10
11
13
13
0c
0f
0b
07
0a
0b
04
fd
fb
f3
09
02
01
ff
fd
fe
fe
fd
ff
01
ff
01
01
04
03
00
04
fd
01
fd
ff
fd
fd
02
00
00
fe
01
fe
01
01
02
01
00
02
02
00
01
01
01
01
01
02
ff
ff
03
01
ff
01
ff
02
00
00
05
00
01
04
02
01
03
fe
fb
fd
fd
00
fc
fc
ff
fe
00
04
01
06
ff
03
02
ff
ff
00
00
ff
fb
ff
01
01
01
02
00
05
00
03
01
fd
01
ff
00
fd
00
01
01
fe
ff
01
07
03
02
02
01
02
ff
ff
04
00
04
03
ff
02
ff
01
00
fd
02
01
01
03
fd
fc
fc
fe
01
fd
fd
00
01
02
fe
ff
00
03
02
03
03
fe
02
ff
01
04
01
00
03
01
fd
fc
00
01
02
01
ff
00
01
03
01
03
03
03
ff
00
ff
01
fd
01
01
00
03
ff
00
ff
03
03
03
03
05
01
02
ff
05
ff
01
03
02
03
03
fd
fe
fc
fe
fe
fe
01
fe
01
fd
fc
fe
fd
01
fe
03
01
ff
fd
02
fe
04
03
00
00
00
fd
fe
fd
fe
01
fe
fd
ff
02
01
00
ff
02
ff
03
ff
fd
fe
fe
ff
fd
fb
ff
fd
fd
00
ff
02
ff
fe
01
01
03
02
00
f9
fd
fb
e7
f2
f7
fb
ff
00
01
00
04
02
03
02
ff
fb
f9
fb
f6
f9
f7
f3
f5
f7
f6
fd
fb
01
00
03
05
07
07
09
0a
09
06
03
07
04
05
01
00
00
02
02
fb
fe
fb
f9
f5
fb
f5
f9
f6
fb
f7
fb
f7
fa
fd
ff
fe
ff
01
00
ff
fd
fd
fc
fe
01
00
ff
ff
05
02
09
06
07
07
07
03
06
02
05
00
ff
00
01
fb
fc
fb
fe
fd
fd
fd
fe
fd
ff
02
03
ff
03
00
03
02
01
fe
01
00
fc
fa
fe
00
ff
fe
ff
02
02
03
03
01
ff
04
02
02
03
03
01
07
06
05
04
04
06
05
01
02
02
fe
fe
00
fc
f9
fd
f9
f7
fa
f7
fc
fb
fa
fe
fc
fe
02
04
ff
05
00
05
02
05
02
08
05
04
06
01
01
05
04
03
01
00
04
01
fc
02
00
fe
ff
00
00
01
ff
03
00
02
fc
fb
fd
fd
fa
f8
fd
fb
f8
f8
fd
fb
ff
fc
ff
04
06
03
02
06
05
00
03
00
02
fb
fb
01
fb
fa
01
02
07
05
08
0a
0a
0d
0b
05
0a
08
02
02
04
ff
fe
fe
00
fe
00
01
fe
ff
02
01
02
fd
fe
fa
fa
fb
f6
f4
f3
f6
f1
f4
fe
06
00
02
05
06
06
01
06
06
02
02
04
00
00
fc
fa
fd
ff
fd
fb
fc
fb
fd
fe
ff
fc
fe
00
02
01
fe
ff
00
03
00
fd
01
fd
01
ff
fd
fd
fe
fd
fe
fc
fb
ff
fe
00
05
06
09
0e
11
14
13
10
12
10
0c
0b
04
02
fb
f9
f3
f3
f5
f0
ed
f0
f2
f5
f8
fb
f9
fa
fb
fe
fc
00
01
fd
ff
00
01
00
fc
fc
fb
fd
fd
fe
00
00
ff
03
ff
04
01
01
02
01
06
02
03
08
09
08
0a
07
08
04
09
08
05
04
05
ff
fc
00
fc
00
fb
fb
fd
fc
fb
ff
fb
fb
f9
fa
f7
fe
fb
f9
fd
fa
fb
fc
fe
fc
01
ff
02
04
05
06
05
07
04
01
04
03
fe
fe
ff
fe
00
fc
f8
fb
fe
fc
fc
fe
ff
fd
fc
fd
02
00
02
03
ff
03
fd
03
fe
00
00
fc
02
fd
01
fe
fd
fb
fc
fa
fa
fc
fb
fd
00
01
fd
03
01
08
05
06
0c
0a
09
0c
0c
08
05
05
03
01
ff
ff
01
00
fd
fd
fa
fb
ff
ff
fc
ff
01
01
fe
00
ff
00
01
00
fe
fd
fe
fb
00
fe
ff
fb
fb
ff
fb
fb
fb
f9
fa
f9
f9
f9
f6
f6
f9
17
0c
07
02
fb
fa
fc
f7
fc
fe
fd
01
02
06
06
05
06
02
04
00
fe
01
00
fe
00
fe
03
ff
00
03
02
03
06
05
ff
05
fe
fc
ff
01
ff
00
fe
05
04
01
01
02
06
05
00
03
fe
01
ff
fe
02
00
02
02
02
08
08
08
02
01
00
ff
00
01
02
ff
fa
00
01
02
fd
00
00
05
07
03
06
03
01
03
ff
02
04
05
00
02
03
05
06
03
04
ff
02
01
03
ff
fe
fc
01
fd
01
00
ff
04
03
02
04
05
04
09
09
06
08
04
04
01
05
00
02
03
02
01
06
04
03
05
07
04
04
03
02
04
00
03
01
02
fc
ff
01
fc
01
fe
03
01
03
01
03
03
07
03
06
01
04
02
06
02
04
03
03
03
01
02
03
02
06
04
07
09
07
07
06
04
01
06
00
fc
f9
fc
f8
fa
ff
fc
01
03
02
05
03
04
01
04
01
01
01
fb
f8
f7
fa
fc
fa
f8
fc
fa
ff
00
ff
ff
00
ff
01
00
00
fd
00
fe
00
fd
01
00
01
03
ff
fa
fe
fa
fd
fa
fd
fb
f7
f6
fa
fa
ff
00
02
02
00
03
04
01
05
02
01
01
02
fd
00
04
08
0e
20
26
2a
28
27
23
1d
19
16
16
0a
00
03
fb
f7
f5
f9
f7
fd
07
09
0c
10
17
12
0f
13
09
0a
03
fe
f5
f3
f0
eb
ee
ef
f7
f5
fe
0b
0f
19
15
1b
19
18
0c
09
fd
fa
f1
eb
e8
e1
e3
e0
e2
e6
ea
eb
f0
f0
f2
ee
f0
ee
ec
ef
e8
eb
e8
ee
ec
ef
f3
f3
f5
f6
fd
fe
fc
00
fc
01
fe
04
00
ff
01
00
05
03
05
06
05
03
06
02
03
01
04
02
02
01
ff
03
ff
01
00
fc
fc
f9
fd
fd
00
fd
02
00
00
03
06
05
03
01
05
01
03
05
ff
01
02
00
02
03
02
04
00
01
ff
02
ff
03
01
00
fd
fc
ff
fc
fc
fe
fe
fd
00
fc
00
fd
fd
ff
ff
fe
ff
fd
fc
fa
fe
fe
ff
01
fa
fe
01
04
fe
04
01
01
02
ff
04
03
07
06
02
04
03
08
05
07
05
09
09
05
08
09
09
09
0a
08
0a
10
0c
0e
0c
0d
0c
08
05
02
03
00
fe
f9
f4
f3
fa
f7
f9
f8
f6
f9
f6
f4
f5
f0
f3
ef
ea
e9
e6
df
e3
df
d9
d8
dc
db
df
e1
df
e7
e7
e5
e5
ed
f4
f7
fe
0c
18
1f
28
36
40
40
3d
f7
fb
00
02
04
08
05
03
01
02
02
fc
fe
fc
ff
01
02
05
00
05
01
03
00
00
02
fc
fd
fe
ff
fa
00
01
ff
01
00
04
ff
ff
fe
fb
fd
fb
fb
fb
fa
fd
ff
01
01
05
01
01
03
03
ff
03
fd
01
fb
fd
01
00
ff
02
03
ff
fe
01
00
ff
ff
fa
ff
fe
fc
00
fd
fe
01
fe
00
fe
fc
fc
f8
fd
fc
fd
fe
03
04
04
03
03
04
02
02
ff
fa
fb
ff
01
01
fd
00
ff
05
00
ff
03
00
07
01
00
fe
fa
f9
fd
f8
f8
f8
fb
fd
fc
fd
01
fd
ff
05
04
08
04
fe
00
fc
02
fc
ff
00
02
ff
02
03
03
02
00
03
01
03
03
02
00
04
04
01
fe
ff
04
02
fe
00
01
fc
fd
00
03
ff
fd
01
00
01
ff
03
ff
fe
ff
01
00
ff
05
06
03
04
03
02
ff
02
fd
ff
fe
f8
fa
fd
ff
00
01
01
01
04
02
fe
02
04
ff
fe
fc
ff
01
00
fd
01
ff
00
04
02
01
03
01
03
fe
04
03
03
ff
00
fe
02
02
ff
03
fe
fe
fd
01
fe
fe
fd
ff
fe
02
05
00
02
06
05
04
04
fd
fb
00
fc
fb
04
05
0c
14
f6
ff
03
04
09
07
05
08
09
05
09
06
04
03
01
02
fd
fc
ff
ff
fe
fd
ff
fc
fe
fc
fd
f9
fb
ff
ff
fc
fc
fc
fc
f9
fc
ff
fd
ff
ff
fb
00
00
01
03
05
05
02
01
06
02
01
02
02
01
01
01
02
01
fc
fb
f9
fa
f8
fc
fb
f9
f9
f7
fa
fc
fb
fb
fc
fb
fe
01
fd
ff
ff
05
02
05
03
05
03
04
08
05
03
05
04
03
01
fc
fa
f7
f6
f5
f6
f7
f7
f9
f5
f8
fd
fd
fe
04
08
0d
0d
0c
10
11
14
12
10
14
13
12
12
0d
0a
04
04
ff
fa
f7
f4
f2
ec
e8
e6
e6
e0
e0
df
e6
e5
e9
ee
f0
f7
f9
01
02
06
0c
11
14
14
1b
1b
16
15
13
14
0f
0f
09
07
07
04
02
04
00
ff
03
00
01
04
04
07
03
05
09
09
08
0a
06
08
03
03
06
04
06
07
08
04
04
08
07
08
05
09
05
05
08
05
05
01
01
00
02
fd
fa
fa
f9
fb
fb
fc
fa
f7
f7
f9
fb
f4
f7
f3
f3
f6
f3
f1
ee
f3
f1
ed
ef
ef
f4
f3
f5
f8
f6
f7
f9
ff
fa
fd
01
fd
fd
fd
fd
01
ff
ff
fe
fc
fa
fc
fe
00
02
d7
dd
e8
ec
f1
f7
fc
fd
00
02
00
05
05
06
05
06
05
07
06
0a
06
00
ff
03
03
fc
fc
01
fd
00
fc
fd
fd
fc
f9
fd
f9
fb
f9
00
fd
fd
fd
fd
fb
fb
f7
f7
f9
f8
f5
f7
f3
f8
f4
f6
fc
fd
fe
fd
00
ff
03
03
02
06
01
00
00
01
fd
fe
ff
fb
fc
fd
fa
fb
fe
ff
fb
fe
02
05
04
04
09
0a
05
09
08
04
02
ff
02
ff
fd
fc
f8
f7
fa
fa
fa
fc
fe
02
08
0a
0a
0b
0e
0e
10
08
08
05
01
fc
f6
f0
f0
ea
ea
ec
f0
f5
f7
fa
ff
05
07
0d
10
11
11
14
12
13
12
0f
0e
0b
0b
0d
0d
08
08
0c
09
0d
0c
0c
09
08
08
01
06
fe
fd
fc
fb
fe
f6
f7
fb
fb
f9
fc
03
02
01
07
06
06
04
05
04
01
fd
ff
fc
fd
f8
f9
f6
f6
fa
f5
fb
f8
f9
fa
fc
01
01
05
fd
02
01
00
00
fe
fb
ff
fb
fe
fc
fd
fc
01
fe
02
01
08
07
09
07
0b
0c
0d
07
06
09
07
05
08
04
05
01
04
01
03
08
06
0b
0b
0b
08
0a
0a
06
03
00
01
f9
f9
f2
ed
e9
e4
e3
df
db
e0
d9
dc
de
e3
eb
f0
fc
01
05
06
0c
08
0a
05
00
fd
f7
f7
f7
f6
f7
f6
f8
f7
f7
fe
fb
ff
01
03
fe
ff
01
ff
fb
fb
fa
fb
f6
f7
f7
f9
f9
f7
fb
f9
fb
fd
fe
fc
01
ff
02
00
ff
fc
ff
fb
fc
fa
fa
fa
fb
fc
fc
04
06
05
08
0b
0a
0a
08
07
01
00
ff
fa
fc
fa
f9
fa
f7
f8
fb
fa
fb
f9
f9
f9
f8
fe
fa
fe
fb
fe
00
fd
fe
fc
f9
f8
f6
f8
f4
f3
f4
f3
f3
f7
fa
f8
fa
f8
fb
fa
fb
fc
f6
fa
f5
f6
f5
f9
f9
fb
00
06
08
10
13
13
14
13
17
14
13
0e
10
0e
0d
0b
05
06
09
09
0c
0d
0d
10
0b
0b
09
07
03
fc
fa
fa
f5
f6
f7
fc
f9
fc
ff
03
03
05
0c
09
09
08
06
05
04
00
fd
fe
f9
f8
fb
fa
f6
f8
f7
fc
fe
fa
ff
fc
02
fe
fd
02
fd
fc
02
00
ff
03
07
08
05
07
0e
0d
0e
0d
11
0e
10
0b
0e
0f
0d
0e
0f
12
10
13
13
17
19
19
19
18
1b
1a
18
16
12
0f
0f
0f
09
05
06
07
06
09
0b
07
0d
0f
0d
0d
12
13
10
0d
07
01
fb
f2
ee
df
da
d0
01
fa
f6
f2
f0
f1
f5
f5
f5
f5
f4
ef
f9
f6
f5
f6
f6
f8
f8
f7
f8
f1
f3
f2
ee
f2
f2
f0
f9
f3
f4
f9
f6
f7
f9
f9
f6
fc
f8
fb
fa
fb
f9
fa
fd
fa
fe
00
02
fc
fc
f9
f6
f9
f7
ee
f4
f1
f4
f0
f6
f9
fa
fb
01
05
06
0b
05
02
fd
f7
f3
f1
ee
ea
e8
e7
e7
ec
eb
f2
f7
f7
f9
fa
fc
f9
f7
f6
f4
ef
f1
f3
f4
f3
f7
fb
ff
03
01
03
06
03
05
05
04
04
08
09
0a
0d
11
13
15
11
10
0d
08
00
fd
f9
fc
f8
fc
05
08
10
17
19
18
1a
17
18
15
0d
08
fd
f5
ef
ec
ee
ed
e9
f0
f8
fb
ff
06
0b
08
0b
0b
08
06
05
06
01
fd
00
fd
ff
05
01
03
05
08
08
02
03
02
fd
f9
fc
f7
f6
f9
fa
fa
f9
fa
fc
fe
00
ff
ff
fc
f9
f3
f3
ee
ed
ef
ee
eb
ee
f4
f8
fa
ff
01
00
07
07
07
05
00
fd
fc
fc
fa
f6
f2
f2
f3
f7
f6
fb
fe
01
01
09
0c
10
11
13
10
14
0e
13
12
13
10
0e
0c
0b
06
05
05
07
00
00
ff
fa
fc
fe
01
fd
02
01
03
fe
ff
fe
fa
f5
f7
fb
ff
fe
00
fe
ff
ff
03
ff
fd
fc
ff
ff
fb
fd
fc
fb
01
00
00
03
ff
ff
01
01
02
01
00
02
00
ff
00
04
00
04
02
04
ff
02
00
ff
ff
fc
00
01
02
02
00
05
01
06
05
06
03
03
02
04
05
05
06
03
04
05
02
05
02
01
fe
fd
01
fe
fd
ff
fd
03
04
01
02
04
02
05
04
02
fe
fc
fc
ff
fb
fe
fe
fb
00
00
02
04
06
04
03
02
05
02
fe
00
ff
ff
fb
fd
fd
fe
ff
01
01
01
01
02
01
06
05
01
ff
ff
fb
fb
f8
fb
f9
fb
01
fd
fb
00
fe
fd
ff
fb
00
fd
fe
ff
04
03
02
00
01
05
04
04
03
00
03
03
05
05
04
07
06
03
04
05
04
05
02
ff
01
ff
01
01
00
00
fe
02
02
02
fe
fc
fd
fd
fd
fb
01
01
04
04
08
06
08
07
05
05
06
01
ff
fe
f8
fc
f8
fa
f8
f7
f8
fd
01
fe
01
02
01
ff
01
01
fe
fe
fa
f9
fa
f8
f8
fa
fe
fe
00
03
02
02
03
00
03
ff
03
ff
00
fe
fe
00
fd
fe
01
01
00
fb
02
ff
fe
00
fd
00
04
03
01
01
00
fe
f9
f3
ef
e5
18
14
0b
09
08
02
ff
03
ff
04
04
07
01
09
08
0a
0a
06
06
06
06
05
05
03
01
03
ff
ff
fe
ff
01
01
02
ff
03
01
fe
01
02
01
ff
fe
fe
fe
fe
fd
01
00
fb
fc
fe
02
02
ff
04
03
07
04
03
04
07
0a
0b
07
0a
0c
0c
05
02
08
02
01
02
02
fc
f9
fc
fa
fe
fe
f9
fc
fb
01
fd
00
04
02
00
02
02
00
fe
fc
01
fd
fb
fe
fe
ff
00
fa
fd
fe
02
00
03
ff
02
06
02
08
06
07
04
06
00
01
00
fd
01
fd
00
fc
fd
ff
00
03
05
02
04
07
08
06
03
07
06
04
01
01
03
02
01
03
04
03
fe
02
ff
03
fd
00
01
fc
fd
fa
fb
fa
fe
fe
fc
f9
fc
00
fe
fc
01
02
00
02
fc
ff
fd
fc
ff
fd
fa
fd
f8
fb
f9
fb
fd
fe
01
02
01
03
00
02
04
01
00
02
fd
03
01
fe
fd
fd
fe
01
00
02
03
02
00
ff
ff
02
fc
00
ff
fa
fa
f7
f8
f6
f7
f7
fc
f9
fe
fe
fe
04
02
05
05
05
04
02
07
05
fe
00
fa
f9
fd
fc
fb
fa
01
ff
ff
06
05
05
0b
0b
08
09
05
01
fb
f5
4a
39
31
22
15
11
06
03
ff
fc
fb
fa
fa
f9
f5
fa
f8
f9
f6
f6
fb
f7
fb
fc
fa
fa
fd
04
06
09
0e
0d
11
0f
15
14
10
10
11
10
10
09
07
05
07
00
03
02
03
ff
fd
02
04
05
01
04
00
02
01
04
03
01
03
03
03
04
00
04
04
02
03
01
04
ff
01
04
03
02
02
ff
02
ff
01
04
07
07
04
06
09
08
06
09
07
0b
06
07
06
05
05
06
03
06
01
01
ff
ff
02
04
00
02
05
01
01
05
01
05
07
03
04
03
03
fe
fd
fb
fb
fd
fd
fb
fd
fd
01
fe
01
02
02
00
03
fe
fe
fa
fd
f9
fb
f8
f8
fb
f8
fd
ff
fb
01
fd
02
00
00
00
01
00
fd
fc
fd
fa
fc
fe
fe
fc
00
fe
fd
fc
fe
fc
fe
fb
fc
fc
fe
fd
fc
f9
f8
fa
fc
f9
f6
f5
f5
f6
f7
fe
f9
ff
ff
01
fe
04
04
00
00
02
00
fe
ff
fb
ff
fc
fb
fb
f7
f7
f9
f8
fa
f9
f5
f6
fb
fc
fb
fa
fe
f9
f9
fc
fd
fe
03
02
03
01
03
06
06
01
02
04
01
fe
fa
fa
fc
f8
fd
fa
fc
fe
fd
02
01
fd
fc
f9
f2
eb
e0
d9
ed
ef
f7
fa
f9
fc
f9
fa
f8
f5
f6
f3
f6
f6
f5
f6
f7
f5
f1
f3
f4
f2
f2
f0
f2
f0
f0
f1
f5
f8
f3
f4
f8
fb
f6
f9
f5
f1
f7
ef
ee
ee
e9
ea
e8
e8
ea
ed
ee
ec
f2
ee
f7
f5
f9
f7
fa
f9
fc
00
fa
fd
fb
fc
f6
f3
f4
f3
ed
ee
ef
f2
f1
f4
f6
f9
fa
fc
fe
03
00
03
fe
ff
fe
fb
fd
f9
f9
fa
fb
f9
ff
fa
03
01
02
06
03
00
00
04
fe
ff
fe
00
fc
00
00
fe
fe
01
00
00
03
03
04
04
05
04
02
04
04
06
00
01
00
00
00
04
fe
ff
02
04
07
06
08
08
05
08
07
06
07
05
09
04
0a
08
09
06
04
0a
07
07
0a
08
09
0b
07
06
05
07
06
08
02
05
02
07
05
0b
07
04
09
0a
08
09
09
09
0c
09
08
0c
07
07
09
05
05
07
05
03
04
07
05
09
08
08
0e
0c
0d
0c
0f
0c
0d
09
0a
06
09
04
05
03
02
03
04
04
05
06
03
06
0b
0c
0d
0c
0b
0e
0c
0c
08
07
04
fe
fe
fe
ff
ff
fc
fe
fd
00
01
00
02
02
00
00
02
07
08
08
09
04
08
07
05
fc
f4
f0
53
4b
41
34
22
15
05
00
f6
f2
ec
e9
e9
e7
ee
f2
fd
ff
ff
05
03
fe
ff
f8
f8
ed
ed
eb
e7
e4
e5
eb
f1
f2
f9
fb
fc
00
fe
ff
f7
f4
f0
ed
e6
e6
e5
e5
e6
ec
f4
fc
ff
04
11
12
15
1c
19
1a
17
14
0e
0e
0a
08
04
04
00
01
01
02
05
03
0a
0c
0d
09
0d
0c
06
05
06
02
07
04
06
09
0c
0b
0d
0a
0b
09
06
05
06
05
04
01
03
01
fe
ff
fd
01
fd
02
01
ff
00
fe
fc
fd
fd
ff
fb
fd
fb
fc
fc
fc
f5
f8
f8
f7
f7
fb
f7
fb
fb
fd
fd
f9
fa
f7
fb
f9
fb
fb
f5
f9
f4
f7
f8
f7
f9
f7
fc
fb
fd
fe
fc
fe
fd
fe
fb
f9
f9
f5
f7
f6
fa
fe
fc
01
fd
fd
00
fb
00
ff
fc
fa
f9
f9
fe
fd
ff
ff
03
00
06
07
03
03
03
05
05
02
08
04
06
08
07
09
07
05
07
04
08
03
04
02
01
fd
01
fd
ff
fe
01
03
0b
0b
0e
13
10
0f
12
0b
0a
fe
ff
fa
f8
f3
f3
f6
f9
f8
01
06
08
13
17
18
20
1e
17
0e
0a
08
fd
f7
f1
ee
ea
e6
eb
f6
04
12
24
3c
51
5e
fa
00
02
03
03
03
fe
00
fd
00
ff
ff
fa
fb
fe
fd
ff
ff
00
fe
02
00
01
01
06
02
04
03
00
02
ff
ff
03
04
ff
02
ff
ff
01
01
04
02
fc
00
ff
00
fd
ff
00
02
09
06
02
06
03
02
04
02
fd
01
fb
fe
ff
fb
01
fd
fe
04
06
01
04
fd
03
fd
ff
fe
03
fe
fd
ff
01
03
01
02
01
04
02
01
05
02
03
04
04
04
ff
ff
fd
ff
ff
04
02
02
04
04
02
05
02
04
fe
ff
ff
ff
fc
fc
fe
fa
fc
00
02
ff
02
02
06
04
ff
01
fd
fc
fb
fc
fe
fc
fd
fc
fd
02
02
ff
03
02
ff
fd
fd
00
00
ff
fc
ff
01
01
01
00
00
00
03
04
00
02
fe
fe
fa
fb
fe
fd
00
fd
fe
02
fe
03
02
02
01
02
ff
02
fe
00
02
fe
fd
00
ff
fe
fc
fe
fe
01
ff
00
01
fe
00
00
03
00
01
02
ff
01
fe
02
fc
00
00
ff
03
01
01
fe
03
ff
00
fe
fd
fc
00
ff
fe
fe
fc
fd
fb
fe
00
fc
03
ff
02
02
ff
02
fd
fb
00
fe
fe
02
00
01
00
03
01
00
00
00
02
01
01
ff
00
02
ff
00
02
02
d9
d1
d0
d3
d3
d7
d7
dd
df
e2
e1
e8
ec
ec
f2
f6
f7
f7
f6
f5
f9
f7
f3
f6
f2
f1
f3
f3
ec
ef
ef
eb
e9
e8
e5
e7
de
e1
df
e1
de
e2
e0
e5
e7
ea
ed
f0
f4
f8
f8
f9
fd
