fc
00
fe
ff
01
ff
03
fe
ff
ff
01
01
04
fd
ff
01
01
00
ff
02
fd
fe
ff
fe
01
fe
04
ff
04
02
00
03
00
02
ff
fd
ff
fd
ff
01
00
fe
02
01
03
ff
fe
ff
fd
01
ff
fe
fd
fa
fc
f6
f8
f6
fa
f8
fc
fc
01
ff
01
03
0a
0a
0e
08
08
09
09
0b
0a
0a
03
00
02
fc
fd
f9
fb
f5
f6
f9
f9
f8
fd
ff
fd
00
07
05
07
06
08
0b
0a
07
09
06
04
04
01
00
04
00
ff
f9
f9
f9
fa
f6
f8
f7
fa
fa
fb
fa
fb
fd
ff
ff
06
03
08
07
03
09
06
06
04
03
07
04
05
00
04
ff
00
01
01
01
01
fb
ff
fc
fd
fc
02
fd
02
02
03
01
06
04
04
01
06
04
02
06
04
00
00
00
02
ff
fe
fe
fc
ff
01
fb
ff
00
ff
fd
00
00
00
ff
fe
00
ff
fe
01
02
ff
fe
ff
ff
00
00
fd
00
04
03
02
ff
ff
fe
00
02
03
02
fd
fe
ff
03
00
00
02
ff
fe
03
00
00
fe
03
03
01
fd
fb
fc
00
ff
00
fe
fd
fd
fb
fb
fd
03
02
05
07
07
07
00
fc
fc
fd
fb
03
07
06
ff
fb
03
ff
00
fe
ff
03
fd
fc
00
fd
00
01
00
04
00
00
fb
ff
f7
f4
fa
ff
fe
03
03
05
04
04
03
00
05
04
00
ff
fe
fc
fc
00
fe
fe
01
00
00
01
00
00
ff
fd
02
fe
ff
fd
fe
00
fe
fa
fe
00
fe
00
02
fe
00
fe
00
04
03
00
ff
00
ff
ff
01
03
00
fd
fc
00
fb
fd
ff
fc
fd
fe
fe
fe
fe
ff
00
06
01
01
04
04
04
04
03
fd
00
01
fe
fc
01
fc
fc
fb
fd
ff
fe
ff
fc
fc
00
03
01
fd
ff
fc
fd
fe
ff
ff
f9
fe
f9
fd
ff
fc
00
fb
fe
02
00
02
01
06
06
06
03
02
05
05
02
02
05
02
02
00
fd
fd
fe
ff
01
00
00
05
02
04
00
00
03
ff
ff
01
00
fe
02
03
00
ff
fc
ff
01
01
00
ff
03
fe
03
00
01
00
01
00
03
00
03
03
fe
fc
02
02
fc
ff
fc
fd
00
01
01
ff
03
01
fe
00
01
01
fe
01
fe
fd
fe
03
03
02
01
02
ff
fd
01
fd
fc
fd
ff
00
fd
fd
00
fe
fe
02
00
03
02
ff
ff
fd
fc
fb
fb
fd
01
00
03
09
03
08
fe
fa
fd
fe
02
fe
ff
00
00
fe
fe
00
01
04
fc
ff
f9
fe
00
fc
fa
fe
fd
fd
fb
f8
fc
fa
fd
ff
fd
fc
fa
f8
fd
fb
00
fb
fd
fd
fe
00
fd
ff
ff
ff
fb
fa
fd
fa
fd
fa
f9
fe
fd
ff
01
00
01
fe
fb
fc
fc
fb
fc
fb
fb
fc
fb
fc
ff
01
fd
fd
ff
fc
fc
ff
f9
fd
ff
fd
fd
fa
fc
fc
fd
fd
ff
f9
fd
fb
fa
fd
fb
00
ff
fc
00
fb
fd
fd
fb
fc
fd
00
01
00
fc
fc
01
00
ff
ff
fd
fe
02
fe
ff
fc
fd
ff
fd
ff
01
fc
00
fc
fc
ff
00
fd
fd
fb
fd
fc
ff
00
fd
03
02
fc
fd
00
ff
ff
fe
02
fd
02
00
01
03
00
ff
01
04
fe
01
fd
01
01
ff
01
ff
02
fd
fe
00
03
01
fd
03
ff
ff
fd
ff
03
01
fe
01
fe
02
fc
fd
fb
fd
ff
01
fe
01
fe
ff
00
00
fc
01
00
fd
fd
fc
00
fd
01
00
fd
01
ff
01
01
fb
01
00
fe
f9
fb
fc
fb
ff
ff
01
fd
00
00
fc
fc
fd
00
fa
fb
ff
fe
ff
fa
fa
fe
00
ff
fe
fe
01
fb
fc
00
fb
fa
fd
fc
fc
fb
fd
fd
fd
00
01
f9
fe
f9
fc
fe
ff
f9
fb
fc
fa
01
fb
fb
fd
00
01
02
fe
ff
00
04
03
00
02
01
02
f9
fa
f9
fe
06
00
04
03
fe
02
ff
01
02
ff
03
fd
ff
f9
fe
fb
fa
fe
01
04
00
01
03
03
03
02
fd
fd
fc
f8
fb
fa
fd
f9
fc
fe
01
04
01
05
02
04
01
fd
fd
fc
00
fd
ff
01
00
03
00
02
02
04
04
05
04
05
06
03
01
ff
03
00
03
04
04
06
07
05
02
08
03
02
06
04
01
fe
fa
fb
ff
fe
ff
ff
01
07
07
09
06
07
06
03
03
01
ff
fd
f7
f4
f7
f7
f8
fb
ff
06
07
07
08
08
06
08
04
02
fc
fb
fc
f9
fe
00
01
03
0c
0e
0e
0f
09
07
05
fd
f6
ed
ea
e2
e3
e8
e8
ee
f9
fe
07
11
11
13
14
14
0f
09
06
01
fb
f7
f9
f9
fb
fb
01
ff
00
00
04
ff
ff
00
fc
fa
f3
f2
f4
f9
f9
f9
ff
fe
02
02
06
04
01
01
fe
ff
fe
fc
fa
fe
fb
fb
00
03
05
04
02
06
07
00
02
fe
00
ff
fc
fd
ff
fe
fd
03
00
03
04
04
01
06
02
00
02
fe
fd
fd
fc
fc
fb
00
01
03
04
01
05
02
04
fc
ff
fe
04
01
05
fe
fd
00
02
fc
ff
ff
01
04
fe
ff
00
05
02
ff
fd
00
02
ff
05
ff
fe
fe
04
01
01
01
01
ff
ff
03
03
02
fc
00
fc
00
01
01
01
01
ff
01
ff
03
01
02
ff
02
01
01
ff
fe
02
03
03
02
ff
fe
02
03
fe
02
03
00
fe
04
03
03
fe
02
fd
03
ff
01
00
01
ff
01
fe
fd
ff
03
00
01
ff
04
03
02
ff
fe
00
fe
02
fc
01
03
01
01
fe
04
01
fe
04
ff
00
03
fd
fd
00
ff
00
fd
01
00
ff
fe
03
01
fe
03
00
ff
fb
fe
01
00
fb
01
ff
01
02
03
fe
05
00
01
fe
00
00
ff
ff
ff
02
01
01
01
02
00
00
02
fe
ff
01
00
01
ff
00
01
fe
03
03
fe
fe
ff
00
01
02
02
00
00
ff
04
ff
fc
00
fe
01
00
02
fc
01
01
fc
01
00
fd
00
fd
fc
ff
00
fe
02
fe
04
04
01
fe
01
00
00
00
01
fd
fe
00
01
04
00
01
02
00
03
01
fd
00
ff
01
01
fd
00
01
00
04
00
03
01
fd
00
02
fc
fd
03
01
fd
01
fe
fe
02
03
01
02
00
06
01
fa
fb
ff
02
ff
06
ff
fe
fd
06
03
03
00
fc
04
ff
fb
02
00
fb
00
05
07
06
05
fe
02
0b
07
06
f8
d9
c4
cb
d4
df
e5
f2
fa
fc
04
08
0c
0f
0e
0b
0e
08
06
05
00
01
fc
fe
fe
ff
fb
fc
02
04
00
05
03
06
0a
0a
05
09
08
05
07
01
ff
fc
fd
fc
f9
f6
f6
f8
f5
f7
f8
f9
fc
fd
01
00
ff
05
04
04
02
05
00
03
03
fd
fc
fb
ff
fe
fb
fd
f9
f8
fd
fe
01
fe
02
02
03
fd
03
fd
03
ff
fc
00
fe
fb
fd
ff
01
fe
01
00
00
01
fe
fe
00
fd
fe
00
fd
fd
fe
fe
fc
fe
fe
ff
fe
fd
fe
ff
fe
00
00
02
01
03
00
fd
00
fc
fe
fc
fc
fc
01
00
ff
02
fc
01
03
04
00
04
01
03
03
00
00
00
03
03
fe
ff
00
fc
01
02
00
fd
01
02
04
00
ff
04
03
01
01
00
03
ff
02
02
fe
fe
fd
ff
fa
ff
fd
00
ff
ff
00
03
fe
ff
00
00
02
03
00
04
fe
fe
ff
ff
ff
ff
00
04
07
08
08
05
06
03
05
ff
01
ff
fd
fb
f7
fa
f8
f8
f6
f9
fb
fd
01
02
08
0a
0e
12
13
0d
fe
03
fe
f9
02
03
ff
06
01
02
fc
00
02
03
00
00
00
fc
fa
fe
03
02
03
06
06
03
02
f2
d4
b4
b5
c1
ce
dd
e8
f3
f7
fe
02
08
0a
0a
0b
0a
0a
07
05
07
06
03
05
03
01
fe
ff
fb
fd
fb
fc
f8
f7
f6
f8
f3
f6
f5
f2
f7
f4
f6
f6
f6
fc
f7
fc
f7
f9
fa
fb
f7
fa
fa
fd
fb
fc
fa
fa
00
fb
fd
fe
02
ff
fd
fe
00
ff
01
fd
ff
fa
fe
fe
00
fc
fe
00
fd
fe
fd
01
04
03
02
03
ff
02
00
ff
04
fd
00
fd
00
fe
01
fd
02
fd
03
fe
03
00
02
01
04
03
fe
01
fe
03
01
ff
fe
01
fe
02
02
03
02
ff
04
01
01
02
04
05
02
04
ff
02
ff
03
00
01
04
05
00
00
02
04
01
00
ff
03
05
00
03
02
04
00
01
03
03
04
00
02
03
ff
02
01
04
01
03
05
00
00
01
05
04
ff
02
ff
ff
03
02
ff
01
01
01
00
ff
04
02
03
00
03
03
02
01
03
01
01
05
06
02
08
07
06
0a
06
0a
0a
03
01
fd
fc
f6
f5
f3
f2
f0
ef
ef
ee
f1
f9
02
06
0d
14
1d
23
2e
24
0d
01
fb
f7
fa
fe
f9
fc
fd
00
02
03
00
fe
f8
fe
04
fe
ff
fb
fb
fd
f9
fc
f7
fe
06
02
03
01
05
0b
07
08
03
ff
fc
ff
f8
fc
fa
fa
fc
f9
fd
f9
fc
02
03
04
05
06
0c
0a
0a
0a
0a
04
03
04
01
fc
fa
fd
fe
fd
ff
fb
01
fd
03
04
04
06
02
01
02
07
05
02
06
07
ff
05
03
03
05
05
04
05
04
03
ff
03
00
04
03
02
00
01
05
04
04
01
01
01
04
00
04
03
fe
01
00
fe
02
00
04
ff
03
ff
00
02
04
02
fd
00
fd
ff
fd
ff
03
fe
ff
02
02
01
05
ff
ff
fe
ff
fd
01
fe
ff
fc
00
01
fc
fe
fc
00
fc
fd
02
fb
00
fd
ff
fa
fd
fb
fb
fd
f8
f9
ff
fa
fa
fd
fc
fc
fa
fe
f9
fb
fd
fb
fa
fa
f8
f8
f7
f7
f7
fd
fa
fb
fd
fa
f9
f8
f9
fb
f7
f9
fa
fc
f9
f8
fa
f9
f9
f7
f5
f7
f7
f9
f8
fb
fc
f9
f7
f8
f8
fc
f8
fa
f9
f7
fb
f7
f8
f6
f7
f8
f7
f6
f9
f7
f6
f6
f8
f6
fc
f8
f8
f9
f9
f8
fa
f5
f8
f7
f4
f5
f8
f8
fa
f9
f8
f8
fd
fe
fb
f8
f8
f7
f6
f5
f8
f5
f6
f7
f6
ff
f8
fd
f9
f7
fb
0b
08
0a
ff
f1
f3
fa
fd
04
05
0d
07
0a
0a
0f
0c
06
08
01
09
08
0c
11
11
15
18
14
16
13
14
16
1a
17
17
1f
1c
20
1f
1f
20
1a
19
19
16
14
10
17
16
17
1a
20
27
29
30
2e
2f
32
2d
28
26
24
1f
1e
1d
1b
1c
1d
1c
20
21
1f
1d
1f
18
1b
18
16
12
0e
10
0b
0c
0b
05
08
05
08
03
07
07
06
06
02
fe
02
ff
fd
f8
f9
f7
fb
f8
f8
f7
f3
f3
f4
f4
f8
f6
f8
f5
f2
f4
f7
f6
f4
f2
ef
f0
f3
f0
f3
f3
f1
f5
f2
f4
f3
f2
f5
f6
f3
f7
f3
f3
f5
f6
f7
f7
f9
f4
f8
f8
f9
fc
fc
f9
f9
fb
fb
fe
fd
00
ff
fd
fe
ff
fd
01
fc
01
fe
fe
01
04
05
05
04
04
03
04
04
07
05
01
04
02
04
03
07
03
0b
0a
06
05
07
06
07
03
07
02
03
03
07
06
02
04
05
04
08
09
07
07
07
03
02
02
02
fc
fd
fa
fa
f9
01
03
02
06
09
09
0a
07
05
03
03
fc
f9
f6
f3
f4
f4
f3
fb
fd
06
0f
15
10
0b
03
ff
fa
fb
f9
f4
f5
f8
f9
f9
f6
ff
06
0c
1a
18
13
01
02
fc
00
ff
03
ff
00
ff
fe
01
00
fe
fd
fe
f9
00
02
ff
02
ff
ff
fe
01
fe
fb
fd
ff
ff
fe
fd
fd
fe
fe
00
00
02
fe
ff
01
00
ff
00
ff
fc
ff
fe
02
02
00
02
fe
02
02
00
fe
00
00
02
fe
02
ff
ff
ff
ff
fd
fe
01
02
03
fe
02
ff
fe
01
fe
fe
fe
ff
04
02
ff
fe
fe
ff
00
03
02
ff
02
fd
fd
00
fd
00
02
fe
fe
02
ff
05
01
04
ff
fe
00
00
02
02
ff
fe
00
ff
00
fd
fe
03
ff
04
01
01
03
fe
ff
ff
00
fc
00
fd
00
01
ff
ff
ff
02
02
00
fd
fd
01
00
00
fc
00
fd
ff
01
fe
fd
01
fd
01
fc
ff
fd
ff
02
fe
fe
03
02
ff
fc
fd
fd
01
fe
ff
fe
ff
02
02
00
fe
02
fe
fc
fd
fe
00
00
02
00
03
ff
00
00
fe
ff
fe
01
01
00
ff
04
ff
01
02
fd
fe
01
01
fd
00
fc
fd
02
ff
03
01
fe
03
02
00
fd
fe
fc
00
fe
ff
01
00
fe
04
02
ff
05
03
00
00
ff
fc
01
00
fd
04
02
01
fb
fe
06
02
01
02
ff
fc
ff
ff
03
ff
ff
fe
02
03
fc
fe
f9
fd
f9
f7
e9
ed
f3
f5
ec
eb
e8
e4
eb
e5
df
da
dd
dc
e1
dd
e1
e5
e9
ec
f2
f0
f2
f5
f7
f5
f5
f3
f3
f1
f0
eb
e8
e9
ec
ed
eb
f1
f1
f4
f8
fb
02
03
08
07
0c
10
14
14
14
10
12
0d
09
09
02
03
f9
f7
f2
e9
e9
e2
e2
e1
db
db
e0
df
e1
e7
e6
ec
f2
f5
f6
fc
fc
00
06
05
06
09
0a
08
09
09
0d
0a
0d
0c
0a
0a
08
08
08
04
02
06
03
01
01
04
ff
01
02
06
08
09
10
0d
15
11
14
16
13
18
11
12
0d
0f
0f
0d
09
05
09
06
08
04
05
06
0d
0d
0c
10
0f
12
13
11
13
0f
11
0c
0e
0f
0e
0b
0b
0b
09
09
08
0b
0b
06
08
07
09
05
09
07
08
07
04
07
06
01
06
06
05
02
04
01
02
04
04
04
ff
05
00
04
03
01
02
00
00
fc
01
fe
00
fd
00
01
fc
01
fd
fd
fc
ff
fc
fd
fd
00
fc
fe
00
01
01
05
02
03
06
05
09
04
05
05
ff
02
fc
fa
f7
f6
f5
f3
f8
f7
fc
fd
ff
00
02
05
06
00
03
07
05
00
f9
f2
ef
ec
f0
ef
f2
f1
f7
fa
f9
fd
08
09
05
fb
fe
00
0a
0d
02
06
fa
f5
fd
ff
05
08
03
02
07
09
07
0b
0c
0d
0c
12
12
13
15
10
13
0f
0f
0f
0d
0b
05
03
03
00
fb
ff
fa
f5
f6
f4
ee
ef
e9
ea
e9
e7
e4
e0
e0
df
de
dc
dd
db
db
db
de
e1
e9
e9
e8
ec
f2
f2
f4
f6
f7
f9
f9
fa
f9
f9
f6
f3
f3
f1
f3
f2
f1
f0
f5
f6
f9
f5
f9
f9
f7
f8
fc
f8
fb
f9
f9
f9
f7
f6
f5
f2
f1
f2
f5
f6
f7
f5
f6
f6
fb
f8
f9
fe
fd
fb
fa
fa
ff
f9
00
00
fd
fd
ff
ff
00
00
fc
00
00
fd
01
ff
ff
02
02
03
03
08
0a
07
06
09
07
08
0a
0d
08
0a
08
06
07
06
05
07
04
05
03
02
03
00
04
05
03
05
04
05
08
0a
09
0c
09
0a
0f
0a
0d
10
10
0e
09
0d
0b
0b
0e
0a
08
07
0b
08
0b
08
03
06
08
07
06
02
03
08
04
08
08
0a
0a
08
0a
0f
0e
0f
0c
11
0d
0c
0d
0a
08
08
08
05
07
03
07
08
06
05
04
0a
0c
0d
0c
0d
0f
0c
0a
05
09
08
10
07
0d
08
05
06
04
0f
07
01
08
09
07
0b
12
10
eb
ea
eb
ea
eb
ec
f0
ee
e7
e4
ed
ec
f0
eb
e3
df
e2
e4
e4
e2
e7
e3
e8
e8
ea
e7
e9
ec
ed
ea
ee
e9
e8
e7
e8
e6
e8
e4
e5
e3
eb
e9
e8
ec
ee
f1
f2
f6
f5
f7
f9
fb
fd
fb
ff
00
fb
fd
fd
00
fe
01
01
00
01
02
05
09
09
0d
08
0a
07
0a
0b
06
0c
07
0b
07
09
0a
06
06
09
05
0a
07
0c
07
08
0d
0a
0e
0e
0f
09
0c
0b
0d
0a
0e
0c
0a
09
0d
0a
0d
0b
0b
09
08
08
06
0b
07
0b
08
0c
0d
08
0d
0b
08
0b
0b
0b
04
0a
08
08
07
03
08
08
04
05
09
09
09
09
04
04
03
05
02
fe
00
fd
fc
02
fc
ff
fd
fd
fd
ff
fc
fe
fd
fd
f7
f8
f7
f9
f9
fb
fd
fc
f8
f9
fd
fb
fd
fa
fc
fd
fb
ff
ff
fc
fc
fd
fe
fc
00
fa
fb
fb
fe
fd
fc
00
fa
fe
fb
fb
f8
f7
f5
f9
f5
f7
f2
f2
f2
f5
f2
f4
f4
f6
f7
f7
f5
f6
fa
fb
fa
fc
f9
fc
fb
f8
f8
f7
fb
f7
f9
fb
fa
fd
fe
02
06
03
09
08
04
08
05
ff
f9
f6
fc
fd
f7
fb
01
fe
fd
fc
fc
fc
f5
ef
eb
05
0a
0a
04
03
05
00
f8
f8
f0
e8
ed
f3
f6
f9
fc
09
06
06
03
fd
04
01
01
05
01
03
fe
04
04
02
09
09
0a
12
11
12
10
0f
0d
0f
0c
08
0b
08
05
07
02
05
08
02
03
05
06
03
05
08
07
09
0a
0c
0d
0e
10
11
13
0e
0e
10
0a
0d
0b
07
04
04
01
01
08
03
04
06
07
08
05
05
04
05
03
00
fd
fe
f8
fb
f7
fc
f7
fc
f8
fc
fb
fd
f8
fe
f9
f9
fc
fb
f8
f9
fc
ff
02
02
00
fe
fc
02
fd
fe
fb
fc
ff
ff
01
02
03
03
05
07
08
08
02
01
02
02
04
06
03
00
02
05
04
01
04
01
03
07
03
06
01
05
03
03
00
ff
fd
fe
fd
03
ff
ff
fc
ff
fc
fa
fd
f8
f9
f6
fa
f5
f8
f9
f4
f9
fa
f5
f8
fa
fb
fb
f5
f5
f3
f4
f3
f1
f4
ef
ee
ef
f0
f6
f5
f6
f7
f6
fa
fe
ff
ff
fd
fa
f9
fe
f8
fc
fa
fe
fe
fd
fe
03
02
07
0a
0d
0b
0b
0c
0c
10
0c
0e
0a
09
0d
0c
0d
0e
09
0a
0a
0e
0d
12
11
13
1c
15
17
17
0f
07
ff
fa
f4
f1
f4
fc
fd
f8
ff
fe
ff
00
06
06
00
ff
fd
02
ff
fd
fa
03
00
fe
00
fb
f8
fc
ff
fe
01
00
00
ff
03
ff
02
02
01
02
00
fd
fb
fb
ff
ff
f9
fd
fb
ff
fb
ff
ff
fe
ff
fe
fe
fb
fd
fe
01
fe
01
01
00
00
fe
00
fd
01
ff
ff
fc
02
fe
01
fc
fa
fc
fa
fd
fc
fc
ff
00
fc
fc
01
fe
01
00
03
00
03
01
01
00
02
03
01
01
03
02
00
fe
02
01
fd
fd
01
05
ff
00
01
ff
01
05
05
00
03
00
05
01
02
02
04
06
02
04
05
02
02
02
01
02
02
fd
03
02
00
04
02
04
ff
05
05
ff
fe
00
fe
00
00
fe
00
ff
fe
fd
02
ff
03
04
02
05
04
05
04
ff
00
00
ff
02
fe
fd
00
01
fe
fc
00
01
03
01
03
fe
05
00
00
05
02
05
00
04
04
02
03
fd
ff
01
01
fd
01
fe
fe
00
fe
fd
00
00
00
fe
fb
fb
00
fa
ff
00
00
fc
fe
fd
02
fd
fe
fe
04
04
04
04
ff
fe
fd
00
ff
fe
fa
fd
fb
fd
fe
ff
fc
03
01
05
05
04
00
01
06
03
01
fd
fa
01
02
04
00
09
01
06
06
00
02
fc
fc
ff
05
fd
fc
03
02
fa
03
00
ff
00
00
01
ff
fd
01
00
fb
00
07
01
01
03
05
02
01
00
00
fb
fd
fa
fa
fa
00
fc
ff
00
03
03
00
06
ff
03
05
05
01
ff
03
04
00
01
ff
02
00
01
fe
fc
fe
fd
ff
01
fe
01
fe
00
ff
01
ff
02
03
03
01
00
ff
02
fe
02
fc
fd
ff
fe
00
03
02
04
ff
00
01
01
00
01
04
ff
02
01
02
00
fe
01
fe
fd
03
02
fd
02
01
01
04
00
00
03
00
00
ff
04
02
00
00
00
fe
01
fd
00
00
ff
03
01
02
ff
02
02
03
00
00
fe
03
02
01
01
01
01
00
ff
ff
fd
00
01
fe
00
ff
00
05
05
02
03
01
02
00
ff
ff
03
ff
fc
fe
fa
fe
01
ff
00
fc
ff
02
fe
00
03
02
03
fe
03
00
01
02
fc
00
fb
01
ff
ff
fe
01
ff
01
04
ff
00
02
02
00
03
ff
01
02
ff
01
01
00
fe
02
fe
00
00
02
fd
01
fe
02
01
fd
ff
ff
ff
00
ff
fe
ff
fa
01
fe
01
01
00
03
fe
02
01
fe
00
fb
fb
fe
ff
fb
02
05
0c
03
05
fb
fc
00
fd
02
01
00
ff
02
fd
02
fd
fe
03
00
02
fe
fd
ff
01
02
fb
fe
02
fb
00
05
03
f5
f9
ff
02
08
05
03
05
01
fe
ff
fc
fa
fa
fa
fa
fd
00
fc
fd
fe
01
02
00
04
ff
05
02
00
ff
02
02
fe
ff
02
ff
fe
ff
00
00
fe
fe
00
01
02
ff
00
fc
01
02
01
fe
02
fc
00
00
fe
ff
fe
02
01
02
00
03
01
02
02
fd
fd
01
01
fb
fd
fc
00
ff
ff
ff
fd
01
fd
ff
ff
fe
ff
02
01
fe
ff
00
fd
00
fb
fe
fa
f9
fc
ff
00
fe
00
fc
00
01
fd
fe
02
01
fe
fe
03
01
00
fd
03
fe
02
00
02
03
01
00
04
fe
02
ff
ff
02
00
fc
02
fd
02
fe
03
00
ff
01
00
fe
02
01
ff
02
ff
fc
fb
ff
fb
ff
f9
fd
fb
ff
02
01
ff
fd
ff
ff
04
fe
01
02
00
fb
fd
fc
ff
fc
fd
00
ff
00
fe
02
01
00
02
ff
02
03
fe
ff
02
ff
ff
00
fe
02
ff
fe
02
fe
00
02
00
03
fe
ff
ff
02
00
fc
00
fe
01
01
ff
05
02
03
05
08
06
01
03
05
ff
fd
fa
f9
f8
fa
f8
f9
fc
fc
04
00
00
05
ff
02
fe
fe
fd
04
ff
01
fd
00
fe
fd
fd
fe
00
ff
ff
fd
04
01
f9
fe
fc
fe
00
04
00
02
02
fd
fe
fd
01
01
fe
02
01
fc
ff
fe
ff
01
ff
fd
01
fc
fe
01
03
03
fe
00
fc
fe
fd
ff
fc
fe
ff
01
ff
03
fe
01
04
04
05
01
05
ff
ff
01
fe
fe
ff
06
04
03
05
02
02
03
01
06
01
00
fd
ff
fd
fb
ff
00
fb
00
fe
fe
00
fd
00
fe
f9
f8
f5
fa
f6
f6
f8
f9
fb
02
02
03
fe
fd
fd
fc
f8
fa
f7
f9
fc
fb
fe
fb
ff
ff
03
04
06
06
09
0b
09
05
09
07
00
02
05
00
02
09
08
0a
08
0a
0b
06
05
01
02
03
fd
fe
00
fc
fc
fd
fd
00
fd
01
fe
fe
fe
00
fb
f9
f9
f9
f9
fd
f9
fa
f9
fb
fd
fc
fe
ff
fd
ff
ff
01
fd
01
01
00
01
fd
fd
01
01
03
ff
ff
02
00
04
ff
00
02
04
00
02
06
05
06
03
01
01
02
01
04
04
01
07
05
06
03
07
02
08
03
06
03
07
01
02
02
01
01
02
03
05
02
05
01
01
02
00
01
03
00
fa
00
03
fc
ff
ff
ff
00
fe
fc
fe
fd
fc
00
fe
fe
fb
fe
ff
fe
fe
fc
fd
fb
00
01
00
03
f8
ff
fc
fb
fe
fe
f8
fe
fe
f7
fb
fc
fe
fe
04
05
04
fd
ff
fa
fc
fc
f7
fb
fa
f8
ff
fe
ff
fd
fb
fb
fd
fc
ff
ff
fb
f7
fb
fd
f9
f9
fb
fd
fa
ff
fe
fb
fb
f9
fc
fa
f9
f8
f9
fc
fb
f8
fb
f9
fc
fa
fc
fb
f9
fd
fe
f9
fc
f9
fa
fd
fc
fd
fb
00
fc
fe
ff
00
fe
01
00
01
ff
01
03
ff
ff
03
02
ff
04
00
02
05
06
03
06
06
06
00
02
03
05
03
04
06
02
01
06
03
06
00
02
05
02
04
00
06
01
02
00
01
00
00
02
01
04
00
02
fe
ff
01
fb
fc
01
fd
fc
fd
fb
fe
fc
ff
fd
fd
fc
fe
ff
f9
f9
f8
fd
fe
f8
fc
fb
f9
fb
fd
fe
fc
fa
f9
fa
fb
fb
fe
f9
fe
fd
ff
02
ff
fe
fe
fc
fd
02
ff
03
01
03
04
02
02
03
00
03
fe
04
00
01
03
01
04
00
00
05
01
05
06
04
00
01
fe
ff
00
ff
02
03
01
01
05
01
03
04
ff
fd
03
fe
03
fe
00
00
fd
01
fa
fb
fb
01
00
05
00
06
fd
fc
fc
03
ff
ff
ff
fc
ff
fe
fd
ff
02
04
00
ff
03
ff
00
07
00
fa
fd
00
02
03
fb
01
03
01
00
02
ff
01
02
01
ff
fe
ff
00
02
02
00
02
fe
00
fd
00
03
01
01
ff
ff
ff
fe
03
ff
00
fd
ff
03
01
ff
01
02
02
fe
01
fe
fe
03
fd
ff
02
04
fd
fe
ff
02
01
01
02
fe
02
ff
00
ff
01
01
00
03
ff
01
03
02
fe
fe
00
00
00
02
02
ff
fe
04
00
ff
fe
04
02
fe
fe
03
02
00
fe
03
ff
04
fe
ff
ff
05
05
fe
03
fd
fc
01
01
01
00
03
fd
01
ff
00
02
fe
02
ff
02
ff
00
02
fe
fc
03
fe
01
03
00
03
02
ff
00
ff
02
01
fc
ff
01
02
01
01
ff
00
fe
04
04
00
ff
04
fe
03
fd
ff
fe
02
fe
02
ff
02
01
02
03
ff
ff
02
04
00
fe
fe
ff
02
01
00
00
02
fe
04
01
01
02
ff
03
ff
ff
fb
ff
00
ff
ff
03
03
03
01
02
ff
ff
00
01
ff
fe
02
01
fd
02
fd
02
02
ff
04
ff
ff
03
ff
ff
00
ff
00
01
00
01
02
00
01
ff
02
03
ff
00
01
02
ff
ff
02
00
ff
04
01
ff
fe
fe
03
00
01
fd
fe
01
ff
fc
00
ff
fc
00
01
ff
01
ff
00
fe
ff
fb
01
fb
f8
f6
fe
fe
fc
fe
03
01
03
02
05
ff
03
02
01
04
02
01
03
ff
ff
fb
fd
fb
fe
ff
f9
fa
00
fb
00
01
fd
fc
00
00
02
00
01
fd
00
00
01
fd
fe
fd
fd
01
00
01
ff
ff
ff
01
fe
01
01
01
fe
03
fd
01
02
ff
00
fc
fe
fe
fc
ff
02
00
04
fe
02
03
03
ff
fd
ff
02
00
03
fe
fe
02
01
fe
04
00
fe
01
fe
ff
fe
01
02
03
fe
ff
04
ff
ff
00
fd
fe
03
00
00
00
01
00
00
ff
01
01
ff
01
ff
fe
04
ff
00
fe
ff
02
03
fe
01
fe
01
02
ff
ff
02
fe
00
fe
02
01
ff
02
03
01
fd
fe
02
02
fe
02
fe
01
03
01
fe
01
02
03
fe
ff
ff
ff
fe
fe
00
01
fe
02
ff
00
01
ff
01
00
02
ff
00
fd
ff
02
03
fd
ff
02
fe
02
00
fd
01
ff
02
fe
05
00
04
ff
fe
02
02
00
fc
fe
fc
ff
ff
01
03
fe
02
01
00
fc
fc
00
01
ff
fe
fb
fb
fc
ff
01
07
04
09
07
fe
fe
00
ff
00
ff
00
ff
ff
01
04
fe
fb
02
02
01
02
02
fc
01
03
00
fe
03
02
01
fa
04
08
06
06
05
ff
fe
fe
ff
fb
fa
fc
fc
fe
fc
02
00
fc
02
01
04
02
02
ff
00
04
07
02
05
02
02
02
01
ff
00
00
02
00
fe
fd
fd
fb
01
02
fd
fd
fe
00
01
ff
03
02
ff
fd
03
02
ff
fd
00
00
fd
01
fb
fe
02
fd
ff
ff
00
04
04
00
00
02
01
00
fe
03
02
01
ff
fc
ff
00
fe
02
01
00
01
02
fe
02
fd
00
ff
03
fd
01
fd
01
00
fe
00
02
01
fc
fe
02
00
00
00
ff
ff
00
03
ff
ff
01
fe
03
02
00
fd
00
02
00
01
fe
fc
ff
00
03
01
00
ff
ff
fe
fe
00
01
01
ff
fc
01
01
fd
fe
01
fd
00
ff
01
01
03
02
fd
02
ff
fe
00
ff
fd
fd
fe
00
02
01
00
02
fc
fd
01
fc
02
ff
fd
01
ff
01
01
fd
01
ff
ff
ff
fc
fc
01
fc
00
00
fc
fe
fe
01
fe
03
fd
02
03
00
00
00
03
03
00
04
00
ff
01
fe
ff
ff
fa
fc
00
fc
ff
02
01
00
02
fd
01
ff
f9
f9
f9
ff
fd
ff
fe
00
03
01
00
ff
02
fd
fe
02
ff
02
03
01
04
00
09
06
fc
05
01
03
02
03
05
00
05
07
0b
05
05
01
02
00
ff
00
01
06
03
05
07
08
02
04
02
01
02
01
04
04
02
06
03
02
06
04
01
00
01
ff
03
00
03
02
02
01
00
02
fe
00
04
00
04
03
00
fe
04
01
05
00
04
01
03
01
01
04
05
02
01
04
01
fe
02
02
02
03
04
00
02
01
02
05
ff
04
00
02
02
00
02
ff
04
00
03
01
ff
05
02
01
03
03
04
02
01
04
03
05
02
00
01
01
01
02
02
04
05
06
00
06
03
00
05
01
01
03
02
04
ff
03
03
03
01
03
03
06
01
00
01
04
02
04
03
05
02
05
00
01
04
ff
03
01
01
05
02
03
02
04
05
05
ff
fd
ff
02
03
03
04
06
00
00
02
06
00
05
03
03
04
04
04
00
00
03
05
03
02
02
01
04
00
06
03
02
03
02
02
05
03
03
04
03
04
ff
01
00
fd
03
fe
03
03
01
05
01
04
02
03
06
07
02
02
01
01
fe
fe
00
05
03
01
04
03
05
03
00
01
02
02
04
04
04
ff
01
03
01
02
08
06
04
00
ff
05
03
07
12
1f
19
0b
12
15
08
ff
fa
fe
00
0a
13
11
0e
13
0d
0e
0b
06
ff
fa
fb
f3
ef
f2
ee
f1
f7
00
03
0c
11
16
1b
1f
21
19
19
12
07
00
fa
ef
f0
e8
e7
e8
e9
ea
ed
f0
f4
f8
f6
f7
f5
f6
f4
f1
ea
e8
eb
e9
ee
eb
f5
f3
f6
fa
fb
fb
ff
fe
fc
f9
f7
f5
fa
f5
f4
fb
f8
fc
fa
ff
fb
ff
00
fe
00
fd
fb
00
fc
00
fe
00
01
01
00
02
01
01
01
03
04
07
02
02
01
07
04
03
06
03
05
09
07
03
04
05
06
04
09
07
05
09
05
08
03
05
05
02
05
07
06
09
0a
08
03
05
03
05
01
02
04
06
02
02
01
fe
00
00
01
02
02
03
00
fe
01
ff
fd
fd
fc
fd
fe
f9
fa
fd
02
03
01
ff
ff
01
01
fc
f8
fd
fc
f7
f8
fc
fa
01
ff
02
01
00
04
01
ff
02
fd
fa
f6
f6
f7
fa
f8
ff
04
05
03
08
07
0a
07
06
01
fe
fc
f5
f7
f8
f8
f8
fb
02
03
09
12
14
16
12
10
0c
02
f9
ee
e6
df
da
e1
eb
fe
16
1e
2d
33
2e
26
1b
14
0a
f5
e9
e9
e2
e4
e4
ec
ef
f9
fd
02
02
ff
ff
ff
01
00
fe
01
ff
fe
00
ff
04
01
02
03
00
fd
00
01
01
fe
00
fe
00
fe
02
03
fd
ff
ff
fe
03
fe
ff
fe
01
ff
fe
03
01
00
00
fe
fe
fc
00
fe
01
00
00
01
01
01
00
ff
fc
02
00
fb
fc
fe
01
03
00
02
ff
00
00
fd
00
01
02
fd
ff
01
01
01
fe
04
fe
00
02
00
ff
fd
02
ff
02
01
fe
ff
03
ff
fe
02
fe
00
fe
01
00
fd
fe
01
ff
02
00
ff
ff
fe
01
02
fe
fc
01
01
01
ff
00
00
fe
fd
00
01
02
00
01
01
ff
02
00
ff
ff
ff
fe
02
04
02
01
fe
fe
fe
01
00
fe
01
ff
00
03
ff
03
fe
03
01
01
fe
fe
fc
fc
02
03
01
ff
01
00
fe
ff
03
01
01
ff
02
fe
fe
01
02
01
ff
fe
00
01
00
00
01
01
03
02
fe
ff
fe
00
01
00
fe
ff
02
01
00
02
01
00
ff
ff
fd
fd
ff
01
04
00
03
02
fe
ff
00
fe
02
02
fe
ff
fd
03
02
fe
02
fd
03
fe
ff
01
01
02
ff
ff
03
ff
fe
02
00
fe
00
02
00
02
00
ff
fd
00
02
ff
fd
01
fc
04
01
fb
fd
00
ff
fd
ff
00
fe
00
05
08
06
06
fc
e6
ca
c0
d0
df
ed
ff
09
11
17
1d
1a
18
1c
13
11
0b
0a
07
ff
00
fc
01
03
00
04
04
05
08
01
03
02
fd
ff
fd
f7
fa
f8
fb
f7
ff
fd
03
02
07
09
0b
0c
0c
09
06
07
08
05
fd
00
fe
fb
fd
fc
fe
fd
01
06
07
03
08
0b
07
08
0a
0a
08
01
ff
03
00
03
02
fe
01
03
01
06
05
04
02
08
02
07
03
02
02
04
fd
fc
00
fc
fd
01
ff
03
01
06
07
05
03
06
05
03
05
00
01
fd
fd
fc
fd
fe
ff
00
fe
03
04
04
04
03
03
05
01
04
ff
fe
fe
00
00
f9
fa
fc
fc
fa
ff
fd
01
04
06
01
07
04
06
05
00
fe
fc
fe
f9
fb
fa
fc
fc
fd
f9
fb
fd
03
03
05
06
05
06
01
04
fd
fa
fd
fd
f7
fb
f6
f5
f9
fe
fc
03
01
02
04
03
08
02
01
fe
ff
fb
f8
f3
f4
f3
f5
f4
f8
fb
fd
fd
03
04
09
08
0b
05
02
03
00
f9
f8
f7
f2
f0
f4
f7
f6
fd
ff
01
04
02
05
02
00
ff
fd
fa
fa
f7
f8
f7
fa
fd
f8
fb
f7
fa
fa
fd
f7
01
fb
00
00
fe
fd
fc
01
03
04
04
fb
e6
db
e2
e6
ec
f6
fb
00
08
0e
0c
0e
12
10
0d
0d
0b
08
09
06
04
00
ff
00
fe
fa
fd
ff
fc
fd
fe
00
01
fc
02
01
00
fd
fd
02
00
fe
fd
00
fd
01
fe
ff
ff
fd
ff
00
fd
00
01
04
02
ff
00
05
01
03
00
01
fd
01
fe
fc
00
ff
fb
fe
01
00
ff
fe
fe
03
03
fe
00
02
fd
03
ff
fd
ff
ff
00
02
01
ff
00
01
ff
fe
00
ff
fd
01
fe
03
00
00
ff
ff
01
01
fe
fe
00
fe
ff
01
02
fd
02
ff
ff
00
01
02
fd
01
03
fd
00
fe
00
00
fd
00
02
ff
fc
ff
00
00
ff
ff
fe
01
fe
fe
02
fe
ff
fe
fc
01
fd
fd
fe
ff
01
01
fe
fb
fe
fd
00
fc
fa
ff
fd
ff
ff
ff
ff
fb
fb
00
00
fc
00
fe
fd
fc
fc
01
fd
fe
02
fd
02
00
00
ff
fd
ff
fe
fc
fb
fc
ff
01
ff
03
05
06
04
06
02
07
01
02
ff
fa
f7
f6
f3
f6
f2
f0
f2
f2
f6
fd
fb
00
08
0d
09
0e
10
0a
07
06
01
fe
fa
f9
f9
f9
fa
fd
00
fd
00
fd
f8
01
f0
ed
f9
f7
ee
f8
f5
f8
fc
fb
f7
f3
e6
e2
d8
d0
cf
df
ea
f0
fa
fc
01
05
03
03
01
fe
00
f9
f6
f7
f3
f1
f0
f2
eb
ed
f0
ee
f0
f8
f9
f8
fc
fc
fd
01
fe
01
fb
fc
fe
fe
fa
fd
f7
f9
fb
f6
f5
f8
f6
fb
fa
fb
fe
fd
fb
fb
01
00
00
fa
fc
ff
fe
fd
fe
fa
f9
ff
00
fd
ff
00
fe
00
00
02
00
03
04
00
00
fe
00
fd
02
03
01
03
02
03
04
ff
02
03
01
00
02
01
02
01
03
05
02
05
01
02
05
08
01
06
04
00
00
04
00
04
00
05
01
05
05
02
03
04
04
05
02
03
ff
ff
03
ff
fe
01
01
03
01
03
02
02
04
04
03
05
01
00
ff
fc
00
02
00
fd
03
02
04
03
02
01
02
02
00
fe
fe
fc
fe
ff
02
fd
fc
01
02
fd
ff
00
01
fe
ff
01
00
00
00
fa
fd
ff
f9
f9
fa
fe
00
fd
fc
fd
fb
ff
fd
fd
fd
ff
02
01
02
fc
fc
01
01
01
f9
fd
f7
f8
f9
fa
f7
f5
f6
f7
fc
fb
fc
f9
fa
ff
fb
f8
ff
ff
02
fd
f9
fa
fa
f4
f3
f3
f8
f3
fe
fa
ff
f9
f5
f2
f4
f6
ff
0d
10
18
1a
0e
ff
f9
f9
f7
f8
fe
0c
19
1a
19
1c
18
19
1c
1b
1f
1f
24
25
29
27
2b
27
27
25
25
27
22
24
1f
23
24
28
30
32
38
3a
3d
40
40
41
3b
3c
36
2a
25
1e
1e
18
16
16
19
19
1e
21
22
27
22
23
23
20
1e
1b
13
13
0f
0f
0c
08
08
07
0a
0d
0c
0f
0d
0c
0a
07
08
09
07
01
02
00
f8
f7
f8
f9
fb
fb
fc
f9
fe
fd
fa
fa
fd
fe
f7
f8
f3
f8
f6
f3
f6
f5
f6
f5
f5
f8
f7
f4
f6
fa
f7
fb
f8
fb
f6
fa
f5
f8
f7
f7
f7
f9
f6
f8
fb
f8
fb
fd
f9
fc
fc
fa
ff
fd
fa
fb
fd
ff
fb
ff
fb
fa
fc
fc
ff
01
fc
fd
01
ff
02
02
fc
01
fb
00
fc
fe
01
fe
fc
00
fe
02
fd
00
fe
00
00
ff
ff
00
fe
fd
ff
fc
00
01
02
00
fe
fd
fc
00
ff
ff
fc
f9
fc
fe
fa
fe
fd
fd
fd
fd
ff
00
00
fd
fd
fd
ff
fd
f6
f5
f4
f9
f7
fa
f6
fd
00
ff
ff
05
02
02
03
fb
f8
f3
ee
ed
ef
f1
f8
fb
08
07
0d
0d
0c
07
04
ff
f4
f4
f1
ec
f2
f0
f4
01
ff
fd
00
06
00
fe
00
fe
03
00
fc
04
00
01
03
ff
03
01
02
02
fe
01
00
ff
02
03
00
03
01
02
ff
01
02
00
01
01
ff
02
03
02
02
ff
00
00
00
00
04
ff
00
03
03
00
00
00
03
02
fe
01
fd
fe
00
00
ff
04
02
01
00
00
03
ff
00
00
01
01
fd
00
ff
00
fd
03
01
00
02
00
ff
00
fe
04
02
01
fe
fd
01
fc
ff
01
fc
02
fd
00
02
02
03
02
fb
ff
fb
ff
fe
00
ff
02
00
fe
ff
01
ff
05
00
ff
04
fe
fe
ff
00
fe
00
fd
01
fd
fd
01
02
ff
01
00
02
01
ff
00
fc
01
01
01
fd
fe
fe
00
fd
fe
ff
04
02
ff
01
ff
01
02
fe
fd
fe
ff
01
00
fe
fd
02
01
04
ff
01
ff
ff
fe
ff
ff
02
01
01
ff
ff
03
fd
fe
ff
03
04
ff
fe
fc
01
fd
01
fd
01
00
00
00
fc
00
fe
ff
03
ff
04
02
00
00
fe
02
00
03
01
00
fe
00
fe
00
fe
02
01
02
01
01
02
fe
00
fa
fe
fc
00
02
01
00
05
01
01
03
fb
03
fa
fe
02
03
00
01
04
fe
ff
00
00
ff
00
00
02
f6
00
f9
01
fe
03
fd
04
03
fb
fc
f1
ec
ec
04
3b
7b
65
4a
2d
1e
09
00
f9
f7
f6
f7
fa
fb
f9
ff
fe
fe
03
03
08
08
0b
0b
0a
0e
0d
0f
0f
0e
12
12
0b
0f
0a
07
0a
07
05
0a
07
05
0a
09
09
07
0a
0d
0a
0d
08
09
09
05
09
04
08
06
05
04
05
07
0a
07
06
08
07
09
07
0c
0b
06
0a
07
04
06
01
02
01
01
02
04
04
00
00
04
07
05
07
02
05
01
05
02
02
00
fe
00
00
ff
02
00
01
fd
02
ff
fe
ff
fd
fe
02
03
fd
00
fd
02
00
ff
fb
fc
fd
fb
fc
ff
fc
00
ff
ff
ff
fe
fd
fd
01
fe
01
fd
fc
fe
f8
f9
fd
fa
fe
fb
fe
fc
fc
f9
fb
fd
fe
fd
fb
fb
fd
fc
fa
f6
f7
fa
fb
f6
f9
f7
fb
f9
f8
f7
fb
fc
f8
fd
fc
fb
fa
f4
f7
f9
f9
f5
f6
fb
f7
fd
fb
fd
00
ff
fc
00
fb
fb
fb
f9
fa
f5
f7
f4
f3
f3
ee
ee
f1
f4
f6
f7
fc
fd
00
00
05
05
06
09
0b
0e
0d
11
0d
06
02
fc
ec
dd
c9
ba
cc
ea
fb
06
04
06
04
01
05
07
02
00
01
fe
fc
03
fe
04
05
fe
ff
fe
00
fd
fc
fe
00
fe
fb
04
1b
1a
0b
02
fc
fc
f7
fa
f8
f8
fe
fd
fd
ff
ff
fd
00
01
ff
05
01
01
05
02
02
03
ff
06
04
03
fe
03
fd
fe
fd
fd
ff
fb
fb
00
01
00
00
01
02
02
01
06
04
00
01
ff
ff
02
00
00
fe
fe
ff
fd
fc
02
01
03
03
02
00
00
00
01
01
fe
ff
03
00
fe
02
ff
fe
02
fd
ff
04
01
00
05
03
00
00
02
03
00
01
03
ff
fe
02
01
fd
fd
03
04
ff
04
03
04
00
01
04
03
ff
03
04
ff
fd
fd
fe
ff
fe
fe
03
04
04
03
03
00
ff
00
03
02
02
ff
ff
ff
ff
ff
00
ff
00
fe
02
fe
02
fe
00
05
02
02
04
ff
02
02
02
01
fe
fd
00
02
fd
ff
01
fc
03
03
00
04
04
04
04
02
03
fe
00
02
fd
fe
fc
fe
ff
01
ff
01
03
02
ff
06
01
05
02
05
02
ff
03
00
fe
fe
01
00
fe
fe
fe
fe
ff
fe
fb
fc
ff
00
fb
fe
ff
06
09
07
0a
0e
10
10
0e
0b
07
fe
f4
e3
e5
f3
00
06
05
02
02
fe
04
04
02
02
02
00
ff
05
02
02
01
02
fb
fe
ff
fe
fd
02
06
01
03
ff
07
00
fd
01
05
03
08
05
05
03
01
00
fd
02
01
02
fc
02
02
01
ff
03
04
06
01
05
07
03
0a
09
05
04
06
08
05
04
03
ff
03
03
fe
00
04
00
ff
03
03
05
01
03
03
04
03
02
01
01
00
03
05
01
00
05
03
01
04
ff
00
01
02
02
03
00
00
fe
fe
01
02
02
fd
01
fe
ff
ff
02
01
fc
ff
00
ff
fe
fd
fd
fc
00
fe
00
fd
02
fb
00
fc
fd
fa
fd
fe
ff
fa
ff
ff
fa
ff
fe
ff
00
fd
fb
fa
fc
fb
f8
fb
fd
fb
fd
fa
fe
fd
fb
fe
fe
fa
fb
fd
f9
fd
fc
f9
fa
fc
fe
fe
f9
f9
fd
ff
ff
fd
ff
fb
fc
fa
fb
fb
fa
fe
fe
fe
ff
fa
fb
ff
f9
fe
fd
fa
fd
fc
fd
fb
fe
ff
fe
fb
f9
ff
fd
ff
fd
fc
fe
fe
fc
fd
fd
ff
fe
fc
00
00
00
fe
fe
fc
00
fc
fb
ff
fb
00
fd
fe
fd
01
fc
ff
fe
fb
00
fd
f8
f8
fd
ff
fb
fc
fc
01
ff
ff
03
05
03
00
fe
f8
fa
f6
f7
fd
fc
03
fc
fd
fb
fe
00
04
02
fb
f8
fc
fc
fc
1a
18
14
0c
10
09
08
09
09
11
1b
16
1c
1c
1b
1b
1d
16
0e
0a
03
03
06
05
09
0a
11
11
11
12
16
15
15
17
14
12
0d
0a
02
fe
ff
f8
f8
f9
fb
01
08
0f
12
13
18
18
18
16
13
11
0d
0b
06
02
04
01
06
08
08
09
0c
0e
0b
0c
0b
09
09
07
0a
09
04
03
08
06
08
08
06
06
0a
05
05
09
07
08
09
05
05
05
05
07
0a
06
08
04
05
00
02
03
01
05
02
03
05
03
01
03
05
fd
ff
01
fe
fc
fd
fc
fe
fe
fb
f8
fb
fb
f8
fa
f8
fa
fa
f8
f6
f9
f4
f1
f6
f6
f4
f5
f4
f4
f4
f0
f2
f1
f4
f0
f3
f4
f1
f2
f1
f4
f0
f2
f3
f3
f0
f3
f2
f2
f0
f0
f4
f4
f7
f7
f6
f5
f7
f6
f2
f8
f7
f7
f8
fd
fe
fc
fc
fc
01
fe
fe
ff
02
04
04
06
02
04
05
05
07
08
0a
09
0d
0d
0e
10
0d
0f
10
0d
12
0e
12
14
11
0f
13
0e
11
13
15
13
14
15
14
19
16
18
17
1a
14
15
10
0d
09
0f
0c
0a
0f
16
17
1e
21
1c
1a
17
0e
0e
09
06
0a
0a
0a
06
0a
12
16
15
14
17
fd
fe
02
01
fe
01
01
fe
fe
04
00
01
00
01
02
02
02
00
00
03
01
fe
fd
02
01
04
fe
fe
01
02
02
03
01
01
fd
02
fe
02
01
fe
00
00
03
03
01
ff
02
03
fe
02
00
01
00
02
fe
02
fe
01
05
ff
ff
01
02
01
ff
02
01
00
01
02
01
fe
02
01
fe
02
00
01
02
00
03
00
02
00
02
02
fe
03
00
01
fe
ff
03
fe
00
03
fd
00
01
03
00
fe
00
03
00
ff
01
02
00
00
03
ff
fe
00
04
00
ff
ff
00
04
03
00
fe
ff
01
03
02
ff
02
00
00
01
fe
00
00
01
00
04
fe
04
ff
ff
00
01
01
fe
03
02
04
fe
fd
01
02
02
01
01
02
ff
fe
ff
ff
02
04
02
fe
01
03
00
00
ff
00
03
00
00
02
ff
ff
00
02
00
ff
fd
03
01
00
ff
00
ff
02
04
00
02
ff
ff
fd
fd
02
03
04
00
02
00
04
fd
ff
fd
01
fe
ff
01
03
02
02
ff
ff
fc
02
01
03
fe
00
ff
fe
ff
02
02
01
fd
00
02
00
fd
fc
03
04
ff
02
ff
00
fe
00
ff
01
fd
03
fb
00
03
fe
fe
00
02
00
00
00
01
0a
0e
06
fe
02
00
f7
fb
fb
fc
00
fb
07
03
12
21
2f
22
15
06
f9
f3
ee
e4
e2
e3
e3
e8
f0
f3
f5
fb
05
07
09
0d
0e
0f
0d
0c
0a
06
03
fe
fa
fb
f8
f8
f9
fd
fd
03
06
08
04
0b
09
09
06
03
ff
00
f8
fb
fb
f8
f6
f6
fa
ff
ff
01
02
06
0a
09
08
05
07
03
fd
01
fd
f8
f6
f9
f9
f6
fb
fc
fe
ff
02
06
05
05
0a
07
09
04
01
00
fe
fd
f8
f6
f9
fc
f8
fa
fd
01
03
02
03
02
08
06
05
ff
03
fe
fe
fe
fb
f9
fd
fe
fd
fc
ff
ff
02
03
07
05
09
04
03
02
01
01
00
ff
f9
fa
fa
fb
fc
fe
00
02
02
06
03
05
05
05
05
01
00
00
ff
00
fa
fc
fd
fa
fd
fd
00
00
03
05
0a
09
05
08
08
03
01
00
fc
fc
fc
f8
f7
f9
fa
ff
02
05
09
0a
08
0b
09
0b
09
07
01
03
fa
fc
f6
fa
f5
f5
fb
fe
fe
02
06
03
09
09
07
0a
0a
07
00
03
00
fc
f9
fb
f6
f8
fe
01
02
09
0a
0d
0f
0f
0b
06
fd
f6
ef
f0
ff
ff
fe
01
00
04
02
00
04
03
03
09
0a
0e
fd
ff
fe
fd
ff
01
ff
fc
fd
fc
fe
fe
01
00
0b
16
0f
0b
fe
fc
fd
fa
f4
f8
f7
fb
fe
ff
fc
ff
fb
01
01
fe
00
01
01
05
04
07
05
09
06
06
05
06
03
01
00
05
02
fe
02
00
ff
ff
00
02
fe
ff
ff
ff
02
05
04
04
03
02
fe
04
04
01
01
01
04
01
00
ff
02
03
ff
03
03
05
05
03
04
01
06
01
01
01
01
02
04
01
03
00
04
03
03
02
ff
05
ff
00
00
01
03
02
fe
04
03
01
fc
01
00
ff
fd
02
ff
fe
03
02
02
03
02
01
01
03
00
fd
fe
fd
00
02
02
01
01
fe
03
02
ff
fe
fe
00
03
01
ff
01
fe
01
01
01
fe
fe
00
01
ff
00
00
00
fe
ff
04
00
04
03
00
fe
00
fe
fc
01
fe
fd
fc
ff
ff
03
ff
02
01
03
01
01
02
00
03
fd
fe
03
fe
fd
fd
03
ff
fd
00
ff
ff
00
04
02
03
00
fe
fe
fd
fd
fc
ff
01
02
ff
ff
00
02
00
ff
ff
fd
fd
ff
01
fe
02
00
06
02
08
06
07
05
04
01
ff
fb
f0
eb
f4
00
00
ff
00
02
04
02
ff
fd
fd
03
fe
02
02
fd
fe
fc
f8
fa
f7
fb
05
05
01
01
00
fb
f7
f8
ec
ea
ed
f5
f8
f6
fd
ff
06
08
0c
13
17
1b
1a
18
18
15
14
0d
09
01
f8
f3
f4
f0
ed
e9
ef
f0
ef
f7
fe
fd
04
08
09
0e
10
10
08
0a
0a
08
01
02
01
fe
ff
ff
fd
fe
ff
00
02
06
07
05
06
08
04
01
05
03
00
01
fc
02
01
00
00
04
03
00
04
03
01
04
05
01
00
ff
ff
02
02
fe
02
01
01
01
ff
00
06
02
02
00
01
00
01
fd
00
fc
fd
00
01
00
04
02
03
03
01
fe
ff
02
01
00
02
fd
fe
ff
ff
03
fd
01
04
ff
04
fe
02
ff
02
01
00
fe
fe
fb
ff
02
fc
fe
01
02
01
03
01
ff
fd
fc
fc
00
02
02
02
ff
01
01
fe
ff
fd
03
00
02
ff
02
00
fe
fe
01
fe
02
01
ff
ff
00
04
05
00
ff
03
00
fd
00
ff
01
ff
fc
ff
fe
02
03
05
01
02
01
00
ff
ff
03
ff
fe
ff
ff
ff
fb
01
ff
ff
04
ff
01
06
07
05
06
06
07
05
04
04
fd
fa
fa
f5
f5
f9
f4
f2
f5
fa
f6
01
08
02
02
03
06
0b
05
0a
fe
01
05
dd
e3
ee
fa
0b
0b
10
19
1a
18
19
1b
1b
21
2d
2c
25
15
07
f9
f6
f9
fc
fd
08
0b
10
16
17
1c
17
1b
11
12
09
08
05
07
08
05
07
0d
0e
11
14
12
16
12
0e
0e
0a
0a
0c
0a
08
0f
10
12
14
11
14
15
1a
16
15
15
15
14
13
10
0b
0c
09
08
01
03
02
01
03
09
09
0d
0c
0a
0c
08
04
01
02
ff
fd
f9
f5
f9
f9
f7
fc
fd
02
00
00
04
00
ff
00
00
fc
f9
fa
f4
f8
f2
f5
f9
f9
fa
ff
02
ff
03
01
02
02
00
fe
00
fd
f9
fc
f8
f9
fe
00
fd
fe
03
00
06
07
06
04
03
fe
fe
01
01
fe
00
fd
03
00
00
06
03
02
04
07
07
05
06
05
02
ff
01
ff
02
ff
00
00
01
07
01
04
02
03
03
05
04
00
00
00
02
ff
fd
fe
f9
fc
fe
fb
ff
00
fd
02
04
02
01
00
fd
ff
f8
f6
f5
f1
f6
f1
f0
f4
f7
fa
f8
fc
fd
fe
ff
00
fd
fb
fa
f5
f1
ed
eb
e4
e7
e3
ea
ea
f2
f5
fe
07
08
0e
09
0b
06
fc
f1
e6
da
d7
d9
e5
f3
00
0d
14
0e
0c
06
07
07
00
ec
e5
de
f9
01
00
04
ff
ff
fe
00
fe
fc
03
fe
00
02
fe
ff
fb
01
fd
01
fe
fe
03
ff
ff
02
02
fb
fe
ff
02
fe
ff
ff
02
02
01
01
fe
ff
ff
01
02
01
fc
ff
ff
04
03
fe
ff
ff
00
fe
03
00
00
01
ff
02
02
fc
01
00
01
fe
ff
00
01
01
01
00
fd
ff
ff
fe
05
00
00
01
04
00
ff
ff
02
01
fe
fe
fd
01
02
01
ff
ff
02
00
00
ff
01
00
02
02
fe
00
fd
fd
02
00
ff
03
03
02
03
01
fe
fd
03
02
fc
01
fb
00
01
01
00
fd
ff
01
02
04
01
02
fd
fe
01
ff
02
fd
fe
01
00
fe
04
02
03
02
ff
ff
fd
01
fd
02
fe
00
03
fe
fd
01
fe
03
02
02
ff
fd
fb
fd
02
ff
00
ff
fe
03
ff
fe
03
01
01
02
fd
ff
fd
fe
00
fe
03
00
02
01
fe
00
ff
02
00
00
03
fe
ff
fe
02
02
00
fd
01
02
fe
02
00
fe
00
fe
02
03
fd
ff
00
03
fe
00
00
ff
ff
00
00
00
01
00
fe
01
02
fe
fd
fd
fe
01
02
03
01
00
00
01
01
f9
fc
fe
04
fe
00
01
ff
00
fd
fd
ff
03
ff
00
01
07
0d
0a
0f
0d
08
04
0d
06
10
0b
18
15
18
16
05
04
09
07
06
07
ff
fd
fd
f8
f6
f4
f3
f6
f4
f6
fa
fc
fd
01
01
06
07
08
13
10
14
17
18
1b
1e
21
1f
1e
1f
1d
1e
1b
18
16
0e
09
07
04
ff
f9
f6
ef
ee
ed
ea
ea
ea
ef
f0
f1
f2
f5
f9
f6
fd
fd
fc
00
fe
fd
02
ff
01
fd
fb
00
fe
ff
fc
fe
fa
fd
ff
fb
ff
fd
fc
fe
f9
f9
fc
f9
f9
fe
f9
fb
fe
fe
fc
fd
ff
fb
ff
fc
fb
f9
fb
fe
f9
f8
fa
fd
fa
fe
fe
fe
f9
f8
f8
fb
f9
fd
fd
ff
fa
fb
fd
00
02
fe
02
fe
fe
fd
fc
fc
f9
fb
fa
f9
f7
f5
f7
f4
f9
f5
f6
f3
f5
f2
f7
f7
f3
f8
f7
f5
f6
fc
f7
fc
f9
fb
f8
fb
fb
fd
f7
fa
fb
f9
fe
00
01
fe
02
ff
05
00
00
04
03
03
04
04
02
fc
fd
fd
f9
fe
fd
fa
fb
fa
ff
ff
fe
02
01
03
06
03
01
06
03
06
03
06
05
03
03
08
05
08
0a
06
06
08
06
03
05
fd
fb
f6
f5
f0
ed
e9
e5
e9
f6
fb
08
09
0a
11
0d
0c
05
0d
07
fe
fe
00
04
fb
ff
04
fe
fc
fb
03
00
fe
04
0b
02
09
02
00
fb
02
04
02
03
02
01
00
ff
fe
fa
fa
f9
f5
f9
f8
fb
f9
ff
ff
01
ff
04
04
0a
05
09
09
09
0d
0a
0d
0c
08
09
08
05
02
01
02
fc
ff
fc
fa
f8
f1
f1
f3
f0
ee
f0
f5
f3
f8
f6
fd
ff
03
03
06
08
05
04
04
08
04
02
01
02
02
fd
fe
02
fd
fc
ff
fa
fa
fe
ff
fc
03
ff
02
05
05
05
01
01
05
03
05
04
ff
02
fe
fe
00
ff
fc
ff
00
fa
01
ff
fc
fa
fb
fe
fc
fc
fc
01
02
fd
ff
03
00
ff
01
03
00
fd
fe
00
fd
ff
fd
fa
fb
f9
f6
f6
f6
f9
f8
fb
fc
ff
fd
fe
00
ff
ff
fd
fd
01
ff
01
01
03
00
01
04
03
04
02
02
08
08
04
06
03
05
01
05
ff
00
03
ff
fd
01
fd
ff
00
ff
fc
01
00
fd
fd
fe
ff
fe
fd
fe
fe
fa
fa
fa
f8
f7
f9
f7
f7
f3
f3
f2
f1
f4
f6
f4
f3
f4
f2
f3
f6
f3
f6
f8
f6
f8
f3
f6
f2
f6
f3
fa
f5
fc
fc
03
07
0b
08
0a
07
07
0b
0a
04
09
06
ff
ff
06
02
01
00
02
22
1c
20
22
1e
1c
1f
1f
1b
14
10
15
0d
0b
0a
05
05
07
06
05
0b
06
0a
0d
0b
0e
0d
0d
0e
10
0f
15
17
11
11
10
0d
05
01
02
fd
fb
f8
f4
f6
f4
f6
f8
ff
fe
01
ff
01
fb
f5
ec
e2
d4
c8
b9
ae
aa
a5
a3
a9
b0
c0
ce
e2
f0
01
16
26
3a
46
51
58
61
61
63
61
57
51
49
42
35
2d
24
1a
10
0a
06
01
fc
f5
f8
f4
f6
f4
f2
f3
f0
f1
ef
ee
ee
f0
eb
f1
ee
f2
f2
f3
f3
f3
f3
f5
f7
fa
f9
f7
f3
f9
f9
f6
fa
f7
fa
fd
fd
02
04
06
09
08
02
04
07
00
02
02
fe
02
fd
fd
fe
01
04
06
04
0b
07
0d
0d
0c
10
0f
0b
10
11
0b
0d
0b
10
0f
10
0f
0e
0f
0d
12
0e
10
0f
0f
0a
0b
0c
06
06
04
02
07
06
04
fe
ff
ff
fe
fc
f7
f7
f2
f5
f2
ec
e8
e8
e8
e2
e3
e2
dc
df
df
dc
e0
dc
e1
dc
e1
de
dc
e0
dd
dd
dd
dc
dd
da
db
de
e0
e1
e8
ea
ed
f1
f6
f7
fb
fe
04
06
0c
0d
16
18
16
1a
17
1d
1c
1b
1a
17
26
23
16
17
16
1a
18
15
1c
1f
05
0a
05
06
06
ff
f2
f3
ef
e1
db
e8
ec
f7
f7
f7
fa
fd
02
fd
fe
fe
f5
f3
f5
f4
f0
f1
f2
f3
f1
f5
f2
f2
f1
f1
f4
f5
f3
f3
f0
ee
ec
ed
ec
ec
e9
e9
e6
eb
eb
f5
f8
fd
04
06
0d
11
11
11
18
17
18
1a
18
13
0f
0a
06
04
ff
fb
f7
f5
f5
f6
f1
f4
f3
ef
f3
f0
f6
f6
f6
f4
f6
f4
f7
fb
f7
f6
f5
f3
f7
f3
f7
f7
f8
f6
f6
f8
f7
f9
f9
fb
f9
fc
fa
fc
fa
f7
fa
f9
f9
fb
fa
fc
fb
fb
ff
fc
fe
01
02
00
05
03
05
03
02
02
03
02
06
05
07
01
04
04
06
07
06
07
08
09
07
08
0b
0c
0b
0a
0c
0d
0c
09
08
0b
08
0a
06
0b
0a
08
06
08
0a
0a
07
06
09
07
09
09
03
03
03
04
07
02
06
07
04
01
00
03
02
01
01
00
f9
fd
fc
f7
f5
f3
f2
f6
f5
f2
f1
f2
f8
f7
f7
f7
fa
f8
f9
f8
f4
f3
f4
f4
f5
f0
f5
ef
f3
f0
f1
f1
f6
f7
f4
f6
f5
f7
f8
fb
f9
fb
fe
ff
ff
01
01
fa
f5
f4
f2
f5
f5
f6
fe
00
00
00
fa
f3
02
0a
08
08
ff
00
fa
f9
fa
00
ff
00
07
06
08
08
02
03
ff
fd
fe
02
02
fe
01
fe
01
01
fe
02
02
03
01
02
01
00
03
01
04
01
01
00
02
05
04
03
06
06
02
01
05
00
ff
fe
fe
fe
00
ff
04
ff
00
00
00
05
02
03
03
03
02
04
00
ff
02
02
01
fe
ff
fd
ff
00
fe
00
02
02
04
00
00
ff
04
01
ff
02
01
00
04
00
05
07
06
03
07
03
08
04
02
03
05
ff
02
00
fc
fb
00
01
00
02
fd
fd
fe
ff
00
02
01
02
fe
01
fe
ff
fe
fb
ff
fd
fa
fd
fc
00
fe
ff
ff
fd
03
ff
fe
fe
fe
fa
fd
fa
fa
fb
fa
00
ff
02
fc
fe
02
00
00
ff
fe
fe
fd
00
fd
fe
fe
fd
f8
fd
fe
fa
fb
fe
fd
fc
fe
fe
01
01
01
ff
fb
02
fe
ff
fc
fd
fe
fd
fd
00
02
03
01
00
01
ff
01
ff
fa
00
fd
fa
fc
01
fd
02
01
01
05
06
07
00
03
03
ff
00
00
f9
fd
fd
fd
00
fe
fe
03
03
04
02
00
04
03
02
00
02
fd
fa
fc
fd
02
02
01
02
06
02
fc
fc
01
01
02
03
04
01
fb
fc
f8
fb
01
04
07
ff
fb
ff
01
08
08
05
04
00
01
03
ff
fd
fe
fa
fc
06
02
05
04
04
08
09
06
0a
08
08
05
07
03
fd
fb
f8
f6
f5
ef
f1
f5
f6
f8
f9
fe
02
05
0a
09
0b
0e
0c
06
07
06
04
00
fa
f7
f9
fa
fa
fa
fb
f9
ff
00
02
05
02
05
04
06
00
00
fd
00
fe
fd
fd
fa
fa
fa
fb
fc
fb
01
fe
04
04
04
04
03
00
ff
fe
fc
ff
fd
fc
fd
00
fc
fc
fc
02
fd
03
05
04
02
01
03
ff
01
fd
ff
fc
fa
fa
fe
fd
fa
fb
fe
00
01
04
03
02
03
04
00
fe
fe
01
ff
fb
00
fe
f9
ff
fd
fe
01
02
02
01
05
06
03
00
06
01
ff
fd
00
ff
fb
f9
fe
fc
00
fd
01
ff
ff
05
04
08
05
02
01
02
01
fe
01
fb
fc
fd
fc
fb
fd
fb
fc
02
01
02
03
09
04
09
08
05
00
fd
fd
00
fa
fb
fc
fc
ff
fd
05
03
04
06
0c
09
09
0b
07
08
04
00
fb
f8
fa
f8
fb
f6
fb
fe
01
03
04
03
07
0b
05
04
07
02
fe
fd
fc
fa
fc
fa
fa
fc
02
04
07
0a
0a
09
09
03
02
00
05
ff
01
07
06
03
01
f8
01
ff
04
01
fe
fc
06
05
ff
ff
fb
fd
ff
ff
02
0a
0a
04
ff
ff
fb
00
f9
fa
00
fc
fd
fe
fd
00
ff
ff
00
fe
00
00
fd
ff
04
fe
01
00
05
04
03
00
fe
00
02
01
fe
fc
02
00
02
fe
01
04
fe
fe
ff
00
01
03
00
03
03
02
fd
01
02
03
fe
01
00
01
04
03
04
00
01
03
00
02
ff
04
01
02
01
01
05
00
04
00
01
ff
02
fe
02
ff
04
04
03
fd
02
fd
00
fd
01
ff
00
00
01
01
ff
fd
01
ff
ff
00
04
03
00
ff
04
02
fe
01
fe
00
fe
ff
ff
01
03
ff
00
03
02
01
ff
01
02
fe
ff
01
01
03
01
01
fd
ff
00
00
00
02
fe
ff
ff
01
01
00
02
fe
03
01
03
fd
03
02
03
02
ff
00
01
02
fe
01
ff
00
01
01
03
04
01
01
02
01
04
01
00
fd
01
02
02
01
01
03
02
02
ff
04
00
02
02
01
ff
ff
01
fd
fc
01
02
02
02
ff
03
00
03
05
00
ff
fe
fe
ff
02
ff
fd
ff
ff
02
03
01
05
06
03
ff
ff
f6
f9
fc
00
0a
06
01
02
01
ff
fa
ff
07
00
ff
fe
fd
00
fd
03
03
ff
00
00
fc
fc
fe
fc
ff
fd
01
ff
ff
07
09
0b
03
02
ff
02
ff
fd
fe
f8
f8
fd
f9
fc
fc
fc
fb
fd
03
03
03
07
05
07
08
09
0a
08
03
03
ff
01
01
fe
05
01
00
02
04
02
07
06
03
04
01
04
02
02
02
00
04
00
03
06
04
01
07
02
02
05
00
02
03
03
ff
04
03
ff
01
00
00
05
04
02
04
fd
00
ff
02
01
fe
00
01
ff
00
ff
05
ff
01
00
02
01
03
04
00
00
02
fb
ff
00
00
ff
00
00
06
02
03
04
01
01
00
03
00
ff
ff
00
00
ff
03
02
00
04
04
03
06
01
03
ff
ff
01
fe
02
fe
00
05
01
04
05
01
02
02
00
02
04
05
04
06
01
00
ff
05
04
02
05
00
03
03
05
06
01
07
07
05
02
05
05
02
07
01
03
03
03
06
04
04
01
02
07
04
06
02
02
06
06
04
01
01
03
06
02
02
01
02
07
04
04
06
04
04
05
03
06
03
04
03
04
02
ff
00
02
00
ff
05
06
03
06
07
02
02
fe
fd
03
02
f8
fd
03
02
fe
00
03
fa
01
01
05
fb
03
03
fd
fc
ff
06
0b
00
fe
f1
e9
df
d8
de
e0
e7
eb
ee
ff
05
01
05
05
fa
f9
ee
ef
ec
e7
e6
ea
ef
f1
f2
f4
fb
00
00
05
04
0a
08
0a
0c
0e
11
0e
11
12
14
15
15
16
11
12
14
11
0d
13
0e
13
16
14
16
16
14
10
10
10
0c
07
0d
0d
0b
0c
0d
0b
0d
0f
0e
0d
0a
04
07
00
fd
02
ff
ff
fb
fe
fe
01
ff
02
fe
02
02
fe
fa
fb
fd
f7
f7
f9
f9
fb
f9
f9
fa
fa
f9
fb
f9
fe
fb
fb
f9
f7
f6
f8
fa
f7
f7
fc
f9
fc
fd
fd
f8
fc
f9
fc
fc
fb
fc
f9
fc
fb
fe
ff
fe
00
ff
ff
03
03
00
01
00
01
00
02
00
01
07
04
09
05
05
04
0a
06
05
0a
07
04
09
09
09
09
05
07
07
06
0d
09
0c
08
0c
0a
08
06
06
04
04
04
08
03
0a
08
08
06
07
09
06
07
05
ff
02
fd
fd
fc
ff
fb
fd
01
01
02
01
06
07
05
05
03
00
00
fa
f7
f3
ef
ef
ec
ed
f1
f5
f7
fc
06
09
0c
12
0e
12
08
02
ff
f3
e7
e1
d7
d3
d3
e4
f0
ff
06
10
0b
08
08
02
fc
f2
eb
e9
ec
e6
e9
e7
eb
ff
02
fc
ff
01
00
01
02
01
00
fc
fd
02
04
01
01
00
02
fe
00
02
01
ff
00
00
01
02
01
01
02
fd
fe
02
02
00
03
ff
00
04
02
ff
03
01
00
fd
ff
01
fe
01
ff
04
04
03
00
fe
00
00
fd
02
01
02
fd
ff
02
01
00
05
03
01
04
fd
fd
00
02
01
fd
02
01
00
02
01
01
00
ff
fe
00
fd
01
01
fe
ff
03
00
02
ff
01
03
02
02
00
fc
ff
01
ff
ff
ff
02
01
ff
fe
03
ff
fe
02
ff
ff
ff
02
ff
04
00
ff
fd
fe
02
fd
fc
00
01
fd
00
04
ff
02
ff
fd
fd
02
00
00
ff
ff
00
00
00
ff
ff
00
fc
00
00
01
ff
02
ff
fd
fe
fd
fd
01
ff
fd
fe
ff
fd
fe
02
00
02
00
ff
01
02
fd
fd
fe
01
fc
01
02
fd
fe
fe
02
00
01
ff
00
fe
00
ff
ff
ff
fc
00
00
00
00
fe
ff
ff
00
fd
01
00
01
01
fd
fe
fd
ff
01
00
02
fd
00
02
fd
fe
02
ff
02
ff
02
fe
04
00
fd
fe
00
00
00
fd
fe
01
02
02
fe
00
03
02
fc
fe
02
ff
fe
00
fd
01
01
ff
02
ff
fe
fc
02
fc
01
02
01
fd
ff
fe
00
fc
03
01
03
00
ff
00
fe
fd
00
fe
00
fe
00
ff
fd
03
01
02
03
02
00
00
fe
fe
fd
fe
02
fb
fc
fb
fc
01
fc
fd
fe
01
00
ff
05
04
01
02
05
04
00
ff
ff
01
fb
00
fd
fe
fd
00
fd
fd
fe
04
02
02
05
02
01
00
03
01
ff
02
01
fe
fe
fb
fc
fd
00
ff
03
fe
03
fe
01
04
00
00
03
ff
01
ff
02
fe
ff
fe
00
04
02
fd
01
02
02
ff
ff
01
02
fe
fe
01
fe
02
02
00
fc
02
01
01
01
02
02
fe
fe
02
00
ff
04
ff
01
00
04
01
ff
03
02
00
01
fb
fc
01
fe
01
03
ff
fe
04
00
ff
04
00
ff
01
fe
00
fd
fe
02
ff
ff
02
01
02
02
ff
fd
ff
ff
01
03
03
02
ff
01
fe
00
fc
02
01
ff
ff
02
01
00
01
01
03
00
03
ff
03
00
fe
fe
fd
fe
fd
fc
fe
fc
00
00
02
01
02
01
02
03
05
01
04
ff
ff
02
fe
00
fe
00
ff
fe
fe
02
01
00
01
00
fe
01
fd
ff
01
00
00
00
ff
02
04
ff
04
fd
f9
ff
00
fd
03
fe
ff
fe
fd
ff
ff
fd
fe
00
ff
07
04
00
ff
03
04
fe
fe
ff
05
00
05
0c
0d
04
02
fd
fd
fa
fa
fe
fa
00
01
00
00
fd
fe
fd
fd
02
02
05
02
01
00
04
03
05
06
07
03
01
00
04
02
00
fc
01
02
00
ff
fe
00
00
01
00
04
03
01
fe
ff
01
fd
00
00
fd
ff
fe
01
fe
02
02
fe
ff
fe
02
01
ff
01
fd
ff
00
fc
02
ff
02
fe
ff
fe
fe
fe
01
02
00
01
00
ff
fd
00
fe
01
fe
00
ff
fd
fd
03
00
fd
00
ff
03
02
fe
fe
fd
ff
fd
02
fe
01
01
00
01
02
00
00
fb
fe
fe
00
ff
01
01
fd
ff
02
00
01
01
fe
00
fd
02
ff
01
fc
fb
ff
fe
fd
00
fd
02
fc
00
fd
01
03
ff
00
fe
fe
fc
01
ff
00
fc
fc
fc
fc
fe
fe
01
fe
03
fe
fd
03
fe
00
00
fe
ff
fb
01
fc
00
fc
fe
ff
fe
fe
fd
fe
00
00
00
01
00
fd
ff
01
01
00
ff
01
fd
fd
fe
00
02
ff
fe
00
01
fd
ff
fe
01
01
fe
ff
02
02
00
03
01
04
03
02
ff
fa
f8
f0
f1
f7
ff
03
03
02
fd
05
01
01
01
fc
02
00
03
fb
00
00
06
04
03
03
fc
07
06
02
03
03
03
ff
08
06
08
08
03
fc
00
00
fd
00
02
04
07
07
03
07
03
05
04
00
03
01
ff
04
04
04
00
01
01
06
06
02
04
03
00
01
ff
00
02
02
00
04
02
01
01
04
01
02
05
03
01
03
04
00
00
02
03
03
05
02
04
01
03
06
00
01
00
05
02
05
00
01
04
ff
ff
00
02
ff
03
05
01
02
ff
02
02
02
00
ff
ff
03
ff
02
01
00
02
04
04
00
00
ff
00
01
04
02
00
02
00
06
03
02
04
ff
01
02
04
04
01
fe
02
00
05
01
01
02
05
04
00
02
03
02
03
ff
01
05
06
04
01
04
01
01
01
03
03
02
05
02
05
ff
00
02
04
03
05
00
04
03
02
02
ff
03
02
04
04
fe
04
00
fe
04
01
02
02
ff
04
04
05
01
00
03
01
01
fe
04
00
00
01
00
03
ff
01
ff
05
00
05
ff
fe
02
fe
04
04
00
04
00
03
00
02
01
02
02
fd
ff
02
01
ff
fe
01
01
fe
01
ff
03
03
ff
01
01
fd
fe
01
04
01
fe
04
ff
01
00
02
01
03
ff
02
02
00
00
ff
fe
f9
f8
fa
ff
f9
05
18
30
35
29
2b
1e
17
10
ff
f6
f3
f1
f5
f5
fa
fe
07
0b
0a
0e
0d
0c
0e
06
05
03
f9
fa
f6
f3
ef
ee
f0
f5
fa
04
0d
0f
1b
19
1d
19
18
0e
0a
02
fb
f0
eb
e8
e3
e4
e3
e9
ea
ea
f3
f4
f3
f5
f6
f0
f0
ee
e8
e7
e7
e4
ec
ed
ee
f2
f5
f8
fc
f7
f8
fa
f7
f8
f7
fa
f6
fb
fb
f9
fc
fe
fd
ff
05
06
01
03
03
04
04
03
04
00
03
06
02
02
08
09
08
09
09
08
06
07
04
07
06
02
04
02
06
01
06
06
09
06
05
01
01
05
02
03
ff
03
00
ff
02
00
fa
fc
00
ff
03
02
00
fe
ff
ff
fe
f9
f9
fb
f8
fc
fd
ff
fb
ff
ff
fa
fc
fd
fb
f9
fb
fc
f7
f8
f8
f9
00
fc
fd
fd
fd
02
fe
00
fc
fe
fb
f8
f9
fb
f9
fc
fe
00
06
05
05
08
08
08
01
02
fe
fa
fb
fa
fc
ff
02
05
07
0b
14
13
16
17
15
0f
0b
06
00
fe
f7
f9
f6
fc
fd
07
0c
17
26
2e
35
32
29
21
18
09
fd
f5
eb
ef
f3
ff
05
0b
0f
1d
25
2f
39
31
21
23
15
08
0a
ff
03
04
ff
02
01
fe
00
fe
00
01
ff
03
fe
00
fe
03
fe
fd
01
02
fe
ff
fb
fd
00
01
fd
ff
01
00
00
fd
00
01
fe
01
fd
02
ff
01
fe
fd
01
01
03
01
ff
ff
fd
01
03
fe
fe
02
02
00
ff
02
02
fc
fc
ff
01
fe
ff
01
ff
02
01
01
01
fd
fd
fe
ff
03
01
05
05
ff
04
01
ff
03
00
fe
ff
04
00
03
ff
04
00
03
01
fd
01
01
fd
fd
00
02
03
00
fd
02
00
ff
01
ff
01
01
00
01
00
fc
02
00
ff
03
03
fd
01
fe
fe
00
fe
fe
02
00
01
02
00
00
02
fe
00
fd
00
01
04
03
00
00
01
fe
ff
00
fe
02
01
ff
ff
01
02
02
01
03
01
ff
fe
00
03
ff
03
ff
02
ff
ff
02
02
fe
00
01
00
03
fc
02
01
fc
ff
02
fe
05
01
03
02
00
fd
00
fd
ff
01
00
03
ff
ff
03
00
03
00
00
03
ff
fc
fd
ff
01
02
fe
00
03
ff
01
ff
00
03
03
fd
01
02
fe
00
fc
00
fd
03
04
01
00
00
ff
00
05
04
fd
fe
fc
01
03
ff
00
02
00
01
00
01
03
00
fd
01
ff
00
01
fd
00
00
f8
fb
00
fe
02
f6
fb
00
fb
fe
fb
fc
fd
f3
ec
f2
00
04
06
0d
0e
0d
09
07
04
fe
fd
fb
f8
f7
f6
f7
f6
fb
fa
fd
f8
fc
fa
fd
fa
fa
fc
fa
ff
fd
00
fd
fe
fb
00
00
01
ff
fe
fd
ff
01
fe
fb
fa
fe
01
fc
00
01
02
01
fd
02
00
fd
fc
fd
01
01
00
fa
ff
fe
00
fa
ff
fd
ff
fb
fe
fd
fe
ff
ff
02
04
01
ff
ff
fe
ff
fe
00
fe
fb
fc
fc
fe
00
00
fe
fc
fe
ff
ff
01
01
fe
fe
00
00
ff
fc
fc
02
02
fc
fd
ff
ff
fd
02
ff
02
ff
01
00
00
ff
fd
02
ff
fc
02
ff
fd
fe
fe
ff
01
00
01
02
ff
00
ff
03
fe
02
fe
01
ff
ff
fb
fd
01
fc
fe
fc
fd
03
00
02
00
00
06
03
01
00
04
02
01
01
fd
fd
fc
fa
f9
00
00
fe
fd
02
fd
ff
ff
fd
fc
01
00
fe
fa
fa
fc
fd
fe
fe
fc
fc
03
ff
00
03
04
07
03
04
02
06
03
ff
ff
02
02
fc
fd
00
01
fe
03
03
02
01
03
04
04
02
02
03
fe
fd
f9
fe
fc
01
fe
05
fd
fe
fc
00
ff
fe
fc
ff
fe
02
fe
fb
fd
06
fd
fe
fe
00
01
fd
fe
05
fd
01
fb
f1
f4
f5
f7
fe
fd
03
01
03
03
02
01
01
01
fe
03
03
fe
00
fe
01
ff
02
fd
fe
01
fd
00
fc
00
fa
fb
fa
01
ff
fd
ff
fe
fc
fc
ff
00
fd
00
fd
ff
fd
ff
fd
fa
fe
fa
f9
f9
ff
fd
fe
fb
fa
fe
fa
fe
fd
fe
00
fb
ff
fc
fd
fc
fd
ff
00
fb
ff
ff
01
ff
02
02
fd
02
00
00
fe
fe
01
fe
01
ff
fe
00
fb
fc
00
ff
01
00
fc
00
fe
01
fe
01
ff
01
fd
01
01
02
fd
fd
00
fc
fc
fe
01
fb
fd
fb
fd
01
fc
01
00
ff
01
00
ff
fe
fb
fa
ff
fc
fa
fc
fb
00
00
fb
00
fe
03
00
00
01
fd
ff
03
03
ff
02
fd
fc
ff
fc
02
fe
fc
fe
fc
ff
fe
fa
fd
fb
fe
fa
fd
fe
fb
00
fe
02
00
01
00
03
06
05
01
00
05
00
fe
fe
02
ff
fd
01
03
01
fe
01
ff
06
02
04
03
05
02
01
01
04
fd
02
00
00
00
fd
fb
f8
f9
f8
f7
f7
f8
f7
f7
f4
f8
f3
f8
f7
fb
f5
fb
fe
fc
03
01
fd
fe
02
01
00
01
01
03
00
ff
03
07
06
01
04
ff
00
05
03
01
03
05
02
04
05
04
09
02
05
fd
fd
04
04
03
01
05
02
05
04
05
02
05
00
00
04
fe
00
03
04
01
00
06
00
06
03
01
03
03
00
06
01
03
02
05
02
08
04
08
06
05
03
08
05
02
07
05
03
03
04
06
05
01
00
05
03
03
fe
03
04
01
04
01
01
02
00
01
01
03
03
01
04
01
04
03
02
02
02
02
04
04
06
05
03
02
03
07
05
02
06
05
03
04
06
07
08
03
02
02
05
04
06
02
08
04
02
03
06
04
07
05
07
07
03
04
04
02
00
02
06
03
01
05
05
05
07
02
02
03
00
03
01
05
01
00
04
06
05
ff
00
03
05
04
ff
01
02
03
ff
03
01
02
01
05
02
01
02
01
00
05
00
01
00
02
04
01
02
00
04
01
04
01
01
00
ff
04
ff
03
05
ff
03
02
01
03
fe
03
ff
04
02
03
00
04
01
00
05
02
01
01
04
01
ff
04
00
06
07
06
02
04
03
02
00
01
ff
ff
ff
00
02
03
07
08
02
09
03
03
02
03
01
ff
fe
0a
01
01
ff
02
ff
05
01
00
16
16
17
0c
10
0e
03
00
04
04
fd
fe
03
02
0b
12
14
11
16
0e
09
05
02
fa
fc
fb
fb
fb
fb
fd
fd
02
fe
02
02
ff
fa
fb
fa
f8
f6
f2
f7
f6
f9
f9
f5
f6
f9
f4
f6
f4
f6
f4
f3
f4
f9
f7
f7
f9
f7
f8
f5
f1
f6
f1
f6
f5
f2
f5
f9
f4
f5
f8
f7
f8
f5
f6
f6
f9
f9
f7
f6
fa
fa
fa
f9
f7
fc
fd
fc
f6
f7
f7
fc
fd
fa
fc
fe
fe
fb
fb
fb
fb
fd
fd
01
01
fe
00
ff
00
fc
ff
ff
04
03
03
04
00
00
00
01
00
03
04
04
03
03
02
01
03
04
03
02
01
ff
03
03
05
02
04
00
02
fd
01
04
02
00
04
ff
04
01
05
02
03
01
03
02
07
06
04
05
09
06
09
08
0a
0c
0a
0d
08
0e
08
08
08
08
0c
0b
10
10
13
13
15
12
10
12
11
0e
0d
0c
0b
0a
09
0c
08
0f
0d
13
10
11
15
16
11
0e
0d
0a
03
02
02
fc
f7
f6
fb
f6
f6
f9
f8
fb
f4
f6
f2
f0
ef
ed
eb
e4
e9
e7
e6
e2
e5
dc
da
d7
cf
d1
c8
bf
b6
c2
ce
d9
dc
e2
e6
e8
ec
eb
e8
e7
f4
f8
03
0a
0f
00
fe
00
fd
fa
01
03
fe
03
00
fe
fb
03
02
ff
ff
fe
fe
ff
fd
00
00
fc
03
00
02
ff
02
02
fc
fe
fd
ff
fd
fd
00
00
00
00
fe
fd
fe
01
02
fd
03
fd
fd
fb
00
00
01
fd
01
fc
01
02
fc
fc
00
01
03
01
fd
01
fd
fe
01
02
fe
01
fe
fd
00
00
00
01
fc
fd
ff
fe
04
05
fe
fe
ff
ff
00
fc
00
fd
03
fe
00
03
fd
00
02
ff
fd
fd
fc
fe
fe
02
03
00
03
fe
01
fc
01
fc
01
00
fd
03
02
00
03
00
ff
01
ff
fd
02
00
fd
00
00
02
ff
fe
00
00
02
ff
03
04
02
02
fd
00
fc
fe
fe
03
fe
03
02
01
03
04
fe
fd
00
01
00
02
ff
00
fe
04
01
03
00
04
00
ff
00
01
ff
01
00
03
02
02
ff
02
02
00
ff
fe
fe
fc
00
01
00
00
02
01
00
02
02
01
00
ff
00
03
ff
fe
01
02
03
04
ff
01
ff
02
ff
ff
03
05
ff
ff
02
05
00
04
03
fe
00
01
fc
00
02
03
00
05
02
04
02
fc
ff
fd
ff
01
ff
03
05
03
00
02
01
fd
02
06
ff
fe
02
02
fa
00
fe
06
ff
fe
fd
00
fb
03
ff
fe
fd
ff
00
04
05
01
01
01
f3
e6
ee
fd
04
0c
10
0f
08
09
05
02
fc
f8
f7
f7
f8
f4
f9
fb
f7
f9
fd
fc
ff
fd
ff
03
02
ff
00
01
fb
00
fe
fa
fe
fd
fa
fc
fe
ff
00
02
02
01
00
00
03
00
fd
fe
fc
fd
03
fd
ff
fd
02
fe
03
02
fe
fd
fe
fd
fb
fe
fb
fb
ff
00
fb
ff
01
00
fd
fc
fe
01
fe
fb
01
fb
fe
fa
fd
fc
fc
fc
00
fc
fd
fc
fe
ff
fd
ff
00
fe
00
ff
ff
01
fb
fc
fb
fa
fc
fd
fd
fd
00
01
01
01
00
00
03
00
02
ff
fd
fc
00
00
ff
00
01
fd
00
00
00
fe
ff
05
02
03
03
03
06
01
04
01
02
fe
00
ff
00
00
ff
02
fd
ff
03
04
00
03
07
01
06
07
03
02
03
03
00
fd
00
00
01
00
02
ff
00
03
04
04
06
03
03
02
03
03
01
fb
fd
fc
fc
ff
fb
fd
fe
00
ff
02
ff
02
06
06
03
04
03
01
02
04
02
05
ff
ff
ff
00
03
05
00
00
02
05
04
02
05
04
08
06
08
09
03
03
fe
00
03
01
01
00
fc
03
03
fe
fa
02
fe
fc
fd
02
01
01
fe
fc
ff
fd
01
02
fe
ff
f9
e4
d8
dc
eb
fa
04
05
0c
0d
0d
0a
09
09
06
05
ff
02
fe
f8
f6
fa
f8
f7
f6
f8
f6
f6
fb
f7
fc
f8
fb
fb
fe
fe
00
fd
fd
03
fd
01
fd
ff
fe
fc
fc
fc
fb
fd
f9
fc
fe
f8
f8
fc
fa
fb
f8
fe
fc
fc
fb
fd
fc
fb
fd
fb
fe
fa
fc
fa
fe
f9
ff
fd
fe
fa
f9
fb
fa
fb
ff
fe
fb
fe
fa
fa
fe
fd
fa
f9
fd
ff
00
ff
fb
00
fe
fb
fe
fb
fe
fc
fb
fe
ff
ff
fb
ff
fe
fc
fd
fd
fc
fc
fd
03
ff
00
fd
ff
01
ff
ff
ff
02
fd
fc
fc
01
fe
fe
00
03
01
03
01
05
02
06
06
00
02
02
00
01
ff
03
ff
fd
fd
fb
fd
00
01
00
03
05
05
05
03
08
04
05
03
03
fe
01
fd
02
fd
ff
ff
fe
00
05
01
03
07
07
06
02
05
01
02
02
00
02
ff
ff
ff
ff
fb
ff
02
02
04
01
03
02
02
03
07
03
06
07
05
01
06
04
04
02
06
05
04
06
02
05
02
02
09
09
09
0a
0f
0c
01
fc
fd
ff
fd
fd
00
fc
02
fc
03
01
fc
01
fe
f8
03
04
03
02
05
01
ff
09
01
02
ff
06
04
fe
ff
0b
0b
05
fe
fe
ff
fc
fe
fe
03
00
02
04
05
06
07
06
04
03
04
ff
ff
02
03
01
01
05
03
07
01
05
06
00
01
03
03
fd
02
02
00
fe
fe
ff
01
00
ff
fc
01
ff
00
fb
fd
fe
00
01
fc
fc
fc
fe
fd
02
fd
02
01
ff
fe
00
fd
00
02
fe
05
00
02
00
01
01
03
00
03
03
03
fe
ff
03
04
03
ff
03
04
02
05
01
05
04
02
06
00
06
04
04
02
03
05
03
03
05
02
02
05
07
04
04
06
03
02
05
06
02
08
06
03
07
06
05
05
03
05
08
04
07
07
08
02
05
06
03
06
06
08
03
07
04
07
09
04
09
09
06
09
06
03
02
06
01
03
06
05
08
06
06
08
06
09
06
07
06
05
07
06
06
08
08
03
08
08
04
07
04
08
05
07
08
09
08
07
04
07
09
0a
07
04
05
04
06
04
06
06
08
04
03
05
08
06
06
01
04
03
05
06
07
05
06
03
04
02
03
02
05
05
02
0a
05
05
01
03
00
03
ff
00
09
08
01
fe
ff
06
01
02
ff
01
09
01
ff
f8
fb
00
0d
19
1b
1d
22
19
19
16
0b
ff
f9
fa
fa
02
0f
14
17
1d
1e
20
1e
19
16
11
0a
09
02
ff
02
04
04
02
08
07
0a
0c
0c
08
0b
06
04
04
fe
fc
fc
fa
f7
f8
f5
f5
fa
f9
f9
f4
f7
f6
f3
f3
ed
f1
ed
f0
ef
f1
ec
ee
f1
ed
ee
eb
eb
ef
ec
ee
ec
ed
ec
e9
ec
eb
ed
f1
ec
ec
ee
ed
ef
f0
ef
ee
f0
f1
f0
ee
ee
f6
f4
f8
f4
f7
f6
f7
f8
fd
fe
fa
fa
ff
fe
00
02
ff
04
04
03
03
09
05
07
0a
06
08
08
0d
0d
0c
0e
0d
0c
0c
0a
09
0b
0a
0b
0b
0c
0c
08
09
05
08
04
02
01
00
00
02
fc
fd
fc
fd
fa
fb
f6
f9
f2
f2
f4
f3
f3
f2
ec
f0
ed
ed
ec
ed
ea
ed
ef
ea
ed
e8
eb
e9
e6
eb
e8
e9
ea
eb
f0
ef
f3
f5
f7
f3
f4
f6
f7
fb
fc
f9
fa
fe
02
05
07
0b
0c
12
12
13
18
16
17
16
1a
18
1d
1c
1d
1e
22
1f
24
26
2a
2b
2c
31
30
2f
2f
30
2c
2e
27
2b
2c
26
1c
22
20
23
21
1b
1f
20
15
15
0a
02
fb
f1
f0
f6
f7
ff
09
00
00
01
02
00
00
fd
02
fe
00
06
fc
fd
ff
fe
ff
00
03
01
fd
04
ff
00
00
fe
02
fe
fd
03
02
ff
fe
03
01
fe
fd
ff
fe
00
00
fd
01
01
fd
02
fe
01
02
01
02
ff
00
fd
fe
03
fd
02
ff
04
03
00
00
fe
03
fd
01
03
fd
fd
fe
00
03
00
ff
02
02
01
02
fb
fc
ff
fc
ff
01
02
ff
fe
ff
05
01
fe
ff
ff
00
ff
00
04
ff
ff
01
fc
fe
ff
02
00
ff
fe
01
ff
ff
ff
02
03
fe
00
00
ff
fe
fe
fc
02
fd
01
02
fe
03
02
fd
01
00
02
fd
03
01
02
fe
02
00
03
00
02
ff
fe
02
03
02
02
03
fe
02
01
fe
fe
fd
03
00
01
fe
fe
03
02
01
02
02
01
01
fe
ff
fc
fe
ff
00
04
03
01
04
ff
01
fd
fd
02
01
00
fe
02
00
03
ff
04
01
00
01
ff
00
01
fe
02
03
02
ff
ff
ff
00
04
03
ff
00
00
00
fc
02
ff
fd
01
02
03
01
02
00
00
ff
ff
02
fd
ff
ff
01
fe
fe
03
fe
00
ff
01
02
05
fd
00
02
fd
fb
01
ff
fd
fe
01
fe
fe
00
00
05
fe
fd
fa
00
03
03
ff
01
ff
ff
01
01
ff
ff
01
fe
01
fe
fe
03
fd
fd
fc
fe
01
00
00
01
05
ff
04
00
03
02
ff
ff
01
fe
fe
00
fc
fb
00
01
01
fb
01
01
fe
02
ff
02
01
01
fe
fe
fd
00
fb
fd
fe
fd
fd
ff
ff
fe
00
00
00
03
03
02
02
03
04
07
03
01
ff
02
03
fc
01
01
ff
00
00
fc
ff
00
ff
01
02
02
04
00
05
00
04
04
fd
fc
02
01
ff
00
00
ff
02
01
fe
01
00
04
ff
ff
ff
01
fe
00
fe
02
02
00
fd
ff
fb
fc
fe
fc
03
02
02
02
04
00
02
01
01
ff
04
00
01
05
01
03
00
00
05
03
01
ff
03
03
01
fe
00
02
01
03
03
02
fe
01
02
00
02
03
ff
00
fe
01
02
03
00
02
fd
00
ff
ff
03
03
fe
fd
ff
02
02
02
03
fe
01
fe
fe
ff
ff
fd
00
01
02
ff
02
00
fe
04
00
ff
00
04
ff
00
00
fd
01
02
01
fe
ff
fc
fd
ff
02
04
01
01
03
01
ff
03
ff
fd
00
fd
fc
fd
fe
ff
fd
fb
fe
02
00
ff
01
07
06
05
06
fd
ff
02
fe
fc
00
01
00
02
fd
fe
00
fd
fe
fe
ff
01
02
00
02
ff
ff
fe
03
00
02
ff
fc
fb
fc
f8
fe
ff
02
03
05
02
01
01
03
01
03
fd
01
02
01
fc
fc
fe
fe
00
01
fd
fd
ff
fb
fc
fe
fd
00
fe
ff
00
ff
fe
02
02
ff
fd
fd
01
00
fd
00
fe
fe
fd
ff
fe
01
fd
01
ff
ff
ff
02
03
03
03
00
ff
00
fe
ff
00
ff
fb
00
00
fc
fa
fe
fe
fd
fd
ff
fd
fe
01
01
02
03
00
02
03
fe
01
01
fd
01
fd
fd
00
ff
fe
fb
00
ff
fc
fe
00
ff
fc
fe
fd
00
00
fe
fe
fd
ff
01
fd
01
04
03
04
01
02
00
01
03
03
03
ff
02
fe
fe
ff
fe
01
01
03
03
02
02
03
ff
00
00
01
03
05
04
00
02
03
01
fd
00
00
00
02
01
fd
02
fd
fe
01
00
02
01
fe
02
fc
ff
ff
01
01
00
fd
01
01
ff
02
00
00
01
01
ff
00
00
fe
fe
01
ff
00
03
02
01
01
02
fe
03
fd
fd
fe
03
01
00
01
fb
fc
00
fe
01
fd
03
fd
02
03
ff
03
01
fd
fc
00
fc
fc
fe
ff
fd
03
06
05
01
04
fd
fe
00
ff
fd
00
fe
fe
fd
00
01
00
fe
fb
02
00
fc
ff
00
fc
fc
fb
fa
fe
fe
ff
fe
ff
fe
fb
f9
fa
fc
ff
00
fc
00
fb
fd
fd
fa
ff
fb
ff
fd
fb
01
fc
fd
00
f9
ff
fb
fa
00
fd
fb
fd
01
00
fe
ff
fe
fa
fc
fd
fa
fa
fe
fb
00
01
01
ff
00
00
fc
fd
fd
fd
fc
fc
fa
fb
fe
00
fc
fb
fc
fc
fa
00
00
00
fb
fb
00
fb
fa
fa
fe
fd
fb
00
fc
fe
ff
00
01
fe
00
fe
fe
fc
00
fe
ff
fe
00
fb
02
02
01
ff
fc
fe
fc
fc
01
fd
00
fb
fb
fa
fe
fe
ff
00
ff
fa
fd
00
00
ff
fc
fb
02
fd
00
fe
fe
00
02
fe
01
01
ff
00
01
02
ff
02
00
01
fc
01
01
00
ff
00
fd
fd
02
fd
ff
fd
fc
fe
00
fd
fd
fc
ff
fd
00
fb
fb
fc
00
00
fd
fd
ff
ff
ff
fd
fe
ff
00
fc
fd
ff
00
ff
fd
fe
fd
01
00
fa
ff
ff
fd
f9
fd
fc
fb
fd
ff
ff
fb
ff
fb
fb
fc
ff
00
fe
ff
fa
fc
fc
fb
fc
fb
fc
ff
fe
00
00
00
fd
fc
fb
00
fc
f9
fb
fc
fb
01
ff
fd
fe
01
ff
fd
fb
fa
fa
00
fb
fe
00
ff
fd
fb
00
f4
02
03
01
fe
02
03
fe
fe
00
01
ff
fd
fc
fa
ff
00
00
fe
ff
fc
fc
fe
fe
02
04
04
ff
02
03
fe
fd
fa
fd
fc
fe
fb
ff
00
ff
ff
03
01
fd
fc
ff
ff
fa
fb
fc
fe
ff
00
fe
fe
01
fc
fe
fb
fc
00
00
04
06
00
02
05
03
00
00
ff
00
00
00
01
fd
01
fe
fe
00
04
04
01
05
03
06
01
00
03
01
02
01
05
01
ff
00
00
02
00
fb
fd
fe
fa
fd
fe
ff
fe
fc
fe
05
02
07
06
01
05
01
01
06
07
06
07
06
07
01
04
ff
fb
f7
f6
f1
f2
f0
f4
f5
f7
ff
02
06
0c
0b
0d
0a
0a
0b
05
03
02
fe
00
ff
02
fe
04
03
01
fc
00
fd
f5
f7
f5
f0
f0
f3
f4
f8
ff
02
0a
0d
0c
0a
0e
0b
06
06
01
fa
fb
f4
f4
fa
fd
fc
ff
ff
04
05
03
02
05
ff
00
01
fc
fe
fd
fb
fb
fd
fc
01
03
03
06
04
05
07
06
03
fe
fe
fc
fe
ff
fe
fd
00
fe
00
03
03
02
04
02
00
00
fe
fe
fa
fb
ff
01
01
06
04
ff
ff
02
fd
fc
fe
04
00
ff
fc
fe
01
fd
fe
02
fd
01
fa
ff
01
fe
00
04
ff
02
fe
02
00
fe
fe
02
fd
04
ff
01
01
06
00
01
ff
01
ff
02
03
01
01
00
fe
ff
02
00
00
ff
02
02
00
02
00
01
02
fe
03
ff
ff
00
fe
fe
03
00
02
01
04
ff
00
05
ff
fd
00
02
02
fe
fe
02
ff
03
01
00
01
04
ff
ff
02
02
00
03
00
00
ff
00
ff
02
00
03
fe
01
02
fe
fd
01
fc
02
03
00
fe
00
02
01
01
01
02
01
fe
00
ff
02
ff
04
02
fd
ff
ff
ff
00
fe
03
03
01
ff
fe
ff
ff
04
01
ff
00
01
02
02
03
00
00
fe
00
fe
01
00
00
04
03
00
01
02
00
00
ff
fd
02
fe
ff
fd
fe
03
ff
01
01
03
02
01
ff
01
01
fd
fd
fe
01
00
01
01
00
fe
04
01
00
02
fe
00
03
00
fb
01
ff
fe
01
00
01
01
fd
fd
02
00
03
02
fd
02
03
fe
01
fe
03
03
02
03
ff
00
fe
02
01
fe
fd
ff
03
00
03
00
00
ff
ff
00
ff
01
02
ff
00
fd
fd
fc
03
01
00
00
05
01
06
ff
fe
fe
fa
ff
02
fd
fe
fe
01
06
03
03
fd
fe
00
02
01
fe
fc
03
03
ff
fa
06
0a
11
03
03
03
06
0f
0f
0d
10
15
16
16
06
05
fd
ff
04
05
04
06
01
02
ff
f7
fa
f7
f2
f3
f5
fc
fd
fd
ff
04
07
0b
0c
0e
11
15
16
16
17
15
13
15
11
15
10
0e
0e
0c
0c
0a
0a
07
03
00
ff
fd
fa
ff
fd
fb
fb
f9
f6
f7
f6
f9
f9
f5
f9
f6
fc
fa
fa
f9
fb
fc
fd
fa
fb
fb
fc
fc
fc
02
fc
ff
01
00
00
03
00
00
04
ff
ff
01
fd
fa
ff
f9
f8
f9
fb
fd
f8
f9
fe
fe
fd
fa
ff
fd
fb
01
fc
ff
fc
00
fd
fb
fd
fe
fa
fc
f9
f8
f9
f8
ff
fd
fa
fb
00
ff
fd
ff
fe
ff
fd
fd
fc
fc
fd
fe
fc
fe
fb
fc
fb
fb
fc
fe
03
fd
03
02
02
01
00
01
fe
fc
fd
fa
f8
fa
fc
fa
f6
f7
f9
f9
f5
f8
f7
fb
f8
f6
f6
fa
f6
f7
fa
f5
f8
f5
f8
fb
fa
fc
f9
fd
fb
ff
fc
00
fe
ff
fb
ff
02
fd
02
02
00
ff
05
02
06
06
0a
06
09
0b
09
0b
0c
10
0f
0b
0e
10
0d
0d
08
06
05
01
f9
f6
f2
f1
e9
e6
e5
e8
f3
00
06
05
02
04
04
09
0c
07
06
02
08
07
08
06
00
00
fd
00
04
09
0a
04
0d
0f
05
0c
08
ff
fa
04
06
08
0a
09
06
01
05
ff
fc
fe
fe
fc
f8
f7
fc
fc
fc
ff
fa
fd
01
fe
fe
fe
02
02
03
04
0a
0b
0f
10
0c
0f
14
10
13
0d
12
10
0b
0d
0d
0b
09
05
04
01
07
03
02
ff
fe
00
02
03
00
02
00
fe
03
00
03
fc
ff
fe
02
02
01
03
ff
00
03
ff
02
02
fe
ff
fe
fc
fe
00
00
00
fe
fa
f9
ff
fd
ff
f9
fa
fd
01
fc
fd
fd
01
00
fe
01
fc
fe
fc
fc
fc
fb
fe
f7
f8
f9
f7
fc
fb
fb
fc
fa
fd
fc
ff
fe
00
01
ff
04
04
00
ff
fd
01
fc
fb
00
fd
ff
f8
f9
fa
fd
f8
f8
fb
fb
00
ff
fb
fc
fd
fb
fa
ff
fa
fd
fa
f8
f9
f9
f7
f7
f9
f8
fd
f7
fb
fe
fa
fc
fa
fb
00
ff
fe
01
fd
fa
f8
fc
f9
fd
f9
fc
f8
f8
f6
fd
f7
fd
fb
fa
fc
00
01
fc
fc
00
01
fd
01
ff
fd
03
ff
02
02
01
03
01
06
00
02
fe
fc
fa
f6
f4
f5
ef
f2
ee
f2
f9
f7
f2
f5
fd
fc
05
07
06
f7
fd
00
fe
fb
fb
02
07
03
0c
13
11
0d
0b
18
1b
1d
1b
1a
1f
14
0c
09
10
0e
0e
0d
08
03
04
04
06
08
05
07
0b
0a
08
07
07
04
03
07
01
03
fe
02
03
00
04
07
04
09
0b
06
07
0a
05
01
01
fa
fc
f6
f8
f4
f6
f6
fc
f9
01
02
ff
03
02
f8
f5
ec
e0
d7
c8
be
b9
b7
b9
b9
c5
d1
e0
f0
00
11
21
2f
3f
4b
4f
58
57
50
4f
46
40
35
2c
29
1e
1d
12
10
0d
07
04
01
ff
fd
f7
fa
f6
f4
f3
ee
ef
ec
f1
ec
e8
eb
e7
e6
e7
e9
eb
e8
ed
ef
f0
f5
f7
f7
f6
f9
f7
f9
fb
f8
fd
fe
fd
fe
ff
04
06
04
06
0a
0b
0d
0d
0b
0b
0a
03
08
02
02
04
02
05
06
09
08
0d
0f
0d
0f
0b
0e
09
08
07
07
09
05
07
05
02
03
05
04
09
0c
0c
0d
0f
0c
0c
0b
09
08
0a
06
04
05
01
fe
fc
fd
fa
f5
f3
f6
f8
f5
f5
f4
f6
f7
f3
f8
f6
f9
f5
f7
f7
f8
fc
f7
f8
f7
f7
f4
f3
f2
f4
ef
ef
f5
f2
f0
ef
f3
f0
ee
f3
f1
f1
f5
ee
f2
f4
f3
fa
ff
03
07
05
09
0c
0e
0c
13
0c
0a
09
0a
f1
f3
fa
fb
f2
ef
f1
f1
f1
f4
f3
f4
f5
f2
f5
f5
f4
f0
f5
f5
f2
f3
f0
ec
f0
ec
ec
ed
f2
f6
f3
f5
f6
f7
f8
f6
f0
f0
eb
e9
e7
e8
e6
e6
e6
e4
e8
e8
e5
ec
ef
ef
f3
f3
f7
f9
fb
ff
fe
03
07
04
06
08
08
0b
08
0d
11
0f
12
0c
0e
0e
11
09
08
03
04
fe
fc
fb
fb
fe
fc
f8
fe
fb
fc
fa
fa
fa
fa
fa
fe
fc
fa
fd
fa
f8
fd
f7
f7
fc
fd
fa
fd
f8
f9
f9
f8
fb
f5
fa
fa
f6
f6
f9
f8
f6
fc
fc
fc
fc
f8
f9
fa
fd
fe
fe
fc
fe
ff
fe
03
02
01
02
02
03
08
05
04
07
07
04
07
07
07
09
07
06
0c
0e
0f
0e
10
0e
09
0d
09
08
0d
0a
09
0f
0d
0e
0b
0d
0b
0a
0a
0d
08
08
0b
07
07
03
06
00
01
00
00
05
05
05
05
05
05
04
00
03
01
fe
fb
fe
fa
f6
f8
f9
fa
f9
f9
fb
fb
f7
f8
f9
f9
f6
f7
fa
f4
f6
f6
f4
f3
f2
f1
f1
f6
f5
f5
f5
f3
f7
f5
fa
f8
f8
fb
fa
fc
fb
f9
f4
ee
ef
ee
f1
f6
00
ff
fb
f7
f3
f1
ee
f1
f0
f3
f8
f8
f5
04
02
05
09
02
00
fd
fd
00
f9
f8
fb
f9
05
01
07
07
07
07
05
06
01
01
01
03
fe
03
fe
ff
03
03
01
ff
02
00
01
01
00
04
02
04
04
01
ff
00
02
01
03
06
06
05
06
03
07
08
06
04
07
00
04
01
fe
03
00
00
ff
00
01
ff
05
04
05
08
03
02
01
03
02
04
03
04
01
00
04
05
03
04
05
02
09
08
03
01
07
07
00
04
01
00
00
02
05
04
ff
04
05
04
04
fe
fe
02
fc
fd
01
01
00
03
01
01
04
01
05
05
05
05
02
ff
fd
ff
fc
01
00
ff
00
03
00
02
02
01
00
02
fe
fb
fe
fb
fa
fb
fc
fa
f9
fd
f9
fd
fe
fe
fd
fd
fc
00
fd
fc
fc
ff
fb
ff
fd
f9
fe
fd
fd
fb
fa
fe
fa
ff
01
fe
fc
02
fd
ff
fe
02
03
fe
fd
02
01
01
fc
02
fe
fe
ff
01
03
01
ff
01
fc
fc
ff
01
fb
ff
fb
fc
00
fe
fc
fe
01
02
02
ff
fc
fe
f9
fb
f8
fa
fb
ff
fe
fc
02
02
00
00
05
00
fe
fc
f9
f6
f8
fb
ff
fc
02
ff
00
fc
fd
02
03
ff
fb
fa
ff
fa
01
04
00
01
ff
00
fe
fd
01
ff
04
03
04
ff
04
00
03
03
f6
e9
d5
d1
dc
df
eb
f2
f9
05
0c
0f
14
14
19
15
16
13
10
11
0e
0a
04
01
ff
fe
fe
fe
00
ff
fb
01
fc
00
00
00
00
01
04
01
03
04
04
01
03
fc
fd
fb
fe
fb
00
fc
fe
00
fb
00
fc
01
fe
fd
01
01
02
03
00
ff
03
00
03
02
fd
ff
00
fd
00
fe
fe
02
01
03
fe
fe
fd
ff
01
fe
fd
01
fe
ff
01
02
02
fc
ff
02
02
fc
02
ff
ff
ff
00
02
02
01
05
00
05
fe
02
fe
fe
01
ff
fd
ff
fd
fd
01
ff
fe
02
00
02
01
ff
fe
fe
02
ff
01
00
fe
fb
ff
fd
ff
fe
02
03
fe
00
ff
03
ff
ff
ff
fe
04
00
03
00
ff
ff
fd
01
ff
01
fd
01
03
00
02
fe
ff
03
01
00
00
fd
fc
00
fb
fc
f9
fe
fb
fc
fc
00
fd
04
04
ff
ff
03
00
fe
03
ff
ff
fe
fb
fb
fd
f9
fc
fd
fc
02
fe
ff
00
05
01
06
07
06
05
01
fc
fe
fd
fa
f7
fc
fc
ff
fe
fd
05
01
02
06
00
fd
fd
02
03
01
fd
fc
02
01
ff
f6
fe
fc
01
00
05
05
fc
fb
fb
fd
00
fd
01
00
05
06
02
05
03
f3
d5
c6
cc
dd
ee
f8
05
0a
0d
10
14
11
16
14
10
09
08
09
05
03
01
ff
fe
00
fd
fc
fe
fa
fb
ff
fc
fe
fa
fe
fb
02
ff
ff
02
06
07
05
08
04
04
07
03
03
03
01
fe
01
00
00
04
05
00
03
04
08
06
06
06
05
03
02
04
04
01
04
ff
02
ff
fe
00
fd
02
03
05
06
07
02
01
05
02
03
05
02
01
fd
00
fc
fe
01
ff
01
01
03
02
fe
01
02
01
ff
00
03
00
00
01
01
00
00
01
ff
fd
00
ff
03
fd
fe
03
ff
04
ff
02
03
01
fe
00
fe
fe
fb
fc
fe
01
fd
fd
fe
03
00
00
04
01
05
04
06
02
ff
00
01
ff
04
fd
fc
01
ff
03
02
03
05
03
02
03
03
00
05
03
ff
02
00
ff
ff
fd
fc
00
ff
01
02
ff
02
06
04
04
04
02
06
05
ff
fd
ff
fd
fe
fc
fa
fe
ff
00
02
ff
05
07
09
07
09
04
09
05
05
01
fd
fe
fd
f8
fa
f9
fa
00
ff
07
06
0b
0b
0d
0e
03
ff
ff
fa
fc
fa
00
08
01
02
fd
fb
01
00
00
fe
00
fe
0d
0e
0c
0e
13
0a
03
06
00
00
06
0a
15
1c
32
39
35
21
13
03
00
fc
fc
fc
02
05
0a
0f
12
16
18
13
16
13
0c
10
08
08
07
07
04
04
04
05
07
09
04
07
09
07
07
02
07
04
06
03
04
07
03
03
06
08
04
06
03
05
05
07
03
01
04
05
01
03
fe
02
01
fb
fe
00
00
ff
fc
02
fc
ff
fe
fc
fd
00
f9
fe
fe
f8
fb
f9
f7
f7
fa
f7
fa
fc
fc
f8
fc
fa
fa
fb
f4
f5
f7
f6
f4
f3
f6
f5
f7
f5
fb
f8
f7
f5
fb
f5
f4
f8
f4
f8
f6
f3
f2
f3
f8
f5
f3
f7
f5
f6
f6
f6
f5
f5
f5
f5
f3
f3
f4
f4
f9
f8
f9
f7
f8
f8
f6
f2
f7
f5
f4
f9
fa
fa
f8
f8
fd
fd
fb
f9
fa
f9
f9
f8
f9
fc
f8
fa
fa
f7
fd
fd
fa
fd
fd
fa
fd
fb
ff
fb
fe
fd
fb
ff
fd
fe
fe
01
fc
ff
fc
00
ff
01
fd
00
ff
fd
fc
03
ff
00
fb
00
ff
ff
00
fc
ff
fd
01
05
05
05
01
ff
01
03
02
01
ff
fc
f9
fd
00
02
02
03
03
04
08
07
07
03
00
00
0d
0e
08
0b
00
00
00
0a
0c
09
06
0b
17
17
11
10
0f
10
1f
23
1e
23
21
19
18
23
27
2f
30
2b
25
1f
1d
1d
20
1d
23
28
29
24
25
24
22
21
22
1d
1a
1d
19
13
13
13
13
0e
0b
0b
07
04
06
00
02
fd
00
ff
fd
fb
fd
fb
f8
f7
f7
f4
f4
f8
f8
f6
f8
f9
f7
fa
f6
f9
f9
f6
f4
f3
f6
f8
fa
fa
f9
fa
fc
fc
fe
01
fc
fd
fe
fd
fd
02
02
03
ff
03
05
04
02
03
07
06
07
04
03
09
06
08
02
04
03
09
06
07
08
05
05
02
04
05
02
ff
ff
00
02
00
fd
00
fe
ff
00
fa
fa
f9
fc
f5
f7
f4
f4
f5
f7
f3
f5
f3
f7
f2
f0
f2
ef
f0
f2
ed
ee
f1
f1
f1
f1
f1
ed
ed
ee
f0
f0
ee
f3
ef
f2
f0
f2
f1
f3
f0
f4
f2
f6
f4
f7
f4
f6
fc
fd
f8
fa
f9
fd
fc
fe
00
00
00
02
00
06
02
04
06
06
09
0b
09
0a
09
0c
09
0e
0e
0c
0f
11
15
12
12
14
17
18
15
17
11
0f
13
14
15
14
15
18
18
15
19
1d
1a
18
19
17
17
16
13
1a
14
17
0f
13
13
13
15
16
16
1f
1a
1c
1a
19
1b
18
1a
1b
15
10
15
04
ff
01
00
02
02
08
fe
01
04
02
01
01
02
02
00
03
03
03
02
ff
00
ff
00
01
02
03
04
03
04
02
fe
01
02
fe
01
02
fe
02
ff
02
02
03
ff
03
fe
ff
01
fd
01
00
02
fc
ff
00
00
fe
02
02
01
ff
ff
04
01
00
00
fe
01
00
ff
fe
ff
01
00
02
00
01
fe
fd
01
ff
00
01
02
01
02
03
ff
fe
fe
02
00
01
ff
03
ff
02
ff
fe
00
01
fd
fe
01
fe
01
fd
fe
02
fe
03
00
00
02
03
ff
01
ff
fe
ff
00
fe
fe
03
fe
00
03
ff
fe
ff
fd
01
fd
00
00
fe
00
02
fe
00
fe
02
fc
ff
01
fe
fe
02
fd
ff
02
fc
02
01
fe
00
ff
fe
02
00
01
03
ff
ff
fc
fd
fe
fe
03
00
00
04
ff
01
fe
03
fc
02
00
ff
ff
fe
00
03
03
03
ff
ff
02
fd
fd
fc
03
01
fe
ff
00
01
00
01
00
ff
01
02
00
02
ff
fe
fe
03
ff
02
01
01
fc
02
fc
fe
ff
00
00
fd
ff
ff
04
01
01
fe
01
fd
ff
fe
03
ff
00
02
01
fc
00
01
00
fe
02
00
00
03
00
ff
ff
ff
ff
00
00
07
ff
02
04
fc
fb
ff
fc
fe
02
ff
01
00
01
fd
fc
02
fc
fc
fa
f9
fe
fd
01
00
02
02
05
06
01
02
02
04
fe
fb
fc
fb
fa
f9
f9
fd
f8
fd
fb
ff
fe
fe
03
03
05
03
05
06
06
06
02
00
01
fd
fe
fe
ff
fd
fe
fb
ff
fc
fc
ff
02
00
01
00
00
00
fe
02
fc
00
00
fc
00
fe
ff
fe
fa
fe
ff
ff
ff
ff
00
04
fe
01
00
04
03
ff
02
00
03
fd
fd
01
ff
01
03
fe
00
ff
02
ff
03
01
02
ff
00
fd
fe
ff
fd
00
02
fe
ff
02
fd
00
ff
02
00
03
00
fe
01
ff
ff
03
04
ff
fd
01
fd
ff
02
02
00
01
fe
ff
00
fd
ff
02
02
ff
03
ff
01
03
02
03
00
fd
fe
fe
fd
ff
fd
ff
fe
05
02
05
04
05
00
ff
ff
fd
ff
ff
00
fd
ff
ff
ff
ff
fe
02
fd
01
02
03
02
00
03
fd
ff
fe
01
02
fe
00
fe
fe
01
01
ff
01
04
ff
01
fe
00
03
02
fd
fd
00
ff
02
ff
03
fe
00
00
fe
00
ff
fd
fc
fe
00
fd
f9
fa
ff
fd
00
02
06
02
fd
00
fe
00
fe
fc
02
02
00
fd
fd
fd
fc
02
00
fc
ff
00
01
fe
00
02
fe
fe
01
03
06
03
fc
00
07
08
06
02
00
ff
fa
fb
f8
f8
fc
fd
fd
ff
fe
fc
fe
00
02
ff
00
04
04
07
07
03
06
03
04
03
04
06
ff
04
03
fe
fe
fe
00
fc
fe
fc
00
fd
01
fc
fe
01
01
ff
ff
ff
ff
ff
ff
00
05
00
ff
02
fe
fe
ff
ff
fd
fc
fc
fe
01
00
02
00
fd
00
ff
02
01
03
fd
fe
fc
ff
fd
fd
02
fd
00
00
01
01
00
fe
01
01
fc
ff
01
fc
00
01
ff
fe
ff
03
fd
01
fe
01
fe
00
01
fe
fe
01
02
00
fe
fe
fc
00
00
01
fd
00
00
fe
ff
01
ff
03
fc
ff
fe
01
fe
fe
02
fc
fe
02
01
fe
ff
fd
00
00
02
01
02
ff
fd
01
ff
fc
ff
02
fe
fc
01
02
fe
fd
fe
02
00
fe
02
00
01
01
01
ff
00
fe
00
fd
ff
01
fe
ff
ff
ff
fe
01
00
01
00
fe
00
02
03
ff
01
fd
ff
fc
ff
00
01
01
01
ff
03
fd
ff
ff
02
00
03
fd
01
fd
01
ff
00
02
02
05
04
01
00
fd
f9
f5
f4
00
03
01
fd
02
00
00
fc
00
03
00
02
fe
03
05
ff
03
08
04
03
02
05
02
05
04
05
fe
06
02
04
03
0a
0c
05
05
01
fe
fd
03
00
06
03
07
06
07
03
06
04
03
03
04
06
06
03
04
03
03
05
06
04
01
03
04
02
05
03
01
03
04
05
03
01
01
02
07
04
02
08
01
04
06
02
03
05
04
03
00
02
02
01
04
02
03
ff
03
fe
02
03
04
04
00
03
fe
04
02
00
01
01
fd
02
01
04
01
02
01
04
fe
03
04
01
00
05
04
01
02
01
00
05
03
02
04
04
04
03
00
01
06
04
04
01
02
02
05
02
06
00
02
05
01
03
03
05
03
02
03
06
03
01
02
01
04
01
03
04
ff
02
02
04
02
04
ff
06
00
04
00
02
01
03
fd
03
04
01
04
04
02
04
02
03
00
02
01
01
01
02
03
03
04
03
00
03
fe
ff
04
02
02
fe
05
00
04
02
06
03
02
01
02
02
03
00
00
01
04
00
03
ff
04
ff
00
01
01
00
05
00
03
00
01
04
02
02
03
01
ff
02
03
04
00
00
ff
04
ff
05
02
01
fe
01
ff
02
03
04
03
04
02
04
02
01
02
fe
00
02
05
03
03
02
c3
c8
d6
e1
f6
10
20
2a
24
1b
ff
f8
e9
e0
ce
d3
d7
e2
f0
fb
02
0c
0e
14
16
15
0e
09
08
fe
fb
f5
f1
e9
e9
e3
e5
df
e2
e5
e6
eb
ec
f2
f3
f0
f1
ef
ec
ea
e5
e4
e8
e6
ed
f0
f1
f4
f8
f8
fc
f8
f7
f6
f9
f5
f7
fa
f6
fb
fb
f9
ff
fe
01
ff
02
04
04
00
04
04
01
04
02
02
06
06
03
05
06
09
07
05
09
09
09
0b
05
08
06
06
06
07
05
06
0b
0b
07
07
06
07
04
06
04
05
02
03
05
05
00
02
00
04
00
05
04
05
02
04
00
ff
fd
fe
00
00
fc
fe
03
00
00
02
fe
fd
02
fc
fd
00
fe
ff
fc
fc
fa
fb
fb
fb
01
fe
01
03
04
01
01
fd
00
ff
f9
f9
fc
ff
fe
01
fe
05
07
02
06
05
08
03
00
fe
02
00
fb
fb
01
00
03
07
0b
0d
0e
10
0e
0d
04
03
ff
fc
fe
fb
fc
fc
00
05
08
0e
12
17
1a
16
15
11
0a
05
01
f9
f7
f2
f2
f1
f7
ff
06
0d
12
1a
22
1f
1f
18
0e
fe
f4
e9
e1
dc
de
e6
eb
fb
04
10
17
1c
1b
26
1a
17
10
04
f4
eb
e3
d3
01
01
ff
01
ff
ff
fb
04
01
ff
01
03
00
01
00
02
ff
00
01
ff
ff
01
01
02
02
01
00
fd
01
02
00
02
fe
01
05
fe
01
03
fe
00
00
03
00
00
02
00
fe
01
fe
03
ff
03
ff
01
03
00
00
ff
02
ff
02
fe
ff
00
04
02
01
02
fd
ff
03
ff
fe
fe
02
00
01
ff
02
01
04
03
fd
02
fd
fe
01
fe
00
ff
00
01
01
02
00
01
00
ff
fd
01
fc
ff
01
03
fe
03
ff
fe
01
ff
fe
00
02
01
01
01
02
fd
01
00
01
fc
01
00
01
ff
01
00
ff
03
fe
00
00
ff
01
ff
01
02
ff
ff
00
01
01
04
00
00
01
ff
00
01
02
03
04
00
fe
fd
fd
02
02
00
00
00
00
00
01
00
ff
fd
01
00
01
01
01
01
01
fd
fe
ff
01
fd
01
02
ff
ff
ff
04
01
ff
03
ff
fe
03
00
00
02
00
00
00
02
00
00
fe
00
fe
03
04
02
01
fe
01
00
01
fc
fd
fe
03
00
03
ff
00
00
ff
02
01
fb
fd
01
03
00
01
fe
ff
ff
03
ff
00
01
fe
00
00
fd
ff
fe
00
fe
01
05
fd
00
01
01
04
00
fe
00
00
fb
00
fe
01
03
fe
fe
fb
f5
fb
ff
f6
fa
f7
00
17
24
1d
08
fc
f2
ed
e8
e8
f0
f1
f8
02
0b
0d
0e
12
10
0c
09
03
fc
f2
f2
ee
e9
ec
f0
f0
f7
fc
ff
03
0a
12
10
16
14
10
11
07
04
fc
fd
f7
f6
f0
f5
f0
f9
fa
fd
fd
01
06
0b
0d
0d
0b
09
04
04
03
ff
ff
fa
fc
fa
f8
f8
fb
02
00
03
03
06
04
08
09
05
04
00
ff
fd
02
fe
ff
fe
00
01
fe
ff
01
04
03
06
07
06
01
01
04
ff
fd
fd
ff
fd
fb
ff
fc
00
01
fd
00
04
ff
05
06
06
01
05
02
02
00
fe
f9
f9
fe
fd
fb
ff
fb
01
03
00
03
06
04
06
06
03
01
03
fd
fc
fe
fb
fd
fd
fa
fb
01
ff
00
00
03
04
05
02
04
04
03
fc
ff
fb
fa
f8
fb
f8
f9
fc
ff
01
04
00
02
05
02
02
01
03
00
fb
f9
fa
f9
fb
fb
f8
fa
fe
00
03
07
07
07
04
05
07
06
01
fb
f7
f9
f3
f0
f0
f3
f5
f6
fb
00
fe
05
0a
10
14
13
15
0e
0e
08
ff
f8
e7
dc
d4
e3
f9
04
fd
03
02
01
01
02
00
f9
02
03
01
00
00
03
f6
fe
f7
fe
fe
fd
fa
fe
fb
f5
f2
f9
06
25
27
1b
0c
09
04
ff
fb
f8
fa
f8
fd
fe
fe
fa
ff
fd
fd
fc
04
04
06
07
02
07
09
08
04
07
04
07
09
04
01
06
01
03
00
fe
01
01
02
01
05
00
02
02
05
07
05
05
05
05
03
06
06
03
04
06
05
ff
00
03
02
05
05
00
00
03
04
02
05
06
02
04
ff
02
ff
03
02
02
ff
02
02
ff
01
03
03
02
02
00
02
03
03
01
03
02
04
02
fe
00
01
00
00
02
02
01
00
00
02
02
02
03
01
03
00
00
fe
fe
ff
02
01
03
03
fe
05
01
ff
03
02
ff
01
03
01
fe
ff
00
02
fe
02
fe
02
00
ff
03
03
00
fd
ff
00
fe
fe
ff
fe
ff
fc
fc
fe
fd
ff
fb
fc
fc
fc
01
00
04
02
ff
00
01
fd
02
ff
ff
00
fa
fb
fb
fb
00
01
02
04
00
02
03
01
04
05
fd
ff
01
fb
fc
fe
fc
f9
f9
fa
fd
f8
f9
f9
fd
fd
fa
fa
00
fd
ff
04
05
07
0d
0b
11
10
0b
0d
05
f7
ee
d9
d4
e5
f6
f8
fe
01
02
01
01
01
fd
fd
fa
04
fb
ff
00
fe
ff
fc
00
01
ff
02
ff
03
01
01
ff
fc
f8
f4
ec
f2
f5
f8
fb
f7
f9
f8
f4
f1
ec
ec
eb
f0
ed
ed
ed
f1
f4
f9
f9
fe
00
fb
ff
fd
f8
f9
f7
f4
f0
f3
f0
eb
eb
ef
ec
f0
f2
f3
f7
f7
f7
f9
f8
f8
f7
fb
fc
f8
fa
fa
f8
f9
f7
f9
f8
f8
f9
f5
f8
f8
f5
f5
f9
fb
fe
fa
fb
fa
ff
fb
fd
fd
fb
fe
fd
f9
fa
fc
f8
f8
fd
fb
fd
fe
01
01
01
02
01
ff
05
fe
fe
ff
01
fc
ff
fd
ff
fc
00
00
04
00
06
01
01
07
05
04
00
04
ff
03
02
fd
00
04
04
03
03
05
04
04
03
05
03
03
07
06
02
03
02
06
02
02
06
05
05
04
07
03
07
04
07
02
06
04
07
02
07
05
04
05
09
07
07
0a
0a
07
05
07
05
08
06
07
06
03
02
04
04
08
08
0a
0a
0b
09
05
07
07
05
03
05
07
05
07
02
05
07
06
08
09
03
04
0a
06
09
03
04
04
06
00
03
05
02
05
07
06
09
07
08
06
09
04
02
04
06
05
00
00
fe
06
07
0c
0d
07
0b
03
fe
fd
fd
00
ff
fd
00
03
03
fb
fe
f4
e9
da
d5
dc
df
e7
f3
00
04
01
fb
ec
e2
d2
c7
c9
d0
d6
e1
eb
f0
ee
f5
f2
ec
e3
df
db
d7
d3
d8
d9
e1
e9
f6
fa
05
09
0b
0e
08
06
02
f7
f5
ef
ee
ec
ef
f6
fc
04
10
1b
1d
2a
2b
2b
2d
2b
22
1c
16
17
0d
11
10
10
15
14
19
1f
1f
26
24
23
26
22
23
1d
1c
16
12
10
0f
10
0f
0d
0e
0f
17
15
14
16
14
12
0e
0b
09
09
07
03
06
02
02
ff
ff
ff
ff
00
ff
03
02
02
01
fc
fe
fa
fd
f8
f6
f6
f7
f4
f8
f8
f5
fc
f8
fc
f8
fa
fb
f5
f8
f9
f6
f3
f5
f7
f3
f9
f5
f7
fb
f9
00
fe
00
fd
fd
fd
fb
01
fc
fd
fd
fc
fc
fc
02
01
04
05
03
04
03
01
06
00
02
06
01
04
07
03
07
05
06
04
09
05
0a
09
05
06
02
04
02
00
01
01
05
04
08
07
05
05
07
02
06
01
ff
00
f7
fb
fa
f9
f8
f7
f8
ff
ff
04
04
01
05
02
fd
ff
fb
f8
f4
ef
ee
f1
ec
ee
f1
f8
fb
fc
00
00
05
01
fa
f8
ed
e9
e5
e3
e6
eb
ef
f8
fc
f9
fe
05
09
0d
0f
0d
08
ff
ff
ff
01
fe
03
fd
fc
fd
00
00
01
03
fc
ff
fd
fe
02
03
00
ff
fc
fc
00
00
00
00
01
01
fe
03
ff
00
fe
03
03
01
fe
fe
fd
00
03
ff
ff
ff
02
03
fe
ff
02
02
01
fe
ff
fd
01
02
00
fe
04
02
02
03
00
00
00
01
00
fe
01
00
ff
01
04
fe
04
ff
ff
fe
03
01
fe
ff
03
04
00
01
ff
02
01
fd
04
03
03
01
ff
03
fe
fe
01
02
02
02
03
01
00
fe
00
02
ff
fe
ff
03
02
ff
01
fe
02
ff
01
00
00
ff
02
ff
01
01
00
00
fe
01
ff
01
00
05
00
ff
02
fe
00
fe
00
02
03
ff
fe
00
01
01
02
ff
03
fd
02
fe
fe
03
03
01
01
ff
ff
00
00
03
01
ff
02
fe
01
01
fe
00
fc
02
02
02
00
01
01
ff
00
fd
01
ff
fd
02
ff
ff
ff
03
02
04
ff
ff
03
01
ff
03
00
01
04
00
03
ff
00
04
ff
03
01
00
00
05
ff
04
fe
03
fd
fd
03
02
03
fe
03
04
fe
ff
02
00
01
ff
00
00
ff
03
ff
01
fa
fe
fe
05
05
fe
02
03
ff
ff
00
fe
ff
02
01
01
00
04
01
02
03
00
04
00
fb
fd
f7
fb
fa
f9
01
02
0a
1b
20
16
10
0d
0a
06
ff
f8
f6
f1
ec
ec
e5
e2
e5
e9
ee
eb
f1
f5
fd
fe
06
06
0a
0e
13
11
13
14
13
14
15
0f
0a
0d
04
02
00
f9
fd
f5
f3
f2
f2
f4
f3
f4
f5
f4
f5
f9
f7
fc
fe
ff
01
01
00
01
05
fe
00
02
fe
fe
fe
fd
fe
fe
fb
fb
00
f9
fa
00
fc
00
fe
fd
03
02
ff
00
ff
fe
01
fe
fd
fa
fe
ff
ff
ff
ff
00
fd
fb
fc
ff
01
01
fe
fc
01
fb
01
fb
fd
ff
fe
00
fe
fc
01
ff
03
02
01
02
ff
fe
ff
00
ff
ff
03
00
03
00
ff
fd
fe
03
02
01
00
fe
04
04
ff
01
fe
fe
ff
fe
fc
fd
fb
ff
fb
00
ff
00
fb
00
00
ff
ff
01
00
fe
fd
fe
01
02
00
fe
00
fe
ff
fc
ff
fc
fe
ff
02
02
fc
02
fe
00
04
01
07
06
05
07
02
06
06
03
03
05
06
01
04
03
fe
fc
fd
00
fa
fb
ff
fb
fb
fe
03
02
02
01
ff
fe
03
01
ff
fc
f8
f9
f6
f4
f3
ef
ee
ed
f6
fd
06
00
03
07
05
04
03
fb
04
00
fe
fe
04
fe
04
fe
01
fb
fe
fc
03
04
01
06
01
00
06
02
f0
f4
fb
ff
04
05
04
00
fd
01
fd
f9
f8
f8
fd
f8
f8
fa
fb
fe
fc
00
ff
ff
fe
ff
04
00
01
fd
02
00
ff
ff
fc
fb
fc
fe
ff
f9
fd
f9
fc
fa
f7
f6
fa
fc
fb
fc
fb
fb
ff
fc
02
00
ff
03
04
00
00
01
ff
02
ff
fd
fa
fa
fc
fa
fb
fc
fd
fb
fd
fa
00
fb
fe
fc
01
ff
fc
fe
01
01
01
fb
fd
fe
fd
fb
00
fb
ff
ff
fa
fc
fc
01
fc
ff
fe
ff
fd
fc
fc
fe
fe
fe
fe
fb
fe
fe
f9
ff
fc
fc
f9
ff
ff
ff
00
fc
03
02
fe
01
fe
fe
fe
01
01
fe
fc
ff
fe
ff
01
02
ff
01
00
fe
02
fd
00
fe
00
02
00
ff
fc
fd
ff
fe
00
fc
03
fe
01
01
01
fe
fe
00
fb
fd
ff
fd
fb
fe
fd
01
fd
00
ff
00
03
00
00
fd
fe
fc
ff
fe
00
02
00
fd
fd
fe
fd
00
fd
fd
ff
fd
02
01
03
02
ff
00
03
fe
03
00
05
04
06
07
06
06
03
03
03
02
fc
fc
fc
fc
fd
ff
fd
fc
f6
ff
07
07
05
04
00
fe
fd
03
00
00
06
05
01
04
03
fc
01
fe
01
ff
fb
fd
ff
ff
fd
fa
fe
00
06
01
fd
01
fc
01
01
03
05
07
07
08
09
06
06
02
ff
fc
fb
fb
fd
fc
fb
fe
03
00
00
04
01
01
fe
fc
fd
fa
f3
f1
f1
f1
ec
ea
f2
f0
f6
f9
02
07
0d
0e
0f
17
18
16
16
11
12
13
0f
09
0e
0a
09
06
05
06
03
ff
00
03
ff
ff
ff
fe
00
00
fb
f9
f9
f7
f7
f7
fa
f4
f9
f9
f9
fe
ff
02
fd
fe
fb
fb
fc
fd
f9
fb
f8
f7
f9
fb
fb
f9
fa
00
01
03
ff
fe
ff
02
04
fe
fc
fc
ff
00
fd
ff
fd
ff
00
06
05
05
07
0a
08
0a
0c
0a
0c
08
0b
0a
0f
09
0a
0b
0d
0a
08
09
06
0a
08
07
01
03
01
07
07
02
03
07
04
07
02
02
02
00
04
fe
ff
fc
02
ff
fd
fe
ff
fe
01
fe
01
ff
ff
fc
fb
fd
fc
fb
fb
fe
fa
fd
ff
00
00
04
06
04
06
07
07
09
04
06
08
05
04
03
03
03
03
05
09
0f
10
11
14
15
13
15
15
10
10
0d
07
08
09
0b
09
0d
13
16
17
19
13
13
0e
08
06
03
00
0a
0b
0b
08
07
04
0a
03
f9
f5
ec
e6
e6
e8
eb
ea
ea
e5
e0
f1
ef
f4
f1
ef
ee
f1
f5
f2
f3
f1
f4
f0
f1
eb
ee
ef
ed
ee
ef
f1
f6
f5
f9
fb
fe
fc
fa
00
fc
fb
fa
ff
f8
f9
f7
f2
f5
f6
f7
f8
fa
fc
fe
ff
03
04
05
03
01
fe
ff
fc
fa
f5
f2
f1
f0
f2
f4
f9
f5
f8
fb
fb
fa
f8
f9
f6
f9
f9
f7
f8
f8
f3
f6
f4
f9
f7
fb
f8
fd
f9
f9
fb
fd
fb
fd
fc
fa
fc
fe
fa
ff
fd
fe
fd
00
fc
fe
02
ff
04
00
fe
04
04
02
fe
02
00
04
02
01
ff
02
07
03
07
05
08
08
08
07
05
04
07
05
02
06
08
07
08
06
0a
07
0a
0c
09
07
09
08
09
05
08
07
06
04
03
07
05
05
0a
08
0a
0a
07
09
06
06
01
03
03
fe
03
fd
01
02
01
04
06
04
03
03
06
06
04
04
ff
fe
fe
fb
fe
fb
f9
fb
fd
fe
fe
00
01
04
02
03
01
02
ff
fc
f9
fb
f6
f8
f6
f6
f5
f6
f6
f8
fa
f8
fd
fd
fb
f8
f7
f8
f8
f7
f7
f7
f5
f5
f9
f6
f9
fa
fb
f2
ee
ec
ef
f3
f5
f1
f9
f5
eb
ed
eb
ec
eb
f3
fb
01
f7
00
05
05
05
fc
ff
03
01
ff
ff
01
01
fc
01
fd
fc
fc
ff
00
01
fe
02
00
fc
fc
ff
03
01
ff
03
fd
03
ff
ff
fd
fe
fe
01
01
00
fe
ff
fd
02
00
fd
00
ff
ff
02
02
ff
fe
01
01
02
02
fe
02
fd
fd
02
03
02
00
ff
04
ff
05
01
00
02
03
ff
01
01
01
ff
03
fd
01
00
fe
01
fd
fe
03
ff
02
fc
00
fc
01
01
00
ff
00
01
ff
ff
ff
ff
01
02
fe
00
01
fd
fd
ff
00
02
01
01
fe
ff
fc
00
ff
fd
01
02
01
fe
00
fe
00
03
04
fe
00
fe
02
03
fd
ff
01
fe
fe
00
04
01
ff
00
03
fd
01
ff
fc
02
fd
01
ff
ff
fe
fd
01
ff
02
04
00
01
02
00
02
fe
01
fe
00
ff
01
04
02
00
04
04
ff
ff
ff
02
04
02
01
fd
01
02
ff
ff
01
ff
05
00
05
ff
04
01
00
03
04
ff
00
fd
01
01
fd
01
00
00
fe
03
01
01
00
00
07
01
ff
04
00
fd
00
fe
00
02
ff
03
ff
00
01
ff
02
03
ff
04
04
fe
ff
ff
fb
fc
02
04
07
03
fe
03
02
fe
ff
01
05
05
ff
ff
02
01
fe
fc
06
09
02
05
fc
00
01
08
07
fc
02
fd
fd
fc
f3
f8
ff
0a
07
0b
0e
09
05
09
03
03
02
fe
fc
ff
fd
fe
fd
02
fe
03
04
02
02
00
01
01
fe
ff
00
fd
00
fe
fd
fd
01
fe
ff
06
06
02
05
05
07
04
04
00
02
fe
fe
01
fe
01
fe
00
02
fe
00
fb
ff
fe
00
01
fd
fe
fc
ff
fe
fc
fc
fe
00
fa
ff
ff
fa
fe
fd
ff
ff
fe
fb
f9
fe
fc
fe
fe
fe
00
fd
00
00
fe
01
00
fc
02
fd
01
fe
fe
01
fe
fc
ff
fd
fb
01
fc
fd
fd
02
ff
fd
02
03
01
00
fc
ff
01
fc
fb
fe
fe
fc
fc
fa
fc
ff
ff
fd
fc
ff
fd
fc
fa
01
fb
fd
ff
ff
fe
fc
00
fe
fd
fd
fe
fc
01
00
fd
01
02
00
ff
fe
00
02
ff
fd
fd
fe
00
00
00
f9
fd
fd
fe
fe
fd
00
02
00
00
01
ff
fe
02
fc
01
fc
ff
fd
fd
ff
fb
fa
fe
fb
fc
03
00
ff
04
01
03
01
03
03
00
fe
04
fe
02
02
07
02
06
08
0a
0b
06
0a
08
05
02
03
fc
fc
fc
fb
f7
ff
ff
03
06
01
fe
ff
02
01
04
02
fc
ff
00
02
fe
00
fa
fb
fc
fe
fa
ff
00
03
03
02
05
00
f6
fa
00
09
0c
0c
0d
0b
04
06
fe
01
fa
f9
f7
f9
f7
fc
f8
f7
f7
fa
f9
fb
fc
01
03
ff
05
04
04
03
05
07
08
08
0a
09
07
0b
05
04
04
06
02
00
fe
01
04
fe
01
00
02
03
02
05
03
ff
03
ff
ff
ff
ff
fd
ff
fc
fb
ff
00
fd
01
00
01
ff
fe
03
ff
02
ff
00
fe
fe
ff
fd
02
00
01
ff
fd
fb
fe
fe
ff
fd
02
00
03
02
ff
00
00
fe
01
ff
02
ff
00
00
ff
fb
00
ff
ff
fd
fe
03
02
03
ff
01
ff
ff
02
00
fe
fe
fc
fc
f9
fc
fd
fd
fd
fa
f9
ff
fe
ff
01
00
fc
01
fe
fe
01
fe
fe
fe
ff
fd
00
fb
fc
fd
fb
fc
fd
fc
01
fe
01
01
ff
00
fc
fe
01
fd
fb
fd
fc
fb
ff
fe
fe
fa
fc
ff
fb
fe
f9
fa
fb
f9
fa
fb
fa
fa
fb
fc
f8
fe
ff
ff
fc
01
00
01
fd
03
fd
01
02
00
fd
fd
fb
fc
fc
ff
ff
fc
fd
fc
fa
fc
f6
f8
f8
f6
f8
fb
fd
fe
03
02
fc
ff
fd
fc
fa
fe
03
02
fe
f9
f9
fb
01
01
01
0b
0b
0b
07
0c
09
04
03
01
05
0c
0d
0c
08
09
05
06
07
04
04
08
04
08
05
04
05
02
07
05
09
09
07
07
07
06
09
05
0b
09
06
07
05
07
02
01
02
06
06
05
06
09
06
0b
0b
0b
06
09
08
09
07
01
02
fa
fc
fb
f7
fc
fe
fa
fa
fe
02
ff
00
03
03
01
fe
fa
f5
eb
ed
e7
e5
e7
e9
ed
f5
fd
00
06
12
18
1d
1f
25
22
27
23
1d
1d
1c
13
13
0e
0b
0c
0b
0b
06
05
03
04
01
01
ff
fd
00
ff
fe
fd
fd
fe
fd
fc
fc
fb
fb
f9
fc
f9
f8
fa
f7
f6
fa
fa
f7
f4
fa
fb
fb
fa
fb
f6
f5
f7
fd
f7
fa
00
00
ff
01
00
02
ff
02
ff
03
fc
fc
01
ff
00
fe
ff
03
04
03
03
01
07
05
06
05
08
08
04
07
06
03
04
04
08
05
04
05
02
04
04
08
03
07
04
07
02
04
02
05
ff
01
02
01
fd
fd
fe
fe
fa
fb
fd
f9
fb
fc
f9
fa
f8
fa
f7
fb
f8
f7
fa
f6
f7
f7
f8
fb
fc
f9
fa
f9
f9
f7
f6
f5
f8
f7
f4
ee
f4
f8
fa
ff
fe
f8
fd
ff
fa
fc
01
fc
02
06
06
0e
f9
fa
ff
fb
ff
00
02
01
fb
fc
f5
f6
f9
fc
fe
00
02
fd
01
02
fe
03
00
fc
f8
f9
f5
f8
f5
f0
f3
f1
f6
f6
f8
f8
f7
f7
f8
f5
f7
f8
fb
f7
f5
f8
f6
f2
f6
f5
f1
f6
f4
fa
f6
f7
f5
f7
f9
f4
f6
f5
f5
f7
fa
f6
f9
fe
fc
00
02
02
02
00
03
02
03
02
00
ff
03
02
03
04
03
05
04
02
03
00
01
06
07
00
01
04
fe
01
fe
00
ff
00
00
ff
02
fe
fc
00
01
fd
fd
fd
fc
fc
fa
fe
fc
fe
fd
fb
fb
fd
fd
fe
fe
fd
f7
fa
fd
fc
fe
00
fc
00
00
fd
fa
fc
fe
fc
fd
fd
ff
ff
fd
ff
fd
ff
fd
01
03
ff
03
02
02
05
04
02
05
04
01
03
03
03
09
06
07
07
07
06
08
08
0b
09
06
07
06
09
0a
09
07
09
07
0b
05
07
08
06
09
0a
07
05
07
02
02
03
ff
fe
00
03
ff
03
02
05
04
01
ff
03
fd
fd
01
fe
fc
f9
fb
fc
fd
fb
fd
fe
fb
fe
fc
fe
fd
00
fb
f9
fc
fa
f8
f8
fb
f6
f8
fc
00
fc
fc
fe
fb
03
fa
fb
f4
f8
f9
fd
f8
fc
ff
f2
f7
fa
f8
fd
fc
ff
ff
00
01
ff
ff
01
fe
fc
01
01
ff
01
fd
00
fe
ff
ff
01
01
fe
fe
fe
fd
02
01
02
ff
00
fe
04
00
01
ff
01
02
fd
03
00
01
fd
00
02
01
fd
ff
fd
01
01
01
fd
02
01
ff
00
05
ff
04
05
ff
fe
fe
00
fd
02
02
ff
02
03
02
00
02
05
02
04
03
03
02
00
00
04
00
00
04
02
ff
01
00
00
ff
03
04
fe
03
01
01
fb
fe
ff
ff
fd
01
03
00
04
01
06
02
01
03
ff
fe
01
02
00
02
01
ff
00
01
02
02
04
04
00
00
05
00
02
03
fd
00
01
fe
ff
ff
fe
00
05
05
00
01
00
04
fe
ff
ff
ff
03
fd
fd
fe
00
03
02
01
03
02
00
00
fd
fb
ff
02
01
ff
ff
02
fc
02
02
01
00
fe
00
fc
fe
fd
00
ff
03
01
01
fd
00
03
02
fc
fe
01
01
ff
fe
01
00
00
01
ff
ff
04
00
00
ff
04
03
02
02
fc
fc
ff
00
ff
fe
00
fc
01
02
fd
00
03
04
01
05
fe
02
00
fe
ff
fe
00
02
01
fe
fd
fe
00
01
03
03
06
ff
fe
00
03
01
f8
fc
00
04
04
fd
fe
04
05
05
01
ff
fe
00
fd
01
01
05
ff
f9
05
03
00
fd
04
f9
fc
fd
ff
01
fd
ff
fe
03
02
04
03
02
03
01
ff
00
00
ff
fe
fd
00
fe
fc
00
fc
00
00
02
03
02
fe
00
02
fe
fd
fd
fd
00
fe
00
fd
fe
fe
02
00
fd
02
00
04
01
fe
02
00
ff
03
04
00
00
00
03
01
ff
ff
ff
00
01
ff
ff
fe
04
ff
04
00
ff
00
00
00
01
ff
03
00
ff
fd
00
ff
fe
fc
00
00
01
fd
02
02
01
02
fc
02
fe
00
02
00
ff
01
02
fd
02
00
01
00
00
00
00
fd
03
02
fd
02
fd
fe
03
ff
02
02
01
fe
03
ff
fe
ff
02
ff
01
00
fe
00
02
01
fe
ff
00
fd
fe
01
01
00
ff
fd
00
ff
00
01
02
04
01
02
00
ff
fe
02
02
04
03
00
ff
02
fc
ff
00
fc
02
ff
02
ff
fe
02
ff
fe
00
03
03
05
01
02
01
05
02
ff
02
fe
01
01
ff
fd
00
fe
04
ff
00
03
00
01
fe
02
03
fd
04
02
01
ff
fe
01
00
fd
fd
01
fc
fd
fc
00
ff
03
00
04
04
06
05
02
01
ff
00
fd
ff
ff
ff
02
00
01
04
fe
fe
fe
fd
fe
fe
fd
ff
04
fd
fe
fc
02
ff
f9
fb
f7
f5
fa
fa
02
01
04
03
00
04
02
01
03
02
fe
fe
fe
fd
fd
ff
ff
00
01
04
01
03
fe
01
00
01
01
00
fd
fe
fe
fe
fd
f9
fe
fd
fe
fd
fd
fd
ff
00
01
fb
00
01
fd
fc
01
00
03
01
02
fd
ff
fc
00
01
fd
02
fd
02
fe
fe
00
03
ff
04
00
03
02
03
00
05
04
fd
ff
fc
fb
fc
fe
f8
fe
fe
fc
fe
fc
fe
00
fc
00
00
fe
05
02
04
02
06
04
02
01
03
ff
02
fe
fe
00
fd
00
fc
fe
00
01
ff
02
fe
01
04
02
ff
01
01
02
00
fe
00
02
ff
00
00
00
00
01
fe
04
00
00
01
04
03
01
04
00
ff
03
00
ff
00
ff
01
00
02
02
05
05
01
04
00
00
00
00
fe
02
03
fd
fc
fd
01
ff
ff
02
01
01
fe
ff
ff
00
01
02
fe
fd
fd
01
fd
01
01
00
fe
01
02
01
00
01
01
01
01
03
00
02
03
fd
00
fd
fd
01
fd
03
03
fe
fd
00
fd
01
fe
00
ff
fe
fd
01
03
01
02
03
ff
02
01
fd
01
03
ff
fa
02
01
00
fc
04
fe
fd
01
fb
fe
ff
fa
ff
fe
00
fe
fe
fd
fc
00
ff
03
fd
fc
fd
fe
fa
fe
fe
fe
fb
fd
fd
ff
fb
fe
fc
ff
fd
ff
fc
ff
fc
fb
fc
fc
ff
fe
fe
fa
fe
ff
fc
fb
00
01
ff
fb
fc
00
fb
00
00
fd
fa
fb
01
fe
fe
fc
fc
ff
fb
ff
fd
ff
fb
fc
fa
ff
fd
fc
fa
00
01
fc
fd
fd
fc
fc
fd
ff
fb
00
fc
fa
fa
ff
fb
fe
fc
fe
fa
fe
fe
fd
fc
fe
fe
fc
fb
ff
fe
fb
fc
fd
ff
ff
00
fe
ff
fb
ff
fc
00
fe
fd
fc
ff
00
00
00
fc
fe
fc
fd
fd
fd
00
ff
ff
ff
01
01
ff
02
fc
01
02
fd
fd
ff
01
02
fc
02
ff
fe
ff
02
02
01
ff
01
ff
fe
03
00
fd
fd
03
02
fc
fc
00
fd
fd
fd
ff
fb
fb
ff
00
00
fd
fd
fd
fe
fd
01
fe
fc
00
02
fe
fc
00
fc
01
fc
01
fc
00
ff
00
fe
fc
fe
01
fb
ff
fe
00
fb
fc
ff
fd
fd
00
01
fc
fe
fc
fd
fc
01
ff
ff
fd
00
fc
fc
fc
fe
fd
02
ff
fe
fc
01
02
fd
fe
fb
fb
fd
fb
00
00
fd
fd
01
00
fc
fe
fc
ff
fd
fb
fd
fa
00
01
fe
02
00
fe
ff
02
02
fe
ff
01
04
ff
00
ff
fc
00
ff
fb
ff
fc
fb
fd
ff
ff
03
00
00
04
ff
ff
fe
fe
fc
fc
fb
fd
fe
fe
ff
fb
fb
fd
01
fe
00
00
00
fe
00
fe
01
01
fe
fd
fc
fc
fb
fc
f8
fe
fb
00
02
03
ff
00
00
00
01
00
02
03
01
ff
fe
fe
03
fe
01
ff
01
ff
fe
01
fe
fe
00
fc
fd
fb
ff
02
ff
00
07
08
08
07
08
06
04
00
ff
ff
f9
f5
f5
f7
f9
f9
fe
ff
01
ff
07
08
08
09
04
09
04
00
03
04
05
06
05
08
0b
0a
0a
08
04
04
fc
fa
f3
ef
ee
ec
f3
f5
f8
01
04
09
07
09
0b
0f
09
09
0a
08
06
03
01
00
01
03
ff
fe
00
ff
fe
fb
fa
f4
f5
f2
f3
f5
fb
f8
fc
01
01
07
04
09
08
04
03
ff
fc
fb
fa
f9
fc
fc
fe
03
04
05
09
05
08
02
fe
00
fe
fd
fd
fc
fa
02
ff
04
00
05
04
03
02
06
05
fe
ff
ff
00
fc
fb
ff
ff
fd
02
03
ff
04
01
00
fd
01
01
fd
ff
fd
ff
ff
02
04
06
05
00
fe
fb
fc
00
00
04
02
fe
fb
00
01
03
ff
01
07
01
fe
03
02
ff
00
04
ff
03
06
fe
03
ff
fc
01
00
01
00
fe
04
01
02
03
01
01
ff
01
01
00
ff
00
fe
ff
ff
03
01
05
03
01
00
01
ff
00
ff
fd
02
fe
01
01
00
03
02
fe
ff
02
02
03
00
ff
00
02
00
fe
00
fc
fc
00
03
ff
00
04
03
01
01
00
00
00
ff
fe
fc
00
01
ff
01
03
ff
02
01
00
01
00
fd
03
fc
00
ff
ff
02
02
03
01
ff
01
00
ff
02
00
01
00
ff
01
fe
00
ff
03
ff
ff
00
02
01
03
ff
00
fc
ff
01
ff
00
01
ff
01
00
02
03
02
01
00
00
02
fe
00
fe
00
00
01
ff
03
03
00
ff
02
00
ff
01
fe
fc
01
00
02
01
fd
03
01
02
fe
01
03
00
00
fd
00
fd
ff
fd
00
04
00
ff
04
00
03
00
ff
fe
02
01
fe
fd
01
03
ff
01
03
02
02
01
02
fd
fd
fe
02
02
02
fe
fd
fe
03
01
04
02
ff
fd
00
02
02
ff
00
fe
01
fe
00
02
ff
01
00
01
02
ff
01
fc
02
01
fe
02
03
ff
fc
00
05
03
03
fc
fe
04
03
00
ff
fa
03
ff
fe
00
03
fd
02
02
03
fe
fe
fd
01
01
ff
02
01
ff
01
00
fd
fa
f7
fa
fb
00
00
00
fe
01
03
04
00
01
04
ff
02
01
00
02
01
fd
00
fb
ff
fe
fd
ff
fe
fb
fb
fe
fe
fc
ff
fb
01
fe
fd
02
fe
02
01
fd
ff
01
fb
fe
fe
fb
ff
00
01
00
ff
fe
00
ff
02
fe
ff
fd
02
01
fc
fe
01
fe
01
fc
00
fd
00
fb
01
ff
00
00
00
fe
fc
02
fd
01
02
ff
03
fe
fc
fd
fe
00
fd
fe
fe
01
fc
ff
02
fe
ff
02
01
00
fc
ff
fc
fe
fe
00
03
02
fc
00
fe
fd
02
03
fe
fd
02
02
01
01
fd
01
fe
fd
fb
02
01
fe
01
02
01
ff
01
01
04
00
ff
fe
ff
ff
ff
ff
fd
ff
00
02
03
00
01
00
03
03
ff
ff
ff
ff
ff
01
fe
fc
ff
ff
00
fc
fe
01
01
01
ff
ff
03
03
02
02
01
ff
03
00
fd
00
01
01
ff
00
00
ff
fd
02
01
00
fd
01
01
02
03
ff
fc
fd
02
00
01
fe
01
00
00
01
01
ff
fe
fd
fd
fa
fb
fb
f9
fc
fe
ff
00
06
09
12
11
08
ff
00
fc
f9
02
ff
00
02
00
fc
fd
05
fe
fc
ff
01
fd
00
fe
03
00
00
fc
fd
01
03
00
fd
03
08
05
00
01
ff
02
fd
fe
fd
fb
fc
ff
fe
ff
fc
fe
fd
fe
fb
00
fd
fd
00
01
fe
00
fe
05
02
04
fe
04
03
03
fd
02
fc
fc
fc
01
fc
fe
fd
ff
00
01
00
01
01
00
01
02
00
fe
02
00
02
ff
fd
fd
ff
fe
fe
01
01
fe
ff
fc
00
00
fd
02
fe
00
fd
00
fc
ff
00
01
ff
00
ff
fd
00
fd
fe
00
ff
02
fe
02
fe
fe
00
00
ff
03
ff
ff
00
fe
00
02
ff
fe
01
00
01
01
fe
fe
ff
fe
fe
03
01
01
fe
02
03
02
fe
00
fe
01
01
fe
fd
fd
01
01
02
ff
02
03
fe
00
01
02
fd
01
00
02
fd
02
02
00
ff
02
00
00
fe
03
02
00
00
fd
02
01
00
01
fc
fe
02
fe
03
fe
02
03
fd
02
00
00
fe
01
ff
fc
02
ff
ff
01
01
fd
03
00
02
00
fd
fd
ff
ff
03
01
04
04
02
00
02
01
fe
02
02
00
03
00
ff
fd
00
ff
fa
fa
f9
00
00
ff
00
fd
02
00
00
00
fe
03
00
08
01
00
fe
02
06
fe
02
fe
fd
fd
ff
ff
04
fd
fe
02
ff
02
01
04
01
00
06
fe
02
ff
00
05
01
02
07
0d
05
04
fe
ff
03
03
04
02
06
09
03
06
03
05
02
00
fe
fe
00
00
ff
03
00
ff
03
01
06
04
04
05
06
02
03
03
04
06
03
05
04
00
04
02
ff
02
01
02
ff
05
02
05
05
ff
fe
03
00
02
00
01
01
01
03
00
04
ff
fe
ff
03
ff
04
04
ff
ff
01
00
00
01
03
00
00
ff
04
00
04
01
02
01
00
04
04
00
04
03
01
04
03
03
02
04
08
04
00
04
01
05
06
05
03
03
03
02
04
04
05
04
05
04
05
04
02
01
05
06
02
02
06
03
03
06
02
04
03
03
02
02
ff
02
00
03
05
03
04
04
05
02
04
01
05
00
02
01
04
fe
03
02
ff
01
05
04
02
05
03
05
04
03
02
00
ff
01
04
01
08
04
03
02
04
08
02
01
00
01
04
05
03
00
05
00
ff
04
06
02
02
03
02
06
03
04
04
05
02
01
02
02
02
ff
02
04
00
02
00
04
fe
03
03
03
05
05
00
01
03
02
00
08
03
01
03
05
08
02
03
02
03
04
05
fe
03
00
05
00
08
01
04
fe
fb
00
fd
fe
05
0b
09
fe
fa
f9
fb
ef
e9
eb
e7
e6
e7
ed
eb
f3
f6
fd
ff
09
0d
0b
13
11
13
0e
0d
07
03
01
ff
fe
f6
fc
fb
fe
fc
fd
fb
01
00
ff
fd
fb
fc
fc
fc
f7
f6
fa
fc
f9
f9
f8
fa
f9
fd
fc
fc
fb
ff
f9
ff
fb
fa
fc
ff
fa
fd
fb
f8
fb
fc
fe
fd
fc
fe
01
ff
fe
00
fc
fe
fe
fd
00
fa
01
00
fd
ff
fd
fe
01
01
fd
02
ff
01
fe
01
fe
02
00
fd
00
fe
03
ff
01
04
03
04
01
03
fe
ff
01
01
02
03
ff
06
05
01
01
01
03
04
02
03
06
01
03
05
02
04
02
06
03
02
04
05
04
04
05
05
00
03
04
06
09
03
04
02
03
04
02
07
04
03
06
07
04
03
01
03
ff
00
ff
00
06
05
04
01
06
01
01
00
fe
fe
fc
00
fb
02
00
ff
05
04
04
08
08
02
00
02
ff
fb
f7
f3
f5
f4
f9
fb
ff
fe
06
05
0c
0b
0e
07
08
02
fb
f4
f4
ef
ea
e9
e6
e6
ec
f7
03
0d
1c
24
20
1d
1d
0c
fe
ed
e1
d9
d8
d6
d0
db
ee
fe
05
06
0e
08
0b
0d
0a
04
02
ff
ff
ff
01
06
00
fe
fe
02
01
03
00
fe
fe
01
00
00
02
ff
01
ff
03
ff
fd
00
ff
02
ff
fe
ff
fd
ff
03
fd
01
02
fe
fe
ff
fd
ff
00
03
00
01
ff
fd
fd
02
02
01
02
fc
01
ff
fe
00
02
ff
01
fd
fc
01
01
01
ff
fe
ff
fe
ff
00
01
ff
02
fe
00
ff
fe
fe
ff
fd
fd
01
01
02
01
01
fc
ff
ff
fd
fc
00
fe
ff
01
02
01
fe
02
ff
fe
01
ff
ff
00
fc
ff
00
fd
02
00
ff
02
01
00
02
01
fd
fe
fd
02
01
fd
00
fe
01
00
00
ff
03
00
ff
01
00
04
fd
02
00
fd
00
00
ff
fe
01
03
00
02
01
fe
fd
ff
01
fc
02
fc
01
02
fe
03
01
fd
01
01
fe
ff
00
ff
03
00
01
01
00
fd
03
ff
ff
01
00
ff
05
ff
00
04
00
01
fe
00
02
fe
ff
fe
03
03
04
fe
01
fd
03
00
fd
ff
ff
01
00
00
02
fe
00
02
ff
ff
fe
01
02
ff
fd
fe
01
02
04
ff
03
01
fe
00
01
01
00
fe
01
fe
03
01
02
03
00
fb
fe
02
00
01
00
01
02
02
03
fe
ff
ff
fe
00
03
05
01
08
07
03
04
06
02
05
04
08
11
0c
18
1d
33
54
69
6b
48
2b
15
07
f8
f2
ef
f1
f2
ed
f1
ef
f3
f2
f1
f2
f2
f1
f8
f3
f9
f8
fe
fe
ff
05
02
05
07
09
02
00
ff
02
fd
fb
fd
fb
fd
fd
ff
00
00
07
05
0a
07
08
08
0a
0a
08
01
fe
fe
fa
fc
f6
f6
f9
f7
f7
ff
fd
02
ff
ff
02
04
03
04
01
fe
fb
fa
f7
f7
f8
f7
f6
f7
f7
f8
00
ff
00
ff
01
00
ff
03
02
01
fe
f9
fe
f8
f9
f6
fa
f9
fc
fd
fe
ff
fd
02
04
00
04
fe
02
fd
00
f9
f7
f8
f7
f8
fc
fb
fb
fc
01
00
00
fe
03
04
fe
fd
fe
fa
fa
fd
f8
f7
fa
f6
f8
f8
fb
f8
fd
00
02
02
ff
00
ff
04
00
ff
00
fb
fc
fc
f7
f9
f8
fd
fe
fc
ff
00
08
03
08
07
06
03
06
01
fe
fc
fe
f8
f6
fb
f6
f7
fc
fd
fb
00
04
02
07
06
08
08
04
04
00
fd
01
fb
fe
ff
ff
03
02
00
03
03
05
07
07
0b
0a
04
04
06
04
04
00
03
01
02
01
fe
fa
f7
f5
fd
07
0c
0e
10
0e
0b
03
06
0b
07
03
04
01
01
f7
fc
01
06
fe
f9
fc
fd
04
05
fa
fe
f9
f8
0f
24
1e
10
07
04
fc
fb
f9
f4
f4
f7
f4
f7
f9
f5
f6
f9
fa
f8
f9
fd
fe
fc
ff
06
03
04
03
06
07
03
07
07
03
07
01
02
00
03
01
02
ff
05
02
02
03
04
05
07
06
06
03
01
02
05
03
00
ff
03
04
04
01
04
05
05
06
00
06
06
05
06
04
02
05
03
06
01
04
00
00
05
06
07
03
04
04
01
06
03
04
03
00
05
04
03
02
04
02
01
02
04
01
04
ff
ff
05
01
02
08
03
06
07
04
02
01
04
06
05
00
00
01
01
04
01
04
01
07
02
04
06
07
01
02
06
03
05
05
05
00
01
ff
00
04
05
04
02
02
04
05
07
06
06
06
05
04
04
02
03
00
ff
01
00
02
06
05
03
02
02
03
02
02
00
04
02
00
02
00
ff
02
ff
02
05
02
07
09
07
04
05
05
05
02
02
04
fe
fe
01
fe
fc
fe
ff
ff
fd
fd
ff
01
fd
ff
fe
01
02
ff
01
05
04
05
0b
0a
0d
0a
08
0b
04
f5
f0
e2
f1
fd
01
fd
05
02
02
01
04
03
ff
fd
ff
fd
07
04
02
01
01
04
07
06
05
01
04
fe
fe
fc
f7
ff
04
0c
0b
08
02
05
02
00
01
00
04
07
07
05
05
00
00
fe
fc
fe
fc
fd
ff
fa
fc
fb
fd
ff
fb
fe
fe
fa
fc
fe
f9
fa
fd
fa
f9
fa
f7
f9
fc
f8
fa
f9
fb
fb
fa
fd
f7
fc
f7
fb
f7
fc
fc
fa
fb
f7
f8
f6
fc
f7
f8
fc
f6
f6
fa
f9
f7
f6
f7
f8
fc
f7
f7
f9
fc
f8
fc
fa
fa
f7
fa
fa
f7
fb
f9
f8
f7
fb
f9
fc
fe
fd
00
f9
fa
fd
fd
f8
f7
f7
fc
fe
f8
fb
fb
ff
ff
fb
fb
fc
01
fb
fb
fe
fa
fc
fe
fb
fa
ff
fa
fd
fb
fc
fe
03
03
01
fd
fd
fb
fe
fd
ff
ff
ff
fc
00
fc
01
01
fd
02
01
02
01
ff
03
02
fd
fe
ff
fc
fe
01
01
fd
02
fe
fe
01
04
ff
02
05
04
02
03
01
ff
03
01
02
fd
02
ff
01
fe
03
ff
ff
04
01
00
05
03
05
03
02
fe
fd
01
ff
fd
fd
00
00
05
01
01
04
02
00
04
02
fc
01
fd
fe
fc
01
01
ff
01
01
01
01
06
01
00
02
00
02
00
06
01
01
04
fb
01
ff
fe
fa
f7
fa
00
04
05
0f
01
04
03
02
0a
0c
11
0f
09
ff
f8
f4
ef
f1
f0
f5
fe
fc
01
06
0d
0d
0f
0f
0e
09
02
00
f8
f7
f5
f6
f3
fb
fa
ff
01
03
08
0a
0d
0b
09
08
0c
0b
0d
06
07
05
08
06
07
01
01
fc
fd
fa
fe
01
ff
03
03
05
06
09
09
0c
0b
09
05
05
04
05
06
09
04
07
07
09
0a
0c
0b
0c
0c
09
0c
0c
08
0a
08
08
0c
0b
0a
07
06
07
05
07
09
08
04
04
04
03
04
04
04
05
08
04
00
05
ff
fc
01
fd
fb
fd
fb
fe
fe
ff
01
fb
ff
fc
fb
f9
f6
fb
fa
f5
f6
f7
f6
f7
f9
f7
f6
f5
fa
fa
f8
f6
f7
f5
f4
f8
f1
f7
f6
f5
f5
f3
f4
f4
fa
f8
f6
f6
f9
f8
fa
fa
f7
f7
fa
fa
fc
fb
fc
fd
fb
fd
ff
03
00
02
03
04
04
03
01
03
00
05
02
08
0b
0a
0c
0c
0f
0b
0b
0c
0b
0f
0d
0d
0c
0c
0a
0a
11
0b
0f
0f
0e
0f
11
12
13
12
10
0d
0a
0e
0a
09
0b
09
0f
0a
0e
0f
0c
0b
0e
08
08
07
04
08
07
07
08
09
0a
0b
08
0f
10
10
10
08
05
02
0a
05
03
07
05
02
00
f9
02
fe
01
ff
01
fc
01
01
ff
ff
ff
00
fc
fe
ff
01
01
ff
00
02
fe
ff
00
ff
ff
ff
00
fd
fe
03
01
ff
01
fe
02
ff
ff
04
ff
ff
02
01
02
04
01
fd
00
00
02
fe
fd
00
fe
ff
03
02
04
00
02
00
fe
fe
ff
01
02
fe
03
03
00
01
01
00
05
00
03
00
fd
01
ff
ff
fe
01
03
03
00
00
01
05
02
01
02
00
01
fd
ff
03
ff
02
01
ff
02
fe
02
00
fd
02
01
ff
03
fe
fe
00
01
03
fe
fe
00
02
01
fe
fe
fe
03
01
01
02
00
02
ff
03
04
02
00
02
00
fc
fd
01
02
03
01
fe
fe
02
04
01
03
03
02
ff
ff
fd
00
fd
02
00
01
03
ff
00
fe
02
02
03
01
02
ff
fe
fe
02
fd
ff
00
00
03
04
00
01
ff
00
00
01
03
00
00
fc
fd
ff
fe
02
ff
02
01
01
fd
02
fe
04
03
fe
01
02
fe
01
00
01
03
fe
fd
fd
00
ff
fe
ff
02
ff
02
01
fd
fe
ff
00
fd
fc
00
fd
01
04
01
03
fd
fe
fe
00
00
03
00
fe
01
03
00
ff
fe
00
fd
fd
fe
01
02
ff
fe
fe
00
fc
fa
fd
ff
02
00
fb
01
fe
ff
fe
00
02
06
02
f7
ed
f4
fa
04
03
0a
07
09
07
06
04
03
01
00
fb
f9
fb
fa
fc
fb
fa
fc
01
01
fe
01
fe
fd
fa
01
fa
ff
fb
01
fb
00
fc
00
01
02
ff
01
00
00
00
fd
fe
fb
fe
00
ff
fc
fe
02
fe
04
00
01
01
00
fe
00
fe
01
fd
fd
ff
00
fb
fd
fe
02
00
ff
fe
ff
fd
fd
02
00
fd
00
fe
00
00
01
ff
01
01
fd
fa
fd
00
ff
fd
fe
01
01
02
01
ff
fd
02
fe
fe
00
00
fd
02
01
fe
ff
ff
03
03
fe
01
02
ff
00
03
01
ff
04
ff
fd
00
fd
02
fe
fd
01
fe
00
03
04
ff
04
ff
03
ff
00
fe
03
01
ff
02
fb
fc
00
00
00
fe
fe
04
01
ff
05
03
ff
00
ff
01
02
ff
02
fd
02
fb
fb
fe
02
fe
fd
03
04
01
00
04
04
05
ff
00
04
02
fe
fd
01
ff
fb
ff
fe
02
fc
fe
03
00
fe
03
01
03
01
04
01
00
02
00
fd
00
00
fe
fe
02
fd
ff
00
ff
fd
fe
00
fd
fe
03
04
08
01
02
fd
00
04
01
fb
fd
01
00
02
00
01
01
00
ff
03
00
01
ff
f8
00
01
fe
02
00
fe
ff
fc
f4
ea
f2
f8
fe
06
0c
0a
0d
0f
10
10
0a
09
08
08
01
fb
fd
f6
f9
f6
f2
f2
f3
f3
f5
f4
f4
f7
f9
fa
fe
00
02
06
08
0a
0b
07
09
08
06
06
04
02
fd
fd
fb
fc
00
fe
fb
fe
ff
02
04
05
01
01
01
01
ff
02
03
fe
ff
00
01
00
fd
fd
fc
fc
fb
fe
01
ff
ff
03
fd
03
fe
fe
fc
fc
00
fc
fb
ff
ff
fd
00
fb
fd
fa
fe
ff
fe
fe
00
fd
fa
ff
fd
01
fe
fd
fe
fe
fe
02
00
ff
fe
ff
fd
03
00
fe
03
00
ff
ff
00
fd
01
fd
ff
00
00
01
00
00
fd
fa
ff
ff
fd
fd
00
01
03
02
fd
00
03
00
01
00
01
fe
fd
fd
01
ff
00
03
ff
02
fe
04
ff
03
03
ff
03
00
01
01
fd
fc
fc
fa
fa
fd
fb
fe
01
01
fc
01
ff
04
fd
fe
02
ff
fb
fe
fc
fa
f9
fc
fb
fb
fc
00
04
05
04
05
04
03
07
06
02
04
04
01
fe
ff
fe
fe
fe
ff
fe
fe
00
fb
01
fd
ff
fc
fc
04
03
fd
fe
01
ff
01
04
04
01
00
ff
fe
02
ff
00
02
01
06
00
00
06
04
01
fe
02
04
00
02
ff
06
05
03
09
06
00
02
fe
00
fe
00
01
03
04
07
07
02
08
01
01
03
04
01
00
ff
04
04
02
01
01
06
05
01
05
01
06
04
03
06
04
04
03
02
06
07
06
01
02
01
01
03
05
06
04
00
06
06
05
ff
00
00
04
04
01
04
02
01
03
01
04
04
05
ff
01
01
03
05
02
02
fe
02
01
04
02
02
00
04
ff
03
02
ff
04
01
01
02
01
01
05
06
02
05
01
02
00
05
01
03
04
01
00
05
03
02
04
05
03
03
03
04
04
01
06
04
05
00
03
06
00
06
01
06
03
04
02
04
03
06
01
05
00
03
01
05
04
05
05
04
05
02
03
02
01
06
01
04
03
02
03
04
02
02
07
04
02
02
06
01
04
07
01
06
05
04
04
01
04
01
07
04
04
07
03
02
02
06
08
07
03
05
01
05
05
04
03
03
05
06
06
08
04
07
02
06
03
05
03
02
06
05
00
06
03
04
03
06
04
01
ff
03
ff
04
00
01
09
09
07
04
fe
06
01
01
03
08
01
02
03
06
03
00
ff
05
03
02
27
16
04
09
07
ff
00
f4
e7
e4
e5
e0
e7
f8
fd
09
13
22
25
22
24
18
16
0e
09
01
03
02
02
07
09
0e
0b
11
13
0d
10
0a
0b
05
06
fe
02
fe
00
fc
fd
fe
fb
ff
fb
fc
fc
fe
fb
fd
f9
fa
f6
f7
f3
f2
f6
ef
f3
ef
f4
f0
f0
f3
f0
f0
f0
f5
f4
ef
f3
ed
f2
ec
f3
ef
ef
f3
f0
f6
f4
f7
f8
f8
f6
f8
f4
f5
f4
f8
f7
f7
fa
f9
fd
fb
ff
fe
fc
fd
fb
00
ff
02
fc
00
ff
ff
01
04
05
04
03
07
04
05
08
02
03
06
05
07
0a
09
0b
06
05
05
09
06
0b
0b
0b
0a
08
0b
07
06
08
09
09
0c
09
0e
09
08
07
09
07
08
06
06
06
0a
09
09
08
02
03
06
05
01
04
01
02
02
ff
02
01
03
02
fd
fd
fb
ff
fb
fe
fa
ff
fd
f7
f9
fa
f7
f6
f7
f5
f7
fa
f5
f8
f7
f8
f9
f8
f8
f7
fb
f8
f7
f5
f1
f0
f2
f1
f1
f2
f0
f4
f4
f5
fc
fd
04
07
04
06
06
ff
ff
f9
f3
ed
ec
e4
e6
e7
ea
f4
fb
01
0a
14
19
15
0e
0b
0d
0e
06
02
fb
f8
fe
fd
02
0d
14
23
28
fe
ff
02
01
00
00
01
fa
00
01
fe
03
fd
fe
00
03
ff
01
01
ff
01
ff
03
01
02
01
00
01
ff
fe
00
fe
00
ff
01
00
02
ff
00
02
01
fe
03
ff
02
fe
ff
02
00
fe
01
03
fe
fd
01
01
02
02
fc
02
ff
ff
01
fd
fe
01
ff
01
02
01
02
fe
04
00
00
fe
ff
00
fe
fe
00
02
01
01
00
fe
fd
01
03
04
fe
00
00
04
fe
ff
03
fe
05
00
00
01
fe
fe
03
fe
00
00
02
02
01
ff
03
fe
fe
01
02
04
01
fe
ff
ff
03
fe
00
00
03
ff
01
01
00
00
fe
01
ff
00
fe
00
ff
02
03
00
fd
ff
03
02
fd
00
ff
fd
ff
02
02
ff
fc
00
00
02
01
04
00
fe
ff
00
ff
fd
01
03
00
00
01
fe
fe
02
fe
03
02
fd
fe
00
00
00
ff
ff
fe
01
01
fc
01
03
ff
00
ff
00
02
fe
fc
00
ff
fc
01
ff
ff
00
fd
01
fc
01
02
02
fe
fe
fd
ff
00
fc
01
ff
ff
fe
02
ff
ff
fe
fd
fd
00
04
fe
fd
03
01
ff
00
fb
fb
02
00
00
05
fc
01
fd
00
fe
02
01
00
ff
fc
fb
03
03
01
fe
02
f3
ed
e9
ec
ef
e8
ef
f4
f2
f7
f1
f4
ef
f3
fa
03
02
fd
05
03
08
07
08
05
05
07
08
07
06
06
07
06
09
0b
09
0a
09
05
07
03
03
01
01
fd
f8
f6
f9
f4
f3
f3
f2
f0
f0
f1
f1
f1
ed
ee
ec
ec
ea
ed
ed
ea
eb
e9
ec
ef
f0
f0
f4
f4
f9
fd
fa
fc
fd
01
fd
02
ff
01
00
01
06
06
06
0b
0d
0e
0e
0c
0a
09
08
05
05
06
03
04
ff
01
05
04
05
0b
11
17
1a
1a
20
24
28
28
28
2b
29
27
25
1e
18
11
10
09
02
fe
fa
f7
f1
ee
eb
eb
e5
e5
e1
e6
e2
e2
e4
e2
e3
e2
e5
e3
e5
ea
ee
f2
f4
fe
03
02
0a
0d
18
1a
20
1f
23
27
28
28
2a
25
22
25
1f
1e
1e
1b
1a
13
12
15
14
10
11
0c
0e
08
06
09
06
08
09
0c
07
09
0e
0e
10
10
15
12
11
16
12
13
0e
0e
0b
0a
03
ff
fc
fb
fb
f9
fa
f8
f3
f3
f4
f5
ee
ef
eb
ea
eb
e9
e4
e2
e5
e3
de
de
de
e3
e0
e5
e7
e3
e5
e8
ef
ec
ef
f7
f6
fa
fc
fd
ff
f9
f0
f2
f3
ef
ec
ef
eb
f0
e8
ed
ed
ee
fb
f7
f5
f4
ea
e6
ee
ec
f5
ee
ee
e9
e9
ef
f2
ec
ee
f5
fd
02
fe
ff
02
fe
01
fb
fd
fa
f6
f3
f6
ef
ef
ed
f2
ef
ed
ee
f0
ee
ef
ea
ea
ef
ee
ec
f0
eb
ef
eb
ec
ef
f2
f2
f1
f4
f0
f6
f6
f6
f9
f6
f6
f7
fa
f7
fa
fe
fa
fb
fc
f9
fa
fc
fc
f7
f6
fb
fb
f8
f7
fb
fb
f6
fa
fa
f9
f8
f7
fd
fc
fc
fe
fb
fc
ff
00
fe
fe
fd
fe
00
00
fd
fb
fe
fd
01
fb
ff
00
01
00
00
fe
03
ff
ff
00
04
06
03
00
ff
00
fe
00
ff
fe
fc
ff
fe
01
02
00
03
03
04
09
0a
05
06
0a
08
0c
0d
0f
0e
0f
13
10
17
13
16
17
19
1c
16
15
1a
18
14
13
16
13
0d
10
0e
0c
08
08
07
04
00
04
01
02
fe
ff
fc
fb
ff
f9
fd
fa
f7
f9
f9
fc
fd
fd
f8
fb
fa
f9
fb
fa
f9
fe
fa
ff
fd
ff
00
05
00
05
04
09
07
07
04
09
08
08
03
02
05
03
02
04
01
04
00
04
01
04
07
05
0a
0b
0c
0c
0f
12
14
17
1d
27
25
1e
11
0a
04
01
05
02
f2
fd
fa
08
08
06
07
00
fe
ff
f8
ef
f9
f9
f8
f2
e9
e7
ed
eb
ea
f0
f7
f8
f7
f4
f4
f8
f3
f7
f9
fb
fb
fc
fe
fe
fb
ff
ff
01
fe
00
02
03
03
ff
02
02
05
06
07
05
0a
09
0b
0b
0c
09
0d
0a
0d
0b
0c
0f
0a
0b
09
0e
0d
09
08
07
04
01
00
fe
f8
f6
f5
f0
f3
f2
f2
f4
f1
f3
f6
f7
f8
f7
f8
f9
f7
fc
f7
fc
f7
f8
f7
f3
f3
f0
ed
ed
ec
f1
ed
ef
f1
f3
f4
f9
fc
fa
fc
fb
ff
ff
00
01
fc
ff
f9
fa
f7
f8
f7
f6
f8
fa
fb
02
05
05
07
08
0f
0e
0e
0e
12
11
12
11
0b
0b
0c
0c
0f
0f
11
14
13
18
17
19
18
14
13
12
0d
0c
09
0b
05
03
01
02
00
ff
06
02
03
05
06
06
07
03
02
01
fb
fa
f9
f4
ed
e8
e5
e5
e1
da
dd
d8
df
dd
df
e5
e6
e7
f0
f1
f1
f7
fb
fd
f9
fc
03
04
04
04
09
09
0d
0a
0d
11
13
14
14
17
14
16
13
14
15
12
0f
0e
12
10
13
16
14
15
1b
1e
1a
1a
1a
1b
18
15
14
0d
0f
10
07
02
09
0a
06
03
02
02
0a
09
11
0c
03
01
01
01
fd
fc
ff
0f
11
09
06
04
fb
fc
fa
f1
ed
f4
f1
eb
f3
fe
fc
fd
fd
fe
02
fe
ff
02
fe
fa
fd
f8
f6
f9
f5
f7
fc
fd
03
07
07
06
08
08
01
01
fd
fd
f2
ef
ef
ea
ed
ee
ec
f0
f0
f0
ec
f0
ee
ec
e5
e6
e3
e0
e1
dd
db
dc
df
e3
ea
ec
ef
f2
f4
f5
f9
f9
fd
fe
fa
fb
fb
fe
fd
fe
00
01
fe
01
02
03
02
04
07
09
0a
06
08
0a
06
08
0a
07
06
09
08
05
03
05
05
07
03
06
07
07
03
05
02
06
02
00
05
00
02
03
02
fd
fe
fd
01
03
01
06
02
03
04
05
08
06
fd
fe
00
fd
fc
fe
01
fd
00
00
00
01
04
08
07
04
09
06
05
07
ff
fe
fd
fe
ff
fb
ff
01
01
00
07
06
07
09
0a
08
03
01
fd
fd
fb
f8
f7
f5
f5
f1
f6
f7
fa
ff
01
00
04
06
07
05
04
00
fa
f9
f4
f1
ec
e9
ea
eb
ef
f0
f0
f3
f8
fb
02
02
05
05
06
04
07
07
05
06
05
00
01
fb
fd
fc
fc
fa
f8
f7
f9
fc
f9
02
07
04
0c
0f
0c
13
15
16
11
0f
0b
08
07
01
fb
02
ff
05
0b
0e
10
07
08
fc
f6
f7
fa
f7
fd
04
05
08
02
fd
01
05
01
fa
f9
01
00
fd
fd
02
fc
00
fe
00
fb
00
00
ff
01
00
07
07
08
06
04
09
04
08
06
07
04
04
04
05
07
06
07
03
05
04
00
02
01
ff
fd
fe
02
fd
fe
fe
fb
01
00
fc
fd
fd
fa
ff
fd
fb
f7
f6
f9
fc
f8
fd
fb
fa
fe
00
ff
01
03
01
00
fe
01
01
ff
02
03
04
01
05
05
06
04
05
03
01
02
02
00
05
04
01
01
02
00
00
fc
ff
fa
fb
00
fb
fb
ff
fe
fc
ff
fb
00
fd
fd
fe
03
01
ff
fd
fe
01
01
01
00
fd
01
00
03
04
04
06
05
02
04
04
03
04
02
fd
01
fd
ff
01
02
00
00
04
05
07
02
00
00
01
00
fb
00
fe
00
fe
00
fd
fe
00
00
02
03
02
01
01
fd
02
ff
01
ff
fe
fe
04
07
01
04
04
01
01
03
03
02
02
ff
fe
00
fe
fd
fe
00
ff
ff
01
00
00
ff
fc
00
fb
00
fe
00
fc
ff
00
fe
00
04
06
06
01
07
05
03
02
fd
ff
03
00
00
fe
00
03
01
fa
fe
fa
ff
fe
07
07
05
fe
00
fc
00
ff
fa
f9
fd
02
02
00
00
fc
01
00
05
ff
01
fe
ff
08
02
02
0d
16
11
0a
02
fb
f8
f1
ea
e7
e6
e4
e3
e7
e5
ed
f0
f7
00
0a
12
15
19
1e
20
20
1e
1e
19
0d
06
ff
fc
f5
ea
ec
e9
e9
e8
e8
ed
f4
fa
ff
00
05
0a
0e
08
08
0d
07
06
04
02
fd
f9
fb
f9
fe
fe
f9
fd
fe
04
00
03
07
04
02
04
04
01
fe
fd
01
fe
fb
fe
ff
01
02
fc
01
01
04
02
05
ff
00
02
fe
04
01
01
fd
02
fe
ff
ff
fe
04
00
04
00
01
01
01
04
04
00
00
04
03
fe
fc
00
00
fe
fd
fd
00
01
01
03
05
04
ff
04
00
04
fd
00
02
fe
ff
fd
ff
fe
03
04
02
ff
02
05
01
ff
02
04
02
02
fd
00
fd
fd
01
ff
fd
01
fe
01
ff
02
03
04
05
05
04
04
ff
00
00
fc
fc
fd
f8
ff
ff
fb
fe
fe
00
04
05
08
08
09
04
01
00
02
fa
fe
fd
f8
f9
f7
fd
fb
fd
fe
04
03
08
07
07
09
07
05
02
ff
fd
fa
fe
fc
f8
fb
f7
f8
00
00
02
03
09
06
03
05
01
fc
02
00
fd
fd
00
00
f8
fe
fd
01
fb
fd
09
05
ff
fc
ff
04
02
03
fd
fc
02
ff
00
ff
05
14
0e
0b
06
01
fd
fc
00
01
01
04
ff
03
00
04
03
ff
01
01
01
02
fd
fe
ff
02
fd
02
02
03
00
ff
03
02
04
01
02
ff
00
fe
02
02
fe
02
04
03
03
ff
02
03
00
00
00
03
ff
01
04
03
02
03
fe
01
ff
ff
04
03
03
fe
ff
03
02
fe
02
fe
02
fe
00
fe
fe
ff
01
ff
03
00
00
ff
ff
03
04
fe
01
02
fe
fc
00
fc
00
03
00
02
02
02
ff
ff
fe
ff
03
02
ff
01
00
03
ff
01
02
01
00
03
fe
00
fe
02
ff
02
00
ff
03
fe
03
04
fe
03
fe
03
ff
00
ff
02
00
fe
fd
ff
fd
00
02
01
01
04
02
00
fe
01
fe
00
fe
ff
ff
00
00
00
ff
fd
02
04
03
ff
ff
ff
ff
ff
05
01
02
01
01
fc
02
01
fc
fd
00
ff
fe
01
fd
03
04
02
02
fe
00
01
00
01
ff
fb
fc
00
01
00
00
02
fd
fe
00
00
01
03
00
01
fe
00
05
06
03
06
09
09
07
04
03
02
fa
f6
ed
ed
f6
fe
05
05
03
01
03
03
06
ff
02
02
00
05
01
fb
06
01
03
01
ff
05
01
03
ff
ff
03
06
04
05
09
0d
0e
08
02
01
fd
ff
ff
03
04
02
03
06
07
01
04
00
fe
04
fe
ff
04
00
01
01
02
04
05
04
02
03
00
04
ff
03
ff
ff
fe
02
03
ff
03
02
03
01
01
03
04
ff
00
ff
01
ff
00
00
ff
00
00
01
04
01
04
01
01
00
ff
02
fc
fd
ff
00
ff
02
fd
04
02
01
04
00
fd
fe
02
fd
00
fe
01
fe
03
04
02
00
03
01
00
02
02
02
01
02
01
fe
01
03
05
00
01
01
02
01
06
00
00
02
03
04
02
04
01
fe
02
02
00
03
00
05
ff
05
05
05
01
ff
04
ff
ff
01
00
03
05
02
01
01
03
02
05
ff
03
00
04
01
05
00
fe
01
04
ff
02
01
01
05
02
01
06
00
02
05
01
02
03
00
00
00
02
00
04
01
ff
05
03
04
03
06
00
02
00
02
fe
04
fe
00
fe
01
00
00
02
03
04
00
00
04
03
01
ff
fe
02
00
02
ff
01
00
00
02
05
04
06
04
05
03
04
02
fe
fe
fd
fc
fe
fd
00
04
05
06
01
01
08
01
fe
02
06
00
fc
03
07
03
17
20
24
20
1b
14
0f
fd
f1
e6
e6
e4
d8
dd
e0
e1
e9
ef
f7
f9
fe
01
ff
f8
f5
f2
ed
e3
df
da
d5
d6
d3
d7
d6
d9
dd
e1
e2
e7
e8
ec
ed
ef
ef
f1
ee
e9
ee
e7
e9
ed
ed
f2
f5
fa
fa
00
02
04
02
03
00
01
fe
ff
00
fe
05
06
07
05
0d
0e
0b
0c
0f
09
0e
09
09
0a
0b
0a
0d
09
0c
0d
0c
0c
0e
0d
0e
0b
0f
0d
0a
0a
07
0b
07
0b
0a
08
0a
0a
08
08
07
0b
04
05
01
03
03
03
fe
02
02
01
01
04
fe
00
ff
01
ff
fb
fb
f8
f9
f7
f9
f9
f4
fb
f6
fb
fd
fd
fd
f8
fa
f6
f4
f3
f2
f5
f7
f8
f9
fa
fc
fb
fd
fa
fc
ff
f9
fc
f8
f7
fa
f6
fc
fe
00
01
02
03
09
07
07
02
04
fe
01
ff
fa
fb
fd
01
07
07
10
0e
11
13
10
0f
09
04
03
fd
fe
f8
fc
fe
ff
05
0d
10
19
1c
1e
1b
1e
15
11
0c
00
fb
f9
f2
f2
ee
f6
fa
03
0a
14
21
26
25
2a
26
19
10
06
f4
ed
e6
dd
df
e8
f8
05
17
2b
30
2e
23
14
08
00
f9
f5
f2
e6
e5
e4
e7
ee
f8
01
0e
03
03
fd
01
ff
01
fd
02
00
00
fd
03
fe
00
00
ff
02
fe
fd
02
02
fd
fe
fc
fd
00
ff
03
02
fd
02
00
01
fd
ff
fe
fe
02
02
fc
02
ff
fe
02
01
ff
03
fd
01
01
fd
00
fd
fd
01
03
fe
04
fd
03
fe
00
fd
02
fd
fc
fd
00
00
01
02
00
03
fe
fe
02
fe
01
01
01
02
00
ff
fc
fe
ff
02
ff
01
02
02
ff
03
01
02
fd
ff
00
01
fe
ff
01
00
00
03
05
00
01
ff
02
02
fd
00
fe
ff
fe
00
02
ff
ff
fe
ff
03
02
fe
03
00
ff
fb
fd
01
01
01
fe
00
03
03
01
00
fe
fe
ff
03
ff
01
fe
00
fe
fe
02
00
03
00
ff
02
fd
02
00
00
fe
00
fe
01
fd
ff
03
00
fe
02
03
01
ff
ff
01
03
ff
ff
02
fe
00
00
01
fe
ff
01
00
02
ff
03
fd
01
00
ff
02
00
00
fe
02
00
00
ff
fe
fe
01
00
00
ff
fd
ff
ff
00
02
fd
02
fe
02
02
01
02
fc
fc
00
ff
00
01
ff
01
ff
03
01
fc
fd
fe
ff
01
00
fe
fe
04
ff
00
01
00
fe
01
00
ff
00
ff
00
01
fe
ff
fe
fd
fd
f9
ff
01
01
fd
fc
f5
fc
fd
fd
fa
fb
fc
ff
06
16
30
1f
06
fa
ed
e7
e7
e8
e3
eb
ef
ef
f2
f4
f4
f6
f3
f5
f5
f8
f5
fb
fa
01
01
05
09
0b
0d
0e
0b
0a
0a
04
04
02
00
