2d
28
1e
1e
15
12
0b
0c
0a
00
03
fe
ff
fb
fb
f7
f9
f5
f1
f2
ed
ed
eb
f0
e9
ea
ec
ec
f0
ec
f6
f2
f9
f9
f8
fe
fc
ff
fb
f9
fb
f7
f8
f8
f6
f1
f5
f2
f3
ef
ef
f3
f2
fb
fa
fd
fe
fe
02
fd
01
fe
02
ff
02
00
04
fe
ff
ff
06
04
08
01
02
03
05
0a
0a
0d
08
07
0d
08
0d
09
0d
07
08
0b
0a
08
0b
0a
03
02
07
ff
fd
f9
f8
fa
f7
f2
f4
f0
ee
ee
ed
ef
f6
f4
f6
f2
f6
f9
fc
f9
fc
fb
fe
fb
fc
f8
f6
f5
f4
f2
f8
f4
f8
f8
f5
fe
fe
01
04
07
11
14
1b
1a
24
20
25
28
29
2a
29
1e
1f
18
14
0b
0c
ff
fd
f5
ee
e3
e3
db
d5
cd
d0
cc
ca
cf
ce
ce
d0
d6
db
dc
df
e2
e5
eb
f0
ea
ef
f1
f0
ed
f1
f0
ee
ec
ec
ed
ed
ed
f3
f5
f4
f6
fa
fc
01
04
02
07
0f
0f
0f
0e
11
12
16
1b
1f
21
1d
20
23
29
28
25
28
24
22
27
20
1f
1a
1f
1c
1b
15
13
13
19
18
19
19
17
15
11
10
0f
13
0e
0d
0a
0a
08
07
0b
09
0d
09
09
0c
0b
0d
0a
11
0b
10
10
12
0c
12
0d
11
13
0e
0e
0b
07
0b
02
07
06
04
fe
fb
00
02
fd
01
01
05
06
09
0b
0a
13
15
11
12
12
0f
0f
15
12
11
14
13
14
15
14
13
11
0f
13
0c
0b
05
04
03
fe
f5
f8
f9
f5
f6
f8
f4
f6
f4
f8
fe
ff
fc
fd
fd
fc
fd
fe
01
fd
f8
f6
fa
f4
f5
f8
f4
f5
f7
f7
f7
f6
f7
f9
00
fa
fa
fd
fd
fe
ff
fd
f7
fc
fe
fb
fa
01
fc
fc
fa
ff
01
ff
fe
f9
f7
fa
fc
f8
f1
f2
ee
ee
f0
f1
f1
eb
f2
ed
f3
f5
f3
f9
f3
f6
fb
fa
fa
fa
01
01
01
fe
fe
03
05
02
03
07
03
01
fe
f8
f5
f3
ee
ed
e6
e1
e3
dd
dc
d6
d6
da
d9
db
e1
e4
e7
f1
f6
f7
f9
f9
fd
01
02
00
ff
02
fb
01
fb
fc
fa
fa
f8
fc
f9
fb
fc
f6
f5
fb
fb
f6
f9
f6
f8
fd
ff
02
02
0a
0a
0a
0f
13
17
15
1c
1a
1a
1c
23
23
21
1e
1d
18
13
18
11
11
11
14
15
11
12
15
12
11
16
12
15
13
0e
0c
09
07
04
03
04
06
03
03
05
06
0b
0f
11
11
0d
0e
0f
0d
0b
05
2d
2a
2c
29
2f
24
28
21
1c
1d
18
19
1a
14
1b
1b
1d
1f
22
1f
21
25
24
20
1a
1c
15
18
10
0f
0b
0a
0a
06
07
07
07
02
04
06
05
08
05
05
0a
0a
0c
0f
0e
10
0d
09
0a
0c
0a
0b
09
07
06
03
02
03
02
fb
f9
f9
f2
f0
f2
ea
ee
f0
ee
ee
eb
ee
ef
f1
f2
f6
f0
f4
f2
f2
f5
f2
f9
f7
f5
fa
f4
f7
f9
f8
fa
fd
02
04
02
fd
fc
00
fc
f8
f6
ef
ef
f3
ec
ec
e7
e9
eb
e9
ec
ef
ea
f0
ec
ee
f2
f4
f1
f1
ef
f1
f0
f3
f5
f1
f9
fa
f5
f8
fd
fd
fe
fd
03
fd
02
fd
fc
fb
f2
ed
eb
ea
e1
e1
d8
dd
dc
db
df
e0
e7
e6
ee
f7
ff
02
04
10
10
14
14
18
1e
1d
19
1c
18
1c
13
14
0f
10
12
14
0f
11
0d
0d
0d
0b
03
09
05
00
ff
fc
00
fb
00
ff
f9
ff
ff
02
03
ff
07
08
07
02
04
03
01
02
fd
fb
f2
f0
eb
e3
e0
df
e4
de
e1
eb
ee
f5
f4
f9
03
09
0b
0d
0e
13
0d
0d
11
0a
0a
0d
0c
0c
09
0d
12
0d
11
16
13
1c
17
19
19
16
13
18
12
09
0c
0e
08
06
00
ff
00
ff
fe
00
02
01
02
00
03
03
fe
fd
00
fd
f6
fb
f4
f5
f3
eb
f1
ea
ec
ef
f2
fd
fc
03
01
0e
10
11
1a
1f
23
1d
1e
22
1f
1c
18
12
11
0d
05
03
ff
ff
f7
f6
f7
fa
fd
fa
01
fe
03
01
fd
fe
fb
fd
f6
f7
f6
f0
f3
ee
ef
f0
f4
f6
fb
fe
06
0c
0e
0d
0c
12
0d
0f
0d
09
07
05
00
fa
00
fa
fb
01
03
03
05
04
09
0f
0c
0a
08
04
05
ff
fe
f7
f6
f3
f2
f4
f5
f9
fb
fa
fc
03
05
08
0a
0c
0f
0d
08
06
04
02
04
ff
ff
f8
f6
f5
ee
f1
ef
ee
ee
f6
f8
f9
00
ff
05
0d
10
16
18
21
21
25
29
22
1f
20
18
14
12
06
fe
f7
f1
e9
e2
e0
da
d4
cf
cf
cd
cd
cb
d1
cf
d1
d5
df
e3
ea
f6
fc
05
07
10
18
24
26
26
2b
28
2a
28
2b
25
20
1e
1a
1a
19
16
12
16
11
0e
12
14
14
11
0f
12
13
0b
0e
0a
0b
0b
07
03
03
ff
f9
fe
f7
f6
f5
f5
f0
f5
f1
f0
f2
ec
eb
e5
e0
dc
d9
d9
d0
ce
d0
cf
d1
ce
d8
df
e6
e8
f4
fd
07
17
17
1d
1a
1e
1b
1e
19
17
13
14
16
11
0c
0c
0c
08
0e
0c
0e
0d
0f
13
17
17
16
1c
16
13
11
17
12
10
0e
0d
09
09
0e
0e
0e
06
0b
05
0b
0a
09
08
06
03
03
fe
00
fb
fa
f3
f3
f0
f0
ed
ec
f1
f4
f8
f9
f8
f9
03
06
03
09
0c
07
02
04
fe
fb
f1
f3
eb
f1
ea
ef
f0
f3
f5
fb
fa
fb
ff
04
ff
ff
fb
fd
f8
f2
eb
e5
e5
e0
e4
dc
e2
e8
e8
ec
ec
f8
f8
f8
02
fe
00
03
f9
f6
f6
f2
f1
ea
ed
ea
ea
ea
f2
f2
f1
fa
fa
fb
f9
fc
00
fe
f8
00
fd
00
03
06
01
0b
06
0c
09
0c
0c
0a
07
05
05
ff
fc
f7
f7
f3
f3
f3
f1
f4
fc
fe
05
09
0e
14
13
1b
1d
17
15
14
12
11
0e
0c
07
05
02
05
fd
fa
fd
fa
fd
fd
ff
f9
01
03
00
09
0a
09
0d
0b
09
0e
0d
08
0a
00
04
02
fb
f4
f5
f0
ee
ed
f0
eb
ee
f2
f6
fd
fb
01
05
05
0a
09
05
08
04
04
02
fb
fd
fb
f9
fc
f7
fa
f8
f3
f8
fc
f8
f9
01
02
fe
04
01
fd
01
00
fd
fe
f8
fd
fb
f8
f5
f6
f6
fc
00
ff
ff
06
05
fe
02
02
04
01
02
fd
02
03
fd
fe
02
05
01
04
03
02
fe
02
01
f8
f9
f7
f6
f7
f4
f1
f6
f2
f4
f6
f4
f9
f7
fc
fe
00
fd
fb
02
04
fd
02
fd
00
03
02
fb
00
ff
fc
ff
f9
f9
f8
fa
fa
f9
f5
f6
f9
f4
f8
f9
f8
fc
fc
ff
fc
fb
01
ff
fd
fb
ff
fa
fe
ff
f8
f8
f7
fd
fd
f8
fb
f6
f4
fa
fa
fd
fa
fe
ff
01
fa
03
fc
03
ff
fa
ff
fb
f8
f8
f9
fb
f6
f9
f7
f7
f8
f6
f7
fa
f9
fc
ff
fd
fe
00
01
00
02
02
04
03
01
02
04
02
06
06
07
07
09
06
02
06
00
01
00
fe
fe
04
02
02
05
fe
04
09
0a
06
0d
0a
0d
0e
0b
0a
0b
10
0f
08
09
0b
06
0b
0c
09
05
09
09
0a
04
02
07
04
01
ff
fc
01
fc
fe
ff
fb
fb
fa
fe
f9
ff
fd
02
01
00
02
05
ff
ff
01
ff
01
01
fc
00
fa
f9
fa
fa
fc
fc
fe
05
08
0a
0c
09
09
06
0a
03
09
06
07
06
03
09
08
0a
08
0c
0d
0d
0f
0a
0c
09
0a
09
03
fe
fe
fc
f8
f4
f6
f4
ed
f0
f0
ee
e6
e8
e8
ec
ee
f5
f5
f9
f8
f9
fb
fb
f9
fc
fe
00
02
02
05
03
01
ff
ff
ff
01
02
04
ff
00
ff
00
01
00
00
ff
00
fc
fa
fd
fa
f8
fb
f8
f6
f3
f4
f0
f5
f5
f7
f5
f6
f7
fb
f7
fd
fd
fb
01
00
03
04
06
0d
09
10
0c
10
12
14
0f
12
10
11
0d
0c
06
04
09
00
02
00
04
fe
fa
fc
ff
fe
ff
fa
fd
f6
fb
fa
fa
f4
f4
f6
f1
f0
ef
f3
f6
f5
f5
f7
f4
f8
f7
f8
ff
f9
fd
f9
fd
fc
00
fc
01
fb
00
fa
ff
fc
fd
fc
00
ff
f9
fd
f9
ff
fc
fa
f9
fc
f9
fd
fe
fe
fd
f9
ff
fb
fc
fd
01
01
ff
01
fb
00
fd
03
fe
00
05
06
ff
00
02
03
00
ff
fe
02
05
ff
02
02
04
00
01
04
03
05
ff
02
03
fd
00
fe
02
fd
01
03
fe
ff
01
07
07
03
07
04
05
0a
08
06
08
08
07
04
03
08
06
08
06
0b
0c
0c
0c
10
0c
0e
12
12
0d
12
10
0d
11
0a
0f
10
09
0a
07
0b
09
0b
0e
0f
10
10
0e
0b
08
0b
0f
0a
08
04
02
ff
04
ff
f9
fb
f9
f6
f6
f4
ec
ec
ee
e8
06
07
fd
f7
f4
f1
f6
f2
f2
f2
fa
f9
fb
fc
fd
02
04
ff
ff
fa
fa
fd
f5
f6
ef
ec
ea
ee
e8
ee
ee
f1
f4
f2
f9
f5
f8
fe
fc
fc
fd
fc
02
ff
01
03
06
02
04
09
09
07
05
09
0b
0a
0b
04
0a
04
0b
0b
0a
0c
07
06
07
0d
0b
07
0b
0c
03
09
06
05
08
08
06
07
05
04
01
04
00
04
02
01
fd
fc
01
00
ff
fb
fc
fb
ff
fb
01
03
fd
02
04
04
09
09
0e
08
0d
07
09
0a
0c
0b
03
07
03
04
00
01
05
fd
fc
ff
ff
fd
01
f9
f8
f8
fa
f9
fd
fc
fe
fb
01
02
fb
fd
fb
ff
f9
fa
ff
f6
fd
fc
00
fc
03
01
03
06
01
02
09
03
03
04
02
03
fe
01
fa
fd
fe
fc
fb
fb
fa
fa
fa
fb
fd
04
00
04
06
04
02
01
03
07
02
05
07
09
07
06
09
0a
0a
09
0a
0e
10
12
12
15
18
13
11
12
12
14
0d
0c
09
03
05
fe
fc
f9
fb
fd
fe
fc
00
01
02
03
07
05
0d
07
06
06
03
00
01
f7
fa
f7
f3
f4
f7
f9
fc
fe
fb
fc
00
ff
02
00
04
03
fd
f5
ef
e9
e6
db
d4
cf
0c
08
03
05
03
f9
f9
f9
fa
f9
ef
e8
ea
e3
e0
d5
d4
ca
c7
bc
c0
bd
bf
ce
d2
e6
f2
00
10
1c
29
35
38
41
3d
3a
35
30
20
15
10
04
fc
f1
ec
ea
e2
e2
e8
e9
ec
ef
fb
fc
00
03
08
0d
0f
14
11
11
13
0e
0b
0a
08
02
00
fc
f7
f5
f2
f0
f3
f4
f2
f1
f7
f2
fa
fa
fc
fa
f7
fe
f8
fb
fc
f5
fa
f8
fd
f8
fe
ff
00
03
02
ff
06
05
05
01
03
02
07
06
06
07
02
05
06
07
0c
0b
0d
09
05
06
09
07
03
ff
fa
fb
fd
f8
fb
fb
f8
fc
f8
f9
f8
f6
fb
fb
f9
fe
f9
f9
fb
fe
00
01
04
ff
05
05
07
0c
0c
08
07
0a
0a
0e
0d
0f
0d
0b
0b
0b
09
0c
05
0a
05
03
06
09
0b
08
06
06
05
07
07
0a
09
03
04
01
01
fe
00
fb
01
fe
f5
f3
f5
f3
f3
ed
ef
e7
e6
e4
e7
e3
df
de
de
dc
e1
e3
e2
e5
e9
e8
ec
f2
fb
f9
00
ff
04
04
0d
0f
0b
10
11
11
13
0e
11
15
1b
1a
1f
25
27
30
35
37
42
3f
40
44
3d
33
2c
26
20
19
0f
ff
f1
e8
e2
dc
d1
c9
06
02
02
03
05
0a
09
07
08
09
07
04
05
04
08
03
05
05
09
08
06
03
01
03
00
02
05
04
03
0a
0c
07
0a
07
08
07
09
05
01
01
03
01
00
ff
fd
ff
ff
03
04
07
02
03
05
03
01
00
fd
f8
fc
fa
00
00
ff
04
00
07
09
06
03
06
05
06
02
07
04
05
05
06
04
07
0a
0d
0e
07
0b
07
06
08
05
03
03
03
08
05
ff
fd
fc
fc
fd
02
03
02
07
03
04
08
06
0a
0b
05
03
05
fe
05
fe
01
fd
fe
03
07
0a
0c
0b
0a
0b
09
08
01
00
04
fc
00
fd
fd
00
fb
ff
01
02
fd
02
fe
00
01
fc
fb
f9
fd
fb
fa
f7
f9
00
02
03
ff
07
04
08
07
03
ff
02
fa
fd
f6
f7
f4
f6
f9
f7
f7
ff
fe
fb
f8
fb
fa
ff
fc
fb
f9
fb
ff
01
fe
fc
01
fc
f9
f9
f9
fb
fa
fb
f9
fd
f9
f9
fa
f7
f9
f8
fa
fa
f7
f5
fb
f6
f9
f9
f5
f7
fa
fc
f7
fa
f4
f4
f9
f5
f9
f4
f3
fa
fb
f9
f6
f9
f9
fe
fb
fc
fd
fb
f7
fd
fd
f7
fd
fb
f9
f8
fb
f9
02
04
02
06
02
03
fd
fd
fa
f4
ec
47
42
3a
30
27
23
1d
1c
16
12
0e
0f
0b
0c
09
03
03
ff
fe
00
fe
fc
fe
f8
f6
f5
f5
f5
f8
f1
f2
f5
f8
f6
fa
fa
fd
fd
01
00
00
04
09
0e
0c
13
12
13
14
15
1a
16
18
10
0f
0f
12
0e
0b
04
06
03
00
04
00
06
00
03
05
00
04
03
06
08
03
01
06
03
01
05
ff
00
02
01
fc
ff
fb
fd
01
fe
fc
00
01
fd
fd
fc
00
fe
01
00
ff
01
fe
00
02
ff
ff
06
04
02
03
06
ff
ff
ff
00
00
fd
03
fc
03
fc
fe
00
fe
05
ff
02
ff
03
05
05
01
ff
04
ff
00
fb
fa
f8
ff
fb
f6
fa
f7
fa
fb
f8
fa
f7
fa
f5
fa
fc
fb
f9
fa
fb
f8
f9
f8
fd
fe
f9
fc
fa
fe
f8
fd
fb
fd
fd
f9
fd
fc
f6
fd
fc
fc
f8
fa
f7
f8
fc
fd
fe
f8
01
fc
01
02
00
03
02
02
ff
04
01
02
fe
01
02
fa
00
fa
f9
f9
fe
f9
fa
fa
fd
f7
f9
fa
f9
f6
fa
f6
f5
f9
f7
fd
f8
fb
fe
f9
03
00
01
ff
01
02
01
06
05
09
09
0a
09
0b
0d
0f
07
0a
06
0a
08
0d
06
03
fc
f6
f4
e9
e0
22
17
11
11
0c
06
08
07
00
05
05
04
07
00
04
01
fe
05
00
03
05
00
00
06
09
05
09
08
09
05
0b
09
07
07
01
03
00
01
03
04
04
01
04
09
0a
0a
14
13
11
16
15
12
14
0e
0e
0f
0b
07
03
03
03
01
00
01
00
01
02
04
06
10
0f
0a
0d
10
0e
0d
0c
0c
0c
0b
0c
0b
0a
05
03
04
01
05
03
02
00
06
07
09
04
07
08
06
06
0a
05
0b
09
08
08
06
05
05
00
ff
ff
02
02
02
fe
fe
fd
03
fe
ff
06
04
01
00
01
06
ff
06
05
01
01
04
02
03
02
fb
00
ff
f9
fd
f9
f9
fc
fd
fd
fc
02
06
02
01
04
00
01
02
05
fd
fe
fb
f8
f9
f9
f7
fb
fa
fa
fa
f9
fc
f7
fd
fd
f9
fb
f8
f7
fa
fb
f8
fb
f5
f6
fb
f3
f8
fa
fb
fa
f5
fa
f9
fa
ff
fb
f8
f9
ff
fc
00
fc
f6
fb
fd
fb
fa
f4
f4
fa
f4
f8
f5
f7
f6
f3
f4
f9
f6
f8
f5
fb
f7
f7
fa
f8
f9
fb
fd
fc
00
fb
02
04
00
fe
f9
ff
01
00
fd
fd
00
fe
fd
fc
02
02
04
fc
fe
f8
f3
f0
e2
df
d3
c1
b8
c0
d2
de
e5
f1
fa
fb
f9
fb
fb
f8
f2
f3
f0
f1
f2
ed
ed
ed
e8
e8
ee
ef
ee
eb
f2
ec
f3
f4
f4
ef
ef
f3
f6
f0
f6
f1
f0
f4
f6
f7
fb
f9
fd
fc
04
01
fe
ff
fd
fd
f7
f8
f2
f0
ee
ef
f1
ee
f4
f5
f2
f6
f6
fb
f9
fc
fb
f7
f5
f4
f5
f8
f7
f9
f3
f8
f5
fa
fd
f9
02
fe
03
00
04
06
00
00
03
fd
01
fc
01
fb
fc
01
fc
03
02
05
fe
04
03
07
03
07
06
02
00
05
00
03
ff
00
fe
fe
fe
fd
05
01
06
03
08
09
02
08
04
00
04
04
05
fd
05
05
08
06
02
09
0a
06
08
0c
0d
0c
0d
07
08
07
0a
08
04
07
05
04
0d
07
0b
09
09
0a
0d
09
0c
0a
09
01
03
01
04
04
05
09
07
05
05
0c
0b
0c
0a
0b
0d
09
0c
0b
04
04
03
03
01
05
fe
00
00
04
05
04
09
04
09
05
08
05
04
03
08
04
06
01
02
03
06
02
04
03
05
06
05
05
04
09
08
05
06
00
03
fe
fa
fa
f7
f9
f5
f8
fa
f9
fe
ff
04
08
06
0c
0c
08
07
09
07
04
ff
00
fc
f7
f8
f5
f3
ee
e9
06
f6
f7
e3
db
d0
c6
c4
be
b6
b7
b9
bc
bd
be
bc
be
c5
c7
cc
d1
d6
e6
e7
f0
f7
fa
06
0a
11
1c
16
1d
19
1e
1b
17
1a
1a
17
1f
1f
1f
1c
1b
19
1a
14
0a
0b
03
fb
f8
f4
f3
f7
f3
fa
00
08
0b
14
1d
21
26
26
26
21
1c
14
0f
0a
00
fc
fe
f9
00
01
02
01
06
04
04
0c
03
03
04
05
04
ff
00
fe
02
03
02
02
08
02
09
06
0c
04
09
03
08
06
07
ff
04
fd
fc
fe
fc
f9
fa
fc
00
03
04
02
ff
fe
04
fd
fd
f8
f8
fa
f8
f9
f7
f9
f9
fa
fe
01
02
fb
fb
fe
fd
fe
ff
fa
f5
f5
f7
f7
f3
f7
f4
f8
ff
fb
00
fc
04
01
02
ff
fe
fb
fa
f9
00
fc
fd
fa
00
ff
fe
04
00
04
00
07
00
03
03
fd
02
01
fc
ff
02
05
06
02
03
03
05
06
05
09
03
02
00
00
05
00
fe
fd
fa
fb
00
00
01
ff
fb
fc
03
fd
03
03
09
08
08
06
0b
07
09
07
07
04
03
01
01
06
05
06
06
05
0c
0e
0e
12
0d
10
0f
14
12
10
0a
09
0d
06
04
06
05
07
0e
19
1d
22
2d
2d
ff
01
fc
fc
00
02
02
fb
fe
01
fe
fd
fa
00
f8
f8
00
fb
02
fe
ff
fe
04
05
01
00
fe
fc
fc
fe
fc
00
fe
ff
fe
04
ff
04
04
04
07
04
02
fe
fd
02
02
fc
01
ff
04
00
05
03
03
04
01
01
f9
fc
fc
ff
fc
00
01
01
02
ff
02
fe
02
fe
fe
fa
03
ff
03
fe
fc
01
fe
03
02
00
05
04
fe
fd
02
fd
ff
fe
00
fd
00
00
00
02
04
06
04
03
06
05
01
fc
01
01
fc
fd
02
07
00
03
04
01
02
07
06
ff
02
ff
03
ff
ff
fe
ff
02
ff
02
04
01
02
00
00
02
00
fc
02
00
fb
00
fb
fd
f9
00
01
fc
fc
00
00
04
06
04
08
05
04
00
03
fc
fe
fe
fa
fd
fe
ff
01
fc
ff
02
00
05
00
fe
02
02
fd
fa
ff
00
02
ff
01
fa
03
fd
fc
02
fe
01
fa
00
00
fe
00
fb
fe
01
02
fe
03
ff
fe
02
fd
fc
00
00
00
fc
fc
fb
03
fb
00
03
03
fc
fd
fc
01
fb
f9
fa
ff
ff
00
02
fe
fe
fe
04
05
04
02
05
01
03
03
03
ff
05
ff
02
03
02
03
01
02
01
03
ff
ff
05
04
01
eb
f7
fe
fe
02
06
01
06
04
02
07
07
02
03
fc
ff
fd
fb
fe
fe
fc
fe
fc
fc
f8
f6
f5
f3
ee
f1
eb
eb
ec
f3
ef
f3
f7
fc
fc
f9
01
fa
01
05
03
fe
fb
fe
fe
f7
f6
f4
f7
f5
f8
f4
f2
f6
f6
fb
ff
fc
01
ff
01
02
05
04
06
08
08
05
03
01
03
fd
00
f7
f7
f9
f5
f7
f8
f5
f7
ef
ee
ef
ef
ed
ee
f2
ec
f1
f2
f3
f3
f2
f7
f5
f7
fe
ff
fa
01
fe
ff
02
fe
fc
00
fd
fe
fe
05
05
05
08
0a
0a
0f
0c
10
10
0f
14
10
0f
08
0a
08
07
02
01
fe
05
05
07
09
0b
10
10
14
17
17
1c
1f
1c
1f
1e
1e
22
21
1c
1c
16
15
10
0b
08
0a
03
fc
fb
f1
f2
f1
eb
e9
e1
e3
e4
dd
de
e3
e2
e4
e0
e7
e6
ea
f0
ea
f1
ee
f6
f6
f7
f7
fd
fb
01
06
02
07
0c
10
14
1b
1a
20
23
22
27
29
27
23
26
1f
20
1d
1c
14
13
0f
10
0e
09
09
0a
0a
0c
0a
07
09
01
07
03
04
02
01
02
fc
ff
fe
fb
ff
f9
fb
ff
fe
f7
fb
f8
f9
ed
ed
e8
e2
df
d8
dc
d4
d4
cd
ce
e3
ed
ef
f1
ef
f6
f2
f9
f9
f8
f9
fa
01
00
00
08
03
06
05
09
08
09
07
05
0a
07
05
0b
0a
0a
0e
0e
0f
11
11
12
14
17
0f
0e
0b
0b
0a
04
05
fd
03
fe
fc
fa
fd
fe
f8
fa
ff
fb
f9
fc
fd
fd
fa
fb
fe
ff
00
fb
fd
f7
fe
fe
fc
f8
fc
f4
f8
f5
f1
f2
ef
f2
f0
f0
ed
f1
ee
f2
f4
ef
f2
fa
ff
fb
02
03
0c
0f
10
11
0f
14
0f
11
0f
0d
0e
10
0f
0b
0c
0d
09
0d
06
08
03
03
04
07
06
02
03
fc
00
ff
f7
f7
fc
fa
f7
f6
fc
f8
f7
f3
f9
f3
f7
f3
f4
f5
f1
f0
f4
ee
f3
f0
f0
f5
f3
f0
f8
f5
fc
f9
00
ff
fe
01
01
00
05
06
02
08
06
03
05
0a
07
0d
08
0d
0b
10
13
12
0f
0c
0e
0d
12
0b
0e
0f
0c
06
08
08
0b
08
08
0d
0a
0b
08
0c
0a
08
09
04
08
08
02
02
07
04
03
03
00
06
01
ff
02
fc
fd
fe
fb
fe
f7
f8
f6
fb
f8
f2
f7
f5
f9
f9
f8
fe
fc
fe
02
06
05
01
03
08
02
01
fe
fe
fa
fc
fb
fb
f7
f3
f3
f2
eb
f0
eb
f3
ee
f2
2d
25
1c
13
13
10
09
07
05
04
03
03
01
ff
02
ff
fd
00
00
02
01
08
03
08
09
02
02
fe
00
fc
f7
fa
f8
f0
f3
f2
f3
f6
f5
f4
fb
f7
fa
fe
02
03
fe
00
f8
f8
f3
f3
eb
ea
e8
e5
de
e0
d8
da
de
df
e3
e2
ec
e8
ee
f5
f5
f9
fc
06
05
04
06
04
05
06
06
0c
09
08
06
0b
09
07
0d
0e
08
0e
0b
0d
0e
0c
10
0e
08
07
06
0b
05
04
04
02
02
09
07
08
02
02
03
03
00
04
01
05
08
05
09
03
05
02
04
03
03
02
04
07
06
03
0b
0a
04
07
0a
02
02
07
04
04
01
02
02
fd
fb
f6
f9
fb
f4
f7
fb
f7
f8
fa
fd
02
01
0a
0d
11
15
1c
1a
1a
1d
1e
1f
22
19
18
13
11
0f
0a
0a
09
03
04
02
03
fe
02
00
00
01
fb
fb
ff
ff
00
fa
fa
fe
fa
fe
f8
fa
fd
00
fb
ff
04
01
02
fd
f9
f6
f4
f0
f3
f0
eb
ef
ed
ed
ea
ef
eb
f1
ed
f1
ef
f3
ec
ef
ef
ed
ec
ec
ef
f2
ee
f3
ee
f1
f4
f6
fb
ff
fd
f8
f8
f8
f3
f6
f7
f3
f2
f2
f2
f7
ff
ff
07
0c
16
0d
01
fb
ef
ec
eb
ed
eb
f0
f8
06
11
23
28
37
3f
44
4c
4a
40
37
2d
24
1c
0a
fe
ef
ee
ea
e6
dd
e5
e6
ed
f1
f0
f5
f7
f3
f8
f6
f5
eb
e5
e2
e3
e0
e5
e5
e3
e3
ee
f3
f1
f4
f8
fc
f8
fe
fc
f8
f5
f2
f4
f1
f0
ef
f0
f4
f4
f3
fa
fa
00
01
09
0c
0b
12
14
0c
11
0c
0d
10
0d
0b
07
0b
03
05
03
04
00
01
fd
fd
f9
f8
fa
f3
f2
f6
f4
ef
f6
f3
f7
fd
01
01
08
0a
09
02
04
05
07
01
02
02
ff
00
07
05
0a
05
09
0e
0b
0d
07
0e
08
08
06
06
04
03
06
06
0a
08
0b
07
08
0a
02
02
05
fe
fc
fc
f8
f9
f6
f9
f7
f6
f7
fb
fd
fa
fb
fb
ff
01
f8
fc
f9
f4
f6
f8
f7
f5
f2
f2
f4
f8
fa
00
fc
02
03
07
0d
0b
0a
0a
08
08
0e
0b
11
0e
12
15
14
16
18
16
1b
15
1c
14
15
16
0f
10
0a
07
0d
07
0c
10
0f
0d
11
11
11
15
13
19
17
10
0d
0c
01
fb
f4
e4
d8
d9
ca
c9
be
bc
b6
b3
b5
b0
b5
bb
c3
c9
d2
d9
e7
eb
f4
fe
0a
10
1c
1e
20
07
02
02
fc
f8
fc
f9
fa
f7
f4
f1
f1
f7
fc
fa
fc
01
ff
03
fe
fe
ff
00
ff
ff
f9
f9
fa
f8
f9
fd
f9
fd
ff
fd
fb
f8
f8
f9
fc
fc
fa
fe
fa
fd
fc
01
04
03
02
00
ff
fe
fe
03
fd
fe
fb
ff
04
03
03
08
0d
0f
0a
0f
0d
0f
15
0d
0f
11
11
06
05
05
07
05
03
03
00
04
02
03
04
09
0a
08
0e
09
0a
0a
07
00
ff
ff
fc
fc
fe
fd
fa
f9
00
fd
fc
fb
01
fd
f7
f5
fb
f8
f4
f1
f7
f4
f9
f6
f7
f8
01
02
fa
02
fd
fc
01
01
00
fe
01
f8
ff
fc
ff
02
fd
03
01
06
03
05
07
00
fd
04
fc
ff
ff
fc
ff
ff
fc
fe
fe
01
ff
f9
fc
fd
fe
fc
fd
fb
ff
fe
07
09
04
05
0c
06
0b
04
04
05
08
03
06
03
05
04
04
05
00
ff
00
01
fb
f9
f9
fa
fe
fd
fc
fd
00
fc
04
ff
03
03
00
06
03
04
ff
05
07
05
04
07
06
04
00
01
fd
fc
ff
00
fd
fc
02
03
ff
05
00
07
07
04
09
02
04
07
01
00
01
fd
00
fe
fc
fa
fa
f9
fa
fc
01
01
01
05
05
09
0e
0b
13
f0
ee
ef
f4
fa
f6
fb
fd
f8
fe
fd
f9
fd
f8
ff
fd
fc
fd
fe
fd
fb
f6
fd
fb
f7
f6
fb
f8
f9
f5
f8
f0
f3
f3
f2
f6
f3
f5
f8
f7
f9
f8
fd
fd
04
08
02
04
0c
08
0e
0f
0a
08
0d
0d
10
0d
0e
08
0c
0c
0d
07
06
02
00
02
fd
fb
f5
f2
ef
ee
e8
ea
eb
ec
e9
f0
ed
f5
fa
fa
fe
fb
ff
01
fe
01
05
00
04
fa
fe
fe
fd
f7
f5
f8
fd
fd
02
fe
01
09
0b
09
12
0f
0e
13
10
0f
0e
10
0d
0c
03
01
03
fb
f9
f8
f4
f6
fc
fb
fd
00
04
07
09
0a
0d
0f
0b
0c
08
07
0c
02
01
fd
fa
fb
f9
f1
f3
ec
ee
ee
e8
e7
eb
e6
e9
e7
ef
f0
ef
f6
fa
fa
f9
fd
04
06
04
09
04
0a
0c
0a
06
0b
0c
0c
08
0a
0a
0a
0b
0b
0e
0f
0b
0f
0b
0b
0a
06
05
02
03
fe
fe
fa
fc
ff
00
f9
fc
00
fa
00
fd
f9
fe
fb
fe
f9
02
fc
00
fb
fc
01
02
01
ff
04
04
0b
0a
0e
0f
0a
10
0f
0c
07
07
0b
0c
0b
08
04
03
05
08
09
0b
06
0c
0f
08
0a
0d
0f
13
11
14
15
16
0f
fe
01
03
03
08
08
04
03
05
05
08
07
06
06
09
09
08
06
0c
0a
08
0b
0f
0a
0c
0d
0d
08
05
05
04
05
01
06
05
01
06
05
09
06
07
02
03
07
0a
04
06
02
00
02
00
ff
01
02
05
06
06
07
09
08
11
13
0c
0c
0b
0d
0c
07
08
03
fe
f8
fb
f8
f2
ed
f0
ee
ea
ee
e6
e9
ec
e6
e7
e6
e6
eb
ea
e4
e7
ea
ea
ec
ec
f6
f8
fa
fa
fa
01
04
03
08
07
05
07
07
01
04
fe
ff
fd
01
f8
fd
f6
fb
f9
f6
f9
fb
f9
f3
f7
fc
f8
f9
fa
f9
f9
fc
ff
fb
fb
fd
fa
ff
fe
fb
f7
f9
fa
f7
f5
f0
ed
ef
f0
f4
f2
f1
f3
f6
f7
fb
01
06
09
0a
08
11
12
0c
0d
11
09
0b
07
07
04
05
03
fb
01
fd
fc
00
ff
fe
fe
00
02
05
04
02
03
f9
f8
fa
f4
fa
f6
f4
f9
f9
fc
fc
fa
00
fe
ff
02
fd
fe
04
fd
01
00
fa
fb
fc
00
fc
01
fb
01
04
02
04
04
0a
0b
09
0f
0b
0b
0f
0a
0c
0c
07
09
0d
08
0b
10
0e
0e
12
0e
15
16
12
11
11
15
0f
12
0c
11
12
11
10
11
15
11
12
13
1b
17
1c
18
17
13
13
14
0d
0f
12
13
12
0e
10
0d
12
11
13
0f
13
0f
0f
09
04
03
01
05
01
03
07
0a
07
0c
0a
0a
0a
09
0b
08
05
07
01
fe
01
fc
f8
f7
f8
f5
fb
f9
fb
fc
fb
fa
fb
fd
f9
fb
00
fc
00
fe
fa
f7
fe
fa
fd
f7
fb
f8
fc
fa
fa
00
04
00
00
04
00
fd
00
00
ff
fe
ff
f9
fc
fa
fa
ff
f9
00
fc
ff
fe
fb
fc
f8
fd
f7
f9
f6
f3
fa
f6
f6
f9
f9
fc
fa
fb
ff
ff
01
fe
fd
fe
00
01
02
04
07
09
0b
04
0c
07
04
09
02
01
02
00
00
f9
fc
fb
fb
f8
fa
fc
01
fb
fc
fe
05
04
09
0b
11
0f
16
10
11
14
0d
10
0a
07
09
00
ff
fa
fb
f9
f7
ef
eb
eb
ef
ee
ef
ed
ee
e5
e3
e4
e8
e0
e6
e2
e6
e8
e9
ec
ea
ec
f2
f8
f5
f8
f9
f9
fd
f6
fe
fa
f6
f5
f4
f4
f8
f7
f7
f9
fa
fd
f9
fc
fb
f7
fe
f8
fe
fe
fc
01
fb
01
ff
03
09
0d
0a
0a
08
0a
03
01
01
04
fe
f8
fc
fc
fc
fb
fc
03
04
07
09
05
0b
08
09
08
05
02
00
f9
09
07
05
06
02
ff
fd
fc
fe
02
03
07
08
0a
0c
0e
15
13
15
1a
1b
18
1b
12
14
13
0f
09
04
07
02
fe
02
fd
fd
ff
01
fd
ff
fe
fd
fe
00
04
fd
02
02
fe
fe
fe
f8
fe
f9
fa
fb
fc
f8
f9
f9
fb
ff
ff
03
02
08
0a
0a
05
06
0b
09
0c
06
0e
07
07
08
06
02
05
03
fe
f9
f5
f1
f6
f0
f0
fa
f9
01
01
09
06
0d
0f
0b
0c
06
fd
fe
f2
ef
e5
e4
e2
e1
e0
e6
e9
ef
f5
fd
06
13
14
1b
21
2b
29
27
28
20
1e
1d
14
09
04
fd
f6
e8
e4
d9
ce
cd
c6
cc
cc
d6
df
e6
f3
ff
07
13
1e
23
23
29
28
29
1e
19
16
12
08
03
fd
f4
f1
ec
e5
e0
da
d5
cf
cd
d4
da
e0
e9
f2
fd
08
0c
15
20
2d
33
33
2e
2c
2b
24
17
09
07
fe
f1
ea
eb
e4
eb
e7
eb
eb
ef
f8
fa
fc
04
03
02
ff
01
01
01
fb
ff
ff
fd
f6
fc
f9
fa
f9
fa
f8
f8
f9
f5
fc
01
01
fe
fe
03
00
05
0b
0d
0d
0b
0b
0e
08
09
08
08
06
ff
03
02
00
05
ff
fe
01
fd
fc
f9
f9
f9
eb
e7
e6
0d
0f
0c
0e
05
08
08
07
04
09
01
07
03
03
03
00
ff
fd
fa
00
01
01
ff
fe
03
07
03
0c
09
0b
0e
0d
08
0b
0a
09
03
04
fe
ff
fa
fe
fe
f4
f5
f5
f4
fb
f5
f7
f7
fc
fb
fd
05
04
04
06
03
03
ff
02
fd
00
fd
fc
fb
fa
fa
f9
fa
f6
fc
f9
f3
f2
f2
f7
f9
f5
fa
f6
f9
fb
f9
00
01
04
ff
01
01
02
00
fb
01
f8
fa
fd
f9
f7
f6
fe
fd
01
01
ff
03
09
06
08
0d
09
0b
09
0c
0b
06
04
07
01
04
ff
fa
f9
f6
f8
f9
f5
f2
f9
fa
fb
fb
fe
00
01
01
07
0b
0d
0d
0d
0e
0a
0b
07
03
01
fe
fd
00
02
ff
fe
fd
ff
01
06
07
06
0a
08
09
0c
05
09
00
04
00
ff
fc
fc
fb
fc
04
0a
09
08
0b
0b
08
09
0c
09
08
05
09
04
05
09
0b
0b
0a
0a
0e
10
0d
0b
09
05
05
ff
f8
f7
f4
f5
f5
f4
f1
f2
f8
f6
f6
f7
f5
f4
f2
f1
ee
ed
ef
f2
f4
f0
f4
f4
f1
f5
fa
f9
01
03
00
03
00
08
06
00
04
fd
01
fb
fc
fc
fa
f8
f6
f6
fb
f7
f9
fd
fd
00
05
0a
f5
f5
fe
fe
02
05
0b
08
09
0a
0b
09
0f
0a
0d
08
0b
09
09
0d
08
0e
0d
0b
11
10
0d
0b
0c
06
02
08
00
01
fe
ff
ff
f7
f9
f5
fa
fc
f7
fa
f8
f9
fc
f6
f9
f9
f6
fc
fd
f8
fe
fe
04
fe
07
04
0a
06
0a
0c
0f
0f
12
10
0f
14
1a
1b
15
1c
1b
1a
1c
18
18
13
13
15
11
06
06
05
fc
f9
f8
f6
f4
e9
e6
eb
e7
ea
ea
e6
ea
eb
e8
ee
eb
eb
e8
f0
ea
f2
ef
f2
f7
fd
fb
ff
08
08
0c
13
12
18
15
1a
19
14
10
10
0c
08
07
00
00
fb
f9
f9
fa
fc
fe
ff
fc
03
04
04
05
03
03
05
02
05
ff
fe
fe
01
01
f9
f8
fb
f9
f6
fa
f5
f9
fa
fc
f4
fa
f7
f9
f9
f4
f3
f2
f6
f0
f4
f4
f6
f6
f7
f1
f3
f3
fa
f9
fa
fb
f9
fa
f6
fb
f4
f3
f7
f8
f2
f7
f1
ef
f3
f6
f2
fa
f5
f7
f9
f9
02
fd
ff
01
07
06
06
05
08
07
0b
09
0b
0b
09
04
09
05
09
08
0a
04
03
07
07
04
04
06
03
01
05
07
02
06
04
04
04
00
07
02
01
04
03
01
03
04
06
07
07
0a
09
f7
f9
fc
f8
01
01
fe
07
03
03
06
05
06
fd
06
01
01
fe
00
07
07
09
05
04
08
06
05
09
0a
03
01
02
ff
fd
fb
fa
f8
fb
f9
f8
f5
f5
fa
f7
f4
f9
fc
fa
fc
fe
02
05
ff
06
07
07
05
07
0d
0b
0a
0c
10
0c
10
0c
0d
0d
0a
0a
0a
03
05
06
06
02
fb
fc
ff
f8
fa
f5
f4
ef
f4
f1
f0
f5
f6
f4
fa
01
04
06
0a
0e
17
19
15
19
1b
15
1b
15
11
12
10
0c
0d
09
04
04
03
fe
fc
fe
fc
f8
fd
f8
fd
f9
f8
f6
f5
f5
f5
f0
ee
ef
ec
ed
ef
f0
eb
f2
f1
f2
f6
f9
fe
fa
01
05
00
03
00
02
02
fc
fe
ff
fa
f5
f8
f8
f8
f7
f7
f8
fe
fb
fd
03
00
02
02
00
07
02
02
02
03
05
04
00
fc
00
00
04
00
fe
05
04
07
08
09
0b
06
05
0c
0b
04
09
04
00
ff
fe
02
fc
fd
02
fe
04
03
04
02
02
06
06
03
02
02
04
06
01
04
05
04
00
01
fc
01
fa
fd
f9
f6
f4
f4
f2
f8
f3
ef
f3
f0
f1
f6
ef
f0
f5
f8
f2
f7
fb
f8
f7
fd
ff
fe
fd
03
04
08
14
1b
21
0e
11
0e
0c
07
07
04
0b
07
05
0d
08
0a
07
05
08
07
02
03
06
05
04
08
09
04
0a
08
08
0b
09
08
08
06
0c
07
07
0c
0c
0c
0e
12
0a
0b
0d
07
07
0b
08
04
06
03
03
06
02
06
00
02
05
07
03
08
00
00
03
fa
f8
f8
f4
f8
f6
f5
fa
f9
f6
f7
ff
ff
00
f9
fa
fc
fa
f6
f4
eb
e8
ed
ee
ee
f5
fc
ff
08
10
19
1d
25
2b
29
2a
29
29
21
22
1c
15
15
0f
0f
0f
09
0b
0d
0a
08
08
06
03
fe
fc
fc
f4
f4
eb
e9
ea
ec
e2
e7
e6
e2
e2
e8
e4
eb
e5
ed
ea
ef
f0
ee
f0
f3
f5
f9
f7
fa
f9
fa
ff
fc
fa
ff
ff
01
fe
01
ff
00
04
05
05
09
06
07
07
03
08
0a
05
00
07
04
06
05
04
02
05
06
05
04
06
05
09
0a
10
09
07
0c
0c
03
04
04
03
fd
fe
ff
fe
fc
fd
f7
fc
fe
f9
f9
fa
fe
00
fb
f9
f9
f4
f6
f1
ef
ee
ef
f2
ef
f0
ea
eb
f2
f4
f6
ef
f6
f2
f7
fb
fe
fc
fb
fb
fe
03
02
02
fc
fd
04
02
fd
ff
02
02
fa
fc
01
03
03
05
0a
12
13
20
18
19
12
18
13
16
12
15
12
12
10
14
0f
0b
0e
09
04
03
ff
fb
f9
f8
f0
ef
f4
f0
f0
f2
f1
f8
f6
f9
f9
ff
fd
04
02
02
03
05
07
02
01
f9
f7
f3
ef
f1
ef
f2
f0
f1
f5
f4
fd
fb
04
04
01
00
fa
fe
f6
f3
ef
ed
e8
ea
eb
ea
f1
f1
f7
ff
05
0c
10
0c
10
0d
0a
04
fb
f6
f1
f3
f5
f7
00
08
14
1f
29
37
42
46
40
40
36
24
16
08
f9
eb
db
cd
be
bc
b9
b8
c1
d0
dd
e0
eb
ed
f9
fb
fc
01
04
08
07
0a
0f
10
0d
10
15
11
17
11
14
0b
0e
07
08
06
02
ff
ff
fa
f9
fc
fa
fe
00
fc
00
01
ff
05
03
ff
01
03
05
01
06
01
ff
00
ff
02
04
fd
fe
04
02
07
07
01
08
02
09
05
08
0d
0a
07
0b
08
0b
03
04
01
01
02
ff
ff
00
fe
ff
01
fd
02
02
03
ff
fd
fd
fb
00
ff
ff
fb
f8
fb
fd
f9
fc
fb
f9
f5
f6
f7
f9
fa
f8
fb
fe
04
04
00
02
03
08
05
04
fc
01
00
fa
f6
f7
f2
f3
f6
f2
f6
f6
f7
f5
f6
f2
f7
f0
f5
ee
f2
ee
ea
e8
e3
df
db
fd
fc
fa
fc
fd
ff
06
02
01
05
02
02
02
02
03
01
00
fe
fc
fa
fc
f8
fd
fa
fb
00
fe
ff
fe
f9
fb
f9
fb
fb
f9
fd
fb
fb
00
00
fd
01
fe
fe
fa
f9
fb
f8
f6
f7
f3
f7
f9
fa
fc
f8
fd
fd
ff
02
07
02
05
09
08
05
04
04
06
05
00
03
fe
00
02
00
00
06
04
03
02
04
07
03
02
04
06
06
02
05
06
04
00
06
03
01
01
fe
fc
fe
fb
04
02
03
00
01
07
01
05
07
ff
06
ff
00
04
04
04
03
fc
00
fc
02
01
03
02
04
01
fe
ff
02
fe
05
fd
fd
02
fa
fb
fb
fd
f8
fd
f8
fd
fa
fb
02
05
03
07
06
0a
07
05
06
ff
04
03
00
f9
f8
f6
f7
f3
f2
f4
fa
f9
f5
f8
f7
fb
fd
fb
fc
ff
00
05
03
00
00
04
02
06
00
03
fd
fd
fc
fd
fd
01
00
00
fd
fe
02
fd
fd
00
06
08
03
04
04
0a
06
0a
05
09
06
04
03
fc
00
fd
00
05
01
07
07
06
07
07
0c
0a
0d
0a
07
03
04
00
02
fe
03
02
04
03
06
08
05
08
00
03
ff
00
ff
fe
fa
fd
f9
fb
00
fb
04
05
11
f7
f7
fb
02
02
03
00
05
00
01
fd
00
01
fb
01
fe
00
fa
fb
f9
fe
f9
fd
f8
fe
f8
fa
fb
fd
fd
ff
02
01
fd
03
fe
fc
01
ff
04
01
05
02
ff
03
00
01
01
fe
02
03
fb
00
fa
f9
fe
fc
f9
ff
fc
f9
fd
fc
fb
f9
fd
00
fe
04
ff
04
06
06
0c
08
0e
0d
0a
06
05
04
03
fa
f5
f2
ef
ee
ea
ef
ef
eb
f4
f4
f5
fe
fd
04
07
0d
11
15
16
12
11
13
15
10
0e
04
02
fb
fb
f5
f2
ee
eb
eb
ec
eb
ef
ef
f3
f2
fb
fb
ff
05
07
0b
15
17
13
19
17
1d
1a
18
0f
0d
0c
05
02
02
fa
fb
f7
f4
f1
ee
eb
ec
f3
f0
f6
f4
f6
fb
f7
fa
02
00
05
04
07
06
06
02
04
06
07
05
02
01
04
03
01
fd
fe
03
03
fd
01
ff
03
ff
fd
fb
00
01
fe
04
03
02
02
fc
ff
02
02
fc
fd
03
fd
02
fe
fe
00
fe
fa
fe
f9
f9
fb
fd
01
fb
02
01
01
03
fe
fe
02
04
05
02
06
04
04
00
01
fe
fc
fc
fc
fe
fc
02
ff
fa
fe
03
ff
00
01
00
ff
01
02
07
01
04
03
03
02
ff
00
fc
fa
02
04
00
03
02
07
02
ff
04
07
01
00
01
02
04
ff
01
01
03
03
fe
fe
00
07
02
08
05
04
08
03
01
02
ff
fd
ff
ff
fb
01
fd
fc
01
ff
ff
02
fd
06
04
06
03
08
02
04
03
03
06
01
01
05
06
04
02
02
02
02
ff
05
03
fe
01
fe
fe
02
00
ff
fb
f8
f9
f4
f2
f8
f5
f7
f9
f9
f7
fa
fe
02
05
06
0a
12
12
12
17
13
12
15
0d
0a
0d
04
ff
00
fa
f1
f0
ef
ee
ea
eb
ee
eb
ec
f4
f6
f5
f9
04
0a
07
11
13
17
12
14
17
15
0f
13
11
07
01
fe
fb
f8
f3
ef
f4
f3
f2
f1
f0
ed
ee
f0
f7
f9
fc
fc
00
03
06
09
0c
0c
0e
0b
10
0b
0f
07
07
0c
05
03
03
fc
fd
fb
fb
f8
f6
f3
f7
fa
f4
f7
fa
f4
fb
fb
f6
fc
fc
fd
ff
fc
00
fc
ff
04
ff
02
ff
02
02
04
00
02
02
ff
fb
01
fc
ff
f9
fe
fc
fa
ff
fe
fc
fd
00
ff
fe
fe
fe
fd
ff
fe
f9
fa
fe
00
f9
fb
fd
04
04
ff
00
01
02
01
ff
ff
00
00
01
fc
03
fd
fd
03
ff
fc
02
fe
02
fd
fa
fa
08
04
04
ff
fb
ff
fb
ff
01
fe
ff
01
01
03
06
00
06
00
06
ff
fe
04
05
00
04
00
01
fe
fd
fc
f9
fe
fd
ff
f9
02
02
01
ff
04
04
04
fc
01
00
f9
01
fd
f7
f6
fb
00
ff
01
01
fd
05
06
01
02
05
fd
fa
fd
fb
fb
f4
f8
f9
fc
fc
fc
fd
fe
fe
03
06
00
ff
06
03
01
04
ff
01
02
04
06
09
06
08
06
04
07
08
07
fe
02
fc
fc
fb
ff
ff
f9
fe
ff
fe
fd
fb
fa
f8
fb
fa
fd
fa
ff
fa
01
fd
01
00
05
08
0b
04
09
08
01
04
01
00
ff
f9
f5
f5
f7
f7
f6
fa
fe
fc
00
fc
00
fd
fa
fd
fb
f7
f9
fd
f9
00
02
01
04
09
0c
0d
07
06
09
0a
07
03
02
fb
fb
f6
f7
f7
f7
fc
fd
ff
03
fe
00
06
fd
04
01
fb
fe
fd
fc
fb
fd
fe
fe
fd
fa
03
02
05
04
03
06
05
03
02
00
00
fe
fa
fd
fc
fd
fb
fb
fb
00
fc
fe
03
ff
05
01
02
ff
04
fd
00
ff
fc
04
03
00
00
05
07
02
00
fc
01
fb
fa
fd
ff
fd
fd
01
fd
ff
00
ff
03
01
05
ff
fe
01
01
f9
fa
fc
f6
fc
ff
fe
fc
fd
ff
05
05
02
05
02
04
fe
01
fe
00
fc
ff
03
01
05
07
04
04
03
fe
fe
01
fd
ff
fc
00
01
fe
ff
04
02
04
08
08
06
02
07
ff
fd
01
fc
fd
fc
fb
fd
02
03
06
05
0a
09
07
07
06
06
03
05
ff
fd
fe
fa
ff
00
fe
fc
fe
02
fd
00
00
ff
01
02
09
0a
05
05
0d
0a
0c
09
05
04
06
fc
fb
fe
f8
f9
f9
f5
f5
f6
f6
fb
01
ff
05
02
08
06
0a
09
03
07
01
00
00
fe
fc
ff
03
fd
01
04
00
fe
ff
ff
02
01
fb
f6
f7
f5
f1
f4
f1
f8
fd
05
06
0e
0c
09
10
10
0a
09
03
00
fe
f7
fb
f9
fc
f8
fe
01
00
01
01
05
fe
fe
fb
f8
f1
f2
ee
f1
f0
f4
fd
02
09
0c
0e
0d
0e
0b
03
06
ff
fb
f9
fb
fa
f7
f8
f8
01
fe
00
02
05
07
04
02
fd
fb
fb
fa
f9
f7
f9
f9
ff
ff
00
03
ff
01
03
ff
04
fd
00
01
fa
f9
fc
f6
f9
ff
03
ff
ff
01
fd
03
ff
02
02
04
fe
02
ff
fe
f9
00
fe
fa
ff
00
ff
03
02
fe
02
00
fd
fd
01
ff
00
f8
fe
0a
f9
fd
ff
06
03
00
06
ff
00
00
fb
fc
fa
fa
f9
ff
fb
fb
00
01
00
01
06
ff
fc
fb
fe
ff
fd
fa
fb
fc
03
03
00
ff
05
03
06
fe
fd
01
01
01
03
01
00
fc
05
ff
05
04
ff
00
00
02
00
fd
f9
fd
ff
fb
01
ff
02
01
03
fe
05
00
04
07
ff
ff
00
00
ff
fc
fe
fd
fc
fe
00
00
fd
03
00
fe
03
ff
00
00
fe
00
fe
01
ff
01
01
fd
02
ff
02
fe
ff
04
ff
02
06
ff
01
01
03
ff
fc
ff
03
fe
fd
00
02
fe
fe
03
ff
ff
01
06
02
01
02
04
08
05
02
ff
00
01
03
02
00
01
00
01
04
01
04
03
03
00
03
fc
03
fc
fc
fc
fe
fd
fa
01
00
03
fd
fe
01
02
01
ff
fe
ff
fc
fa
fa
fe
03
07
06
03
07
09
04
03
00
02
03
fe
fe
01
ff
00
03
05
03
02
ff
06
02
00
fe
00
fe
01
03
ff
02
ff
fd
fc
fd
04
04
05
02
03
02
07
01
02
fe
01
fe
fe
02
05
03
00
fd
00
fd
05
05
06
ff
01
fe
fd
fb
fd
fd
fc
f9
fe
00
fe
fe
fd
05
01
fe
03
00
fc
f7
f9
f7
f8
01
08
08
0b
0a
0c
11
0e
12
12
0d
14
10
0c
10
08
0c
05
05
02
09
07
09
07
06
0a
0e
08
09
0c
09
09
0e
0b
03
02
07
01
fe
00
fe
01
01
05
06
07
08
08
07
0b
09
0a
0a
0c
0a
0f
0f
10
0a
12
11
14
15
15
16
1b
18
20
21
1e
1b
18
17
19
12
0d
08
06
04
fe
fa
f3
f5
f0
eb
f1
ef
eb
e9
ed
eb
e6
e8
e6
e5
e2
e2
e6
e3
e4
ec
eb
f4
f5
f7
ff
03
09
09
0d
13
18
13
14
16
17
16
10
10
0c
12
10
0d
08
0e
09
0d
0f
0d
0c
10
10
0d
09
09
06
06
03
05
01
05
fd
fd
fb
fc
fe
ff
ff
f9
fb
f9
fa
f8
f8
f7
f7
f3
f4
ee
f0
ef
ee
f0
ec
ee
f2
f5
f7
f3
f8
fa
f6
fa
f7
f9
f6
f7
f5
f9
f6
f0
f4
f4
ef
ed
ee
eb
ec
ed
e9
e7
e8
e7
e9
ea
ea
ec
eb
e9
ec
ed
f5
f8
fc
fc
06
02
0c
09
11
0c
0b
0f
0f
09
08
08
fe
00
fd
f8
fc
fc
fc
f6
fd
fe
fd
fb
ff
fa
fa
fe
fe
f9
fd
fb
fa
fb
fb
fa
fc
f9
ff
fe
fb
01
01
00
06
05
08
08
0a
0d
0d
0e
08
08
09
0b
0b
0d
06
08
09
0e
0f
0e
09
0a
0d
07
08
06
09
04
ff
03
fa
fb
ff
fd
f7
fb
fa
fe
01
02
00
01
fb
03
00
fa
fa
f8
f6
f9
f6
f8
f5
fb
f9
fd
ff
04
06
09
0b
16
16
15
1b
1a
17
18
17
18
0e
0c
0a
07
07
07
03
01
fe
fb
f6
fc
fa
f6
f5
f5
f8
f6
f5
f5
fc
ff
fd
05
08
0c
0f
0f
13
11
17
12
11
12
11
12
13
0e
10
0b
0d
0a
08
06
ff
04
fa
f9
f7
f7
f7
f4
ee
f4
f2
ef
e8
ed
ec
ea
e7
ef
ec
eb
f3
f3
f5
f8
f7
f7
f8
fd
fa
f8
f9
f9
fc
ff
fe
fd
fe
fb
02
00
fd
fe
fe
01
06
03
01
04
ff
02
02
ff
fa
f7
f8
f7
f2
f3
f2
f2
f0
f2
fb
f8
00
02
01
03
07
08
07
0f
0b
0b
08
0b
0a
0c
05
08
04
04
01
ff
ff
fb
fd
f7
f6
fd
f7
f6
f6
fd
f9
f8
fb
fb
fc
fd
03
03
05
02
01
01
ff
ff
fd
01
01
01
fc
fa
f8
fa
f7
f5
f5
f1
f1
f4
f6
f4
f9
f4
fd
f6
fd
f9
fc
fa
fb
fc
00
02
01
01
00
fd
ff
ff
ff
07
06
09
11
16
1e
0c
0d
03
03
03
ff
fe
ff
0a
06
0a
10
0b
14
11
14
14
13
15
0e
12
0e
13
11
0d
0f
0d
0f
0b
0b
10
11
14
11
0f
12
12
14
10
10
0a
05
03
05
04
01
fc
02
02
fe
04
08
03
07
0a
09
0e
0e
0d
05
08
0a
0a
06
08
09
06
09
08
04
00
fc
f6
f2
ef
ec
e5
e4
e6
e6
e6
f2
f8
fe
07
0a
17
1c
21
23
28
24
1e
1d
15
0c
0a
05
fd
fa
f8
f8
fd
fe
fa
01
00
00
fe
fa
f9
fd
f6
f4
ef
ed
ea
e9
e3
e7
e2
e4
e7
e8
e9
f0
f0
f3
f7
f8
f5
f8
fe
fe
fc
fe
f8
f9
fa
f9
ff
f7
fe
02
fd
04
ff
05
03
08
09
09
07
06
02
06
09
01
02
04
05
06
07
06
06
05
06
07
0d
0f
0e
0d
0a
0c
0a
05
06
04
0c
0a
0e
0c
11
10
0e
10
13
0f
12
0e
09
06
03
05
03
fb
f7
fc
f6
f2
f7
f6
fa
f9
f6
fa
f8
fe
ff
02
fc
fc
fb
f9
f7
f6
fa
f3
f1
f1
ee
ee
e8
ed
e9
e8
ee
e8
ec
f3
f6
f3
f6
f6
fb
fa
fd
00
f9
fa
fc
fa
f9
fe
ff
ff
f9
fc
fa
fc
04
05
0c
0c
1b
26
0f
10
0d
06
03
04
fb
f8
fa
f2
f0
ec
ed
eb
ea
e4
e6
ec
ee
ec
f3
f3
f6
fd
00
fc
01
08
0a
08
0d
09
07
08
03
08
01
07
fe
02
fd
fe
fa
fc
fc
f7
f7
fb
f9
f7
f7
f2
f4
ed
e9
ea
e3
e2
e7
e3
e4
ec
ef
f3
f7
f6
fd
01
0a
08
07
0a
09
08
08
06
02
06
06
0b
0b
19
23
2c
3a
48
49
4a
44
39
33
23
13
03
f7
e6
d7
c5
b6
b1
ae
ae
b9
c3
d2
d9
e1
f1
f6
fe
08
11
16
1a
21
1f
26
20
21
22
1c
15
13
0d
01
00
f9
f8
f7
f5
f6
fa
f9
f8
ff
fd
ff
05
05
00
fe
00
fa
fe
fd
fb
fb
f9
f6
f8
fd
ff
fd
00
fb
03
fe
ff
05
00
ff
02
07
08
06
09
0a
09
07
0b
0b
0f
0b
0c
0c
0c
13
0d
10
0e
0f
0e
11
11
0a
09
07
08
03
ff
01
fa
ff
01
fc
ff
01
fc
01
05
02
01
00
ff
02
fd
fc
fc
f9
00
f9
f6
f9
f9
fa
f5
f5
f2
f2
f3
f6
f2
f2
f4
f3
f4
f2
f0
ec
f1
ea
f0
ec
ef
ea
ec
ef
ea
ee
ea
f1
f2
eb
ed
ee
f0
f5
f1
f4
f8
fb
fc
07
05
0c
07
fe
04
00
02
07
04
08
06
02
01
01
fc
fd
f8
fe
fb
ff
fb
fd
ff
06
05
02
0a
07
09
05
04
05
fe
04
fc
fe
fa
fa
00
fb
fa
00
00
f8
fc
ff
01
fd
fe
ff
03
04
04
05
03
06
07
09
09
09
02
05
02
05
02
fb
fa
f8
fa
f7
fd
f8
f8
fb
fa
fe
00
f9
ff
fe
00
fe
00
03
06
08
08
06
03
03
02
fe
05
fe
fc
fc
ff
fa
f8
f8
fd
fd
fb
fe
fe
04
04
03
01
ff
02
ff
fd
fd
00
01
04
07
04
08
06
07
0e
0c
08
0b
09
06
05
01
fb
f8
fe
fc
f5
fd
f7
ff
03
06
07
06
07
0a
0b
0c
07
08
00
01
02
ff
01
fb
fc
01
01
fe
05
03
05
05
01
01
ff
05
ff
04
ff
01
05
ff
fe
04
02
07
08
09
05
03
00
ff
04
fc
fa
f8
f5
fa
f5
f4
fa
fa
fc
ff
fb
01
00
02
04
00
04
ff
00
fc
f8
f7
f5
f9
f5
f6
fb
f9
fd
fe
04
08
06
02
07
06
00
03
fe
f8
f8
f4
f7
f9
f2
f5
f8
fd
f8
fc
fc
fb
fd
fd
fc
fb
fc
fa
f8
fc
fd
fa
fb
f9
fc
ff
00
04
01
01
02
03
01
fa
fc
f4
f9
fe
fd
ff
fe
02
00
06
01
02
fe
03
fd
ff
f7
fb
f5
f3
f9
f3
f5
fb
f9
fd
03
fd
01
06
05
07
06
08
0c
07
09
0c
0c
0a
0a
07
08
06
03
0b
03
03
03
00
ff
ff
00
fa
f9
f9
f8
fa
f9
f8
fc
f5
f5
f8
fb
f9
f9
fb
f7
f9
fc
fc
fe
00
07
09
09
0a
0c
0f
0a
10
0f
0d
11
0f
0d
14
13
16
13
13
1c
1b
20
1e
23
1e
21
24
1d
1f
19
15
12
07
00
fe
f3
eb
ec
e0
de
de
dd
d8
da
df
db
e2
e2
e5
e5
eb
f3
f1
f2
f8
fe
fd
05
08
0b
07
09
0b
11
11
17
17
1a
13
13
14
15
15
0e
10
08
06
02
ff
fd
f9
fb
f9
f7
f6
f6
fa
f9
02
fe
02
ff
03
00
06
06
00
05
03
fe
fd
01
f8
fc
f8
f7
f2
f4
f3
f5
ee
f1
f3
f0
f5
f7
f8
f4
f9
f5
fb
f5
f5
fa
f8
f9
fb
fc
fa
f3
f5
f6
f1
f8
f7
f3
f4
f2
f7
f5
f4
f9
f7
fa
fe
fc
fc
04
01
07
06
0a
08
07
06
0c
05
08
0a
03
02
04
02
01
06
ff
02
00
05
03
04
04
01
fe
01
fb
f9
f1
ee
ed
ea
ec
e7
e9
0b
06
09
0a
0c
0c
0a
0c
09
08
06
04
09
01
fe
fd
fd
fa
fa
f9
f9
f3
f8
f8
f6
f9
fb
fc
ff
01
02
ff
02
02
fd
02
ff
01
fd
02
00
00
fb
ff
ff
04
fd
00
00
ff
04
00
04
02
fe
00
00
fe
fc
fc
ff
fa
01
01
02
03
fd
fe
04
00
00
02
08
04
09
05
0b
0a
0b
08
0a
0a
05
02
01
06
ff
fd
fc
fd
ff
f9
fa
fe
f8
f6
f7
ef
ee
f1
f1
ea
f2
ed
f1
f6
f8
fb
fa
fd
07
09
0e
10
0d
11
0d
0e
11
0f
0b
0f
10
08
0f
0e
0b
08
0a
0c
09
07
06
0a
08
00
00
02
fc
f8
f9
fb
f7
f3
f6
fa
f8
fc
fc
fc
fe
fd
fa
fb
fc
fe
fc
fe
fe
00
fc
fc
fd
fa
f9
f7
f7
fb
f9
fe
fe
00
fd
fc
00
fe
ff
fb
f9
00
00
fc
ff
fa
ff
fc
03
fe
03
09
06
05
0b
06
09
0a
09
04
0a
07
02
00
01
03
02
01
03
04
ff
00
01
fe
fd
00
fe
fc
f7
f5
f4
f2
f4
f7
f5
f4
f4
f2
f4
f8
f6
fb
00
ff
02
fe
01
fd
02
ff
05
fe
03
fe
00
fd
fd
fb
ff
fb
fc
fb
fa
fd
04
06
04
09
0b
0c
08
06
04
05
00
01
04
03
01
03
04
03
fe
ff
04
01
04
01
01
03
06
06
06
0d
07
0b
0c
0a
0e
0e
0c
0e
0f
0d
13
12
0a
0b
0a
07
01
fe
05
02
03
02
01
06
05
09
09
10
0e
11
0d
12
0d
0c
0b
09
05
03
fd
fa
fd
fa
f8
fb
fa
00
02
07
01
02
06
04
08
04
02
ff
02
fc
fe
fe
f8
f9
fc
02
00
05
07
08
05
07
09
06
00
f9
fb
f5
f8
f6
f4
f8
f9
00
05
0c
14
1c
1b
24
22
26
21
1c
17
10
08
06
03
02
fe
fc
f7
fe
fe
fa
ff
f9
fc
fd
fb
fe
ff
fe
00
fc
f3
f3
f4
eb
ed
ed
e7
ed
e6
e5
e6
ea
ed
ef
ee
f6
f3
fa
f9
f7
fc
fb
f6
fb
fd
f5
f7
f3
f9
f7
f7
f5
f3
f4
f2
f9
f5
f8
f9
fc
f8
fc
ff
fc
fe
fe
fc
04
03
03
fd
01
02
04
05
03
07
06
0d
0f
0d
0b
0e
10
0b
0e
0d
04
09
06
01
04
fd
01
fa
ff
fb
fa
00
fe
01
04
04
07
03
05
05
05
01
03
00
fc
fa
fa
f5
f4
f4
f7
f5
f9
f7
fc
fc
fe
ff
f9
fe
ff
fc
f9
f1
f7
f4
ef
fa
ff
ff
06
02
05
ff
03
0b
0a
08
09
0e
0f
06
06
07
04
ff
03
fa
fe
f5
f1
f5
f1
f5
f1
f3
f5
f0
f2
f7
f9
f7
f9
fc
fd
fa
00
fa
fb
fa
fa
fc
fb
f9
fb
fa
fa
f6
fa
fd
fe
fe
01
fe
04
00
07
06
02
05
fe
00
fe
f7
f4
f7
f4
f5
fb
fc
fc
fe
ff
01
04
01
fe
fc
fa
f8
f9
f2
f4
f2
eb
ef
ee
f6
fa
ff
00
08
09
10
15
10
0c
08
01
00
f5
f6
f4
f3
f3
f7
ff
05
12
1b
24
27
2f
2b
2a
20
12
0a
fd
f2
eb
e2
df
dc
db
e2
e1
e7
ee
f4
f3
fd
ff
03
04
04
04
05
02
08
09
0c
07
0b
0b
0d
0c
09
07
04
03
fd
fb
fc
fb
f8
f8
fa
fd
fe
fd
fe
05
03
08
04
09
0a
06
03
06
08
07
03
00
02
ff
01
00
f8
f8
f9
fb
00
fa
01
03
02
ff
00
05
05
05
05
04
fc
00
ff
f9
f8
f7
f7
ff
ff
fc
fc
fd
08
08
08
07
09
07
07
04
00
00
00
00
00
fa
fe
f8
fc
f9
fc
fd
04
05
02
04
03
03
05
06
02
04
04
01
01
ff
01
f8
f7
fb
fa
fb
fb
f4
f7
f3
f8
f8
f1
f3
fe
fc
f7
fa
f8
fd
fc
fc
fb
fb
f7
fe
fa
fa
fa
f5
f9
fb
fa
f9
fb
fb
fa
fc
fc
fd
fa
fd
01
01
fd
03
ff
04
05
01
07
09
0a
08
09
07
03
05
01
02
fe
fd
fa
fb
fd
fc
fa
fe
fe
fb
fa
02
fd
fd
fe
00
00
02
ff
03
fb
fb
f8
f8
fc
f9
fa
fa
fb
fa
00
fc
fc
01
03
02
fe
00
fd
00
02
ff
02
05
05
08
03
02
00
05
00
fc
00
fe
fc
01
fc
01
04
05
01
07
02
08
04
02
03
06
00
03
01
fc
fc
03
04
03
06
00
02
04
04
05
07
06
07
02
06
03
03
04
01
06
06
01
06
04
07
04
04
03
01
08
01
00
01
00
fc
01
fc
fc
fd
fd
05
04
07
01
03
08
05
07
05
03
03
02
05
02
04
04
03
fc
03
02
fe
ff
01
00
fd
ff
fe
ff
fe
fe
fa
f7
ff
fb
fd
fa
fe
00
fe
fe
02
04
03
02
00
01
fd
00
ff
f9
00
fd
f8
fa
ff
f6
fa
f6
f2
f6
f7
fa
f3
f9
fc
fa
00
03
fd
04
03
02
06
01
ff
04
02
00
fd
fb
ff
ff
00
ff
04
01
fd
fe
fc
03
01
01
02
0a
07
0c
14
1c
dd
dd
e2
e0
e9
e9
eb
ef
f2
ee
f5
f7
f8
f6
f8
f8
fc
fd
ff
03
fd
02
04
06
09
09
05
0a
07
08
08
0d
0a
07
09
0a
0a
0d
06
09
0e
0e
0d
0b
10
11
13
17
13
16
1a
17
11
12
12
0e
0b
00
fc
fb
f9
f5
f1
ef
e8
eb
e8
ea
ee
ea
ef
f1
f8
f5
fa
fc
06
08
0a
0d
0c
0c
0d
0b
0a
05
0a
02
06
03
01
ff
fe
f8
f7
f6
f6
f9
f8
f8
f9
fe
fa
fa
fa
01
fc
03
06
05
04
04
07
04
08
06
09
05
04
04
08
07
02
00
01
01
ff
03
ff
fd
fd
ff
fa
f9
f9
fe
fd
f9
01
01
fb
02
00
01
05
06
04
01
07
07
02
00
06
00
ff
fe
03
03
00
fd
05
03
07
04
09
05
04
09
08
0a
06
03
02
04
04
01
06
ff
01
03
01
ff
01
fd
fb
00
fb
fb
fb
01
fb
01
00
fe
fb
fb
fb
01
fb
fe
fe
fe
ff
fa
ff
f9
fa
f9
fe
f9
f9
fe
fc
00
fe
fd
fb
fb
02
03
08
01
08
0a
0b
0d
0a
07
0b
0f
07
06
0c
06
03
03
01
fe
ff
fb
f8
f7
f9
f8
fb
fc
fd
ff
01
fb
fe
02
05
03
05
01
b5
be
c3
c7
d4
d3
da
e1
e6
ee
f2
fe
ff
01
04
fe
00
06
06
03
05
03
04
02
07
01
0a
02
02
07
00
fe
fd
f7
f8
f4
f0
ee
e9
ea
e9
e6
e6
ee
e8
ee
ed
f6
f6
f6
f2
f1
f4
f7
f4
f0
ee
f4
f3
f4
ef
f5
fb
f6
f9
fc
03
07
0b
0c
12
13
13
0b
10
0f
0e
05
06
02
00
01
fe
ff
fa
fa
fe
fb
fd
fb
01
ff
01
00
00
03
fc
02
fc
fd
f9
fd
f8
fd
fa
00
01
01
fb
02
fe
01
ff
04
01
02
02
03
03
00
fd
02
ff
00
02
04
04
01
00
06
05
ff
03
01
03
00
00
01
03
06
01
04
07
09
08
06
0a
0c
07
08
0c
0a
0d
0a
0a
04
05
04
03
03
06
01
03
02
05
06
05
09
04
0a
08
0a
03
09
08
08
07
03
04
05
06
01
04
01
02
04
05
07
09
04
05
07
07
0a
07
07
03
07
08
08
07
07
09
09
09
06
0d
08
0b
0b
0a
07
05
07
00
ff
03
04
02
01
fd
03
ff
04
08
05
05
07
09
0c
0f
0b
07
06
04
04
02
fb
fe
fd
f9
f6
ff
f8
ff
01
02
04
09
07
0a
0d
09
03
04
ff
19
17
16
17
1b
16
16
13
0c
0c
12
10
15
1b
1e
25
24
29
27
27
2d
29
2c
21
20
1b
1e
1c
18
18
11
0f
18
14
18
18
17
14
17
1a
1a
15
15
13
12
10
12
11
0f
09
0a
05
08
0a
05
0a
06
03
05
05
01
07
04
01
04
01
06
05
06
08
07
0c
07
0b
0f
0b
06
0b
04
03
06
ff
00
01
01
fb
02
02
fe
00
00
01
08
08
06
0a
01
05
01
02
ff
f8
fa
fa
f7
f6
f3
f9
f2
f5
f4
f8
f9
fe
01
fe
ff
01
f9
fd
fe
fa
f8
f7
f5
fa
f4
f5
f6
f3
f3
f3
f7
f4
f3
f5
f5
f5
f3
f6
f4
f1
f6
f5
f4
f9
f4
f8
f5
f6
fb
f9
fe
f9
fb
01
fc
fd
fd
f7
f6
f4
f2
f3
f4
f4
f3
f5
f0
f1
f0
f8
fa
f9
ff
f9
fd
fe
00
02
fc
02
01
fd
f9
fc
fb
f8
fe
f6
f8
f8
f7
fb
f7
f8
f2
f2
f8
f4
f7
f3
f5
fa
fc
fb
f8
fa
fb
ff
f8
f9
f8
f8
fd
f8
f9
f9
f8
f9
fb
fa
fe
fd
01
01
05
05
02
03
05
03
03
08
04
ff
00
01
fc
fd
fa
fc
03
03
00
05
05
06
07
0a
08
02
03
fd
f4
ec
ee
f1
ed
f3
f6
f9
01
05
05
0e
14
1f
21
26
2a
30
38
36
32
35
37
2e
2d
2c
22
21
18
19
16
0f
0c
0f
12
10
0c
09
0f
0f
0a
07
04
07
03
04
02
02
02
ff
ff
ff
ff
ff
fc
ff
f7
f6
f6
f2
ec
f0
ea
f1
f3
f1
f6
f8
f8
f7
fc
01
01
fe
07
09
0b
0b
0d
08
0a
0d
0b
0a
05
fe
00
f9
f7
fe
fc
fd
fa
ff
ff
03
02
07
02
06
06
02
fd
00
02
fc
fd
01
00
05
03
04
06
05
03
05
03
09
05
04
02
00
fd
ff
00
fb
fa
ff
fa
fe
00
fe
f6
f9
f3
f5
f4
f0
f2
f0
f3
f2
f5
f6
f6
f6
f4
f4
fa
fa
f8
fa
f8
f9
f5
f7
f4
f6
fe
fa
01
fd
ff
01
07
03
03
09
06
02
08
07
07
06
ff
ff
fe
fb
01
fc
ff
fb
01
00
02
02
05
05
05
06
0b
06
0e
0b
0b
09
09
0b
06
08
06
ff
03
00
ff
fe
03
fd
fd
04
02
02
01
06
08
04
04
03
00
02
fd
fd
fa
fa
fb
f8
f9
fe
fd
fa
fb
00
fe
fe
04
fe
02
f9
f8
fe
f9
fa
fb
f8
fc
fd
03
07
10
0d
10
0e
0f
13
0c
08
00
f0
fe
fd
fa
fb
f6
f5
f4
f8
f9
f9
fc
fd
05
02
06
02
03
03
fb
fc
f8
00
fc
f9
f7
fe
fc
fb
fa
fc
00
fb
ff
01
01
ff
ff
ff
ff
01
ff
01
02
fe
00
04
02
fe
03
fd
ff
03
01
fe
03
02
02
ff
00
03
00
02
ff
05
05
05
03
00
03
04
01
08
06
07
00
03
05
03
01
06
04
03
08
ff
00
05
07
06
00
04
02
01
05
02
01
00
00
00
02
ff
05
03
fe
fe
03
fd
00
fe
00
04
04
07
05
03
06
08
06
05
04
05
03
ff
fc
01
fb
fa
fe
fb
fb
fe
03
00
06
03
01
fe
fe
03
fc
fc
00
00
fb
fc
03
fd
00
fc
f9
f8
fd
fa
f9
f9
f9
fb
fd
fe
ff
00
03
00
07
08
0a
05
09
05
02
01
fe
fd
00
ff
fd
ff
00
fd
ff
04
02
03
ff
fe
ff
01
f8
f7
f9
fc
f4
fc
fc
f8
fc
fe
06
05
08
08
0b
09
0b
09
08
06
ff
04
01
00
00
fe
01
01
03
00
05
03
05
03
fc
fc
f9
fb
fb
fb
fe
f9
00
02
fd
fe
02
fe
01
fe
ff
fb
02
fd
fb
fd
ff
04
02
01
ff
03
02
00
00
02
04
fe
00
01
e6
eb
f2
f4
f2
f4
f9
fd
fb
fb
ff
03
ff
ff
04
08
02
08
0b
09
06
07
05
09
04
04
01
fc
01
fb
f9
f7
f4
ee
ec
e9
e6
e5
e7
ed
e6
e7
e6
e8
ef
e8
e9
e9
ed
eb
e9
ef
ed
eb
ec
f1
f2
ef
f2
f6
fc
fa
04
03
08
0a
0e
0c
0d
0d
13
10
11
14
10
0e
0e
12
11
0e
13
11
0f
11
0d
0e
10
13
11
15
0e
16
0f
12
17
12
11
14
0f
10
0d
0e
07
05
01
ff
00
fa
f0
f2
f0
ee
e8
e8
e9
eb
e8
e9
f0
ef
f6
fa
fb
fa
04
05
06
07
09
0a
04
03
08
03
00
05
fe
fe
fd
04
00
ff
05
06
06
09
03
05
0d
0b
10
14
11
11
1a
16
17
1e
1d
1c
20
1c
1e
1a
1b
1d
18
13
14
10
0c
09
03
fe
fd
fb
fd
ff
ff
fd
fb
fd
fb
fd
f8
fe
fc
f9
f8
f9
f7
f5
f4
f4
f7
f4
f9
f5
fa
f9
f9
fb
fa
fc
f8
f6
f7
f3
f5
f3
f3
f0
ef
ed
ec
f0
f3
f0
f8
f5
f8
00
fe
03
03
08
07
05
04
09
06
04
04
01
fe
01
fb
fe
01
00
00
ff
fd
01
03
01
02
fc
fb
fd
fd
fc
f5
f1
f1
ea
e4
e0
e5
e8
ec
e9
ed
ed
ec
f0
f1
f5
f6
fd
f8
fb
fd
03
ff
02
03
04
ff
00
fd
fe
fa
fa
ff
fa
00
00
ff
fe
f9
fb
f9
f8
fe
fe
01
fc
fb
fa
fd
fc
fe
01
01
fd
fa
fc
00
ff
fd
fa
00
00
ff
fe
fe
01
00
01
ff
02
00
fd
f7
f6
f8
f1
f3
f1
eb
ed
ea
ed
e9
ed
ed
e9
ed
ec
f3
f3
f3
f8
f5
f9
fe
fc
05
03
09
05
08
08
09
0a
0f
11
0f
11
11
0f
0b
10
0c
0f
0a
0c
0a
07
07
0e
0a
07
0b
0a
0f
10
0a
0a
09
0a
08
0d
06
08
06
04
02
02
fe
fc
f6
f8
f7
fb
f9
fc
fc
f9
fd
02
01
04
04
03
07
03
09
06
0a
03
01
05
03
ff
02
fb
01
f8
fc
f7
fa
fc
f7
f7
f4
f3
f1
f8
f5
f7
f4
f4
f5
f6
fa
fb
fe
fb
02
fd
fb
03
ff
03
03
04
08
05
10
0b
12
0d
10
12
11
11
0e
0e
0e
0b
0a
0a
06
01
01
02
02
03
ff
02
fd
fd
00
02
05
02
02
05
08
05
08
07
0c
0c
08
0a
0d
0b
09
0a
08
0a
09
09
08
08
0c
08
0b
0b
09
06
06
09
09
09
02
04
ff
f6
e5
ed
f0
fa
fc
00
02
fe
ff
03
fb
ff
fc
f5
f3
f3
f0
ea
eb
e9
e9
e7
e5
e2
ea
ec
ea
ef
f4
f8
00
04
05
0f
0f
15
18
16
1d
18
17
1b
19
18
10
0d
0b
0f
0d
05
09
07
05
0a
0a
10
16
19
1a
23
24
24
23
26
21
1c
18
10
05
fd
f6
e9
e0
db
d5
d1
cf
cb
ce
cd
d2
da
d8
df
e2
ed
ee
f6
f3
f7
fe
fa
fd
01
07
07
0f
16
15
18
18
1d
21
23
21
1f
1e
21
19
19
14
10
0c
0c
07
ff
fb
f6
f3
f3
f7
f4
f0
f4
f2
fb
f9
f9
fc
f7
fa
fc
fe
fd
f9
f4
f8
f3
f8
f3
f2
f2
f5
f2
ed
ef
f0
ec
ee
e9
ea
ef
f1
f0
ee
f4
f3
f6
f9
ff
03
05
0b
09
0f
09
0a
0d
0f
0d
0e
05
09
02
00
fb
f6
fa
f7
f8
f8
f2
fa
f5
f4
fc
f9
fc
fe
fc
02
04
06
03
02
07
05
06
03
0a
04
05
06
03
08
02
06
04
0a
06
0d
08
09
0d
0a
12
13
0c
12
0c
0f
0a
0c
0b
0c
0b
05
09
0a
09
07
04
06
06
ff
02
fe
02
02
ff
02
06
ff
ff
01
05
01
04
07
01
02
00
00
f9
f9
ed
ec
e7
ea
e2
e1
e6
de
e4
e5
e6
ef
eb
f4
f6
fd
01
fa
fc
fa
fa
fd
fa
f5
f4
f4
f9
f7
fb
00
0d
13
13
1e
22
26
2f
2d
31
33
29
2c
25
1e
17
10
0b
03
00
01
01
fb
05
01
0a
09
11
0d
10
0d
0c
00
f8
f0
e0
d6
c5
bb
ad
a0
a5
a3
a7
b4
c7
d3
e9
fc
0a
1c
2f
3d
51
58
5c
5d
58
52
48
36
2d
27
1b
14
0c
09
fe
fe
f7
ee
ed
eb
e6
e5
ec
ec
e7
eb
ee
f2
f5
f6
fa
f6
f9
fe
fa
f9
00
01
ff
fe
fc
f8
f5
f4
f1
f4
f5
f0
f4
f3
fa
f6
fc
fd
03
03
06
03
06
0c
08
09
04
09
03
04
08
07
00
02
07
04
09
08
07
06
09
0c
0c
06
04
05
fe
01
00
01
fb
fe
ff
f8
fc
fe
fb
fa
ff
00
fc
fc
fc
fb
00
fa
f9
f6
f2
f5
ed
ee
e8
ed
e9
e7
eb
ef
ee
f2
f4
f8
fe
fe
ff
01
03
04
ff
03
03
ff
03
04
09
0d
0e
0f
0e
0e
15
11
14
15
12
0d
0a
08
05
07
00
08
05
0b
09
12
12
16
21
26
2e
2e
2e
2d
31
2b
24
1c
15
0c
01
ff
f5
f0
eb
ee
f4
ef
ef
fa
fb
fb
fa
02
ff
00
02
01
02
04
0b
07
06
07
09
04
06
03
ff
06
04
05
04
04
04
00
08
01
06
01
01
06
08
03
07
02
05
09
09
05
07
0a
08
07
01
04
03
fe
02
fd
02
fe
02
fd
fd
03
03
05
04
01
02
00
05
08
01
01
03
02
fe
fc
fe
fd
f8
f8
fc
ff
fc
fd
00
ff
03
01
02
01
fb
f9
f8
fa
fd
fa
ff
ff
f8
ff
fc
fb
01
fe
fd
fd
02
fe
03
fd
02
fd
02
00
fc
02
03
ff
fe
03
04
05
01
fe
04
02
02
04
02
05
04
01
03
01
fc
04
00
ff
02
02
fa
fe
fb
fc
fd
fa
fa
ff
fc
00
04
01
02
05
01
02
ff
01
02
07
05
02
01
03
00
01
04
02
06
05
02
02
02
04
02
ff
01
ff
fc
fb
ff
03
ff
03
00
03
00
fe
00
00
fb
fc
fd
fc
fe
f5
fb
f9
f3
f6
fa
f9
01
fd
03
04
02
00
06
01
03
04
01
02
f9
f9
fc
f7
fc
f7
f8
fd
f8
f7
f8
fb
fd
fe
f9
fb
ff
fb
fe
fd
01
06
07
03
07
0a
06
07
00
05
00
05
04
fe
ff
ff
ff
00
06
07
01
07
01
01
00
fb
f1
0b
07
05
09
09
09
09
0a
09
02
01
01
06
06
ff
02
01
03
03
02
05
01
06
04
00
06
07
08
06
07
07
05
06
06
04
04
03
04
01
05
01
03
fa
fc
f7
f9
f3
f1
f2
ef
f4
f1
f4
f2
f3
f3
fa
fd
01
02
05
07
0d
11
0f
0d
0c
11
11
08
09
05
01
fb
f1
f2
ec
e6
e3
e5
eb
ee
f0
ef
f9
fe
05
04
0e
0e
14
11
15
14
14
12
0c
0c
08
fe
f5
ef
e9
e6
e1
e1
de
da
de
e1
e9
f1
f7
fc
00
09
10
15
1c
20
1f
20
22
20
1d
16
11
14
0e
01
fb
f8
f0
e9
ea
e3
e4
e0
e2
e3
e6
e7
ea
f6
f7
fa
05
07
0a
11
13
18
1d
1d
1f
1e
19
19
15
17
0e
0e
06
06
00
fc
f2
f2
f4
eb
eb
e7
e6
ee
e9
ee
ec
ef
f9
f7
f7
fa
01
03
04
05
02
03
02
00
fd
05
03
ff
fc
01
fb
fb
fa
f9
f8
00
ff
fe
f9
fa
fd
fd
fe
fc
f8
f8
fd
f6
f5
f9
fa
fd
f9
fb
fa
01
00
fe
00
05
06
00
01
04
04
00
05
03
01
00
03
04
05
06
08
09
02
04
03
09
02
05
04
08
07
0c
07
0e
0c
0f
fe
03
06
05
05
02
ff
04
05
04
06
00
03
04
05
ff
05
fe
ff
03
04
04
01
fe
05
00
05
02
05
04
03
01
03
01
00
05
05
ff
00
ff
00
fd
01
fa
fa
fd
f9
fa
f4
f9
f3
f3
f1
fa
f7
f5
f9
fa
f8
fb
01
05
04
09
05
09
08
0b
08
02
06
00
fd
fb
01
fc
fb
f6
f4
f9
f4
fb
fa
fd
01
fc
04
02
05
06
08
0c
0d
08
0c
0a
0c
06
08
06
fd
02
fd
fa
f8
f8
fb
fa
ff
ff
00
07
03
06
0c
0d
0f
0e
07
0b
07
07
ff
ff
f8
f7
ee
ef
ec
ea
e3
e2
e5
e1
e3
e8
ed
ea
ef
f1
f8
00
fd
07
09
0a
0e
0f
10
0f
0c
0a
11
0b
08
08
05
09
06
fd
01
fc
00
fa
f8
fa
f3
f4
fa
fa
f7
fc
f7
f8
fd
fb
05
03
02
07
05
0a
0a
05
08
06
08
03
06
06
02
07
03
07
03
04
01
04
06
04
fe
fd
02
fc
fa
fb
fe
fc
f9
fe
01
00
fe
01
ff
09
03
06
04
07
03
02
00
04
fc
03
ff
ff
ff
fb
fb
f8
f9
f9
fa
fc
00
00
01
fd
03
fc
02
fe
02
fd
03
fb
fb
fd
fc
00
fc
ff
00
00
11
0c
0e
09
05
06
07
04
01
05
04
0c
09
0c
0a
0c
0c
0b
0f
0b
06
09
03
08
00
fe
05
03
01
fc
02
fd
ff
ff
01
fe
04
fe
00
07
01
05
09
0b
08
07
0e
06
0b
05
ff
ff
fb
f5
f9
ef
ef
ec
ed
ea
f0
ed
f4
f2
f3
f3
fb
fa
f9
ff
fe
fb
fc
fd
00
ff
fb
fc
03
00
01
fb
01
02
fe
00
fc
f9
f8
f4
f3
f2
f4
f4
f4
fa
f8
00
00
02
04
06
07
0a
0a
0a
09
06
05
06
09
08
03
06
04
00
fe
fd
fb
f8
ee
eb
e9
eb
e9
ec
e7
f1
ee
ee
f2
f8
f9
00
ff
05
09
07
0b
0d
0c
0e
11
16
13
11
14
12
0f
0e
03
01
fd
f6
f7
f1
f3
ec
ea
f0
f2
f2
ee
f2
f9
fe
ff
fc
00
03
07
03
08
05
08
06
0a
05
03
02
ff
fd
03
fb
fb
fa
fc
fe
fa
fc
fa
ff
fc
01
fc
fd
fb
fb
00
fb
fe
01
f9
ff
fe
fe
03
fd
04
01
07
06
07
03
07
03
01
07
03
00
00
04
00
fc
02
fc
00
00
fd
f8
f9
f8
f9
fa
fc
fc
ff
ff
01
03
02
07
07
06
0a
07
07
06
01
04
03
00
05
ff
00
fd
02
07
fe
04
00
03
ff
ff
06
03
06
0c
05
05
09
0b
06
07
08
04
08
09
08
06
0b
06
06
07
08
03
08
06
06
05
02
02
01
02
f8
fb
fc
f8
f4
f8
f9
fa
fa
f8
fe
ff
03
05
00
01
04
ff
fe
fb
fc
f8
f7
f8
fe
fd
00
03
02
06
06
02
0a
05
0b
0a
06
08
0c
06
05
07
03
01
f9
f8
f5
f7
f7
f4
f5
fa
fa
fd
fe
fe
07
0a
0b
05
06
05
0b
09
03
04
06
05
ff
ff
fe
fd
00
ff
03
02
fc
fe
fa
fb
f4
f6
f5
f9
f9
fb
fe
fa
fd
ff
03
03
07
09
0a
07
05
04
00
03
03
00
00
00
fc
00
fe
ff
fb
fb
f5
f5
ed
ef
f0
ed
eb
f1
ef
f9
fa
04
07
0b
0b
10
11
18
16
11
10
12
09
09
02
00
01
fa
fc
f5
fb
f4
f4
f5
f8
fd
fa
00
00
03
04
06
04
01
04
04
03
00
01
02
01
ff
01
fb
01
fc
01
fc
fc
ff
05
00
02
04
06
03
02
06
02
fe
fe
03
fd
fb
00
fd
00
fa
00
fe
fc
fc
fe
fe
f7
fd
fc
fb
f7
fe
f7
fb
fc
f8
02
00
02
fd
03
ff
03
07
06
0b
00
ff
02
04
11
08
02
05
fd
f9
f6
fe
f9
00
fb
03
02
08
06
05
04
03
08
03
fe
01
01
05
fe
02
05
04
04
00
01
03
01
06
04
fe
05
01
03
fe
03
03
fa
fe
fc
ff
fc
fd
00
ff
00
00
fd
fb
fc
ff
00
f8
01
fe
fe
fe
03
03
04
fe
01
f9
ff
fc
f6
f6
fb
fc
ff
fe
fa
01
fc
ff
02
03
fd
00
fc
fb
fc
fa
fb
fc
f5
f8
fb
f9
03
04
fd
fe
00
00
01
fc
ff
fb
01
fa
fc
ff
f7
fb
fe
fa
f8
f9
f8
fa
fa
ff
ff
fb
00
fa
fe
fa
00
fb
03
01
fe
07
05
02
07
02
03
05
04
00
05
03
01
06
07
08
04
04
05
04
06
01
04
06
02
02
fc
ff
fb
ff
ff
06
02
08
09
06
0a
0a
04
01
05
06
03
05
ff
01
fb
03
fd
00
fd
02
fc
fb
fb
fd
f9
fc
fb
00
00
01
ff
05
07
06
07
08
08
05
0a
0a
08
06
05
03
ff
01
00
fe
fb
fb
fe
01
fe
ff
03
04
07
06
ff
01
fc
ff
fa
fa
fc
ff
f9
fb
01
05
00
06
07
00
02
03
fc
01
00
fe
f9
fe
fb
ff
01
ff
06
fe
05
04
05
02
02
fb
fc
fb
f8
fb
01
ff
ff
fe
01
ff
04
03
02
02
ff
00
05
06
03
ff
01
04
00
fc
00
fb
ff
00
ff
f9
fd
fd
ff
fc
fd
00
02
05
00
05
07
fe
fe
01
fd
ff
f9
fb
00
fe
fd
fe
01
fc
04
03
00
07
06
03
05
06
05
05
06
05
02
fe
fd
fe
fa
f6
f6
f3
f5
fc
f5
f8
f5
fc
f9
ff
fe
fa
fa
fb
fa
f7
fb
f8
f8
fb
fb
f4
f9
fb
fa
f5
f4
f9
fd
fb
f8
02
fc
02
ff
03
01
02
01
05
fd
fd
fa
fa
fa
f6
f7
f8
f6
fb
fb
fd
01
fb
ff
fe
fe
01
03
03
02
05
03
03
03
00
ff
04
01
04
01
fe
ff
04
06
04
06
07
01
04
03
01
ff
fe
03
fe
fe
fc
fd
00
fa
fe
fb
fd
f8
fb
fb
fd
fd
fb
00
fa
fe
02
03
00
02
07
ff
06
08
01
02
02
03
ff
fc
ff
ff
02
01
04
01
04
07
0b
0a
0d
0b
0c
0b
0d
0c
0b
05
06
04
05
07
01
01
02
04
02
06
01
03
08
08
05
07
05
02
03
07
04
08
ff
ff
fe
ff
03
04
ff
fe
00
04
03
01
03
00
01
fc
f9
fa
fc
fd
fc
ff
01
04
0a
0b
12
1b
21
fe
f9
fa
f8
f7
f9
fa
f9
f8
f5
f7
f7
fb
fb
f6
fa
01
03
04
03
0a
03
05
0a
0a
04
08
07
05
02
01
02
02
02
fc
ff
fc
f8
f6
fc
f9
f9
f7
fb
f7
f5
fc
f7
fc
f7
f9
f8
fb
fa
fd
f9
f7
ff
f8
fd
f7
fc
fa
f8
fb
fb
fb
fe
f9
fd
00
fa
fb
01
ff
02
ff
07
06
07
07
0a
0a
09
0b
09
0d
07
09
07
0b
05
0b
08
07
01
ff
01
fe
fd
01
ff
fa
fe
f7
f7
fb
fa
f6
f5
f8
fc
fd
fc
f6
fe
fd
fa
fe
fc
02
fe
ff
02
05
04
ff
03
01
fb
fc
fb
f9
f8
f9
ff
fc
fe
fb
fe
00
ff
ff
00
03
fd
fc
fb
01
fd
fd
ff
02
01
02
00
05
02
08
09
02
04
04
02
04
01
05
01
fe
fd
fa
fc
ff
00
fd
ff
02
01
03
00
07
01
04
02
05
fe
02
fd
03
fe
ff
ff
fd
fe
04
fe
00
06
07
07
03
05
02
04
04
02
03
01
00
fe
fd
f6
fb
fd
fc
fe
fa
fd
fc
fc
fe
03
ff
03
03
01
fc
ff
fd
fb
f8
fb
fa
f8
fb
f8
fb
fa
fc
04
05
03
02
04
04
05
08
08
05
01
03
05
04
0c
09
12
f2
f7
f8
f9
fe
fe
02
01
01
03
02
08
06
05
06
fe
00
ff
f9
f8
01
00
fc
f9
fc
00
ff
00
00
06
00
01
02
00
00
01
fc
f8
f7
f9
f3
f3
fa
fb
fa
fc
02
01
08
03
08
0b
03
05
0a
09
03
09
0a
08
06
05
07
08
07
05
02
07
01
00
fa
fa
f8
fa
fa
f4
f5
f6
f9
f9
02
fd
05
04
02
03
06
02
03
04
fe
05
fd
ff
fc
fb
fa
fc
f9
fe
fe
00
fb
fe
05
06
05
00
04
05
02
02
fb
00
fd
fa
fe
f7
00
fd
ff
fe
00
02
01
01
03
ff
00
02
04
01
01
04
ff
fe
01
01
fc
01
ff
f9
fe
fc
fa
fa
f8
fb
00
fc
02
03
06
ff
04
05
02
06
05
05
fd
00
fa
fc
fc
f6
fe
fe
fd
03
01
00
02
09
04
05
0a
07
08
05
01
02
fd
02
fd
ff
00
ff
03
02
03
06
07
01
08
06
02
07
01
07
02
06
07
08
07
06
03
06
0a
0a
07
02
04
02
03
00
01
01
03
00
00
03
09
08
09
03
08
07
08
0d
0e
0c
0d
0a
09
05
06
06
0a
0a
03
08
02
05
01
08
03
02
08
05
09
09
09
04
00
f9
3e
39
33
27
17
10
fc
f3
e6
d9
cd
cd
ce
cf
d5
dc
eb
f6
00
0c
13
19
27
26
27
2e
2a
21
18
08
f9
ea
da
ce
bf
b6
b8
b3
b4
bf
c9
d0
d5
e2
ea
f4
01
04
04
0a
08
08
0c
08
08
0c
0d
0b
0f
0d
0c
12
11
13
0d
10
10
0a
09
01
06
03
07
05
08
04
06
08
01
01
fd
fb
ff
fa
fd
f9
f9
f6
f1
f4
f3
f3
f9
f3
f4
f6
f7
fa
fc
fb
fb
fe
ff
fe
fb
fb
03
01
04
ff
02
ff
00
01
07
06
00
00
05
02
04
04
ff
03
01
fd
fa
fe
f8
f9
fc
f7
f8
f8
fe
fd
fd
fe
fd
fb
fb
f8
f8
fa
fa
fb
fc
fe
01
ff
02
00
07
05
03
05
05
07
0b
05
07
07
09
05
0a
07
0e
0a
0d
12
12
14
12
0b
10
09
07
06
04
00
05
06
02
07
03
07
05
04
09
05
03
00
fe
ff
f8
f8
f5
f4
ec
ec
ef
f1
f8
fa
f6
f6
f9
fb
fc
f9
fa
f5
f5
f0
ee
f0
ed
eb
ed
f2
f4
f9
fd
00
05
0b
0a
0f
11
11
0f
0b
0b
04
fa
f9
f4
ed
f0
ea
f1
f3
f3
fa
06
0f
1a
24
28
33
35
37
3c
37
27
1e
05
04
fe
ff
05
07
01
09
05
03
03
05
08
02
08
07
06
03
fe
fe
02
ff
02
07
00
04
06
06
08
07
0b
07
02
06
01
01
00
fc
01
fc
fc
03
03
fe
fc
02
00
fc
f9
fc
fa
fe
fe
fa
00
02
fc
03
ff
02
05
01
02
fe
ff
fb
fc
03
fb
01
fd
04
05
01
00
fd
03
fb
ff
00
f8
f8
f9
fc
00
fd
ff
05
07
07
09
01
ff
02
fa
fb
fd
fd
f8
f7
fa
02
ff
fd
02
02
04
01
02
05
ff
fe
ff
f6
f6
f6
fa
f7
f9
fa
00
fe
02
03
07
0b
02
05
03
ff
fc
fc
fa
02
fc
04
06
04
0a
09
04
0a
08
09
01
06
02
02
fd
01
fd
00
fd
ff
fb
fa
ff
00
00
ff
02
fd
00
ff
fc
fc
fb
02
ff
00
fc
fc
03
02
02
02
02
01
02
ff
00
fc
fd
fe
00
03
02
00
01
fa
fe
fa
fa
01
01
00
fe
04
01
04
fe
05
01
ff
ff
fc
fe
ff
fc
00
01
ff
fa
fb
f9
fb
ff
ff
fc
fe
fc
fc
f8
00
fd
fb
00
01
03
ff
01
ff
fe
ff
ff
03
fd
00
fe
03
00
fd
03
fd
ff
fe
03
06
09
03
01
06
01
fa
fa
f7
f7
f8
f9
fa
fe
fb
01
fb
ff
01
fb
f9
f9
fa
f9
f8
f9
fa
00
fc
fe
fd
ff
01
01
01
02
07
00
07
03
07
07
04
04
06
03
04
07
01
ff
03
02
02
f8
fc
fa
f5
f9
f2
f6
f3
f3
f0
f2
f0
f6
f1
f7
f9
fa
fa
ff
00
fe
00
02
00
03
02
01
00
00
02
06
01
ff
fe
00
02
fa
00
00
fc
fe
fc
f8
fa
fc
fb
fd
00
00
03
ff
05
00
05
04
fd
fb
01
ff
fb
fb
fa
f8
fc
fc
f7
fb
fb
01
fc
fe
ff
02
01
04
02
06
07
03
ff
01
f9
fa
fa
f7
fe
fc
fb
fc
ff
fa
fd
fc
fe
fc
02
fe
ff
04
ff
02
fd
fe
05
03
01
ff
03
04
02
fe
02
04
04
08
08
07
02
04
05
02
04
05
ff
ff
fd
01
02
04
00
02
fc
ff
00
ff
04
03
fd
fd
fe
01
01
02
01
fc
fe
fc
fc
ff
00
fd
01
04
07
02
07
04
01
08
03
03
02
05
ff
00
01
fe
02
04
02
00
02
fe
00
03
07
08
04
04
06
02
ff
04
ff
fe
01
ff
ff
ff
03
04
02
01
04
09
04
01
02
07
02
00
05
00
00
03
00
02
09
0a
0a
14
16
fb
02
f9
fc
fc
fe
fe
02
03
fd
fd
fd
06
03
00
00
03
03
05
06
07
00
01
ff
ff
00
03
fe
fd
ff
01
00
02
fb
ff
00
fe
f7
f7
f8
f7
f9
f9
f5
f3
f7
f1
f3
f6
f5
fa
f8
fb
fe
fe
ff
04
05
03
02
04
08
07
03
08
04
05
03
04
03
04
fe
00
fd
fb
fa
fd
fe
fd
fd
fa
f9
fb
f9
fc
fe
fe
fb
04
04
00
ff
04
05
03
02
05
02
00
02
00
00
01
fd
fd
ff
f8
fe
fe
fa
00
fb
fb
01
01
00
fd
02
01
fe
00
03
02
fd
ff
fd
02
01
ff
ff
fd
ff
02
fd
02
06
04
05
01
02
fe
ff
02
01
02
fc
ff
fb
f9
fc
fa
fe
ff
01
01
00
01
01
fd
ff
fe
fe
01
05
04
ff
01
04
01
fd
01
02
02
05
05
ff
05
fe
00
04
02
05
04
01
06
ff
03
04
05
06
04
00
05
04
01
05
02
01
03
02
00
02
01
fd
fd
02
fe
01
04
02
02
02
02
fc
04
fd
fe
ff
05
03
02
04
fd
fd
02
fe
01
fc
04
fc
01
01
fd
03
01
fd
fc
01
fc
fe
00
ff
fb
01
ff
00
fd
02
00
06
07
0a
09
0f
11
10
08
03
01
03
fc
fc
00
fb
fc
01
04
00
07
05
0a
0c
0a
0d
07
05
06
04
fd
f9
fb
fb
fa
f7
fb
f6
f9
fd
fa
03
fe
04
03
01
08
05
07
0b
03
09
04
01
05
01
fe
fe
02
00
fd
fe
fc
f9
fc
fe
fb
fc
01
fc
02
02
02
00
01
01
fc
fe
fe
ff
fd
ff
fd
fd
01
03
fc
fb
fc
fb
f9
01
00
01
fc
fb
03
fd
fd
fd
02
01
fe
05
fe
00
02
01
02
fe
00
fe
ff
fc
02
02
01
00
04
fd
05
05
04
02
fd
00
fe
fe
04
00
05
ff
00
ff
05
05
06
08
06
00
04
08
07
05
00
fe
05
ff
01
fe
fd
00
03
fd
01
02
00
02
03
06
00
05
01
03
fe
04
05
02
02
03
fe
ff
05
fe
02
ff
ff
01
03
00
01
01
05
04
08
01
02
04
08
08
03
01
03
02
00
fe
ff
00
00
fa
fc
fe
fe
fe
fb
fd
fc
01
01
fb
02
03
01
fb
02
fd
fd
ff
00
ff
fa
ff
fc
fb
fe
03
05
05
05
ff
02
02
01
03
01
00
05
03
04
03
03
fe
fe
fd
02
00
fc
fe
ff
fd
03
02
00
ff
03
01
00
ff
fa
fc
fd
fc
fc
fb
ec
f3
f4
00
05
08
16
19
1d
25
20
1d
1d
19
10
0e
05
ff
f8
ee
ee
e8
e0
dd
dd
dd
e1
ea
f3
00
0e
17
1c
28
30
31
34
31
33
2d
2b
20
1a
11
0a
04
03
fd
f6
f6
fa
fc
f7
fa
fd
fe
ff
ff
fb
f9
fc
f5
f6
f1
f1
f5
f5
f9
fa
f5
f7
fb
fc
f9
fb
fc
fe
fe
fd
fd
f6
fb
f5
f3
f6
fb
fb
f8
ff
fe
03
ff
fe
02
00
01
00
05
00
fc
fd
00
02
01
fc
01
04
00
04
06
06
03
ff
00
06
01
06
05
fe
04
fe
00
06
06
04
05
03
05
fe
05
03
01
ff
03
01
02
01
02
01
00
06
05
04
09
05
06
02
04
08
04
04
05
00
01
fe
fe
f8
ff
fe
fe
fa
02
04
ff
06
07
02
01
01
fc
fa
fc
fa
fe
fd
fa
f7
fe
fe
fe
06
06
01
07
ff
00
04
04
fe
fd
fa
ff
fe
fc
fd
05
00
05
09
07
0c
0c
09
09
08
05
09
08
04
07
02
03
06
06
06
01
05
04
07
09
08
06
06
02
01
02
ff
fd
fe
fb
f8
f7
f4
f6
f2
f4
fa
fe
ff
04
06
ff
00
00
fa
f8
ed
eb
df
d9
cd
c9
c7
c6
c1
c8
02
ff
05
03
02
04
05
ff
05
07
04
03
04
04
06
02
06
05
03
01
06
00
00
ff
05
ff
02
00
04
fd
ff
fd
00
fd
02
04
02
01
01
ff
00
05
04
04
01
06
07
04
06
04
03
02
fc
02
fd
fe
ff
fc
fc
02
fe
00
00
04
fd
fd
03
fd
fb
fe
00
00
fb
fb
01
fd
03
ff
00
ff
03
fd
fb
fe
fe
fa
fd
fa
f9
f9
fc
fc
01
01
04
01
06
06
03
00
05
fe
04
03
ff
fb
fe
00
fd
fd
00
01
ff
fd
ff
fc
ff
fa
00
fe
f7
fa
fc
fc
fd
fc
02
01
00
ff
fd
fd
fd
04
ff
fc
fe
fe
00
00
01
fd
ff
fc
ff
fd
01
ff
00
04
04
00
02
03
00
01
00
fd
05
ff
02
00
01
06
01
02
01
04
01
ff
fd
ff
00
fb
fc
fd
03
02
03
05
04
00
07
04
01
04
fe
00
04
00
fb
02
ff
fd
02
00
00
00
fb
fa
ff
fc
00
ff
f9
ff
00
f9
00
fb
01
02
01
01
fd
00
ff
04
04
00
ff
02
07
03
06
03
03
01
ff
01
00
02
03
00
01
fd
fe
fd
05
01
fe
fb
ff
f9
fe
f6
fb
fb
f5
fc
ff
01
04
02
05
0c
35
2a
2a
1e
16
11
0d
00
fd
f7
f2
f2
ee
ea
ee
f2
f1
fa
f6
fe
01
03
06
05
04
07
02
06
02
f9
ff
fc
f7
f8
fa
00
ff
fe
ff
01
04
07
05
05
06
08
07
05
06
01
fd
ff
fb
00
fb
f9
fc
fb
fe
ff
00
01
fe
fd
fd
fb
fa
00
fe
fc
fc
fb
fa
fb
fc
00
02
ff
04
01
07
05
03
ff
01
fe
fd
f7
f6
f3
f2
f3
f2
fa
f3
f7
fa
fb
fd
02
01
03
07
02
03
05
ff
fc
02
fa
f9
fa
fd
00
fb
fd
03
05
04
00
07
05
02
08
01
05
01
06
01
ff
02
03
ff
03
ff
ff
00
ff
08
06
02
01
05
02
fd
fe
fb
fc
f8
f6
f5
f5
f7
f9
fa
fd
fb
fc
fd
fe
00
02
07
00
07
04
03
01
00
00
fd
fa
fd
fc
fb
00
04
04
00
03
05
05
ff
01
ff
01
fd
f7
f6
f8
f3
f5
f8
f3
f8
f8
fd
03
04
09
07
0e
0b
0f
0c
0e
0b
0a
04
06
07
00
05
04
00
00
06
04
0a
0a
0e
08
0a
0b
05
05
01
04
fe
f6
f7
f8
f4
f6
f0
f1
f6
f8
f4
f8
f9
fd
fa
fc
fe
fe
fe
05
02
09
09
09
0e
16
1c
1c
47
3b
32
2b
22
1a
0d
07
07
03
fc
f8
f3
f3
ee
f0
f4
ee
ef
f3
f8
f3
fb
fb
fb
fe
ff
fd
fa
02
fe
fd
01
02
00
fc
fb
00
01
02
03
fd
00
02
fd
fb
f9
fc
f9
f7
f6
fc
fa
fc
fd
f8
fa
ff
fc
00
fa
01
00
fb
ff
00
00
fe
fb
fd
fc
03
01
02
01
01
05
0a
0b
08
0b
09
08
0d
09
0b
01
04
01
05
03
00
02
fc
fe
01
fd
02
02
fd
fe
ff
fe
00
02
02
03
01
fd
fc
03
00
02
fc
fd
00
03
fc
fd
fc
01
fe
fb
fe
f7
f7
f5
f5
f5
f4
f8
f1
f3
f5
f5
fa
fa
fc
fc
fa
fd
fb
ff
fd
fe
fe
fc
01
01
fd
fe
fb
02
fd
fc
04
01
05
fd
fe
ff
01
fb
fa
fb
f9
ff
fc
f7
f7
f9
f7
f7
00
fa
01
ff
fe
02
03
03
04
06
04
09
01
02
05
fd
ff
fa
f9
ff
fd
fd
01
fe
fc
fc
03
00
06
03
07
02
00
fd
05
fc
01
fb
f9
fa
fe
00
fb
fd
02
04
ff
05
02
ff
04
fe
00
fe
fc
fb
f7
fc
f3
f9
f5
f5
f6
f5
f7
fd
f9
00
fe
02
0a
0a
08
0b
12
10
15
0e
13
0d
12
0b
08
ca
d6
dc
e2
eb
eb
f1
f2
f6
f4
f9
f6
f7
fb
fa
00
00
04
06
07
08
0b
10
10
0c
0e
0c
0d
0b
03
00
00
fb
f4
f0
ee
eb
ea
f2
ed
f3
ed
f6
f8
f6
fb
01
01
08
0a
06
06
09
04
00
01
fb
fe
f9
fd
f8
f9
f9
fe
fa
01
03
fe
05
07
04
07
08
08
0c
08
07
0a
0b
0b
03
05
04
03
04
03
04
04
04
09
0a
06
0c
0a
05
0a
08
0a
05
02
07
fe
04
ff
02
03
00
03
05
07
09
06
0d
0a
0a
0b
06
08
03
0a
05
01
05
01
00
01
04
06
01
04
04
03
06
09
06
04
06
02
03
05
02
07
08
06
05
05
08
08
04
05
08
08
0a
08
05
06
04
fc
01
fa
f9
fb
f7
fb
fa
fc
fa
ff
02
02
04
01
06
02
04
04
04
08
04
07
02
00
00
ff
fc
00
01
00
ff
00
fd
fb
fb
f7
f9
fa
f8
f8
fd
fa
fa
fc
01
01
fd
fe
04
05
02
01
fe
01
00
fb
fe
fb
fe
f7
fa
fa
fb
00
fc
fe
fc
fd
fa
f9
f7
fc
f8
f9
03
01
00
01
07
04
03
08
09
06
07
fd
ff
00
f5
ef
f1
ed
e9
e1
e1
da
cb
c4
fe
f1
ed
ec
e9
e1
dc
d9
de
dd
de
e0
ec
ef
f0
f9
fd
02
08
0c
09
10
16
13
18
17
13
14
0e
05
09
00
fe
fb
fc
fd
f7
f9
fc
fd
00
03
02
06
06
08
0b
10
0e
0c
0e
0b
0c
0d
03
09
09
06
09
07
09
09
0a
0c
0a
0f
14
0d
0c
0b
08
08
02
05
07
04
09
01
05
07
0e
08
0c
09
0d
08
08
07
05
06
01
fa
fe
f8
f8
f4
f5
f4
f5
f7
fd
fb
fa
00
ff
fd
03
fc
fb
01
00
fa
ff
f9
fa
fb
fb
00
fb
05
04
02
03
06
05
01
07
06
06
03
fd
fd
fe
00
01
fe
fb
fc
fd
fd
02
00
fd
fd
fd
fc
00
fc
fa
fd
fc
f8
fc
fb
fb
fd
f9
f8
ff
01
02
03
06
04
ff
05
00
ff
03
ff
fe
04
ff
ff
fc
ff
fd
fd
fe
04
00
04
0a
09
0e
0d
13
0f
10
10
0f
15
13
12
10
0f
0b
09
01
04
01
fe
fb
fe
fc
f8
fc
01
05
07
0a
0d
0d
08
08
06
02
fa
f9
f8
ed
ec
ea
e7
e9
e9
eb
ef
fc
fe
03
05
06
0b
07
0e
0a
06
04
fa
f3
eb
e6
df
d7
dc
da
d6
d9
e3
e5
ef
fc
0f
1d
2c
fb
fa
01
00
fa
fb
01
fc
ff
fd
fb
00
fd
fe
fa
fc
00
01
00
fd
ff
07
05
05
ff
fd
ff
f9
fa
fc
fc
fc
fb
00
fb
ff
01
06
01
08
03
03
07
07
02
ff
01
fd
ff
fe
fc
00
00
03
05
04
02
02
02
02
03
04
03
00
ff
fb
ff
01
ff
ff
02
fd
04
02
01
08
05
06
05
05
04
01
07
05
07
0a
06
03
02
03
02
03
02
02
fc
fa
fe
ff
fc
fe
01
ff
07
07
01
00
07
08
00
04
01
ff
ff
02
05
02
fc
03
05
05
06
01
01
05
fe
ff
03
01
ff
02
fd
fd
02
ff
04
02
01
02
fe
fb
f8
f9
f6
fd
fb
fa
fd
02
fe
02
03
03
04
07
04
01
04
00
fe
ff
00
fd
fa
ff
fb
ff
00
01
01
02
00
05
02
ff
fd
00
f9
fc
fa
f6
fc
fb
fc
fa
fa
02
fe
05
08
04
00
07
ff
01
fe
02
03
fb
fa
ff
fe
ff
fa
01
fc
fc
fe
00
04
00
ff
02
fe
fd
01
02
fc
00
fb
fd
02
ff
fc
fc
fe
01
01
fd
fa
fe
f7
fc
f7
f9
fc
01
ff
fd
02
01
ff
fe
02
ff
ff
fd
fa
fa
fc
fd
00
fb
03
06
ff
07
3b
2c
28
21
1a
10
0a
07
04
05
fe
04
ff
04
02
02
03
00
05
05
fc
fd
f6
f7
f3
f0
f4
f4
f2
f4
f3
fa
f6
fb
fd
00
06
07
07
04
01
02
01
02
02
02
01
fa
01
fa
ff
00
ff
ff
ff
04
00
03
04
05
01
03
fb
fb
f9
fb
f9
fd
f9
fc
00
fa
02
ff
06
04
03
09
08
0a
0b
07
05
0a
04
08
06
fe
01
01
fd
01
ff
fe
05
03
06
01
01
00
02
06
02
01
05
02
03
06
06
07
ff
03
07
07
ff
05
ff
fe
fe
fd
fd
fd
fa
fe
f9
00
f8
fe
fa
fb
00
ff
fe
02
00
01
06
04
02
06
03
04
01
ff
fb
fb
ff
fc
ff
fe
fc
f9
ff
fe
01
00
06
07
03
05
03
09
04
03
03
02
08
02
06
02
00
00
fe
02
ff
03
fe
02
05
00
03
fd
00
05
03
02
03
00
ff
04
fe
00
fe
04
01
01
00
04
ff
06
04
fd
fb
fe
f9
f6
fb
f6
f8
f6
f3
f4
f8
f4
f8
fa
f8
00
fa
fb
fc
02
fd
03
03
04
03
00
fc
02
02
00
fe
05
02
04
01
fd
04
fc
fb
01
fa
fb
fa
f7
f7
fa
f9
fd
fc
fd
ff
01
06
07
2b
23
19
14
12
10
0d
0b
08
07
08
0a
05
0a
09
03
08
06
05
ff
04
fd
fd
00
fd
01
ff
fd
fe
03
00
08
08
07
03
04
08
05
04
03
00
02
06
02
03
08
04
08
0c
09
0a
07
0b
07
0e
08
06
07
0a
09
06
08
04
05
0a
06
09
0c
0a
09
0e
0e
0f
13
13
0c
0e
0f
10
0b
09
07
03
00
ff
01
01
fe
02
fc
00
fc
fb
fe
fa
00
00
02
03
04
fe
fe
01
ff
01
05
01
01
fe
01
fe
01
05
01
03
02
03
02
fc
fe
ff
fc
fa
fa
ff
fb
fd
00
02
02
02
06
03
01
05
02
07
ff
ff
04
fe
02
fd
01
03
01
fe
03
01
01
ff
00
02
07
01
ff
00
03
fd
fb
fe
f8
fb
f9
fc
f5
f2
f3
f5
f4
f9
f3
f2
fa
f8
fc
fb
fc
ff
fb
fa
fa
fa
f7
fe
fd
f9
fe
fd
fe
ff
fe
ff
02
01
03
03
fd
ff
02
fd
fb
f9
f6
fa
fa
f5
f3
f8
f7
fa
f9
f8
fc
fd
fd
ff
f8
fd
fd
fd
f8
fa
f6
fc
f9
fd
fd
fa
ff
00
fd
01
ff
fe
04
ff
03
ff
01
ff
02
04
fd
fe
fe
f9
f9
f9
f9
fc
f8
f6
ec
e8
e5
f6
03
0a
0c
12
1c
22
23
25
2b
29
26
2c
25
23
20
1b
18
12
15
10
12
0f
13
0f
16
17
1b
1b
1f
1f
1f
22
23
23
24
1d
1f
1d
15
1b
14
15
13
14
0e
0c
0a
09
09
0a
01
02
04
00
fe
f9
fe
fa
fd
f8
fb
fe
fc
fd
01
05
01
06
03
07
06
08
04
02
05
07
02
06
01
07
08
02
05
08
0a
0a
06
0c
04
07
04
02
02
07
ff
05
05
00
02
00
fd
fd
01
fe
01
03
03
fc
02
00
01
01
fa
fb
fe
fc
fa
f9
fb
fa
fc
fa
ff
fb
f9
f7
fe
f6
f5
f9
f5
f9
f7
f4
f3
f3
fb
f7
f4
fa
f9
fa
fa
fa
f9
f9
f8
f9
f5
f4
f3
f2
f8
f7
f8
f8
fa
f9
f7
f5
fb
f9
f9
fe
fe
fd
f8
f7
fc
f9
f4
f1
f2
f2
f0
ef
f2
f8
f4
f8
f8
f6
fd
ff
fb
fe
fe
fa
fe
fc
00
fb
fe
fd
fb
ff
fc
fd
fe
00
fa
fe
f9
fd
fc
fe
f7
f9
f7
f3
f4
fc
f9
fb
f6
fe
fc
fd
fe
f8
fa
f6
f9
fc
fa
fa
f5
f5
f8
fd
ff
02
02
ff
fd
ff
01
fe
f9
f5
f9
f5
f3
f2
f8
f8
fe
02
07
0e
12
1c
1d
23
1b
a6
b0
bf
c6
d4
e2
e5
f2
f2
f9
fd
f9
fd
ff
fe
04
07
05
0d
14
19
1d
20
25
25
22
20
1d
18
0d
0a
03
fa
ed
e5
df
dc
db
e2
e6
ec
fe
05
0c
16
1f
26
24
23
24
1b
13
0c
ff
f9
ec
ec
ea
e9
f0
fc
05
0b
15
1f
23
29
2f
2c
23
1e
17
0d
09
01
01
ff
fb
f8
f9
fd
01
03
02
ff
ff
ff
fc
fb
fc
f4
f4
f4
f2
f3
f8
f9
fb
f8
fd
00
00
fe
fe
03
02
00
fa
f9
ff
fa
fb
f4
f5
f4
fc
fb
fc
00
ff
00
fd
01
04
ff
fb
fb
fc
fe
fa
f6
f9
f8
fa
fd
f8
fc
fc
03
fe
00
ff
00
ff
01
fb
fd
fa
fe
f8
f7
fa
f7
f9
fd
fa
fc
00
00
01
00
01
fb
fb
fb
fc
fb
f8
fe
fb
00
fd
00
ff
02
00
04
01
06
02
04
fe
fe
03
02
fa
fa
f9
fe
fd
00
03
04
04
08
06
0d
07
09
0a
06
08
09
02
00
fd
ff
f9
fe
fb
f9
fc
01
06
02
03
05
07
0a
08
0b
02
02
07
0b
0d
0b
0d
12
15
12
14
1b
17
11
11
10
0f
0c
07
0b
06
0a
04
0d
0f
0e
19
1d
1b
24
22
20
1b
14
0d
00
ff
07
fd
fe
02
04
fd
fc
fc
01
fe
fb
fd
fb
00
fc
ff
01
01
f9
00
00
01
00
fe
fc
fd
fc
fd
01
01
ff
fd
fe
fc
fd
fe
fe
00
03
04
07
05
01
06
07
00
03
05
fe
01
fc
00
00
00
fb
00
fa
fa
ff
fb
02
02
04
fe
01
03
02
fe
02
00
fe
fb
f9
01
fc
fc
fc
fa
ff
ff
ff
fd
ff
01
ff
00
fc
fd
fa
f9
ff
fe
fd
ff
02
01
04
06
02
00
00
05
00
01
fd
02
fd
02
01
01
06
08
04
03
07
03
04
fe
ff
01
fa
ff
fc
fd
00
03
fe
02
02
ff
01
01
fe
fc
01
fd
ff
04
00
00
02
02
0a
05
07
07
02
03
03
fe
ff
fc
02
fa
fd
ff
fc
fc
02
fd
00
02
fb
02
01
fd
01
ff
ff
04
04
06
09
05
04
01
01
01
00
06
ff
00
03
00
01
fe
03
fc
02
ff
fe
ff
fc
fe
03
04
02
fe
ff
02
fc
fd
fd
05
02
fe
fe
ff
01
ff
01
00
fe
01
02
ff
01
fb
fa
fa
ff
fb
fe
fd
ff
fa
02
fb
fe
00
02
00
fe
ff
00
07
03
05
00
03
fe
00
01
03
01
00
04
04
00
02
09
04
04
04
f1
f0
fb
fc
01
ff
05
0a
07
0b
0c
0a
11
0a
0e
0e
13
11
0c
0f
14
11
13
0c
0e
0b
0a
08
09
07
00
00
00
02
fb
f8
fb
fa
fa
f9
fb
ff
fb
01
ff
03
01
03
09
0a
0c
0b
0f
12
14
14
11
12
15
13
13
15
14
10
11
08
0b
03
ff
00
00
f9
f7
f3
f1
f1
ee
f3
ef
f5
f8
f5
ff
ff
05
05
03
0a
0c
0c
0b
09
07
09
01
03
ff
01
fe
f7
fb
f6
fa
f4
f3
f9
f7
fa
fd
f8
fb
fb
01
fe
04
01
04
01
03
ff
01
02
ff
02
03
fd
ff
00
f9
fc
f8
fc
f7
fa
f6
f4
f8
f7
f8
fe
00
fa
f9
ff
fa
fc
ff
fe
fc
fc
f7
f7
f6
f2
f4
f6
f7
f4
fa
f5
f9
fd
fd
ff
fd
fb
fd
ff
fe
00
ff
00
ff
07
03
07
05
06
00
fe
fd
fa
fc
fb
fb
f6
f8
f7
f4
f4
f0
f4
ed
f1
f4
f4
f4
f3
f8
f2
f7
f8
fe
01
fe
02
02
03
08
09
08
0c
10
09
0c
08
0b
11
0f
07
07
0a
09
0c
07
0c
06
07
07
05
08
08
06
05
08
0d
0a
05
05
08
03
02
ff
01
f9
f6
f4
f1
f3
f1
ee
ee
ee
ef
f1
f2
00
01
fc
03
ff
01
00
fd
04
04
04
00
ff
ff
fe
fb
ff
fe
fc
f9
fa
fb
fb
f8
f9
f8
f2
f3
ef
f0
f4
f5
f6
fa
f9
f8
fa
fe
01
ff
01
05
07
0b
0b
06
0a
08
0c
0d
11
16
11
19
1c
18
1b
1d
20
1d
1e
1b
1c
15
18
0d
0a
09
04
fd
f7
f4
f0
f0
ed
ee
f2
ee
ed
f2
f0
f2
f5
f7
f7
f9
fb
ff
05
05
0a
0a
08
0e
0d
12
13
17
0f
12
10
14
10
10
14
0e
10
0e
0d
0c
09
06
08
07
ff
02
03
fd
00
01
fd
fb
fc
ff
f7
fc
f8
fd
f8
fb
fc
f9
fa
ff
01
00
00
01
ff
05
04
05
ff
01
ff
fb
fa
f9
f5
f8
ef
f1
ef
f5
f1
f2
f8
f2
f6
fd
fe
fc
fd
fe
03
04
06
06
07
04
02
07
05
02
05
08
03
ff
04
04
fd
fa
fb
ff
fa
f7
f9
f7
f8
f7
f7
f5
f7
f6
f8
f7
fb
fe
fb
fd
fe
fe
fd
01
01
02
00
ff
00
04
05
01
04
ff
02
fe
02
03
05
02
02
fe
04
fc
fd
fd
00
fd
01
f9
fe
f8
fd
fc
fc
ff
ff
03
03
00
01
ff
fc
f8
f7
f9
f6
fa
f2
f5
f2
fa
f9
fe
01
04
22
1c
16
15
12
16
17
11
16
14
1c
1e
19
19
1b
20
1f
1a
1b
16
1d
1a
16
18
17
13
11
16
0e
12
0d
0f
0c
0a
05
09
09
08
09
0c
10
12
0f
10
0f
0f
0f
10
0b
04
03
03
fc
fd
fa
f7
f9
f8
f7
f4
f0
ec
eb
ec
e5
dd
de
d0
ce
cb
c0
c1
c4
c6
ca
cd
da
e2
ea
f6
fd
06
08
12
12
1b
1e
21
22
1e
22
1a
21
20
1c
1e
1f
19
20
1f
21
1d
1c
1b
1b
12
14
11
0b
05
08
04
fe
fd
f9
f7
fc
f9
f6
f8
f7
f7
f6
f0
f1
f7
f5
f5
f1
f1
f2
f6
f3
f8
f3
f5
fb
f7
fa
fa
fe
fb
fb
fe
03
01
01
06
07
0e
0b
0e
11
0b
0f
0d
10
0a
0a
02
08
ff
03
fa
fd
fa
fd
f5
fd
ff
fe
03
05
05
09
0a
0c
09
0b
08
07
05
03
04
00
ff
fd
f8
fa
f3
f2
f7
f5
f3
ec
f3
ed
f1
ee
f1
ee
ec
ed
ef
f1
f4
f2
f3
f5
f8
f4
f8
f1
f5
ef
ee
ee
ed
eb
f1
ec
f1
f0
f3
f8
f8
f9
fa
f9
f8
fb
f9
fa
f1
ef
ea
ec
e4
e8
e5
e6
e1
e7
e5
ea
f1
f1
f9
02
0a
10
15
1f
2a
2e
38
0c
07
fe
fd
f9
f8
f5
f1
f5
f5
fa
ff
ff
02
07
0d
0e
15
10
10
09
0c
07
06
03
01
f9
f8
f2
f3
f1
f2
ec
ee
f3
ee
f4
f7
fd
fa
02
01
06
fd
fe
ff
fb
fc
f7
fb
f9
f4
f6
f4
f2
f1
ee
ed
f5
f1
f6
f4
f1
f3
f7
f8
ff
fc
fe
00
07
08
0c
11
0c
10
0d
06
08
03
05
00
03
03
04
00
03
03
fe
01
fc
f8
fa
f8
f1
f1
f2
f7
f6
f5
fc
ff
01
07
02
08
07
08
06
05
00
fc
00
fc
f6
f4
f2
f4
f1
f5
f4
f7
f6
f9
00
04
00
06
03
07
01
05
02
03
ff
02
ff
00
00
04
08
09
06
09
0f
0d
0e
11
0e
0d
12
09
09
0b
07
08
04
04
03
04
04
02
05
ff
00
01
02
fd
fd
f7
fa
f9
f2
f0
f4
f8
f6
f9
f2
fa
fd
f7
fc
fc
02
fc
fc
fd
03
02
fd
fd
02
fd
fb
fb
fa
f8
f8
fa
fb
fe
f8
fd
ff
01
08
08
0b
0d
11
13
11
11
0f
11
0f
09
09
07
04
02
04
ff
fe
fc
fa
f6
f8
fc
fb
fb
f7
f8
fe
fb
ff
00
06
04
0a
07
0b
10
0e
12
0b
0e
07
07
03
fd
f2
f5
e8
e5
0e
09
09
09
02
03
00
02
01
fe
fa
ff
00
ff
02
02
00
02
04
02
06
04
00
03
02
02
ff
fb
fa
f6
f9
fb
f9
fa
fd
ff
00
00
00
fd
fa
ff
02
ff
01
fc
00
03
fc
ff
01
fb
fc
fc
00
fc
fc
fd
fb
f8
fb
f8
fe
fa
01
fe
03
07
03
06
06
0b
08
0c
04
04
03
05
02
fd
fe
f7
f9
fd
f8
f8
fa
00
fe
01
ff
05
03
08
07
02
09
03
05
08
03
06
03
03
03
03
04
01
02
02
01
00
06
02
07
09
0c
05
0a
03
01
03
00
fd
00
03
02
00
02
03
fe
04
01
03
fc
01
00
00
fb
fd
fc
fb
00
f9
fd
ff
fe
01
00
02
03
00
01
03
04
05
09
05
05
05
02
01
ff
fd
fd
fd
f6
f2
f1
f0
f6
f8
f7
f9
fb
ff
01
03
03
03
01
04
03
02
03
00
ff
fc
f6
f5
f8
fa
f5
fc
fe
fc
fd
00
06
02
00
05
ff
fd
03
ff
ff
00
fd
fe
fd
01
fe
ff
fe
ff
fe
04
06
05
05
02
05
05
08
01
02
01
04
00
02
fc
fd
fe
fc
00
00
fa
fc
01
00
fd
01
fd
f8
fb
01
ff
fe
02
01
07
08
07
0c
10
d7
dc
e4
e9
ef
f9
fe
06
06
0b
0d
0c
09
07
0d
07
0b
09
0b
0e
09
12
12
17
16
17
14
14
15
0e
0d
0d
0d
07
02
05
02
02
06
08
08
06
10
14
12
18
1c
19
1a
19
13
0b
0a
0a
01
03
ff
fa
fe
f7
fc
fb
03
05
0a
08
10
0b
14
13
12
0e
0f
0f
12
10
11
0d
0b
08
0c
0e
0b
0f
0b
0e
0e
0b
0a
09
10
0a
0c
08
09
04
09
0a
07
08
05
07
06
0e
0b
0c
0b
0d
0f
09
07
08
08
05
06
05
02
fe
ff
03
ff
ff
01
06
05
03
09
05
08
08
00
01
04
fc
01
01
00
fa
ff
fe
01
01
00
fc
ff
06
05
02
07
ff
04
04
fd
fe
fe
fa
fb
fc
fa
fa
fe
fc
fe
03
02
05
05
00
00
04
fd
fa
f6
f7
f4
f2
ed
f1
f2
f5
ef
f7
f7
fa
fb
02
fe
ff
01
01
ff
fe
f4
f3
f2
ed
eb
eb
ed
ef
ec
ed
f3
f5
fb
fc
fa
fc
fe
fc
fc
fd
f7
f3
ec
ec
ed
ee
ec
e9
ea
f4
f2
f5
f7
fd
00
00
02
03
fb
fd
fb
fe
fc
f8
f9
f2
f5
f8
f9
fd
fb
00
fc
fe
fd
fe
f6
f1
ee
e8
d8
d3
c7
b8
e6
ea
eb
ef
ee
f3
fa
f8
fd
f9
02
00
06
00
03
04
04
03
01
ff
03
02
01
fb
00
ff
fd
fc
f9
fb
fa
00
01
00
fb
00
fd
fe
fe
05
04
06
07
01
05
05
02
fe
00
fb
fe
02
fe
fa
01
fd
00
fd
fd
02
03
05
04
08
01
01
02
04
04
02
02
ff
ff
fb
ff
ff
fb
fd
00
ff
f8
f9
fe
fc
00
01
fa
fa
ff
00
fe
03
05
00
03
fe
02
00
07
04
04
00
03
02
fd
fe
00
ff
fe
fd
fb
fe
00
02
ff
03
03
07
06
00
05
05
03
03
05
04
03
02
01
05
05
04
07
04
07
01
02
00
ff
00
04
03
03
02
fd
04
ff
fd
01
01
fd
ff
02
00
fd
fe
00
03
fe
03
fe
03
00
ff
04
03
ff
fc
fd
ff
fb
fb
fe
fe
ff
fd
fe
01
01
04
00
01
01
00
04
01
05
02
fd
fe
00
fb
02
fe
ff
02
fb
fe
fe
fe
05
05
06
08
01
04
05
03
06
06
fe
02
04
ff
01
03
01
fe
fe
fe
01
fa
fb
fa
ff
fd
f9
f9
fe
f9
f8
fc
fa
f9
ff
fa
01
02
ff
08
09
07
11
0c
11
13
13
0c
12
0d
07
00
f4
f1
e3
d8
db
e4
e7
ea
ee
f1
f3
f0
f1
ee
ed
f0
ed
ea
ed
ed
ea
ee
ef
f0
ec
f5
f5
f6
fa
f8
fe
03
05
05
04
05
07
10
0a
09
05
03
05
05
02
01
00
f8
fa
f5
f0
f1
f2
ef
ee
f5
f6
f3
f4
fc
fb
01
03
03
05
05
02
01
fe
fc
f8
fd
fd
f8
fc
fd
fc
ff
ff
03
04
05
07
03
05
05
00
fe
01
04
04
ff
ff
fd
04
ff
03
03
02
07
07
03
05
08
03
02
09
04
07
07
09
07
06
07
04
02
09
03
03
05
08
04
09
07
09
05
0a
09
0c
06
0b
04
03
0a
06
07
01
07
03
08
07
01
04
0b
0b
09
09
0a
07
07
06
06
04
02
06
05
00
02
ff
04
ff
00
04
04
06
04
09
05
09
05
08
01
06
02
05
fd
02
fd
fc
fb
ff
fc
fc
01
01
ff
00
03
01
07
06
08
08
04
01
03
02
02
03
03
01
ff
fb
f6
f8
f8
f7
f6
f8
fb
f9
fd
f7
fb
fd
fc
fd
fe
f6
f8
fd
f8
fd
f7
f8
f8
fb
f3
f7
fa
f5
f9
fc
fc
fe
fe
00
00
03
00
fd
01
03
02
fc
ff
fb
f6
f6
f6
f6
f9
fb
f7
fb
fe
00
00
fb
f9
e7
e6
e8
e6
e7
e8
df
e3
e1
e0
e2
e2
e8
ea
ee
f3
f6
f8
fb
04
00
02
05
00
f8
f8
f9
f5
ee
f5
f4
f1
f1
f8
fd
ff
fe
05
04
08
0b
14
0f
12
11
11
13
0e
11
15
0f
18
15
1a
18
1a
1b
16
12
14
17
10
15
13
12
12
14
0e
0f
0d
14
0c
11
10
0d
0f
09
08
08
02
07
00
fc
00
fb
01
fd
02
fe
fd
ff
00
02
00
fe
fc
fb
03
ff
fe
01
ff
fe
fc
fc
fd
00
01
00
05
02
03
ff
fe
fd
fc
fc
fa
00
ff
ff
00
fa
ff
fb
01
fd
fc
fd
ff
fc
00
ff
fa
02
fc
01
fc
fe
ff
f8
fd
fe
fc
f9
fc
ff
fb
02
fc
fd
00
fa
00
fd
fe
fb
fb
fc
fc
05
01
04
04
02
01
00
04
ff
03
02
ff
ff
fe
fc
04
ff
02
08
04
07
08
03
06
03
02
ff
05
ff
05
05
01
05
02
08
08
07
08
09
0c
0b
0e
09
04
02
02
fb
00
f9
fa
ff
f9
02
05
08
0a
0c
0c
14
12
14
11
09
0a
04
fb
fa
f4
f2
ee
eb
ec
f5
f2
f7
fe
09
0d
0e
14
13
16
12
0c
07
fd
f4
ee
e7
df
dc
dd
e4
e8
f8
04
fc
00
00
02
01
fe
03
ff
00
03
ff
06
03
06
03
fd
04
01
04
04
01
03
04
02
05
04
fc
fc
fc
fc
00
00
fd
fc
fa
fa
00
00
01
01
02
01
ff
04
ff
fe
fb
ff
00
fe
fa
fa
fb
ff
03
01
02
03
04
07
00
01
03
04
03
ff
ff
fd
01
02
fd
fb
01
ff
fe
01
fb
fc
fc
ff
fd
fc
00
fd
fd
00
06
fe
06
ff
ff
ff
05
01
fc
fd
01
02
fd
fd
fc
fe
fe
fa
02
02
03
01
01
06
01
01
05
06
05
04
03
01
fe
fc
fd
01
fd
fd
fe
03
02
fe
01
fe
03
00
04
02
02
00
01
ff
01
00
fd
fe
fb
fe
fc
00
fe
05
fd
ff
03
fe
ff
fe
01
03
04
ff
fd
00
01
02
03
fe
04
fc
01
fd
fc
02
02
00
ff
fd
fd
00
00
04
02
00
04
ff
03
03
00
04
fe
06
07
07
04
06
05
01
01
fd
02
ff
fb
01
fe
fe
ff
04
02
04
fc
fc
01
fe
fc
01
00
01
03
00
04
fe
ff
02
fb
00
fc
fd
fc
04
00
06
01
07
00
00
07
04
05
fd
03
03
fc
fe
02
00
01
01
01
02
03
03
fe
03
fe
02
01
02
03
fd
d6
da
e1
e7
e6
ee
f1
f0
f0
f2
f9
f6
f9
fd
fd
fe
fc
00
01
fe
03
01
01
01
03
00
fd
ff
fc
fa
fc
f5
f1
f2
f4
f6
f0
f3
f3
f7
f3
f9
f6
f7
f9
fb
f8
fb
fb
fa
fd
00
fd
fb
04
fe
01
03
00
09
02
03
04
05
08
05
05
04
ff
ff
02
fc
00
01
01
05
03
03
05
0b
04
08
0d
09
0b
0a
09
0b
0b
06
05
0a
01
02
08
04
09
08
07
0f
0e
0b
0f
0d
0d
11
0d
0c
07
09
0a
07
05
03
03
fd
fa
fa
fd
ff
00
fd
fc
05
ff
09
04
09
0f
11
16
15
14
1b
19
1f
1e
1b
1b
15
11
0e
0c
07
01
02
fa
f9
f2
ed
e7
e3
e7
e5
e1
e0
de
e7
e9
e4
ea
e9
ec
f3
f3
f5
fb
fb
03
02
0a
0b
0f
09
10
12
11
12
15
15
13
11
12
17
18
16
15
18
16
19
15
1b
18
1b
1b
1e
1f
16
1c
15
15
17
10
14
0f
0b
09
ff
ff
fc
f5
f2
f2
f1
e9
eb
ea
e4
e2
e4
e9
e2
e3
e9
e4
e5
e8
ec
ec
ec
ec
ea
e9
ef
ef
f0
ef
ec
f2
f0
f1
f2
ee
ee
ef
f1
ec
f1
e8
e9
ec
e7
e9
ee
ea
f2
de
e4
eb
f0
f9
fa
fd
fc
04
02
05
ff
05
06
05
05
00
ff
03
04
00
02
04
05
08
09
09
05
04
09
05
02
00
ff
04
fc
f9
f9
f9
fa
f7
fc
f9
f8
f7
f9
ff
fd
ff
fb
03
02
04
06
06
05
07
0c
0f
08
0c
07
0a
06
00
fe
01
00
fd
fb
f8
f5
f7
f3
f8
f3
f1
f5
f6
f1
f2
f4
f3
f8
f5
f4
f3
f3
f8
f8
fa
fb
ff
fe
01
fd
06
01
06
05
0d
0c
0a
0e
13
14
14
0d
0e
0f
0d
0a
0d
05
09
07
00
ff
fe
03
fc
00
ff
00
ff
00
01
05
08
09
0a
06
0b
0b
04
0a
05
03
fe
02
00
fd
fc
f4
fa
f8
f3
f6
f3
f4
f6
fa
fc
fb
fc
02
03
08
0d
11
0f
13
13
11
16
10
11
0f
0f
10
0b
06
00
fe
fe
fb
fb
f5
fc
f5
f9
f9
fa
f7
fa
fd
fa
00
03
04
04
08
09
0d
09
0d
0c
0d
10
0c
0a
05
05
02
03
01
ff
ff
f9
f3
f0
ee
eb
ec
e6
e6
e7
e5
ea
e9
eb
eb
e9
ec
ef
eb
f2
ee
f7
f5
fb
fd
fd
01
00
03
07
0a
05
08
08
08
06
04
fe
fe
fa
fc
f5
f6
f3
f1
f0
ef
ef
f5
18
15
0f
0e
0a
06
07
03
09
01
04
01
f7
f9
f5
f2
f3
ec
f1
ec
ef
eb
ea
f0
ea
ef
ee
f0
f2
f6
f5
f7
fc
fb
fe
fb
fc
fa
fc
fd
00
ff
fc
fe
05
ff
fe
05
02
04
02
04
08
0b
06
05
06
06
00
fa
ff
f6
f6
f3
f6
f5
f7
f3
f0
f7
f8
f7
f7
f4
f6
fb
f8
f3
fb
f8
f8
f6
f5
f7
f5
f1
f5
fa
f7
fa
fc
00
07
0b
08
0b
0e
10
12
15
1a
14
1a
17
14
17
17
16
0e
0f
0a
09
0a
0b
08
0b
08
06
08
09
07
02
01
05
04
02
fc
f8
f8
fb
fc
f5
f1
f1
f4
f3
ee
ed
e9
e9
e8
ed
ea
eb
ee
f3
f2
f9
ff
02
09
0a
11
14
1e
19
1f
21
25
22
20
20
1c
1c
17
13
07
05
fe
02
fe
f7
f6
fa
f7
fb
f7
f8
fd
fd
04
00
02
01
09
07
03
06
08
05
08
03
07
04
04
ff
fe
00
00
fe
fd
ff
f7
f8
f8
f5
f2
f4
f2
ee
f0
ef
ee
f0
eb
ee
f2
f0
f1
f1
f3
f4
f5
f6
fb
01
02
01
05
05
05
0a
0a
08
0b
09
05
07
06
05
fe
fa
fb
fc
f9
fa
f9
fa
ff
00
00
02
01
03
07
09
03
02
0e
17
1c
18
1b
1a
19
14
16
0b
04
ff
fe
fd
f3
f6
f5
f6
f4
f7
f8
fc
04
03
05
04
0a
07
09
02
07
07
00
02
fe
ff
ff
fa
fc
f9
f8
ee
ea
ee
e9
e6
e5
e9
e3
e8
e8
e7
ed
ef
f2
f3
f6
f8
f7
f7
fc
fd
00
ff
00
00
05
07
06
02
00
fe
fd
fc
fe
00
f7
f9
fc
fd
fc
fb
fe
fc
00
ff
fd
fe
fd
f6
f8
f5
fa
f4
fa
f7
fe
fb
fc
01
05
03
07
04
02
04
06
00
07
05
06
02
05
ff
00
04
ff
03
ff
fc
03
02
02
fe
03
03
08
06
05
02
04
0a
03
07
01
03
01
fe
fd
fa
f8
fb
fa
f8
fd
01
01
04
04
0b
09
0f
11
0d
0b
0d
0a
0a
03
05
03
fe
fb
f6
f9
f5
f3
f8
f6
fb
fd
fb
03
01
06
03
08
0b
08
0f
09
0e
0f
0e
11
10
0d
0a
09
0a
07
04
02
fd
fa
fa
f6
fa
f6
f3
f5
f3
f2
ee
ed
e8
e7
e0
db
d6
d1
cc
c8
c6
cd
cd
d4
d7
df
e1
ea
ef
f5
fb
fd
09
09
0c
0b
0f
12
13
15
1a
18
17
1a
1f
1d
20
20
26
24
24
24
20
1e
16
12
11
10
0c
0b
08
0b
07
07
0a
0a
0b
07
0c
0d
05
09
06
04
02
05
00
01
01
02
ff
00
06
00
01
08
01
02
fe
01
00
04
04
05
ff
04
00
fb
fa
fd
00
fc
fa
ff
f7
ff
fc
fc
f9
fa
f7
f9
f8
f5
f3
f3
f1
f7
f5
f5
f8
f9
fb
01
02
01
ff
03
01
ff
fc
f4
f7
ee
ee
f2
f3
f1
ef
ef
f6
f2
fa
f7
f7
fd
00
fd
00
01
02
00
05
fc
ff
fc
f8
f9
f3
f4
f9
f6
fc
f8
ff
fd
05
07
06
03
05
05
02
00
fd
fa
fb
fb
f7
fb
00
fe
02
07
0c
11
13
13
10
0d
08
09
04
ff
03
01
ff
fc
fe
fd
02
06
08
02
06
04
08
07
fe
fd
fc
f6
f4
f4
f8
f4
f1
f1
f6
ee
f5
f4
f0
f9
f5
fb
fa
fc
fc
fb
02
00
03
06
00
02
03
00
03
ff
06
02
03
03
06
0a
07
04
08
07
01
ff
fe
01
04
01
01
fc
02
04
00
fe
01
fe
05
fd
03
fc
01
fd
fc
00
02
fc
ff
fb
00
00
fc
01
ff
fe
fb
00
fe
fc
fa
fc
05
ff
00
07
05
04
0b
0b
0f
13
10
13
10
0e
0f
0c
0b
09
03
05
09
05
09
09
06
07
0d
0d
12
05
04
0a
06
04
05
07
0a
05
0a
06
06
05
03
04
fe
ff
fd
fb
f9
f6
f4
f3
f9
f3
f7
fd
fb
fa
05
01
06
09
07
06
0a
09
0b
0a
0f
0a
0f
11
0f
0f
0d
0e
0e
09
07
06
00
02
fc
f5
f2
f3
ed
ea
ef
ee
e9
ed
ed
f1
f1
f4
f2
f9
f7
fb
02
00
08
04
09
0c
09
0c
05
0a
09
0b
0b
06
08
04
08
06
03
02
05
06
ff
04
04
fd
02
00
02
02
00
fd
fb
01
ff
02
02
02
06
03
06
07
04
08
07
03
09
03
07
03
02
05
01
fe
01
fc
fa
00
f8
f9
f8
fd
f8
f4
f9
f8
f5
f2
ee
f0
f3
ed
ec
f0
f0
ef
f0
ef
f3
f9
f9
f8
f8
fd
fb
fa
f8
ff
f8
fb
fd
fc
fb
f8
fe
fd
fc
fe
ff
ff
06
05
02
08
09
08
05
05
07
09
05
02
02
03
06
06
06
ff
03
03
03
03
01
03
04
00
ff
ff
fb
f9
fc
f5
fa
f6
f9
f6
f6
fa
f6
f6
fa
f7
f9
00
fe
fd
02
fe
01
fe
01
02
ff
fc
04
fe
03
04
0a
05
0a
0c
0f
12
0c
13
13
10
0d
0f
09
08
09
0a
03
08
02
04
04
05
ff
04
06
09
0b
09
05
0c
08
09
09
05
0b
03
07
02
03
02
fe
fc
ff
ff
f9
fd
fd
00
ff
fe
04
06
07
09
08
03
09
02
09
01
03
01
05
02
07
02
01
00
01
ff
00
fe
03
02
fa
ff
fa
f9
f5
f5
f6
f6
f6
fa
fb
fc
04
00
04
07
0f
0e
0f
0f
14
19
12
15
14
16
16
14
17
15
0e
13
0d
0d
0b
0b
06
07
01
fd
00
fd
f8
fa
f7
f6
f2
f1
f7
f4
f8
f5
f8
f7
f9
fc
fa
01
ff
02
ff
fd
fb
fe
fe
ff
fc
01
ff
02
01
fd
00
00
ff
03
02
06
04
06
06
06
00
07
03
04
01
02
07
06
07
02
04
03
02
07
05
04
04
03
03
fe
02
03
03
01
fd
fa
00
fd
fd
fe
fb
f4
fa
f5
f4
f7
f3
f3
f4
f5
f2
f8
f4
f6
f7
f6
f8
f8
f9
ff
fb
00
00
fd
ff
fa
fd
02
ff
fe
01
01
01
06
07
07
04
08
0c
09
0d
08
09
0a
08
0a
0b
0a
08
09
09
01
07
06
04
ff
03
00
ff
f7
fe
f5
f9
fb
f8
f3
f3
f1
f0
f2
f6
f7
f4
f7
f8
f6
fb
f5
f9
f9
f8
f8
f9
f5
f2
f3
f2
ee
eb
f0
ee
f2
f2
f4
fa
00
01
0e
07
05
fe
04
02
04
06
03
05
05
08
08
07
05
09
09
02
01
02
04
02
06
01
00
03
ff
02
fe
fe
fe
fc
02
00
04
06
02
04
03
03
07
03
09
07
04
07
04
06
00
fe
fe
02
01
fc
fe
03
fe
06
07
0b
09
10
15
1a
1c
19
1d
15
17
15
0e
10
0e
05
01
03
05
ff
ff
02
04
05
06
04
02
fa
ff
f6
f1
ee
ea
e8
e8
e9
e3
e3
eb
ed
ef
f0
f7
f7
00
ff
fd
04
08
02
06
04
03
08
09
0b
07
08
08
0c
0a
0d
0d
0d
12
12
12
11
12
12
0f
0d
0c
08
07
03
05
00
fe
ff
fb
f9
ff
ff
fd
fa
01
02
03
01
02
fc
fb
fb
01
f9
fb
01
00
fd
00
fc
fe
fb
fe
f9
00
f8
f9
ff
fd
fe
fb
fd
02
03
01
01
fd
03
00
ff
fe
02
01
fa
fe
fe
fb
fc
fc
00
fc
fb
fc
fb
fc
fd
03
fc
01
ff
02
fe
ff
fd
01
f9
fd
ff
ff
fa
fc
fe
ff
fc
fd
01
fa
fc
fc
f8
f8
f5
f6
f1
f6
f1
f0
f2
ed
ef
ef
f1
f6
f7
f7
f9
fa
fe
ff
01
00
ff
01
ff
fe
01
02
01
fc
fd
fa
00
f9
f9
fe
ff
ee
ed
f5
f8
f9
03
06
0e
15
13
18
1a
15
15
0e
09
00
ff
fe
fc
fb
f4
f8
f5
f7
f6
f3
fa
f6
f1
ef
f2
ef
f4
f3
f1
f7
f7
01
05
0a
0d
0f
0f
12
0c
0b
09
06
fb
f3
f0
e9
df
e3
e3
e3
ed
f4
04
07
11
18
1e
23
1b
18
0d
01
f7
ef
dc
d6
d4
cb
cd
d1
d6
df
e6
f1
fa
03
09
0d
0c
10
0c
09
05
00
01
fd
f9
fb
f9
fc
07
0b
08
0c
13
0f
13
0f
0e
0b
0a
06
01
03
fc
f8
fd
fc
f8
f9
fa
f9
f9
f8
fd
fc
fe
fd
fc
fc
ff
01
03
05
06
00
06
0a
09
0a
0c
08
0a
0a
06
02
04
04
00
00
fe
00
fe
fc
ff
fd
01
ff
05
07
03
08
06
04
06
03
fe
03
ff
fa
fb
fa
f9
01
fe
00
02
04
02
06
04
08
06
02
03
00
03
03
00
fe
fe
fb
ff
f9
fd
ff
fe
03
07
05
06
09
03
04
04
ff
fe
ff
02
fb
fe
fd
02
00
fb
f9
00
fb
fa
00
fd
fc
f7
f8
f9
f8
f3
f2
f3
ef
f2
ef
f4
f4
fc
f9
f9
00
ff
fe
ff
02
fc
fb
fd
fc
f9
fd
fc
f8
fe
fa
00
fd
02
fc
fb
f7
01
04
03
01
00
01
06
04
02
fe
fe
fc
f8
fe
fd
00
f8
fd
ff
fd
00
01
fd
03
01
ff
00
01
ff
ff
fb
fd
ff
03
03
01
02
02
00
06
04
05
01
02
00
07
04
06
04
08
09
02
09
06
07
01
05
08
06
03
04
02
07
08
08
04
0b
09
07
09
0e
07
0e
0f
07
05
04
07
01
08
07
02
03
03
00
fa
fc
fe
f9
fc
fc
fc
fe
fe
00
07
03
03
08
05
00
01
ff
fe
fb
00
01
fa
01
00
02
fb
01
03
02
fe
03
02
fc
01
fc
00
fb
fa
fd
f9
fa
ff
00
fe
01
ff
fe
fd
fd
fe
fe
00
ff
fa
fa
01
fb
00
02
fb
01
02
00
03
02
00
03
08
08
ff
ff
fd
01
fa
fd
fd
fd
04
fe
ff
02
03
07
05
03
05
02
fd
fa
f6
f2
f6
f8
f7
f5
f6
fb
f5
ff
02
00
00
fe
fe
f9
f9
f5
f7
f4
f9
f7
f8
f5
fa
ff
fe
fb
fe
03
04
02
01
05
04
04
03
00
00
05
01
00
00
07
05
05
06
fe
fd
01
03
01
ff
02
fc
02
02
fc
00
04
05
00
05
fd
01
00
ff
00
fe
ff
00
fe
fe
00
ff
fc
f9
ff
fd
02
ff
04
e4
eb
f4
f1
f3
f9
fb
00
fc
00
fe
03
01
00
03
04
fe
fb
00
fb
fe
fd
fd
fd
f8
f9
f6
fc
f9
fc
fb
fa
fc
fa
f8
fb
fd
fe
00
fe
04
03
02
09
04
08
06
09
09
06
00
01
02
fc
fa
f9
f9
fd
fa
fc
f8
f8
f8
fc
f7
f2
f9
f4
f6
f2
ee
f2
ee
ed
f0
f1
ed
ef
ef
f4
f2
f1
f1
f2
f4
f7
f5
f7
f7
ff
fa
01
fe
ff
ff
01
02
03
00
06
02
01
fe
01
00
ff
fb
01
ff
01
fb
ff
00
fd
ff
f7
fe
fb
fe
ff
fe
fe
00
03
fc
03
00
02
00
ff
00
ff
fc
03
01
fb
01
fc
fd
02
fe
02
01
ff
fb
02
fd
fc
fe
02
ff
01
00
fd
00
04
04
02
04
07
03
04
08
09
07
06
03
06
02
04
04
04
06
02
01
ff
fd
fd
01
01
05
04
02
01
06
ff
04
05
00
08
04
09
04
04
08
03
03
06
0a
09
0b
06
08
07
0e
0a
05
0a
06
08
09
04
01
04
01
07
01
02
05
02
03
fe
04
05
ff
06
05
04
02
02
07
06
02
03
08
03
05
04
08
06
0a
04
07
03
02
02
07
09
0a
0e
10
10
16
15
21
21
03
00
05
04
04
03
ff
01
01
ff
fe
ff
fb
f8
fb
fc
fc
f5
f9
fb
fa
fb
f5
fd
f8
fa
fa
f8
fd
fc
fc
00
02
fe
ff
00
ff
ff
01
00
01
01
03
fd
fe
f5
f7
f5
f6
f6
f5
f3
f6
f8
fb
fc
f8
00
00
04
03
03
02
03
05
04
fc
00
01
fb
f8
ff
fe
02
01
05
00
04
02
08
0b
04
09
02
07
ff
fd
fd
fd
f6
fb
f4
f7
f5
f6
f4
fc
fd
f5
fa
f8
f9
fc
00
f9
02
01
ff
00
fd
fe
ff
f8
fd
fc
f9
02
fe
00
fe
04
02
01
01
04
fe
04
ff
ff
02
ff
02
fe
ff
03
03
01
04
ff
01
05
02
fe
02
01
02
fe
fb
fe
01
fc
ff
ff
00
ff
02
ff
07
04
03
05
09
06
06
0a
04
03
07
02
00
01
ff
00
ff
01
00
03
03
ff
03
fe
fe
ff
ff
fd
03
04
fd
fb
fd
02
00
00
03
04
04
01
03
03
04
06
07
02
00
00
05
ff
04
02
01
fe
02
02
00
01
03
03
03
06
08
04
06
07
ff
02
fc
fb
00
f9
fe
fd
f4
f3
f6
f3
fa
f7
fa
fa
fb
fb
ff
ff
00
00
ff
ff
04
04
03
06
0d
10
0e
14
1b
13
10
0b
06
05
09
06
08
08
02
03
fe
00
f9
fa
fb
fa
fb
fc
fd
f8
fb
fc
ff
fd
03
04
07
04
06
06
07
01
03
fd
ff
fb
fb
f6
fb
f6
f7
f8
f8
fd
fd
fd
f8
fd
fe
f9
f8
fe
fe
fc
f7
f9
00
fa
00
02
ff
fc
fd
04
02
04
ff
ff
03
fe
03
00
02
fe
fe
fc
02
fe
fc
f9
00
00
fa
fa
f9
f8
f8
fa
fc
f7
fd
f9
f7
f7
fd
f8
fb
fa
fd
f7
fc
fe
fb
fa
fd
fe
fd
fd
01
01
fc
fd
fe
00
00
02
ff
02
fd
04
01
06
05
05
04
08
06
04
04
fd
fd
f9
fc
fa
fb
ff
fd
ff
ff
02
02
02
05
fd
03
03
fc
fb
fd
ff
00
f9
01
fe
ff
00
06
07
06
04
08
04
02
07
04
01
00
06
06
00
01
05
03
04
04
08
02
03
09
09
09
06
05
06
05
03
09
05
01
04
05
01
fc
02
fc
01
fc
05
02
09
09
0d
0c
0b
0e
13
0a
0e
0a
0b
03
00
03
00
ff
01
03
fe
03
02
06
06
0d
0c
0a
06
09
03
01
00
ff
fc
ff
fb
f8
f6
fe
fd
f8
ff
fb
fd
00
fc
fd
00
03
04
03
02
01
03
01
09
0b
45
35
25
10
ff
f2
db
ce
bd
b6
af
ad
b1
b4
ba
c7
d4
df
e9
f1
f9
05
0a
0b
13
0d
07
01
fb
ef
e9
e0
dc
de
d8
db
dc
e5
ea
f5
02
10
1c
26
2e
2e
2c
2c
2c
22
22
1c
16
0f
0c
03
04
02
fc
fa
fb
fc
fb
fd
f7
fc
f5
f8
f8
f7
f0
f0
f1
f0
f3
f5
f9
fb
fb
fb
fb
fd
02
fc
00
fe
01
00
00
05
02
06
09
06
08
05
09
0b
05
03
08
07
05
02
03
04
03
01
04
07
02
ff
fe
00
00
ff
01
fe
ff
f9
00
02
01
03
fd
06
02
fd
01
01
00
01
fc
fd
fe
fb
fb
f8
f6
fc
f8
fd
fa
fb
fe
fd
04
03
02
07
06
08
05
04
07
0c
06
07
0a
0a
0a
08
07
05
06
07
01
00
04
04
05
06
09
03
07
02
00
01
05
fd
fe
ff
f9
fd
f6
fd
fc
fa
fc
fc
fc
fd
fe
fe
00
ff
fd
01
fe
fe
01
fd
02
fa
f9
fd
fd
fd
fe
fc
fb
03
01
09
06
0f
0d
0b
0d
11
12
06
08
06
06
00
fd
fd
fc
f9
fe
01
fc
04
03
09
0c
17
1c
1b
25
26
28
29
29
24
1d
17
09
f9
ea
da
cf
c9
c0
b9
04
ff
ff
f9
f7
fa
fb
00
fe
fc
01
03
fd
ff
04
04
00
04
04
02
ff
01
02
04
02
fc
02
fa
f9
ff
ff
00
fe
fb
05
01
03
05
03
05
01
04
04
03
ff
ff
fd
fc
fb
00
fd
01
00
ff
fe
00
fe
ff
ff
fd
04
fd
02
01
ff
00
fe
f8
f8
fc
fb
fc
f9
f9
fc
ff
ff
fb
00
fb
fc
01
04
fe
00
05
05
03
03
03
04
04
02
00
fc
01
00
fa
fb
fd
f8
fb
fa
fb
ff
fd
fd
05
fd
03
02
02
03
01
01
fc
f8
f8
f5
f5
f9
f8
fc
fe
fe
04
03
05
06
0b
05
03
04
06
03
05
ff
01
fe
01
04
02
03
04
01
02
fe
00
00
fd
fc
fa
fa
fe
fb
fd
fa
ff
ff
00
ff
06
05
02
01
04
03
02
04
02
00
05
02
02
00
f8
ff
fc
fe
fb
01
05
03
06
05
0b
06
08
03
04
07
ff
fd
02
fc
00
fc
fd
fc
02
01
ff
fd
03
04
ff
02
03
04
01
00
01
fc
fb
fd
03
03
04
ff
fd
fe
02
01
02
00
fd
fb
fd
00
ff
fd
00
ff
05
03
07
0b
0a
0b
09
0b
09
04
07
ff
02
00
fc
fe
ff
fb
fe
03
04
01
05
02
01
ff
fc
02
00
fe
fc
fc
fc
fc
fb
fb
fc
fd
fe
00
00
fd
02
03
03
00
04
02
ff
fa
fd
00
ff
fa
fd
01
fa
01
00
02
05
07
04
08
03
08
05
04
06
03
fd
f9
fa
f7
f1
f1
eb
f1
ec
eb
f2
ef
f7
f9
f6
fd
04
01
07
09
08
0d
0f
0d
0a
06
00
fe
f9
f8
ee
ed
e8
ee
ed
e9
f0
f6
f8
01
02
0c
0e
17
16
21
1f
21
20
1e
16
0f
0f
02
00
fb
f0
ef
e5
df
dd
df
e2
e1
e7
ea
f3
f3
fd
04
05
09
10
11
10
0a
0c
05
05
00
ff
fd
f9
ef
f3
ed
ec
f3
f6
f3
f5
ff
06
08
0e
0c
15
14
16
13
1b
1a
14
16
15
11
0c
0e
0b
0d
07
03
02
02
00
ff
fd
fa
f9
f9
fa
fa
f5
f3
f2
f5
f5
f1
f2
f3
f6
f8
fd
fb
fb
00
01
04
ff
02
07
06
05
01
ff
03
03
01
ff
ff
fc
02
ff
fd
03
04
05
02
04
05
03
00
07
04
05
01
05
04
06
09
03
00
01
07
05
07
03
06
03
03
05
05
04
03
03
05
03
06
08
06
08
09
08
05
06
03
06
05
04
fe
02
ff
fd
00
fc
fd
07
07
0a
f2
f8
fb
f9
f8
ff
ff
01
04
fe
05
02
05
07
08
05
05
04
02
05
07
03
ff
02
02
04
ff
00
ff
fd
fe
02
ff
01
fe
00
00
01
fd
01
fe
fd
01
01
fd
ff
fc
04
00
02
fb
01
ff
ff
f8
fe
f7
f9
fc
03
00
05
06
0b
0d
12
13
15
15
14
14
13
0f
08
09
03
01
f9
f4
f3
f4
f1
f2
f6
f7
f6
f9
f8
fe
00
ff
06
01
04
00
03
fd
ff
00
00
fd
fd
fd
fa
ff
fc
01
04
06
0c
09
0f
0c
0c
0e
0d
09
0c
03
00
fe
f8
f6
f7
f1
ee
f2
f1
f4
f5
f5
f9
fe
00
03
0e
0e
10
10
16
18
17
11
12
0c
0e
0a
02
fe
fa
fc
f8
f7
f1
f3
f2
ea
ec
ec
ee
e9
f0
f0
f5
f0
fb
fd
fc
fe
03
03
05
06
0d
0e
0b
0b
08
0c
0a
08
08
01
02
06
01
05
fd
04
04
fd
04
01
03
ff
03
01
fc
02
fd
fd
ff
fe
f9
02
fe
01
fe
fd
ff
02
03
08
06
08
07
03
ff
ff
fc
f7
fb
fa
f5
fa
f6
f7
f7
fc
fb
f8
f9
fa
02
03
02
03
fd
03
ff
fe
fe
fc
02
fe
00
fc
fc
00
04
01
04
09
0c
0d
0e
f4
f4
fa
f7
ff
fc
f7
fd
f9
fd
fb
fd
01
fb
02
00
fe
01
fa
f8
f9
fd
f8
fb
f6
f8
fd
fd
fe
fa
00
02
fc
03
01
05
03
03
00
ff
01
01
ff
02
fd
fb
ff
fb
01
fe
fd
ff
ff
fa
fb
fb
fd
ff
fb
ff
fe
fb
01
00
fd
02
fe
00
fc
01
fb
fd
fb
f1
ef
f6
f2
f6
f6
fa
fe
00
06
06
0d
09
0b
0d
11
0a
0e
0a
02
fe
fd
f9
f7
f8
f9
f6
f8
f9
ff
fe
05
03
05
04
03
08
08
02
05
01
fd
ff
fe
fc
fa
fc
00
fe
fb
01
fd
04
06
06
06
05
06
05
07
06
06
05
07
05
06
05
01
00
05
05
ff
fe
02
fd
fb
ff
f9
fc
fa
fb
fa
fa
f7
f8
f6
fb
fd
fa
fb
fb
fb
fa
fd
fc
02
ff
02
02
06
ff
07
06
02
04
08
04
02
04
01
02
01
fe
fb
f9
f8
f9
fe
fb
02
ff
fc
fd
00
04
fe
fd
fd
fd
03
03
01
ff
05
ff
fe
05
07
02
03
04
02
06
02
04
03
04
00
ff
00
00
00
fc
fe
02
fd
fe
fc
01
fa
ff
ff
fe
01
00
f9
fa
fb
fb
f9
ff
f9
fc
f9
fe
01
fc
fb
ff
fb
fc
fd
fa
07
02
05
00
fe
fe
05
06
06
01
07
08
fe
ff
fc
fd
f9
fa
fb
03
fc
ff
04
01
01
ff
05
ff
04
03
05
00
03
02
fd
04
00
03
fd
00
fb
fb
ff
02
04
fb
01
00
01
fe
fe
f8
ff
fc
fb
fa
f9
fc
fe
01
fd
fd
03
06
02
01
ff
02
01
06
05
04
03
08
02
09
04
04
07
0c
06
0a
06
01
03
02
02
fd
fa
f9
fb
f7
f4
f7
f3
f8
fa
fc
02
ff
0a
09
07
0d
0b
0d
0f
0e
09
0d
06
05
fe
fd
f7
fa
f5
f1
f3
f2
f8
f3
f8
ff
00
04
05
0b
07
0a
0c
0b
0b
0c
05
0c
0a
06
03
fe
fe
fc
f5
f2
f3
eb
ed
f2
f0
f6
f6
00
ff
04
0c
11
13
14
13
11
07
04
ff
fd
fc
f3
f3
f1
f3
f7
f7
ff
fd
fd
03
04
02
00
fc
fe
f6
f6
f4
f4
fc
fa
fc
fb
07
02
06
08
07
09
06
08
01
07
03
fe
02
fe
fc
01
01
fa
fa
fe
ff
fd
fc
fa
fe
fc
ff
ff
ff
fb
00
fb
fd
fd
00
f9
fe
fd
fb
f8
ff
fe
fd
00
fe
fd
fe
03
03
00
04
03
fd
fd
04
04
05
00
fe
fc
fe
02
fe
03
fd
ff
00
fe
ff
01
fc
f8
fc
f9
fa
02
01
05
07
07
05
09
07
06
07
02
04
01
04
00
03
02
05
01
00
02
07
03
01
03
ff
00
fd
02
fd
fb
fd
fe
01
fe
fb
00
fd
01
03
fd
01
03
fd
00
00
ff
01
04
08
06
08
08
04
05
08
07
05
05
fd
02
00
ff
03
06
04
08
05
04
09
0a
08
04
01
00
fe
ff
00
01
ff
03
ff
02
01
ff
ff
02
00
fe
02
01
01
00
ff
f9
fd
fd
fb
f9
fe
fd
ff
01
02
01
00
05
01
00
05
02
00
01
fd
01
00
fd
04
01
01
05
04
03
07
06
01
01
00
05
03
fe
01
fe
03
01
01
ff
04
00
fd
fe
fc
01
f9
ff
fc
f9
fe
fc
fd
fd
01
05
00
03
03
ff
fc
fd
ff
f8
ff
f7
fc
fd
f7
ff
fd
fa
01
02
fe
ff
02
01
06
03
04
04
03
01
08
03
00
03
02
00
05
fe
ff
05
ff
00
fd
fe
00
fb
fc
fc
01
02
01
fb
ff
fa
02
fe
fa
fd
fd
fe
fc
fb
fe
f9
f9
fd
f9
fa
f9
fd
ff
fd
fa
fa
ff
ff
03
fc
00
fe
fb
fc
01
fe
fd
fb
ff
fe
03
00
03
03
03
fc
fe
fd
fa
fb
fb
fc
fd
f9
fb
f8
fd
fc
fd
f6
fa
fb
fd
fc
fc
04
fe
02
02
04
07
02
02
02
06
01
00
03
08
08
02
03
00
06
04
01
02
02
00
06
ff
05
00
04
01
ff
04
fe
01
02
04
fc
fb
fc
02
fc
fa
ff
fb
fc
fc
fc
fb
fa
01
fc
02
fe
ff
01
07
09
0a
05
05
0a
0a
0e
08
09
0f
0d
0d
15
12
17
11
10
13
13
12
11
0d
08
02
00
fc
fb
fa
f5
f1
ef
ec
ea
f0
ec
eb
e8
ea
e9
e7
ee
ef
f1
f1
f0
f9
f6
fb
fc
03
06
0a
0e
0f
10
11
16
18
14
18
10
17
10
13
0a
09
08
06
05
09
07
06
05
08
05
04
01
07
09
03
03
06
03
06
0b
06
07
0a
03
04
03
03
fc
fd
fe
fd
fb
f4
f3
f1
f7
f4
f3
f7
f3
f6
f8
f5
f7
f6
fc
fd
f7
f9
f8
00
f8
fd
fb
fa
f8
fe
fa
f9
f9
fe
f8
f6
fd
f6
f6
fa
f9
f3
f7
f9
f4
f9
f7
fb
fb
f8
fb
f9
f9
02
fc
03
04
04
08
06
01
04
00
02
02
00
05
02
fb
fc
ff
ff
ff
fb
fe
fd
fe
fe
fb
f8
fb
f6
f4
f9
f7
f2
f8
f5
f7
f4
f5
f8
fc
0a
0e
08
0d
06
04
06
08
09
06
07
0b
08
07
09
06
0c
0c
07
0d
0c
08
02
ff
03
fd
00
fe
f9
f9
fd
f9
fc
00
f9
fb
fd
fd
fa
f9
fa
fa
f6
f8
00
fa
fc
fa
fe
01
ff
05
07
04
0b
05
08
06
09
06
06
02
08
02
03
03
02
04
09
09
0b
09
08
0c
10
0e
09
07
0b
09
07
fe
fe
fb
f7
f4
e8
ee
eb
e8
e9
e7
e6
ec
ed
f5
f2
fa
fa
fc
07
0b
0e
0c
0d
0e
0b
10
0a
0c
09
06
0c
0a
09
09
0b
0a
08
09
0a
05
08
00
fd
02
fc
fc
00
f9
fc
fc
f7
f5
f4
f8
fb
fb
f6
f6
f8
f9
fd
fb
ff
fb
02
fb
ff
01
02
fb
fc
03
ff
01
02
02
fb
fd
fa
fb
ff
ff
fd
f9
f9
fa
fc
fd
fd
fe
ff
fd
fd
fe
fb
fe
fa
f9
fa
f8
fb
fe
fd
fc
fa
fb
fe
fe
00
ff
06
05
04
07
06
04
07
03
05
07
01
05
07
03
fe
ff
fe
ff
fc
fd
00
fb
fc
00
fd
fb
fe
00
ff
fc
fd
ff
01
fb
ff
fd
01
01
fc
ff
02
fe
fd
01
fe
00
fc
fb
02
ff
f6
fd
f7
f9
fa
f8
f5
fc
fb
fb
fe
ff
03
07
0b
0b
0e
0c
0a
07
09
09
09
10
10
0c
0c
0c
0c
09
08
05
06
04
06
07
07
04
0a
08
07
07
05
09
0c
0d
08
07
03
03
03
01
06
05
07
0a
04
08
07
09
0b
06
0a
0b
05
08
09
01
02
05
01
01
02
00
02
06
02
06
04
08
07
04
08
00
03
fb
fd
f6
fa
f9
f5
f7
f2
f5
f2
fb
f8
fa
00
f8
f9
fd
fb
f7
f4
f4
f4
f9
f3
f5
fa
01
00
0b
0f
15
15
1d
1e
1c
1f
1a
15
10
0e
07
06
06
03
07
fe
00
05
05
ff
fe
fd
02
03
fb
fa
f9
fc
fa
f4
f2
f3
f7
ef
ee
f2
ee
f0
f3
ef
ee
f2
ec
ee
ec
ed
ef
f6
f7
f7
f4
f6
f6
fb
fb
00
ff
ff
fc
ff
f9
ff
fe
f9
ff
fc
fd
fc
fa
ff
fe
fa
fc
ff
fe
01
06
07
02
09
04
05
09
0c
06
0a
0d
0c
09
09
05
03
07
06
06
01
05
01
02
fd
01
fb
fb
ff
f9
f8
fc
fb
fe
fc
fc
f9
f9
00
fe
fe
fe
01
00
04
ff
fe
00
fd
fa
fe
fd
f6
fd
f9
fa
f7
fd
fd
f9
fa
fa
f8
f8
fd
f3
f4
f5
f4
f7
ef
f7
f1
f3
fd
fe
ff
03
0a
13
f0
f2
e8
e5
eb
e7
ef
ea
f3
f1
f1
f5
f7
f9
f6
fb
f8
fa
fe
ff
00
f8
f8
ff
f8
f8
f6
fb
f5
f5
f5
f5
f2
f2
f5
f1
f3
f5
f9
fa
02
03
06
06
05
09
0a
0a
07
01
fd
ff
fc
fb
f2
f3
f2
f8
fb
01
ff
03
01
06
04
0a
0a
04
01
fc
f9
f4
f2
f0
f1
f0
f2
f0
f5
fb
03
0a
13
0f
16
14
12
0e
08
ff
f8
f2
ea
ec
ec
e8
ee
f3
fd
0e
1b
25
2a
2f
30
2b
27
21
16
05
f8
ef
e4
dd
d8
d8
de
e7
e9
ee
fc
fc
fd
07
05
04
07
05
07
07
08
09
02
08
07
08
07
05
0d
0c
05
05
05
02
ff
ff
f9
f5
f4
fa
fa
f9
f9
fb
fb
fd
04
fd
05
04
04
06
03
02
00
05
02
ff
ff
02
01
03
03
00
ff
02
00
03
01
03
04
00
02
04
08
05
08
09
0b
0a
08
05
07
02
06
ff
04
03
02
02
ff
03
ff
ff
02
01
07
04
06
04
04
00
ff
04
fb
fb
fa
f8
f8
fb
fd
01
ff
ff
fd
fc
02
fe
fc
ff
fc
02
fd
01
ff
fa
f7
fb
f6
f8
f8
f5
fc
fc
fc
fb
fd
04
ff
00
03
01
fe
fa
f7
f7
00
fe
fe
00
ff
02
05
03
02
04
fe
ff
00
02
02
ff
05
03
09
04
0a
06
08
0a
06
05
03
05
02
02
02
04
02
fe
00
00
fb
fc
fc
fb
fa
fb
fe
fb
fc
03
03
01
05
02
06
01
00
08
00
fe
02
00
03
05
02
ff
04
05
07
02
ff
02
ff
fe
02
ff
01
fa
fd
fa
f8
f9
fb
fe
00
fb
01
02
fe
ff
ff
fd
04
fd
02
fe
fb
01
ff
fe
fc
fe
01
00
fb
fe
00
06
05
05
06
05
07
01
02
06
00
03
01
fe
02
fd
03
01
fd
03
02
00
05
00
00
03
04
07
02
02
05
09
09
05
05
03
07
01
00
ff
fa
fc
f9
fd
ff
fc
fb
00
fd
f9
f9
fe
ff
ff
fc
f8
f8
fa
fc
f9
fc
fe
fe
fc
fd
fb
fe
fb
02
00
01
02
fe
ff
fe
02
02
04
01
03
ff
ff
fe
03
fe
00
00
ff
03
03
fe
00
fd
fe
00
01
05
01
02
fd
fd
fe
fb
00
fc
01
fe
ff
fa
00
fb
03
03
fd
00
00
fb
ff
fe
00
03
fe
fd
fe
01
00
ff
00
04
ff
03
02
fe
fd
fe
ff
fb
f8
fe
fb
fd
01
fe
01
fd
fc
01
02
03
02
fe
f9
00
02
f4
fa
fc
fc
ff
fc
fc
fc
ff
fe
ff
04
01
ff
00
05
02
07
06
01
01
03
01
06
01
07
03
06
06
08
08
09
09
0a
04
02
03
00
00
fb
f6
f5
f8
f4
ec
ed
e8
e6
e3
ea
e4
eb
e9
f2
ee
f6
f3
fb
01
04
02
08
09
0b
0c
08
0a
07
0b
0d
0b
07
08
0c
06
0d
07
08
06
05
01
04
01
04
00
fe
ff
01
f9
fa
f9
fc
f7
f6
f5
f6
f3
f3
f9
f8
f5
fb
f9
fe
01
03
02
07
08
04
01
06
0a
08
04
04
07
05
05
03
fe
fc
01
fc
fd
ff
ff
fd
04
03
01
02
03
06
06
01
02
03
ff
fe
01
fe
fa
01
fa
f8
fc
f9
ff
fd
fc
00
fe
00
03
06
ff
07
01
07
02
04
02
07
04
02
05
fc
fd
01
01
00
fd
fd
03
00
fb
03
00
fd
00
00
02
05
03
08
05
0b
04
04
08
0b
08
06
0c
0c
07
05
08
07
07
ff
ff
03
01
fb
f9
ff
fe
f8
ff
fe
03
fd
00
08
02
02
08
06
07
03
06
01
01
02
fe
f9
fe
ff
fc
fe
04
01
05
09
0b
0b
0d
10
0a
09
0d
09
08
ff
ff
fa
fa
fe
f8
f6
f6
fb
f6
f9
07
0d
04
03
07
07
07
00
07
08
02
04
08
05
04
01
fe
03
04
02
00
01
ff
fe
00
02
fd
ff
00
02
03
ff
01
02
04
fe
f9
fe
f9
fd
fb
f8
f8
fa
fc
ff
fe
fe
04
05
06
0b
0d
0d
12
14
16
14
0f
0f
0c
08
07
03
01
f9
f9
f6
f6
fa
f5
f1
f3
f4
f6
f8
f9
f5
f6
f7
f9
f9
ff
03
ff
03
07
09
08
05
06
04
04
02
04
05
02
ff
03
fa
00
fb
fa
f9
f9
ff
fa
fb
01
01
01
03
fe
00
fc
01
02
ff
ff
02
fd
fa
00
fe
04
ff
00
03
03
04
09
05
05
03
04
01
08
03
00
05
01
ff
fe
ff
fc
01
fd
ff
00
01
02
00
01
fc
f9
fe
fc
f9
f9
fc
fd
00
fd
fa
fe
02
01
04
04
07
04
03
04
0a
06
07
09
03
06
ff
05
fe
03
03
ff
05
01
05
04
01
00
02
ff
fd
ff
fb
fc
ff
fe
f5
fa
f4
fa
f3
f5
fc
f8
f8
fe
fd
fb
fb
fe
fe
fe
fd
01
05
04
01
01
fe
ff
02
03
00
04
05
05
03
04
04
05
05
05
04
02
04
fd
03
fd
01
fc
fa
01
fb
fa
fc
fb
fd
fe
fe
ff
f9
f7
f8
0e
08
09
06
00
01
04
ff
03
05
02
07
08
0a
09
08
06
02
02
fe
fa
ff
fd
f9
fe
fc
00
ff
02
04
05
07
09
06
fe
04
fa
f8
f9
fa
f6
f5
f4
fb
fc
fc
fc
00
07
08
03
09
03
07
03
01
03
ff
fe
fd
fd
03
04
06
00
02
02
02
04
07
08
05
fd
03
01
ff
f6
f6
f6
fc
fe
fd
02
02
03
08
07
0c
0d
0f
07
0a
09
0a
0a
04
03
fc
00
fd
01
fd
fd
fb
00
fc
01
00
fd
03
01
ff
01
00
ff
06
06
02
06
01
02
00
06
00
01
03
fe
fd
02
ff
fd
00
01
00
01
02
05
05
03
09
08
0a
02
06
07
fe
03
fc
01
fc
fd
f8
fb
fa
ff
f9
ff
fb
ff
fd
04
02
05
05
04
05
02
02
02
00
04
fe
01
00
fd
fd
fd
fb
fa
00
fc
fa
fb
01
fc
00
04
fe
05
05
04
03
00
01
fd
03
ff
ff
01
fb
fa
fb
00
02
02
fe
01
fd
02
03
02
01
02
03
06
05
06
01
04
fe
02
fc
fe
fb
f9
fb
f8
f3
fa
f9
fb
fc
01
00
fe
fc
02
fd
03
01
01
ff
fb
fc
fd
fa
02
fd
fe
ff
03
00
03
03
00
02
40
43
40
36
32
26
19
13
0b
07
fd
ef
f4
ed
e8
e6
ea
e9
eb
f1
ef
f0
ef
f2
ee
ee
f2
ed
f2
f3
f6
f2
f9
f9
f5
fb
fb
00
f9
fe
02
fc
02
fb
01
fd
01
f9
ff
fb
00
fc
fe
00
fd
01
fc
fc
fb
fc
f8
fa
f6
f8
f4
f5
f4
f4
fa
f2
f7
f3
f9
f3
f3
f7
f3
f2
f2
f8
f9
f5
fb
f6
fd
f7
ff
f8
f8
fb
f8
ff
fd
01
04
05
04
09
06
0a
09
0d
0b
09
09
06
08
04
07
05
00
01
fd
03
01
04
fe
02
00
fe
00
01
ff
fa
f7
fa
f4
f6
fb
f4
f7
fa
fa
fd
00
fd
00
fa
fa
f9
fd
f8
fe
fc
fd
fb
f9
fe
fc
fd
00
01
00
04
fe
06
ff
fe
fd
fe
fc
fd
f9
f9
f8
fc
fc
fd
fd
f6
f9
fe
fe
f9
ff
fc
fe
ff
fc
00
ff
02
00
fb
fb
f8
fc
f7
fc
f7
fe
ff
fa
ff
02
03
02
03
02
05
09
03
07
04
05
04
02
01
fe
01
00
00
00
ff
02
0a
0d
11
16
13
1b
17
15
19
16
17
13
08
07
01
f5
f6
ee
e9
e2
e7
e3
ea
f0
f0
fb
02
0a
16
25
30
36
3f
44
43
3b
2e
25
13
00
ea
02
02
04
03
03
07
00
ff
fe
02
03
fc
ff
fe
04
04
05
05
00
06
fe
ff
fc
fc
fe
f7
fa
fc
fd
f8
fe
fe
fb
fd
fb
fe
fb
fc
fa
f9
fd
fc
fe
00
ff
03
02
03
00
02
fd
fc
fe
fe
fa
00
fb
00
fb
fe
03
00
fe
02
03
fc
fb
ff
fd
fe
fd
f5
fd
fb
fd
02
fd
00
06
03
07
07
05
05
ff
07
03
03
01
04
05
03
01
03
04
03
03
01
fc
fc
01
03
03
fd
ff
00
07
00
01
08
03
0b
06
06
05
00
ff
04
fd
fe
fe
01
01
ff
fc
01
fb
fc
00
02
04
01
fc
fd
fc
00
fb
fe
fe
02
fd
02
02
00
01
ff
03
01
04
02
02
ff
03
02
fd
f8
fa
fe
fe
f8
fc
fe
fa
fd
02
04
02
ff
03
03
06
05
08
04
02
04
06
04
02
07
09
04
01
00
fd
fc
ff
fa
00
00
fb
fd
02
02
02
01
ff
fd
ff
fe
f7
fd
ff
f9
fb
f9
fd
00
fd
fa
ff
fe
fb
02
ff
ff
ff
fb
ff
f9
00
01
01
fd
fe
fe
02
04
ff
05
02
03
02
08
04
04
03
03
02
05
09
03
01
07
05
05
07
00
fe
05
ff
fc
02
fd
fe
fc
64
59
4e
42
3c
2f
23
22
1e
16
14
13
10
10
0f
12
0a
0e
13
13
12
0d
13
11
14
13
13
10
11
16
18
17
16
14
15
13
15
15
11
11
10
0a
0b
08
0a
0a
0b
0a
06
07
0e
0b
0d
10
0f
0f
10
10
12
10
0b
0d
0b
0b
09
0b
0a
06
06
02
04
05
04
02
04
01
05
08
03
05
05
0a
03
08
05
07
05
06
0a
09
07
0d
0e
0e
0d
09
06
04
04
01
01
03
fe
ff
f8
fa
fd
fa
f9
fd
01
04
04
ff
04
04
05
03
00
03
02
01
01
fc
fa
f8
fb
f9
f7
f8
f9
fb
f8
fa
f9
fc
f7
f9
f6
fe
fb
fc
fe
fc
fd
fb
fe
fb
fb
fd
ff
ff
fb
01
00
f7
f9
f6
fb
f6
f7
f1
f2
f4
f4
f2
f4
ef
ee
f4
ef
f1
f4
f3
f4
ee
f0
f7
f8
f5
f9
f4
f9
f3
f3
f8
f5
f9
fa
fd
f6
f7
fd
fb
fb
fb
00
fb
f8
fd
f8
fa
f5
f7
f6
f7
f3
f3
f1
f3
f6
f8
fc
fa
f6
f8
fa
fb
f5
f8
f2
f4
f6
f4
f0
f0
f5
f5
f2
f2
f2
f9
f7
fc
fd
f8
f8
f9
ff
fa
fc
00
fc
fb
fb
fc
03
01
03
02
ff
fd
fb
f9
f7
f3
29
1d
1c
10
0e
09
08
03
ff
fd
fb
ff
fd
fb
f7
f9
f6
f9
f8
fa
fa
f3
f4
f9
fc
f7
fa
00
fe
04
02
06
05
03
02
06
00
00
fe
04
00
fe
ff
01
00
01
fb
fc
01
00
fe
02
fc
02
fb
fb
fe
00
00
fe
00
fc
02
03
02
05
02
02
01
07
03
07
0b
04
05
06
02
04
05
05
fd
fc
02
00
fd
fa
ff
fe
fa
fe
fe
fb
fa
f9
00
00
00
03
ff
00
05
05
04
04
02
02
04
05
01
ff
02
01
06
fe
03
04
04
03
01
fe
03
fd
fc
fd
01
03
ff
fd
fc
fe
fd
01
01
00
ff
01
ff
02
01
fe
ff
fd
fd
01
01
fb
fc
01
ff
04
05
06
04
04
07
01
08
01
04
02
03
07
ff
fe
04
03
fe
00
05
03
00
05
04
04
01
02
03
01
fd
02
ff
03
fd
fe
fb
fb
01
f8
ff
fb
fa
fc
fd
01
04
04
fe
02
01
ff
ff
fe
fc
02
fb
00
fc
fd
fd
02
fb
ff
fe
06
02
02
00
06
05
05
ff
fe
01
ff
fe
03
00
04
fe
02
fe
01
05
ff
04
05
04
01
02
01
00
ff
03
06
02
06
03
03
02
00
00
fd
f7
f7
e7
e5
e3
ee
fb
fe
09
0b
0b
0a
0d
09
0f
0b
0d
0f
0f
13
15
17
1b
1c
1b
19
19
1f
19
1c
1c
1e
1b
1a
1c
17
12
15
13
13
0c
0d
0e
0f
0e
08
0d
0c
0d
0d
0f
0d
11
0e
13
10
11
0e
11
0c
0e
0b
0a
0d
06
05
03
0a
0b
09
0a
09
09
07
0a
0a
05
07
09
06
0b
0b
0a
0c
07
07
07
05
04
00
fe
fd
fa
ff
f9
00
fd
00
04
02
06
05
03
03
04
08
01
ff
00
fd
fa
fc
fc
f8
f8
f7
fc
fc
ff
02
fd
04
ff
01
fe
ff
fe
fc
fb
fb
f8
fd
fc
f7
f6
f4
fa
f7
f7
f7
fc
fd
fe
fe
f7
f8
f9
f8
fa
f8
f8
fa
f7
fb
f9
fc
fc
fa
fb
fe
fa
fc
fc
02
fc
fb
f9
fb
f8
f5
fb
f6
f7
f9
f9
f9
fc
f8
fa
fa
f8
fb
fe
fc
f9
f9
fa
fe
fd
f6
fc
f6
fd
fa
fb
ff
fb
f7
fe
fb
f7
fa
fc
fb
f5
f6
fd
fd
fa
f9
fe
fa
fd
f6
f7
fb
fc
fa
f8
fb
f4
f7
f4
f6
fa
f7
f4
f6
fc
fb
fd
00
fd
fc
02
03
fe
fc
fb
fc
f9
f5
f6
ec
ef
f1
eb
eb
f3
f5
f6
f6
fa
fb
01
01
05
ff
fb
f6
fa
01
06
0c
0d
13
16
1d
14
17
1a
11
19
12
0c
06
04
00
fd
fe
fe
fa
fc
fb
fa
ff
ff
01
05
02
02
08
02
00
02
fa
f6
f7
f3
f3
ef
ec
eb
f3
f3
f2
f8
f9
fe
fb
fc
00
fc
02
02
fd
03
05
02
fd
02
05
05
02
09
09
09
0e
0e
0e
0e
0e
0f
14
13
12
11
0f
0d
0f
0b
0c
0a
04
01
ff
05
03
05
06
07
03
04
03
02
fe
fd
fd
fe
ff
f9
fa
fd
f8
fc
fd
f9
f8
fd
fd
f9
f6
f9
fa
fc
f6
fb
fb
fd
fa
fc
fa
00
fe
fd
03
fc
ff
fe
fc
f6
f8
f7
fa
fd
fa
01
fc
fe
00
02
06
06
fd
00
00
fd
fb
fd
01
fb
fe
fe
fc
fc
ff
02
ff
fa
fe
f9
f7
fb
f4
f4
f5
f6
f8
f3
f9
fb
f9
f5
fc
f9
f9
fb
fc
f9
f6
f6
f5
fa
fc
fe
00
02
02
fe
04
03
04
06
05
01
03
04
04
03
05
04
04
09
08
0b
08
07
0b
0b
0e
0f
0b
0a
0c
0b
0e
08
0a
0a
0c
08
0d
10
13
19
18
16
1a
14
16
13
10
0a
04
fa
f8
f7
f1
f5
fb
f9
ff
07
0b
16
1a
20
1e
27
1f
1e
19
0f
08
03
f4
0d
09
07
00
ff
f9
fb
fa
01
00
00
01
03
06
ff
03
03
fe
02
01
fe
01
fb
fe
fd
00
01
03
00
06
03
00
ff
05
ff
03
01
02
fa
00
00
fe
ff
fc
03
02
04
03
02
07
00
06
03
02
ff
ff
fc
fd
fe
fe
ff
fc
00
ff
fd
01
01
00
00
00
06
ff
00
ff
fc
05
02
fd
fe
ff
fc
04
04
04
01
02
05
09
03
06
02
ff
00
00
fe
00
02
00
ff
fd
02
01
fe
03
00
00
fb
00
ff
00
ff
00
fd
fd
fe
fd
fc
03
02
00
01
03
02
03
fe
03
fe
01
08
03
03
08
06
02
04
fd
01
fc
fb
fc
00
ff
fd
fb
ff
02
02
02
01
fc
01
fe
01
00
ff
02
02
fe
01
02
02
06
04
ff
03
fd
00
00
00
fd
fb
01
01
04
fe
fe
fe
01
02
fe
06
05
06
05
05
03
02
03
01
02
00
fe
fd
fd
f9
00
fc
ff
fd
fb
fd
02
04
fc
ff
ff
fc
fc
00
00
03
04
01
01
03
01
00
fe
01
ff
fd
02
01
01
fe
fc
02
fd
03
00
02
fe
00
ff
fd
fc
00
01
ff
fa
02
ff
fc
fc
f9
fb
00
fb
fc
fb
fd
ff
00
fd
02
fe
30
33
2b
30
30
2d
29
2c
27
29
27
25
1d
22
20
1f
1c
18
19
18
18
18
18
15
11
13
0f
0b
0a
0c
0a
08
0a
03
08
02
01
02
03
01
f9
f4
f1
ee
e9
e5
e6
e2
d5
d2
d1
d3
d2
cb
d3
d4
d7
d6
d8
dd
e5
ea
ef
ef
f6
fb
01
fd
ff
09
04
07
09
0a
05
01
05
00
05
02
fa
fc
f9
fe
f8
fb
00
fc
fa
fe
ff
fe
fb
fa
00
fc
f8
fa
fa
f9
f6
ed
ef
ed
f0
eb
ee
e7
e9
ec
e8
f1
f0
f1
ee
f5
f0
f3
f2
f0
f7
f2
f5
ee
ee
ee
ec
f0
f0
ed
ed
f4
f6
f2
f1
f9
fc
fb
fc
fe
05
08
09
0e
11
12
0c
13
0e
13
0b
0e
10
0c
0d
09
09
09
0d
0d
0a
05
08
0b
06
02
06
07
04
05
fd
01
fd
fe
02
00
ff
05
02
06
03
07
09
0b
0d
0d
0b
0c
06
08
08
03
01
02
fc
03
02
fd
ff
fe
ff
03
03
07
06
06
01
fd
fd
00
f6
fc
fa
f3
f2
f0
f4
f0
f2
f1
f6
f4
f7
f7
f7
fb
f9
fb
f9
f9
fb
f9
02
03
00
07
02
04
0e
0d
10
12
19
18
19
1e
1c
18
1f
1f
1a
1e
1c
1b
1a
1b
10
0b
15
12
0d
15
0f
12
13
13
16
17
18
17
14
18
17
16
13
12
19
12
16
16
15
11
10
14
13
11
12
0a
0d
07
0a
07
01
02
00
fd
fd
f4
f2
f1
f2
ea
ef
ed
ed
e8
e7
ee
ef
f5
f5
fa
fc
00
03
0d
11
11
19
1e
21
23
1f
26
27
24
23
22
24
1c
1b
1b
17
11
0f
04
04
fd
fb
fc
f9
f6
ef
ef
f2
ee
ea
ee
e9
ef
ea
ed
ec
eb
ee
f1
f0
f6
f3
f4
f4
f5
fa
fd
f6
fa
fb
f6
f3
f7
f2
f4
f5
f0
f2
ef
ee
e8
e6
e3
e4
e8
e8
e5
e9
e8
ed
eb
ef
f2
f3
f4
f9
f5
f8
f7
fe
fa
ff
fd
fc
02
fc
01
03
fb
02
fe
04
00
02
01
07
05
02
03
06
04
08
0a
08
07
0a
06
03
00
02
fd
ff
fc
fc
fc
fd
fd
fc
fa
f9
fe
01
00
fa
fa
fb
fc
fe
05
02
07
09
0a
07
12
12
0d
10
16
14
13
18
13
19
18
15
12
0c
0c
0c
08
08
04
fd
fc
00
fd
fb
f9
fa
f2
f1
f3
f2
f4
f7
f4
f5
f3
f5
fa
fb
f6
fa
fc
fd
fa
f8
fa
fe
fb
01
fd
03
04
02
08
07
05
04
05
02
02
fc
ff
00
00
05
0a
07
0d
09
0e
0e
0d
10
11
14
17
19
1b
22
24
21
25
26
26
26
23
23
1d
1b
17
16
11
08
02
00
fd
f4
f5
f1
ef
f5
ef
f1
f9
f6
fb
ff
04
0d
14
17
18
1f
1d
25
21
26
20
1f
1a
19
17
0c
0c
05
02
fa
f7
f6
f5
ed
ec
eb
ec
ea
eb
eb
ec
ed
ee
f2
f8
f6
fc
fb
fe
ff
fe
02
fa
fa
fa
f6
f0
f1
e7
ed
e9
e7
ed
e9
e9
ef
fa
fa
03
06
0f
0f
17
18
15
10
13
0d
09
08
05
04
01
00
fe
fa
fe
01
05
ff
03
03
06
05
0a
01
00
fe
fd
fc
f5
f4
ee
e6
e9
e7
e5
e7
e4
eb
e6
ef
ee
f1
ef
ed
f6
f2
f4
f9
f9
ff
04
01
03
04
09
0b
0e
07
0d
08
0d
09
0d
08
04
08
0c
06
08
07
07
0b
08
05
0c
04
04
07
00
01
01
fc
fb
fb
fd
fc
02
ff
ff
09
08
0c
0c
11
0a
0c
08
09
02
06
fb
fa
f4
f4
f1
f0
f2
f2
f4
f0
f2
f9
f9
fa
f8
f6
fb
f6
f7
f1
f0
ea
e7
e3
e3
e1
e1
dd
e0
e0
e4
e6
e8
ee
f4
f7
fc
03
0a
0e
10
10
0d
0f
10
0b
03
ff
02
1b
13
15
11
0b
0c
01
02
fe
fd
fc
00
f8
f4
f4
f3
f8
f5
f2
f6
f9
f9
fd
fd
04
02
07
0d
10
0c
0f
0f
0d
05
03
fc
f4
f2
eb
ed
ea
ed
f2
fb
fe
08
0d
19
1f
24
28
29
23
19
1a
0c
05
00
f6
f1
e9
e5
de
e1
e4
ea
ec
f4
f9
ff
00
05
08
07
0e
0d
0d
06
0d
0b
05
04
07
00
07
03
03
07
0a
0a
0d
08
0b
0b
08
07
07
06
06
02
07
03
ff
ff
fb
00
fc
01
00
fb
fc
f9
f6
f6
f6
fc
f5
fa
f5
f8
f9
f8
f1
f4
f4
f1
f0
f4
ed
f3
f4
fa
fd
fd
02
04
0d
11
17
1a
15
1c
13
16
13
0f
0c
02
03
fc
fa
f7
f5
f7
f9
fc
fc
fe
ff
fd
ff
fb
fc
fd
f5
f7
ef
ed
f0
e9
f1
f3
f4
f5
f5
f6
ff
fe
fe
fa
00
fa
ff
fe
f6
f5
f6
f9
fe
fb
06
03
09
0e
0d
12
11
15
1b
19
1e
19
1b
1a
12
10
0f
08
09
04
02
ff
03
fb
fb
fd
f9
fe
01
ff
01
fd
02
00
ff
fb
fa
fb
f9
f1
f8
f7
f1
f5
f6
f1
f7
fc
f7
f8
fa
fe
ff
ff
02
01
01
fd
f9
ff
ff
ff
fd
fe
06
0d
06
08
05
03
00
00
fc
00
fe
06
05
04
00
00
00
fc
fa
f6
f2
ea
ee
e6
e8
e5
ed
eb
f4
f9
fc
04
04
09
12
15
0f
10
0c
09
0a
04
06
01
f9
fd
fc
fd
fa
fe
00
05
0f
13
10
19
18
17
1d
1b
17
1b
11
13
10
09
0a
03
01
05
05
fe
06
fe
05
01
05
05
0c
07
06
08
0c
0a
08
08
01
02
f9
f7
fc
f3
f7
f8
fa
fd
fe
00
00
06
0a
10
0d
0f
10
10
0a
0e
0a
0c
03
04
03
01
fb
fb
fc
f9
f8
fd
fe
f8
fc
fa
01
02
fd
03
01
02
00
03
05
00
01
00
00
04
02
fd
01
fe
fc
f6
f7
fa
f9
f7
f3
f4
f7
f9
f9
fb
fd
ff
04
0b
09
0d
09
0c
08
07
09
04
03
fb
f6
f5
ea
ec
e6
e5
e1
e5
e3
eb
e7
ec
f2
ef
ee
f4
f4
f2
f1
f1
f2
f5
f0
f0
f5
f0
f5
f8
fd
fd
02
08
0a
11
11
17
12
19
16
14
15
10
0a
03
06
ff
fd
fa
f9
f9
fe
fd
fe
ff
fe
01
ff
02
01
f9
00
f9
fd
fc
fb
fe
f8
f9
00
ff
00
03
02
05
02
06
03
fd
fd
fc
fd
fd
fb
f8
f9
fe
f9
f9
fe
f9
00
f9
f8
fe
fb
00
fa
fe
fd
fe
f9
fd
fe
fd
01
03
03
03
ff
fd
02
03
fe
02
fd
fe
02
04
fc
02
05
03
03
04
03
06
00
04
02
06
01
05
01
04
01
00
01
ff
ff
ff
fb
fb
fe
