1b
13
15
11
0b
0c
01
02
fe
fd
fc
00
f8
f4
f4
f3
f8
f5
f2
f6
f9
f9
fd
fd
04
02
07
0d
10
0c
0f
0f
0d
05
03
fc
f4
f2
eb
ed
ea
ed
f2
fb
fe
08
0d
19
1f
24
28
29
23
19
1a
0c
05
00
f6
f1
e9
e5
de
e1
e4
ea
ec
f4
f9
ff
00
05
08
07
0e
0d
0d
06
0d
0b
05
04
07
00
07
03
03
07
0a
0a
0d
08
0b
0b
08
07
07
06
06
02
07
03
ff
ff
fb
00
fc
01
00
fb
fc
f9
f6
f6
f6
fc
f5
fa
f5
f8
f9
f8
f1
f4
f4
f1
f0
f4
ed
f3
f4
fa
fd
fd
02
04
0d
11
17
1a
15
1c
13
16
13
0f
0c
02
03
fc
fa
f7
f5
f7
f9
fc
fc
fe
ff
fd
ff
fb
fc
fd
f5
f7
ef
ed
f0
e9
f1
f3
f4
f5
f5
f6
ff
fe
fe
fa
00
fa
ff
fe
f6
f5
f6
f9
fe
fb
06
03
09
0e
0d
12
11
15
1b
19
1e
19
1b
1a
12
10
0f
08
09
04
02
ff
03
fb
fb
fd
f9
fe
01
ff
01
fd
02
00
ff
fb
fa
fb
f9
f1
f8
f7
f1
f5
f6
f1
f7
fc
f7
f8
fa
fe
ff
ff
02
01
01
fd
f9
ff
ff
ff
fd
fe
06
0d
06
08
05
03
00
00
fc
00
fe
06
05
04
00
00
00
fc
fa
f6
f2
ea
ee
e6
e8
e5
ed
eb
f4
f9
fc
04
04
09
12
15
0f
10
0c
09
0a
04
06
01
f9
fd
fc
fd
fa
fe
00
05
0f
13
10
19
18
17
1d
1b
17
1b
11
13
10
09
0a
03
01
05
05
fe
06
fe
05
01
05
05
0c
07
06
08
0c
0a
08
08
01
02
f9
f7
fc
f3
f7
f8
fa
fd
fe
00
00
06
0a
10
0d
0f
10
10
0a
0e
0a
0c
03
04
03
01
fb
fb
fc
f9
f8
fd
fe
f8
fc
fa
01
02
fd
03
01
02
00
03
05
00
01
00
00
04
02
fd
01
fe
fc
f6
f7
fa
f9
f7
f3
f4
f7
f9
f9
fb
fd
ff
04
0b
09
0d
09
0c
08
07
09
04
03
fb
f6
f5
ea
ec
e6
e5
e1
e5
e3
eb
e7
ec
f2
ef
ee
f4
f4
f2
f1
f1
f2
f5
f0
f0
f5
f0
f5
f8
fd
fd
02
08
0a
11
11
17
12
19
16
14
15
10
0a
03
06
ff
fd
fa
f9
f9
fe
fd
fe
ff
fe
01
ff
02
01
f9
00
f9
fd
fc
fb
fe
f8
f9
00
ff
00
03
02
05
02
06
03
fd
fd
fc
fd
fd
fb
f8
f9
fe
f9
f9
fe
f9
00
f9
f8
fe
fb
00
fa
fe
fd
fe
f9
fd
fe
fd
01
03
03
03
ff
fd
02
03
fe
02
fd
fe
02
04
fc
02
05
03
03
04
03
06
00
04
02
06
01
05
01
04
01
00
01
ff
ff
ff
fb
fb
fe
f8
fd
ff
00
01
fb
fb
fe
fb
ff
01
02
fb
00
fd
fc
fb
fc
fa
f8
fc
f7
f7
f3
f4
ee
f0
ee
ef
f1
f0
f6
f6
fe
01
06
04
0b
0f
0f
18
19
1a
18
18
19
13
13
10
07
06
02
fe
01
f8
f6
f2
f8
f3
f6
f7
f2
f5
f8
fb
f8
f8
ff
fe
fb
00
fa
00
ff
fc
fb
fe
fa
f4
f8
f5
ef
f3
eb
ed
e9
e8
ef
f1
eb
ee
f2
f3
fa
01
01
01
04
09
08
09
0d
0e
0b
0a
0f
0a
07
04
06
02
03
fd
fb
ff
fb
01
fd
ff
fc
fc
ff
04
01
05
07
09
05
09
0b
0d
0b
11
0c
12
12
0f
0f
11
09
08
0b
08
07
04
08
09
04
07
07
05
02
07
07
04
0a
0b
06
05
09
0a
06
09
04
01
02
fd
ff
fa
fa
f6
f5
f7
f2
f4
f6
f5
f5
f5
f8
fe
f9
fd
ff
fe
fa
fa
ff
fd
f8
fa
fc
fd
fd
01
04
00
02
09
05
0c
0e
0a
f3
fa
f9
fb
fb
ff
fb
02
fb
fc
fe
fc
fb
fb
f9
f9
ff
fd
fc
fe
fe
00
fe
fe
fe
fb
fc
f9
fe
fc
fa
f4
f9
f9
fb
00
01
00
05
03
08
06
07
08
07
0b
09
03
00
06
04
ff
fc
01
03
07
06
07
0c
0b
0d
0c
10
0d
08
08
01
fc
ff
f9
f4
eb
ee
e5
e4
de
de
e0
dd
e1
e0
e4
e6
f0
f1
f5
fb
00
03
07
08
0d
10
14
12
14
15
1e
20
21
1f
1d
1a
1e
1b
16
0f
14
0c
0b
0d
06
0a
08
04
01
05
02
02
09
03
02
04
fe
fc
f7
f6
f0
f3
e9
ec
e6
ec
eb
eb
ec
f1
f7
f3
ff
02
04
0f
11
0f
15
1a
17
17
17
1b
17
14
16
13
11
0b
06
06
02
02
fd
f7
f8
f4
ef
ec
ea
ed
eb
e7
ec
ec
ed
eb
ee
ec
f0
f7
f7
fc
f9
00
02
fc
03
01
fb
ff
f7
fa
f9
fc
fc
f5
f9
f7
fc
f9
fe
01
02
04
07
04
05
05
00
00
04
02
04
03
07
02
07
08
0f
0e
10
0e
0f
0f
10
0e
14
14
0e
0c
0f
09
0c
05
0c
07
08
05
09
08
05
04
05
09
04
03
04
02
01
ff
fa
f8
fb
f4
f6
f6
fa
02
01
05
04
04
07
06
03
fe
fe
ff
fd
05
00
fd
ff
01
fe
ff
fc
02
ff
02
fe
ff
f9
fd
f7
fd
f6
f5
f4
f3
f4
f5
fc
f8
fa
fe
f8
f9
f7
fd
f7
f7
fa
fc
fe
fa
fc
ff
00
04
04
ff
05
06
fe
03
fd
ff
fd
f9
f7
f4
f3
f6
f5
f2
f2
f7
f9
fc
f7
f9
fa
00
fc
ff
05
06
0d
0a
0e
0c
12
12
0e
0d
05
02
01
fc
fa
f7
f3
f2
ee
f0
eb
f2
f4
f2
f7
f4
f8
f9
fb
fb
01
fc
00
01
02
03
fd
00
04
03
05
05
02
08
0a
09
05
05
05
06
05
00
01
ff
01
fd
fb
00
fc
ff
00
05
05
0a
07
0b
12
0c
0d
0d
0c
08
09
02
01
01
fd
f5
f1
ee
ef
ee
ef
ed
f2
f1
f3
f7
f5
f7
f7
fc
f6
f9
fd
ff
fa
ff
01
05
03
07
04
01
05
07
04
05
08
ff
04
04
03
00
ff
04
04
03
02
00
05
01
00
01
00
01
04
01
09
03
08
08
04
06
09
00
05
06
07
04
06
00
06
02
ff
03
05
fe
04
04
05
fe
03
05
ff
01
fc
00
fb
f9
00
01
01
03
00
ff
06
08
04
04
07
07
0c
02
06
02
fc
f9
01
fc
fe
03
00
05
07
07
04
07
0d
06
0c
0b
07
09
02
02
09
08
07
03
04
08
07
ff
03
ff
00
00
ff
02
02
08
03
02
04
08
08
02
fa
00
fd
fa
fb
fa
fc
00
04
fd
01
02
fe
fe
fc
fb
00
fe
fa
f6
f3
f5
f0
f2
f9
fc
fc
fe
05
09
04
08
06
09
0b
02
01
00
fe
fc
f7
f7
f7
f7
f3
f6
ff
ff
00
09
08
10
15
15
11
10
0e
0a
06
0a
ff
01
fc
ff
fa
ff
fb
fc
02
00
04
fe
03
00
02
fb
fa
f9
f4
f5
f0
f2
f2
ed
ee
f2
f3
f6
fa
02
03
0c
0e
12
12
12
13
1a
11
14
0e
0a
0c
07
03
01
05
fe
fc
f7
f5
f7
f7
f3
ef
f7
f3
f5
fc
fd
fd
01
03
07
09
08
0b
04
05
03
04
05
00
fd
f9
f6
f3
f7
ef
f2
f1
f6
f0
f2
f2
f6
f6
f8
fc
ff
01
01
fe
fd
fc
01
03
06
07
09
09
09
07
09
08
05
0a
0c
06
0b
05
04
0a
01
04
04
04
fe
fb
00
fd
ff
fd
fb
fb
02
fc
fe
05
03
03
00
ff
03
03
00
ff
fe
f9
f7
f3
f6
f8
f9
fa
fc
fb
f6
fb
01
05
02
ff
03
05
02
07
03
07
02
06
04
04
09
02
06
06
03
01
02
05
00
fd
fc
f9
fd
f6
f8
fa
fe
f6
fa
f8
fd
fe
fd
fa
f9
fa
fc
00
fe
03
fb
00
fc
fc
fc
00
fc
fe
fc
fa
00
f8
f5
fc
f4
f8
f5
fb
fb
fa
fa
fa
fb
01
fc
fd
03
fc
00
ff
04
00
06
04
01
05
05
05
03
07
04
02
ff
03
fa
fe
f5
f5
f8
f7
f6
f9
f8
fc
fa
02
03
09
04
09
07
09
02
ff
01
fd
f7
f6
f4
f7
fa
f7
fe
00
01
00
02
05
03
06
05
03
fa
f7
f6
f3
f5
ee
f6
f6
fc
fa
01
03
02
03
09
05
09
04
02
03
fe
fd
ff
fe
ff
01
04
03
02
ff
02
04
03
00
00
04
fd
ff
ff
ff
fe
02
02
03
00
fe
05
ff
00
00
01
02
02
02
fd
02
fe
03
fe
03
ff
08
07
06
05
05
03
02
04
06
05
05
04
01
fc
ff
fb
fc
fb
01
fd
03
02
03
04
02
00
03
04
04
fe
03
01
06
02
06
08
05
0a
0c
0a
07
07
08
06
0a
05
05
09
07
03
06
08
04
06
03
00
02
02
06
07
00
03
fd
fd
fb
fa
f8
f2
f6
f1
fb
fe
fa
06
0c
07
0b
09
07
07
06
04
06
08
02
00
fa
fe
fe
f9
fd
fd
f9
f4
f7
f7
fa
f8
f8
fa
fc
f9
fb
fe
01
01
00
fa
ff
fe
01
06
05
07
02
09
04
06
0c
0e
0e
08
0d
09
0a
06
04
04
03
03
fe
fc
ff
f9
f6
f7
f8
f4
f4
f6
f4
f2
f4
ef
ee
f2
ec
f1
f1
f2
f1
f4
f5
f5
f1
f7
fa
fe
00
fa
04
04
02
03
0a
0c
0d
0d
08
08
0b
0a
09
07
0c
0c
0b
06
05
06
08
06
04
00
01
fd
01
00
fd
fb
ff
f8
fa
fa
f8
f9
f6
f9
fb
fd
fd
fb
fd
fc
fb
fc
fc
fb
f7
fb
fa
f9
f9
fa
f9
ff
fa
fc
fb
fe
f8
fc
f6
fb
f8
fc
fc
fd
fd
fb
fa
fb
fe
fe
03
01
ff
02
ff
fb
fe
03
01
ff
fc
fe
fd
fa
fc
fa
ff
fe
fd
fe
ff
fb
fd
fa
00
02
fe
00
03
03
04
04
04
08
02
09
06
05
0b
0c
0c
0b
09
06
08
08
05
03
01
04
02
ff
00
fa
f8
fb
f7
f5
f6
f0
f0
f5
ef
f1
f3
f4
f3
f3
ef
f4
f7
f8
fa
fc
05
04
05
08
0b
12
0e
0d
0c
13
15
14
13
0f
0c
0d
10
15
13
18
1d
1b
1d
ee
ef
f7
f7
f9
f9
fb
01
fe
fb
00
fa
fd
fa
fd
fb
01
fe
02
00
08
09
09
03
04
05
0b
0a
08
03
07
01
ff
01
03
fe
02
02
00
fa
fc
f9
fb
fd
f9
fc
fb
f5
f6
f7
f3
f1
f4
ee
f0
f2
f7
f2
f4
f7
f9
f9
fd
04
09
09
0a
0f
0d
0f
0d
0a
0e
0b
09
0b
07
05
00
00
fc
fb
f9
f9
f7
f6
f0
f0
ee
f0
ea
ed
ea
ed
e5
ec
e8
e8
e9
ec
f0
ef
f2
f5
f6
f9
fe
f9
fc
01
fe
01
05
fe
fd
02
03
fa
ff
fa
f6
f9
fa
f5
f2
f2
f4
f1
f7
fa
f9
fc
01
04
06
0c
09
10
12
0f
15
10
10
0f
0f
10
0b
0a
04
01
fd
01
fa
f8
f8
f7
f9
fc
fd
fa
ff
00
ff
03
05
05
ff
05
ff
01
08
04
01
02
06
ff
05
00
04
01
02
03
fd
03
00
fd
fc
ff
00
02
00
01
fa
fa
fe
fb
fe
fd
03
ff
00
07
03
04
0b
0e
0c
0a
0b
0a
0f
0f
0e
0c
13
0b
0b
10
0b
0a
0a
07
06
07
06
00
03
01
07
05
06
09
06
0c
06
0c
0f
0b
0d
0e
0b
08
07
03
06
02
04
fc
00
fb
f9
ff
fe
00
05
07
1c
17
11
0d
0a
06
04
ff
04
fd
ff
ff
01
fa
fa
fd
fd
fe
00
02
06
09
07
0c
09
0f
10
0b
0a
06
07
03
01
fe
fb
f3
f5
ef
ee
ee
f5
f3
f5
f6
fe
fd
01
fd
fe
00
04
fa
fe
f9
fb
f5
f9
f8
f6
fd
f9
fb
fb
01
02
fd
04
01
fe
01
fc
fb
fb
f3
f9
fa
f7
f4
f9
fb
f7
00
fd
fb
fa
f8
f7
fb
f4
f1
f1
f3
ea
eb
ea
ea
e6
e8
eb
e6
ed
ed
e9
ed
f1
f0
f0
f3
f6
f5
fa
fd
fe
fd
00
fe
fe
fe
fe
02
04
06
06
07
07
07
0b
07
0c
09
0b
0d
0f
0c
0f
11
0f
0f
0a
0f
08
0a
0a
08
0a
05
08
0a
08
05
09
05
0b
0c
0b
0e
0b
11
10
10
0e
0f
0b
0b
08
0a
08
02
01
03
ff
ff
00
fb
fb
fb
00
fc
ff
fc
fb
00
fc
02
00
05
04
02
01
02
04
06
08
0c
0d
0c
0d
0b
09
0f
0a
0b
0e
0f
0c
10
11
11
10
0f
13
0d
0f
0d
11
0c
09
0c
0a
09
02
07
05
04
0c
0b
0b
08
0a
09
08
06
08
07
09
06
02
04
02
fd
02
00
fc
ff
01
fd
fc
fd
02
fe
ff
fc
f4
f0
ec
e4
c0
c5
c9
d2
da
e2
e8
f1
f9
f8
02
ff
02
04
fd
fd
fa
fe
f9
f9
01
fe
00
01
0a
0f
12
14
10
0e
0f
0f
08
00
02
fb
f9
fa
f7
f9
f7
fa
f7
f7
f7
00
f7
f7
f9
f3
eb
ee
eb
eb
f3
f7
02
0a
11
1d
29
36
43
49
4e
48
3e
30
1d
13
04
f5
e8
db
ce
c4
bf
b8
ba
bf
ca
d1
dc
de
e9
ed
f7
f4
f7
fc
01
fe
06
03
03
07
0a
0e
0d
0f
13
0d
11
0b
0b
02
05
02
00
05
06
02
04
01
06
09
07
05
05
04
04
fd
fe
00
fe
fc
02
fd
00
fb
fc
fe
ff
fd
fb
fa
fa
fd
00
01
00
03
04
01
06
03
03
04
01
00
02
fd
fe
03
06
03
01
05
07
09
0e
0b
11
0b
11
0d
11
10
11
0d
11
12
0a
08
07
05
02
07
01
fe
fe
03
00
00
ff
fa
ff
fd
ff
01
00
fd
f9
fc
f8
f9
f5
f2
ee
f1
ec
ea
e9
e2
e3
e6
e7
e7
e8
e6
ea
e4
e4
e2
e0
e1
dc
dd
dc
d9
e0
db
e0
e4
e4
e9
ec
f3
fb
02
01
0a
12
15
15
1e
23
26
29
2a
2d
2b
31
2f
2f
2a
2a
27
21
26
1c
1e
1f
18
17
10
fe
fe
fc
fd
fe
ff
fd
01
01
fd
00
06
05
03
07
05
04
06
ff
fe
f9
fd
ff
fd
f7
fd
fb
fa
fc
01
05
01
07
09
06
04
04
06
06
03
03
00
05
ff
fe
01
fe
fc
00
fc
00
02
fd
02
02
ff
fd
fe
fc
fd
fc
fa
fc
fb
fd
01
01
fd
00
ff
fa
00
fe
fc
f9
f8
fd
f7
f7
ff
fe
fd
03
01
05
00
06
00
05
02
07
00
05
05
fe
02
ff
fc
ff
01
ff
fe
ff
02
00
04
01
04
02
fd
00
fd
fa
00
fd
f8
f9
fb
01
01
f9
f9
fe
fb
fa
02
fe
ff
00
06
02
02
ff
ff
ff
fe
00
ff
01
00
02
ff
01
00
ff
fe
ff
fa
01
fd
fd
01
00
ff
fc
02
00
ff
ff
fe
06
01
03
06
ff
fe
fd
ff
03
04
ff
01
05
07
02
01
05
00
05
ff
fe
02
ff
fc
fd
fe
fd
fa
fb
fa
02
00
05
06
07
04
05
06
05
05
06
06
ff
ff
06
02
fc
00
04
02
ff
fd
fe
03
01
01
01
00
01
02
01
06
03
05
05
02
04
07
01
07
03
03
fd
03
ff
fd
fb
fc
ff
00
fb
02
01
fc
fc
fe
fb
00
03
fd
fd
ff
02
01
ff
f8
f4
f8
00
fb
ff
ff
02
01
fe
fc
fd
fe
ff
00
fd
fe
fa
fa
fa
f9
f9
fe
fa
fb
fc
f8
fb
fc
f9
ff
fb
fd
f6
f9
f9
fd
00
fe
fb
03
07
06
06
0c
0b
0b
0e
15
16
14
11
0f
0b
08
0b
05
00
fd
fa
f4
f8
f8
f0
f1
f2
f4
f5
fa
f8
f6
f8
ff
fd
fc
f8
fb
fb
f9
f5
fb
f9
f5
f3
f7
f1
f7
fa
fb
f5
ff
00
02
02
ff
06
02
04
08
0c
07
07
07
06
05
07
02
08
07
fe
03
02
fb
fa
fc
fc
f7
f5
f5
f8
f7
f5
fa
f4
f7
f9
fc
fe
fc
fa
fa
01
ff
fc
fb
02
fa
fc
01
fc
ff
ff
f9
00
f9
ff
fd
fe
01
fd
fd
fc
02
02
02
03
01
ff
fe
02
02
02
04
ff
00
05
00
02
04
ff
02
03
02
01
ff
ff
04
fd
05
04
02
06
00
05
02
06
02
06
00
00
06
00
01
02
02
01
01
ff
00
04
fd
04
03
ff
02
02
08
01
06
09
07
01
05
07
04
01
fc
00
00
01
00
00
fd
f9
fe
fb
fc
00
00
fd
fe
ff
03
00
01
03
00
06
04
05
05
ff
01
04
04
03
04
02
01
ff
03
07
0b
0c
10
15
1e
0c
0c
03
03
06
04
00
06
03
fd
fe
02
00
01
00
fa
fe
ff
03
01
04
ff
02
02
00
06
04
05
05
03
03
05
05
ff
fe
00
01
fc
02
fd
fe
00
04
03
05
07
03
07
05
04
03
04
01
05
ff
01
fb
f7
f5
f3
f4
f6
f2
f5
ef
f2
f7
f8
fa
f9
fe
ff
01
05
05
07
07
0a
0a
0b
08
09
07
02
04
fe
03
fc
fe
f8
f8
f4
f5
fc
f8
f6
f7
fb
fc
ff
fe
ff
fd
fe
02
01
02
ff
00
00
03
05
ff
01
00
02
01
00
fe
fd
04
ff
03
fd
01
fc
02
fd
02
00
fa
00
fd
00
fc
fd
fe
02
fd
01
ff
fe
04
ff
00
ff
06
05
00
ff
02
03
00
fc
ff
ff
02
02
02
00
02
01
ff
07
05
04
04
00
ff
05
ff
02
04
fc
01
01
02
fb
fb
fc
fc
fa
fd
fc
fe
01
fc
fd
fa
ff
fa
fc
00
fb
01
fd
02
03
02
02
fd
fe
06
02
05
00
04
03
06
00
04
00
03
fe
03
05
02
fd
fe
fb
01
fd
ff
fa
00
ff
fe
02
03
ff
00
fd
02
fc
00
01
00
fc
fd
fc
fe
fe
fc
f5
f8
f4
fa
fb
fb
fc
f9
fe
03
09
06
0a
29
1c
17
0e
05
06
ff
00
fc
f9
f9
f6
fc
fd
fb
fb
fd
00
06
05
0a
07
08
0a
05
07
0c
08
04
09
06
00
05
fe
01
fd
fb
fb
ff
03
03
01
00
05
09
08
0e
07
05
08
06
04
01
ff
fd
fa
f3
f1
ed
f2
f0
f5
f5
f7
fb
fa
fb
03
ff
06
ff
ff
05
04
04
fe
fe
00
fd
f9
fa
fc
fb
fa
fc
fd
ff
fc
fd
ff
03
fe
04
04
fe
fe
fb
fe
fd
f9
ff
fa
fa
ff
02
00
01
02
01
04
00
05
04
01
01
00
00
fd
fc
f6
fd
fc
fb
fb
ff
fd
00
00
03
01
06
01
02
09
07
01
02
04
04
01
fc
01
00
ff
01
00
fe
02
00
07
02
00
07
ff
04
06
03
fc
fe
02
fc
02
ff
fd
fe
00
04
05
08
07
07
0c
09
04
07
08
02
fe
ff
fd
fa
f7
fa
f7
00
fb
00
05
07
03
03
04
03
08
02
ff
00
00
01
fd
f8
f7
fc
fb
01
fc
fb
fd
02
fc
01
05
02
03
05
07
02
07
01
02
05
fd
ff
01
fc
02
fe
fb
01
00
fd
03
fc
01
fb
00
00
ff
02
03
fb
fb
fb
ff
01
fe
04
ff
07
07
04
05
0d
0a
0f
09
14
0e
02
fb
ef
ea
e0
e0
de
da
dd
d9
dc
e1
e2
db
e2
e2
e2
e3
e4
ea
f4
f6
00
0c
17
1e
2f
36
37
3c
43
41
37
32
26
1f
0c
00
fa
ef
e3
d7
d4
d2
dc
dc
e0
e1
ea
eb
ee
f0
f1
f3
ef
f1
ef
ed
ea
ee
ed
eb
f0
f2
f5
ff
fd
02
04
06
0e
0d
0e
0d
09
0c
07
04
05
08
09
09
05
0c
07
05
0c
07
06
0a
07
07
05
00
03
ff
fd
00
fa
ff
fd
fa
f7
fb
00
fe
00
fa
ff
fb
f9
fc
f8
fc
fc
f9
fb
fa
f9
f7
f8
f8
f9
02
02
fe
01
ff
fd
fe
03
fe
03
03
04
02
ff
02
08
03
03
04
08
03
08
06
05
06
00
08
07
02
05
02
ff
03
03
03
03
03
ff
02
01
05
02
02
00
02
fe
01
fb
00
00
fc
fb
fc
fd
00
00
01
02
02
00
01
02
fe
01
00
fc
fe
f9
fa
f9
00
fc
fc
02
02
fe
01
05
fe
fd
01
fe
fd
fe
fa
fc
00
01
07
09
0a
0a
11
12
10
12
0f
0d
06
08
02
03
ff
fb
ff
f9
fb
f7
ff
ff
01
06
03
07
05
06
0a
0e
0f
0b
0e
15
13
1c
1d
14
16
1c
17
0b
06
08
06
0c
03
04
06
04
fd
01
01
fd
02
00
ff
fa
fa
00
00
fd
03
02
fe
02
fe
01
02
01
00
ff
00
ff
ff
00
03
01
00
00
ff
fe
01
03
03
03
fd
fa
fe
00
00
05
09
03
09
01
03
06
04
04
fd
fe
ff
02
fb
01
03
03
03
01
02
01
fe
02
fc
fe
02
fc
fe
fe
02
03
02
01
ff
02
fd
00
fb
fe
fc
02
fd
fb
01
ff
01
fc
00
ff
00
fe
fe
00
ff
ff
fa
fd
f7
fa
fb
f9
fe
fb
fd
fc
fb
fd
fa
01
fd
00
fd
fa
fb
ff
fa
fe
02
02
02
01
00
03
01
ff
02
fe
03
fc
fb
fc
fb
00
00
03
fe
03
06
ff
04
01
ff
fe
00
02
04
ff
03
04
ff
03
08
05
01
ff
fe
fd
f9
f7
fd
fa
f8
f5
f5
f9
fb
fc
f6
f9
fa
03
04
07
01
06
04
04
04
01
04
04
03
06
01
05
00
01
06
05
0a
09
05
08
07
07
ff
02
04
02
fb
fb
ff
04
01
06
00
01
05
05
00
03
05
01
fd
ff
fa
01
01
02
ff
03
02
fe
ff
06
03
04
03
01
00
f8
f6
fa
f9
f6
f8
f7
f6
f9
fb
fb
02
fc
fb
00
02
fe
01
fb
fc
fd
fc
00
ff
ff
00
ff
00
01
fd
04
fe
03
ff
03
00
03
fe
00
05
01
03
ff
07
03
07
ff
ff
02
ff
fa
f9
f8
f4
f4
f0
f2
f5
f6
f1
f4
f9
f9
fe
03
06
10
14
15
16
13
16
12
15
0f
0a
03
fe
f9
f5
ef
eb
ea
e6
e2
e3
eb
e8
f1
f5
f3
fa
06
05
10
0f
12
18
16
17
18
11
0b
05
04
fc
f7
f4
f5
ec
ea
e8
eb
e8
ea
ee
f6
fb
fb
07
06
0e
15
1a
19
1b
1b
1f
19
1b
18
10
12
0f
09
01
00
fc
fb
f7
f7
f2
ef
eb
ee
ec
ed
eb
eb
ea
ea
f0
ec
ec
f3
ef
f9
fa
f9
fc
05
08
0c
0b
10
13
11
11
0f
11
13
10
0c
0d
0d
07
03
08
05
ff
01
02
02
fc
ff
01
01
01
fe
ff
fa
fb
01
fa
fb
fd
f8
fc
fe
fd
fc
ff
ff
fb
01
fe
01
fe
05
07
08
07
05
07
06
09
03
09
03
09
07
04
07
03
03
05
03
ff
01
06
02
02
00
04
01
01
fc
fb
f9
fd
fd
fe
fb
f8
f8
fb
fb
fb
fd
00
fd
fd
ff
00
fc
fb
fc
fd
fd
00
03
ff
00
02
01
02
05
00
02
01
ff
01
fd
fb
00
02
02
00
09
04
08
01
03
05
08
02
04
00
04
fd
02
00
01
fb
fe
04
ff
04
fe
ff
03
02
03
fd
ff
fb
fe
f8
fe
f8
ff
00
f9
fb
fe
fc
03
03
fe
01
ff
02
05
09
06
08
07
07
05
05
00
ff
ff
00
ff
fe
03
ff
fb
01
ff
00
fe
02
01
ff
05
03
07
02
09
06
03
03
00
04
04
00
00
fa
f9
f4
f5
f5
f2
f3
ec
f1
f5
f4
f8
fe
05
02
0b
11
0f
0f
18
13
13
14
16
13
13
0d
0d
0e
06
03
fd
03
fa
f9
f4
f1
f3
eb
f1
e7
ec
ec
ea
ed
ea
f0
f2
f5
fa
00
ff
05
07
0b
0d
0e
16
11
13
17
15
0b
0c
0c
0c
05
01
fc
ff
fb
f9
f7
fa
fd
f8
fa
fe
fc
f8
fa
fe
f9
ff
00
fc
00
04
03
04
01
06
03
03
05
07
07
03
04
fe
03
fd
fd
fe
fb
fa
fc
fd
f6
fa
fa
fd
f6
f9
f8
f8
fe
00
fe
fb
f9
00
fb
fc
01
00
00
fe
ff
02
00
fe
02
05
05
04
00
01
03
fd
fe
01
fc
fe
01
fc
fe
03
fe
01
04
01
06
03
04
00
00
02
01
01
fa
fe
f8
fd
fd
f9
fe
f8
fe
00
fd
01
02
01
05
00
05
fe
fe
fd
05
ff
fe
00
03
fc
00
fd
fc
fb
ff
fd
00
fc
01
00
fb
00
03
04
fd
fd
fd
03
fc
fc
f9
fd
fb
ff
f8
f9
f9
fd
f9
fe
00
00
ff
fa
01
fb
00
fe
f9
f9
fd
fb
f9
fa
f7
fc
fc
fd
02
03
0a
07
08
0a
05
08
07
04
ff
ff
fb
f9
f4
f4
f4
ef
f4
f6
f4
f7
f9
fc
ff
fe
03
02
05
04
07
07
0d
0d
0b
08
03
01
00
fb
02
ff
fd
fe
f7
fc
f6
fb
fb
fe
fd
f7
f9
fc
fa
fe
fa
fe
fb
fd
fc
f8
fa
fa
fa
fa
fb
fe
01
00
03
02
0b
07
0c
0a
09
0b
0d
0c
09
07
04
04
fb
fc
fa
f9
f4
f6
f6
f9
f8
fc
f6
fe
fd
fc
01
07
07
03
05
03
0a
03
08
07
03
08
03
ff
03
04
04
01
05
ff
04
04
05
00
fd
04
fd
fb
00
fe
01
04
03
05
04
06
01
07
08
07
01
ff
03
02
fe
01
02
fb
fe
fe
fb
01
fc
03
03
fc
01
00
fd
fc
fe
fe
fe
fd
fb
03
fd
ff
fc
04
fe
06
02
04
07
00
03
04
ff
ff
fb
fd
ff
fd
fb
fa
fc
fe
fb
fc
03
fc
fd
fe
03
05
03
fe
01
fb
ff
01
06
06
01
03
03
05
03
02
00
ff
01
01
f9
fa
ff
fe
fa
ff
fc
fe
01
02
04
05
06
05
fd
fc
ff
fd
fa
01
fe
fe
fb
01
00
06
03
03
03
03
01
02
fe
ff
02
fd
ff
fd
fb
fe
00
04
03
07
09
0c
09
08
0b
0a
02
fd
ff
fa
fa
f5
f5
f4
f3
fa
f8
fa
01
07
0a
07
0e
11
0c
0b
12
0f
0b
05
00
fd
f9
f7
ef
f4
f1
f3
f6
f6
fb
fd
04
07
0d
12
14
10
0a
10
07
04
04
01
00
fc
01
ff
fd
04
02
0a
0a
0a
09
08
08
02
02
fd
ff
ff
fc
01
04
05
07
01
03
07
02
ff
fd
fb
f6
ee
ef
e8
ee
ef
f2
f4
fb
03
06
0a
13
15
14
12
15
0e
08
05
00
fd
fd
fd
fe
fa
ff
f9
fb
fe
02
00
fe
02
fa
fd
fc
fb
fb
fa
fb
fc
f8
fa
fc
f9
f8
fe
fc
fb
ff
02
03
fd
ff
fa
fb
ff
fb
fd
fa
ff
ff
fb
01
fa
00
fa
fe
fd
ff
fe
fb
02
fd
04
fe
00
fe
00
04
fe
02
03
03
02
ff
07
00
05
00
03
02
ff
fd
fd
03
fe
04
ff
04
fd
01
01
00
01
ff
f8
02
03
04
02
00
ff
fb
fe
fc
ff
fd
fe
fc
ff
00
fe
01
00
fb
fa
fe
f9
fd
f9
f8
fb
fc
fe
ff
fd
01
fe
04
07
03
01
02
03
03
02
03
fe
fd
01
ff
00
fc
01
04
ff
fc
03
00
05
01
05
ff
ff
fc
fb
fe
fe
f9
fd
00
00
fc
00
03
04
ff
03
01
01
04
07
05
00
06
00
03
ff
03
02
09
01
03
06
02
05
06
ff
fe
02
02
04
02
fe
05
01
04
fd
00
03
03
fd
fe
00
03
06
03
06
00
04
05
04
00
03
04
00
02
04
01
fe
fb
fb
fc
fc
00
fe
ff
fa
00
fe
fa
fa
ff
00
fd
01
02
05
00
fe
04
ff
ff
00
fc
fc
fd
03
00
fd
03
fd
fe
04
fe
ff
07
01
06
07
01
02
06
ff
fe
05
fd
00
fe
fa
fc
01
02
ff
fe
02
02
05
02
02
06
00
fd
02
ff
fd
f9
f8
fa
fa
f6
fc
fb
fe
00
01
04
02
05
07
05
02
03
fe
04
02
ff
00
02
fa
02
fc
fe
fd
fd
02
01
00
02
05
06
02
05
fe
fd
04
fb
02
02
ff
fb
f9
f7
fa
fe
fa
fc
fd
03
00
01
fe
00
04
03
00
fc
fd
fb
fd
f8
fd
01
fa
f9
fb
fd
fd
01
fb
fa
01
fd
fb
ff
fa
01
fc
01
fa
f7
f8
fd
f4
f5
fa
f8
f5
f1
f8
f8
fa
f9
f8
fa
fe
07
07
09
07
0c
0b
0d
0a
04
09
02
03
fd
f9
fc
f9
f5
f1
f6
f7
f3
f7
f5
fb
f8
ff
fc
02
04
05
05
06
fd
ff
fd
01
fd
f9
fc
f9
f4
f9
f7
f7
fc
ff
fa
03
02
03
00
05
07
03
04
09
07
0b
06
06
03
03
06
ff
03
05
00
fd
fd
fe
ff
02
01
ff
fd
ff
fe
fc
fd
fc
fe
fd
fe
fb
fa
f7
f9
fa
ff
fc
03
00
fe
00
02
02
02
07
02
01
07
02
01
05
06
03
06
03
ff
04
01
00
ff
06
04
02
00
ff
05
05
01
00
02
01
02
01
00
02
03
ff
01
00
00
04
00
02
06
ff
05
04
03
06
03
05
02
02
00
06
05
fd
04
ff
fd
fd
01
fe
00
00
fd
fe
ff
01
02
00
fe
06
03
01
02
03
fe
01
05
00
04
fe
ff
fc
01
fd
01
fe
01
01
06
05
08
05
06
0a
08
07
05
05
05
05
04
ff
04
00
ff
fe
fe
05
ff
fd
03
fc
04
02
03
fc
02
00
02
fe
fc
04
ff
03
07
0a
0a
19
17
0e
0a
08
04
fd
fc
fa
fa
fd
f4
f6
fc
f9
f8
f9
f9
fd
fc
00
01
05
06
05
09
0d
09
0a
0e
0d
12
15
12
10
12
0b
0f
09
04
03
05
fb
f7
fa
f5
f2
f4
f3
f2
f5
ef
f3
fa
f6
fc
01
03
06
05
0a
06
0a
09
0e
05
05
09
08
02
03
fe
01
f9
f8
fb
f8
fd
fa
fe
f9
fa
fc
00
04
03
fe
fe
04
05
06
ff
00
06
05
03
fe
07
05
01
01
03
06
04
06
06
02
00
07
01
04
04
01
fe
04
fe
03
03
03
03
ff
02
fc
01
fe
fd
03
ff
00
fd
fd
00
02
ff
fe
fb
fb
fb
01
fc
00
ff
fb
fc
fd
fc
03
fd
fc
fe
00
04
fd
02
01
01
01
ff
03
01
04
03
ff
fc
fe
fa
ff
fe
fd
f9
fa
ff
ff
fa
fb
fe
00
fd
fe
03
fd
00
fe
02
00
01
03
00
fe
fd
04
03
00
fd
05
04
fd
02
00
02
fe
fd
fd
fd
fa
ff
00
01
00
fa
ff
fc
ff
fd
01
00
04
05
08
06
07
01
03
00
00
fc
ff
ff
fc
fb
f8
f4
f5
f6
f5
f5
fa
f9
fb
fe
fb
fd
fb
ff
fe
03
00
fe
01
ff
ff
01
ff
ff
01
ff
0b
05
fe
ff
f9
f9
fb
ff
fc
fe
05
05
04
03
06
09
03
03
00
01
01
01
fc
fb
01
fd
05
02
02
06
08
03
05
02
ff
fc
ff
f7
f4
f2
f8
f3
f3
f7
f8
f5
fa
f9
fe
f9
ff
fa
fb
fc
f8
fa
fa
fe
fa
fc
fd
ff
ff
00
03
05
01
05
04
06
02
04
03
04
03
05
00
00
fb
00
f8
fb
f5
f7
f2
f6
ef
f5
f2
f0
f4
f5
f9
fd
fc
fc
fd
fa
fc
02
02
ff
01
03
fd
ff
fc
00
fe
fd
02
fb
01
fe
02
ff
fe
01
03
02
01
00
01
fe
00
01
ff
02
fb
fe
fd
fa
00
fb
00
01
04
04
05
00
02
04
02
04
03
01
fc
00
fd
ff
02
04
fe
04
07
02
09
04
05
09
06
0b
05
02
01
02
ff
ff
ff
00
01
05
06
01
05
05
09
05
06
0b
07
06
09
06
08
0a
03
07
06
07
04
04
ff
02
03
02
ff
fe
04
04
04
06
06
04
07
06
05
02
07
04
00
ff
03
04
04
05
00
08
04
04
05
0a
07
03
05
04
04
06
03
03
04
03
07
02
06
0b
06
07
07
09
0a
02
02
05
00
08
07
06
01
08
05
07
07
06
0d
07
ef
ed
e9
e5
e3
df
dc
dd
db
dc
e2
df
e9
ee
f7
fc
fe
09
0a
11
18
1a
19
1f
1d
1e
1a
1d
1d
19
13
14
0e
0b
0b
03
ff
fb
f2
ef
ed
e7
ea
e1
e4
e3
e7
e8
e6
e8
e8
ef
f3
fb
f8
01
01
04
0b
0a
0e
08
08
07
06
06
0d
06
04
06
08
0c
0b
0f
0b
10
0f
0c
08
07
09
06
02
01
fd
fd
01
03
02
02
fd
03
00
03
01
ff
fc
ff
00
fd
f6
f7
fb
fa
f9
fd
01
fc
04
06
01
00
05
01
03
01
03
ff
01
fc
fe
00
01
01
03
03
02
04
04
01
03
03
ff
02
02
02
04
01
fd
03
03
fc
fe
fc
05
ff
06
06
04
02
03
02
ff
00
00
02
03
00
00
ff
03
02
ff
ff
08
04
08
04
05
00
00
06
00
ff
01
01
fe
06
00
02
0a
09
07
09
04
0b
06
06
06
06
ff
06
02
04
08
0c
0c
0e
0a
10
0e
0f
10
0e
0f
09
07
0c
0c
0b
08
07
07
0b
0d
0a
0c
08
07
fe
03
fc
f6
f9
f6
f2
f7
f0
f3
f2
f9
f5
fa
01
fe
02
01
06
06
04
03
03
fe
fe
f5
f8
f3
e8
e5
e0
da
d6
d3
d6
dc
e2
f9
f7
ff
fb
02
04
fe
00
00
fe
fd
03
00
01
fc
fe
fd
03
ff
02
03
02
08
02
07
ff
00
02
fe
fb
ff
01
ff
00
ff
fd
01
ff
02
03
00
01
03
fd
fd
fd
00
f9
fb
fe
fb
fa
fb
fe
02
03
04
fd
02
05
01
04
ff
07
05
03
01
06
fe
02
00
fd
00
00
00
00
ff
fe
fd
fb
fd
fe
fc
00
00
01
00
fc
fa
fe
fe
fd
fb
fc
01
fd
05
01
03
06
04
04
02
03
01
ff
fc
fb
fa
04
03
03
00
03
05
01
00
01
ff
fd
fd
01
fb
ff
00
ff
fd
03
04
06
05
03
00
05
03
03
05
fe
fd
00
ff
02
01
00
02
06
00
05
01
05
01
fd
02
fe
ff
ff
ff
02
01
03
fe
ff
fe
00
fe
03
04
04
02
00
04
fe
01
fb
00
f9
fc
fc
fe
fe
01
04
04
05
01
01
01
02
ff
fd
ff
fa
ff
fd
00
fa
fb
fa
02
fc
00
02
02
01
fe
fb
fb
fc
00
03
ff
ff
04
01
ff
06
03
ff
01
fb
fc
00
fd
f9
fd
fc
fb
fc
04
05
00
01
05
01
06
00
04
04
ff
00
fb
f8
fd
fb
fe
fd
fd
03
08
07
07
05
09
fe
fc
f2
00
01
02
ff
00
fe
04
02
ff
ff
fa
fe
f8
f9
f4
fa
f6
f4
f4
f6
f7
f8
fd
01
00
03
05
00
08
06
07
01
fe
fe
00
fa
fb
f9
f7
f4
f9
f7
fa
fa
f6
f3
f7
f6
f3
f8
f2
fa
f6
f6
f8
f8
f7
f6
fc
f9
fb
fd
fb
fc
fd
fd
fe
04
03
fc
fd
00
00
03
01
fe
fe
ff
ff
05
02
04
09
05
04
07
05
09
06
03
03
ff
ff
01
fb
f8
fa
fc
fc
f7
fc
f8
ff
f9
ff
01
fb
fc
fe
ff
fd
fc
f9
fd
fe
fd
fd
fb
f8
fb
00
01
00
00
05
04
0a
09
06
06
06
02
ff
01
03
fc
01
fd
02
fb
02
fd
fc
00
01
ff
03
fb
02
fa
ff
fd
fc
f7
fe
f9
f8
fd
02
01
02
00
06
01
04
04
08
06
01
05
06
00
04
01
fc
04
00
fc
ff
00
08
06
04
09
06
0b
0d
09
05
09
02
02
fd
fa
ff
fd
fb
fc
fd
fb
fd
fb
ff
05
05
0b
0b
0e
0d
09
0b
0e
09
06
07
02
00
fc
01
01
00
02
03
04
03
06
01
02
09
08
05
07
0a
0a
05
04
fe
ff
00
fd
fc
ff
fc
fb
f9
fe
f8
00
02
01
02
07
11
14
1c
23
01
ff
f8
fe
fa
fa
fc
fb
fe
fe
fc
fa
fd
02
fe
01
fe
04
02
08
02
09
04
09
0b
0a
0b
0e
09
0b
0a
03
09
01
ff
fe
f9
fc
f6
f8
f6
f7
f7
ef
f0
f6
f4
f3
fc
fc
f9
01
01
03
05
07
0c
08
0a
04
07
09
02
01
06
02
fe
ff
ff
fc
fe
ff
fa
fe
f8
fe
fa
fc
01
ff
00
02
03
fc
fb
fe
fe
fd
00
00
ff
fe
fc
fa
fa
fb
ff
fd
00
ff
fc
01
02
01
03
fd
04
06
03
ff
01
00
06
05
03
04
fe
04
02
fe
fb
00
fe
fc
f9
fc
fe
fb
fa
fb
fd
f7
fd
fc
f9
fb
fe
00
ff
ff
fe
05
03
02
03
fe
01
03
00
00
fc
01
04
00
03
06
01
05
01
00
01
01
ff
06
00
02
fd
03
ff
00
00
fd
fb
f9
f9
f9
fd
ff
ff
fb
00
01
fe
05
ff
05
06
01
07
03
07
04
03
ff
ff
03
fd
01
03
ff
00
02
ff
04
03
01
01
06
01
06
05
03
01
fc
fd
00
fb
f9
fa
00
fb
fc
ff
fd
ff
01
05
00
07
02
08
01
04
07
01
01
00
fb
fb
fa
fe
fd
fe
fb
ff
fd
fd
fe
fc
03
04
02
06
0a
0a
0d
ff
f8
ff
fa
fc
fc
fe
00
04
fe
03
04
05
03
04
00
01
05
04
04
08
05
01
01
07
00
00
02
02
02
fe
fb
fe
f8
fb
fa
f6
fb
f9
fa
fc
fe
f9
fd
ff
fe
fa
fd
f7
fc
f6
f9
fa
f7
f9
fa
fb
fd
00
fd
05
ff
fe
02
02
fc
fb
fd
fb
fe
fe
f8
ff
fa
fb
fe
f9
fe
f9
fb
fc
fb
ff
02
fd
fe
00
03
fe
05
03
03
00
00
ff
00
04
fd
03
00
01
ff
00
02
ff
00
fe
02
03
fd
fe
fa
00
fc
fb
01
fe
04
02
04
02
01
00
00
05
04
09
03
ff
03
fe
fe
03
04
01
05
06
03
05
07
01
02
02
03
03
fe
01
00
fc
fd
ff
fd
02
01
01
06
04
08
05
03
08
01
05
00
02
00
fb
fa
fb
fd
fb
fb
fd
fe
03
04
ff
06
08
02
06
04
04
0b
08
07
07
07
05
08
05
03
ff
fb
fb
fd
f9
ff
fc
fb
00
fd
09
0a
05
07
0f
08
0a
08
05
08
06
04
00
01
fa
fb
fe
00
fd
fb
02
04
fe
ff
01
04
05
03
04
04
07
03
04
08
01
00
04
fe
fd
00
00
fd
05
03
09
05
09
0c
0e
0f
0b
0b
07
09
e1
e9
f7
00
0e
19
25
2c
2e
31
33
34
32
2e
2a
24
25
22
21
19
17
18
16
0d
0b
0d
05
01
f7
f5
f1
ea
e8
ed
ed
ed
e6
ec
ed
ee
ef
f3
f7
fe
00
03
03
fd
02
01
fa
00
fb
f7
fb
fb
fd
fc
f9
fb
fd
00
fd
fb
03
01
04
04
05
03
fe
05
06
01
04
ff
05
04
02
05
02
05
05
fe
01
fe
fe
fa
ff
f8
ff
ff
fc
f8
fc
fb
01
ff
fd
fc
fe
fe
fb
fc
00
03
03
ff
02
fe
03
fc
03
fd
01
ff
03
ff
fc
02
fb
fc
02
02
01
02
00
fe
02
01
02
ff
00
00
00
fe
02
02
fe
fd
fd
01
fa
fe
fd
00
fa
ff
01
fd
00
fb
02
fb
f9
01
fe
fe
fa
fe
f9
fa
01
fd
ff
01
fd
00
00
00
fb
f9
ff
fd
fc
fd
f9
fa
ff
ff
01
fd
02
01
ff
05
00
02
08
03
03
09
09
08
05
0a
09
06
ff
02
01
04
fd
fe
fe
fc
ff
00
00
05
05
01
06
06
05
07
07
05
02
01
fd
fd
fa
f9
f8
f9
fd
fb
fa
fb
fa
fa
f6
f8
f4
f6
fc
f7
f7
fd
03
06
0f
13
1d
23
27
23
1f
16
10
05
f0
db
c8
b3
02
02
ff
03
fe
01
fd
ff
ff
fa
fc
ff
fb
ff
ff
03
04
05
06
07
08
01
02
06
00
00
01
02
ff
02
fc
fe
02
ff
fd
00
01
fe
ff
ff
fb
fe
fb
fd
fd
f9
ff
03
03
fd
ff
03
04
fd
fd
fc
00
fe
00
f9
fd
fe
ff
01
01
06
00
05
03
00
fc
01
fe
f8
ff
00
fd
00
01
fa
02
06
03
03
00
fd
02
fc
fb
fc
00
fe
01
03
fe
fe
00
00
fe
fc
03
03
ff
ff
01
fb
f8
fe
f6
fd
fc
fd
01
02
02
01
ff
fe
00
05
04
03
01
fe
03
00
ff
04
ff
03
02
03
fd
01
fe
04
05
05
06
fe
00
02
00
04
ff
00
ff
05
04
fe
03
00
02
00
04
ff
03
fd
02
fe
05
ff
fe
02
01
fb
f9
01
01
00
00
04
02
00
04
02
ff
04
01
00
fd
fc
ff
ff
ff
01
fc
03
fe
fd
02
01
00
00
ff
00
00
01
00
03
03
05
fe
ff
fd
00
01
fe
04
fe
00
01
05
02
ff
fe
fc
00
02
00
fb
ff
fb
fc
01
02
fe
ff
fc
fc
fd
04
02
01
04
ff
01
fe
02
00
fc
00
fa
fc
f9
fb
fe
01
fd
07
04
04
05
06
00
01
ff
fe
fc
fb
fa
fb
f7
f3
ee
f0
ea
ed
eb
e6
e9
ee
f2
f3
f7
f7
f6
fd
00
01
00
00
fe
fa
f5
f6
f9
f5
f3
f1
f3
f9
f5
f9
fb
ff
09
09
08
12
0f
0d
0b
07
03
03
fe
ff
f7
f5
f3
f0
f4
ef
f2
f4
fa
fa
fb
ff
02
04
08
07
04
08
08
07
02
05
04
04
03
0a
06
0a
07
0b
05
0a
09
01
06
fc
ff
f9
fd
f9
f5
f9
f7
f7
fe
01
05
04
08
09
0b
0b
08
0a
09
07
04
00
04
fc
fb
fc
fb
ff
fc
fb
02
02
fe
07
00
04
0a
08
08
04
ff
01
03
03
00
fd
00
01
fa
fe
fe
ff
06
09
06
06
07
05
0b
07
09
09
06
04
00
fe
04
00
04
fe
ff
08
08
04
0a
08
0c
0a
07
07
03
06
fd
03
fa
fe
fe
fb
fa
f6
fa
ff
fd
ff
01
02
03
08
07
04
03
01
ff
01
01
03
ff
04
01
05
07
08
09
07
07
08
02
06
00
fc
00
f9
fa
f6
f5
f6
fa
f4
f7
fe
03
06
02
06
08
0a
0c
0e
0a
0a
0a
01
03
fc
fc
fd
fa
f8
f6
fb
fb
03
04
02
08
08
0a
07
08
08
08
02
05
05
fc
fe
fb
f6
41
3d
34
2e
2b
27
22
22
20
1c
19
16
16
0f
0f
0f
07
07
06
08
09
03
05
02
02
05
ff
02
01
01
02
00
02
04
01
01
ff
fe
07
01
0a
05
0a
08
0d
0e
0b
10
0b
10
0e
10
0a
0d
05
09
07
04
07
01
00
01
06
05
05
07
09
03
05
07
09
07
07
0a
05
07
01
01
01
00
01
03
fc
ff
02
02
fd
fe
05
00
00
00
01
03
02
05
01
fe
02
03
02
03
fd
05
05
03
04
03
02
04
03
03
05
03
01
04
ff
04
02
01
ff
fc
fc
00
00
fe
fe
fe
fa
01
ff
00
fc
01
02
00
03
fe
02
fa
fe
ff
fa
fa
ff
fe
fd
fd
fb
ff
fa
fd
f9
f6
fc
f4
f6
fb
fb
f9
f8
f7
fa
fa
f6
fd
fc
f8
fa
fd
fb
fa
f6
f6
f9
fb
fa
fa
f9
f6
f4
f8
f7
fa
fc
fd
fa
ff
fa
00
fb
00
01
00
fc
fe
fc
fb
fe
ff
fe
fb
f9
f7
f4
f9
f5
f3
f6
f7
f2
f1
f7
f8
f5
f4
fc
f9
fb
fe
00
fc
00
01
01
00
02
05
00
03
03
fd
03
01
fd
fe
ff
00
fd
fb
fa
fc
ff
fb
fe
fc
fb
fa
fd
fc
f7
ed
eb
e5
db
d3
2e
25
1a
13
0b
02
00
ff
f7
fc
f9
ff
01
02
0a
0b
0c
0c
0a
08
09
03
04
04
ff
04
01
ff
04
06
09
0e
0e
08
07
09
06
01
ff
fe
f9
ef
ee
ef
ec
e8
e6
e9
ea
ec
ec
ec
f1
f6
fa
fd
fc
03
fe
02
01
ff
fd
fc
fa
fd
f2
f2
f0
f4
f4
f8
f9
fa
fd
02
02
04
02
01
07
00
fe
fe
fc
fc
00
f9
ff
fe
fe
00
fb
fc
fd
02
01
03
00
07
02
00
04
04
fb
ff
fa
fa
fc
fd
fa
fd
fd
ff
ff
00
fe
fb
fd
ff
fd
fc
fd
01
00
fd
fc
00
fd
ff
00
fd
fe
fa
fb
fd
01
fd
00
01
00
fe
04
02
00
fe
02
00
00
00
fd
01
04
02
03
03
03
07
03
06
04
02
fe
02
01
01
fe
f9
fe
00
00
fe
01
06
07
02
07
05
08
05
06
00
00
00
00
fa
f8
fb
f9
f7
fa
00
01
02
06
08
09
0f
0f
0c
0c
09
04
03
05
04
03
ff
03
05
02
05
0a
06
04
04
06
07
09
04
08
06
02
fe
ff
fc
fd
02
fd
fe
fc
fc
ff
05
ff
04
00
04
06
05
0a
09
07
05
0a
08
05
07
01
04
00
fd
fe
f8
f6
f0
f6
f7
01
04
0a
0d
17
1d
1c
26
26
25
24
17
13
10
0d
04
fe
f5
f5
f4
ee
ef
f3
f6
fe
04
08
0b
0b
12
14
16
16
0c
0e
fe
f9
f0
ea
de
d9
d6
d3
d9
d7
d7
e0
ec
f1
f9
fe
0c
12
0f
11
1b
12
15
14
12
0a
09
06
03
02
06
08
04
0b
08
0a
07
0b
08
06
05
01
ff
ff
04
ff
00
00
fc
fe
00
02
08
0c
0a
0e
0a
08
0e
0a
0b
04
05
ff
fd
00
05
03
00
03
09
0a
05
04
05
01
01
fe
fd
fb
fb
f7
f3
f1
f2
f3
f9
f8
f9
fa
f6
f8
fc
fa
fc
f5
fc
f8
f3
f5
f9
f8
f7
fb
fd
fd
f8
f6
f9
fd
fc
fb
00
fb
01
03
01
03
00
00
00
01
01
00
02
01
02
fc
fa
00
fb
ff
fb
ff
00
fd
fb
f9
fd
ff
ff
fe
06
00
01
03
01
ff
ff
06
04
fd
00
02
01
06
05
03
04
01
02
07
05
00
03
ff
04
00
02
04
03
03
03
02
04
07
08
05
0d
07
08
06
fd
fc
f8
f2
f0
ef
ef
f2
f3
f8
f9
ff
09
0a
12
0e
14
11
15
15
0b
09
00
f6
f3
e9
e5
e1
e6
e8
ed
f6
05
17
26
36
40
03
05
05
04
02
02
01
ff
01
fe
fd
00
fd
fd
02
fd
04
03
ff
04
03
fd
01
01
fa
f9
fa
ff
fd
01
fc
fd
fb
03
fc
03
fd
fe
fa
fe
fb
fe
fa
fe
f7
fc
fd
f9
fd
03
01
03
06
00
05
03
00
fe
ff
02
fb
fc
f8
ff
fe
00
fd
fe
fe
00
01
04
fd
04
02
02
fe
01
fe
01
04
00
06
08
07
08
09
03
01
08
00
ff
01
fc
01
ff
03
fd
fb
fd
00
03
04
05
02
04
01
fc
02
ff
ff
ff
fe
f8
ff
f8
fc
f9
00
ff
04
06
02
05
03
05
ff
03
05
fe
00
00
02
02
04
ff
fe
04
02
05
01
07
00
ff
00
00
ff
ff
01
ff
fb
fb
05
05
05
05
00
01
06
04
04
03
00
00
fb
fc
00
fc
ff
02
01
02
04
05
07
07
07
01
05
01
fe
01
00
fc
fd
fc
ff
02
00
02
01
00
fe
fe
00
03
02
ff
03
fe
ff
fd
fe
03
00
00
01
00
00
02
04
02
01
fd
fe
ff
01
ff
00
fe
f8
fa
fb
fc
01
fc
00
02
05
02
01
02
00
00
fb
00
ff
fb
03
00
00
ff
04
04
03
05
04
02
01
03
01
ff
fd
fd
fb
fb
f5
f8
ff
f9
fc
fa
fa
00
fa
fd
ff
fe
fe
00
f9
f9
fb
ff
f7
f9
00
f9
fe
fa
01
fb
02
fe
02
05
fd
03
03
03
fe
fc
f9
fb
f9
f7
fa
fa
fa
f8
f9
fe
fb
02
00
fe
03
fe
03
ff
fd
fc
fe
fd
fb
f8
fe
f7
f9
f4
f8
f9
f5
f5
f5
f9
fc
fb
f5
f8
f8
fd
f9
f8
fc
fa
fc
f8
fe
f9
f7
fd
fc
f9
f9
f7
f8
fc
f7
ff
fb
01
00
fd
fb
00
02
01
fc
fc
01
fc
03
02
01
06
09
06
0c
0a
0c
0f
12
15
14
15
13
10
0c
10
09
02
fe
f8
f7
f0
eb
e5
e3
e2
e6
e1
dd
e4
e0
e8
ea
eb
f1
f5
f8
fd
06
0b
06
11
11
10
0e
12
14
0e
12
0c
08
0d
08
08
02
05
08
07
07
04
08
0a
08
0c
0a
12
10
0e
0d
12
0e
15
10
0e
0d
0f
11
12
0d
11
0b
08
09
09
09
06
07
03
01
ff
f7
f4
f5
ef
f0
f4
f5
f1
f2
f0
f0
f6
f3
f4
f8
fd
fa
fc
fb
01
02
04
fc
fb
fc
fa
fd
f9
fc
fe
fb
fd
fd
f9
fc
fd
fe
fa
fc
fe
fe
04
06
03
08
00
08
05
00
00
02
fa
00
f8
fe
fa
f6
fa
f7
fd
fd
fb
01
fe
00
00
01
ff
03
04
01
00
04
05
01
01
01
02
06
03
04
ff
04
04
00
04
01
03
ff
fe
02
fe
02
fd
fe
fd
fc
ff
f8
f9
fa
f6
f8
f9
fa
f5
f4
f4
f4
f5
fc
f5
fb
f9
fc
f9
fc
ff
fc
fe
fe
03
02
01
fe
02
00
01
02
ff
04
04
01
01
ff
fe
fc
02
fd
fc
00
02
02
ff
01
02
03
02
07
0c
09
07
0a
0b
09
0a
03
09
00
06
00
02
03
00
00
03
00
00
fd
01
00
fc
fd
fe
fb
f6
fa
f5
f6
f3
f8
f6
f8
fa
02
03
02
08
08
0f
10
10
0b
10
0d
0c
0f
0c
0a
0c
06
0a
07
09
06
04
07
02
00
00
04
01
05
04
fe
04
fe
01
ff
03
06
07
05
0b
0b
05
09
09
08
0a
03
02
02
fe
fd
fa
f9
f4
f6
f4
f1
f0
f7
f7
f9
f4
f7
fa
ff
00
fb
00
fd
f7
f7
fa
f5
ef
f3
f5
f1
ec
f0
f3
f3
f5
f5
fd
fe
01
08
0b
0a
0d
11
0c
0d
0e
0b
12
11
0e
0d
0b
09
04
03
06
05
09
08
06
06
08
05
07
02
02
04
00
fb
fc
f7
f9
f0
f3
f0
f2
ea
ee
ed
ed
f2
f2
fb
fe
fd
fe
fd
04
02
07
06
06
0a
09
08
0a
06
03
ff
01
fd
f9
fa
f8
f9
fc
fc
02
03
ff
01
06
ff
00
07
04
03
05
fe
01
fa
ff
fb
fa
ff
fd
fa
fe
fb
fe
03
02
fb
fb
fa
ff
fc
fa
fd
fd
02
01
fe
03
03
02
00
07
08
06
07
04
04
05
04
01
00
fd
fe
f6
f8
f4
fa
f7
f4
fa
f5
fb
fb
fa
f7
f5
f8
fa
f5
f8
f7
f5
f1
f3
f2
f4
f4
f0
f1
f7
fb
f8
f7
fd
fd
fc
fb
fc
fc
f5
fb
f7
f3
f7
f4
f7
f5
f9
f8
ff
03
03
0c
12
12
13
14
13
11
0f
0d
04
02
02
05
ff
03
ff
01
09
0a
0b
0b
0f
0b
0b
0a
0b
06
03
03
02
fd
fc
f9
fc
f9
fd
01
04
04
05
03
06
06
06
09
0a
02
02
fe
ff
fd
f6
f7
f7
f5
f3
f6
f3
f6
f3
f6
f8
fa
fd
00
fd
fb
fd
fb
fc
fd
fc
02
ff
01
04
07
07
09
0e
12
10
17
14
18
17
15
14
1a
14
11
17
14
14
0c
11
0d
0d
0d
08
09
0a
0c
0a
0d
0c
11
0f
11
11
14
11
10
12
0c
12
11
12
11
08
0a
05
ff
02
f9
f8
f4
ec
eb
e9
fd
fd
f7
f7
f4
f2
ef
f4
f5
f7
f3
ef
f2
f1
f6
f5
f8
f7
f6
fa
fa
f4
f6
fb
fa
f8
fd
fc
fb
fa
00
00
fa
ff
fa
ff
ff
fa
f9
ff
fa
ff
fb
fd
f8
f9
ff
fd
fa
fe
fd
f9
fe
f5
fa
f7
f4
f8
f8
fa
fe
04
09
06
07
09
12
10
10
07
08
07
09
03
00
02
fd
01
00
fb
fd
fc
fa
f9
f7
f9
f3
f6
ee
f1
f3
f2
f1
ee
f6
f4
f3
f0
f7
f4
f5
f8
f9
f8
f9
fb
fe
ff
02
0a
0c
0d
10
14
12
0b
0c
07
04
01
02
03
00
0b
0c
14
16
1a
19
1a
15
19
13
0d
0b
00
fe
f6
f5
ee
f5
f5
f3
f8
fe
06
01
05
08
02
02
03
fd
fd
fa
fb
f7
fa
fa
fd
00
03
07
0c
07
07
01
03
fe
f9
fa
f5
f1
ef
f0
ee
f8
f5
ff
04
07
0d
09
0e
10
0b
08
0a
0a
05
00
fd
f9
f0
ee
f5
f0
f2
f2
f6
f9
00
ff
05
04
0a
0a
0d
07
08
0a
02
fe
ff
fa
f7
f7
f9
f6
f4
f1
f5
fa
f6
ff
fc
02
02
ff
08
03
08
06
03
05
ff
00
fb
f9
f3
f2
f7
f6
f3
ee
f2
f0
f8
fa
fa
fa
f9
fd
03
06
12
f8
f7
fe
fe
fe
04
fe
03
00
03
00
ff
fd
f9
fb
fe
f9
fb
ff
fc
00
00
fe
ff
ff
05
06
00
06
02
04
04
03
02
02
fe
fc
02
00
fd
fe
fc
f9
00
fc
00
01
08
03
06
06
07
08
04
01
02
00
fa
fd
00
f9
fa
fa
ff
f9
fc
f8
ff
f9
fc
f8
f9
fb
fb
fa
f9
fc
fc
03
04
01
01
07
ff
05
00
fc
01
01
00
fd
fd
ff
fd
02
00
04
02
07
00
00
05
ff
02
fa
fd
fb
fe
fb
fa
f8
fa
fd
f9
fa
00
ff
03
05
08
08
00
07
fe
fc
fd
fe
fa
fa
fa
f8
f8
fc
fe
fc
02
04
03
04
09
08
0c
0c
04
05
02
05
06
03
ff
01
03
fd
01
00
02
01
06
07
05
06
02
02
03
01
03
05
01
fc
fe
fc
fb
fc
03
00
ff
02
03
07
05
09
01
08
02
06
03
08
0c
04
06
0c
05
06
08
08
08
06
00
00
02
01
fd
f9
fb
f5
f5
fa
fc
fd
ff
fa
fc
02
04
06
00
08
07
07
07
02
05
fe
fd
02
ff
ff
fd
fe
01
00
01
fe
fe
01
fb
fc
00
fa
fb
f8
fd
f7
fe
fa
fc
ff
ff
06
07
04
ff
fb
fa
f4
ec
01
fa
f5
ef
f0
e7
e9
e2
e1
d9
db
de
da
d9
de
e0
e4
e5
eb
e9
ec
ee
ec
ef
e9
e9
ec
e5
e2
e3
e3
e5
ea
e8
ef
f1
f2
f4
f8
f6
fe
fc
fc
05
00
05
03
04
0c
0f
13
10
12
16
1d
1c
17
1a
18
1a
15
10
0d
0a
03
fe
f9
f7
f4
f4
f3
f0
eb
ef
f0
f3
f9
fa
03
01
04
07
07
0d
0c
12
0b
0b
0a
08
09
03
07
03
01
01
02
fd
fd
00
01
02
fb
fa
fb
fb
fa
fe
fe
ff
fe
fa
ff
00
fb
00
fd
fd
ff
fb
ff
fb
fe
01
fe
fb
fd
ff
02
01
00
06
07
03
04
08
0a
09
0d
09
09
09
0e
07
0c
05
0b
08
03
03
04
07
02
fe
fe
00
06
07
02
09
08
0a
03
03
02
02
06
05
01
ff
03
02
02
00
06
04
01
04
07
0b
09
09
0a
07
0d
06
09
09
01
03
00
01
01
fd
ff
fe
02
ff
02
02
03
fe
fd
02
fa
fe
fb
fb
fc
f8
fd
fc
fb
fc
00
00
01
04
06
04
08
09
05
03
08
06
ff
02
06
04
04
ff
02
ff
00
04
01
ff
ff
04
01
04
01
02
fd
ff
01
fe
00
03
07
0c
0c
10
11
12
17
0f
04
02
ff
fc
f4
f3
f8
f1
f5
f6
f1
f4
f5
fc
fb
ff
fd
fd
f9
fc
fb
fe
f8
fb
f8
f6
f6
f5
f6
f9
f6
f7
f7
fe
ff
fe
fb
01
ff
fd
03
fd
fd
05
05
02
02
05
ff
07
07
05
00
03
fd
fc
fd
fc
f5
f8
f4
f2
f6
f5
f3
f3
f6
f6
f4
fa
f5
fb
fd
fa
ff
fd
fe
07
05
06
09
06
04
03
06
05
fe
02
fb
01
fb
fc
fc
fa
f7
fc
fb
fa
f4
f9
fd
f7
fc
fc
f8
00
fe
fe
03
00
05
06
01
05
07
07
0c
07
0c
0b
07
05
0a
07
04
00
ff
ff
ff
02
fa
fb
fe
f8
fd
fa
fa
f7
f7
fc
fc
fb
fd
04
04
01
01
01
05
08
07
09
05
09
05
03
04
00
06
02
06
ff
fe
01
01
03
fd
fe
00
f9
fd
fb
fb
fc
ff
fd
06
ff
07
07
04
00
07
03
04
05
06
fe
02
04
04
02
05
03
02
09
05
05
04
03
0b
06
09
05
09
09
02
07
01
07
02
06
03
04
06
01
08
03
03
06
07
01
04
01
03
ff
fc
ff
fc
00
fc
fa
fa
fe
f6
f6
f7
f6
fe
fa
ff
01
fb
fe
05
03
0b
0d
0e
12
15
14
15
14
db
e6
ed
f1
f9
f6
f9
f5
f8
f9
f3
f7
f4
ef
f3
f1
f6
f6
f5
f3
f1
f5
f2
f7
f0
f0
f7
f9
f5
fb
fb
00
ff
02
04
08
06
0c
0c
0e
0f
0f
0e
0e
0e
11
10
09
0b
08
09
03
08
05
07
01
01
01
04
02
02
01
03
04
00
08
03
03
01
08
09
05
0b
06
09
0b
0e
07
0d
0a
0c
0a
0c
0c
09
09
0a
10
10
0b
13
12
0c
0e
10
12
0f
0b
08
09
08
05
02
00
00
ff
fb
00
fe
fe
fa
fa
ff
ff
01
fb
02
03
01
05
ff
06
02
04
00
ff
01
04
ff
fa
00
fa
fe
fc
fa
fd
fb
fc
ff
fc
ff
03
fe
ff
05
00
fd
04
01
00
f9
f9
ff
fc
00
01
ff
02
02
04
03
01
03
05
00
06
ff
fe
01
fb
fd
fc
fe
fa
fa
f7
f4
fc
f7
fd
fa
00
01
fe
fe
01
05
00
fd
02
fc
01
fc
fd
fb
ff
f8
f5
f7
f3
fa
fa
f5
f6
f6
f8
fb
fa
f7
fd
fc
f9
f9
f8
f8
f7
fc
f6
fc
f6
f8
fa
f3
f5
f0
ef
f5
f0
f0
f7
f7
fe
00
02
ff
07
05
01
06
04
02
03
fa
fc
fc
f9
f7
fb
f8
00
fd
06
07
07
0a
06
fa
fb
03
07
0f
0e
17
16
14
17
16
0e
12
16
10
0a
10
06
06
08
05
07
06
05
03
0a
08
07
0b
0a
0f
11
10
14
0e
0e
0d
12
0f
0e
0e
0d
0b
0b
08
0b
06
02
fd
f5
ed
e9
e4
dd
d4
cf
d2
d6
de
e0
ee
fb
03
0f
1b
2a
2b
2e
32
2c
2a
25
19
10
0d
0a
00
ff
01
02
ff
00
04
00
00
03
08
07
02
01
01
02
fe
fe
fb
f9
fd
f9
f6
f7
f9
f8
f6
f3
f9
f6
f5
fc
f4
f6
f7
f6
f9
f7
fc
f7
fa
00
03
ff
01
03
04
02
01
04
02
00
06
03
03
04
fc
ff
ff
ff
fd
ff
fb
fb
fb
ff
fe
f8
f6
f9
f6
f5
f9
f6
f3
f7
f7
f4
fb
f5
fe
f7
fd
fc
00
fe
01
fe
fa
02
fd
01
00
fb
fc
fd
02
04
ff
00
03
fd
02
00
01
fd
fe
ff
ff
f9
fc
02
fb
01
fe
06
02
05
0a
07
05
0b
0a
0c
03
04
06
ff
fe
03
fc
fc
fe
00
00
04
05
07
06
0c
0e
14
12
13
13
14
10
15
16
15
12
15
11
0d
0d
10
0d
10
08
07
04
00
01
fe
f7
f2
f9
f8
f7
f5
f6
fe
fc
04
09
0c
09
04
00
f3
ff
fd
04
fd
01
03
00
04
fd
02
fd
02
fd
fc
fd
00
fc
01
ff
02
00
05
04
02
09
05
04
05
03
0a
09
01
06
00
ff
ff
00
02
02
ff
02
ff
01
fc
ff
00
ff
fa
fa
fc
01
fd
fd
03
06
0a
04
0a
04
07
03
04
00
00
00
02
01
fa
fd
00
fc
04
03
03
09
06
07
01
05
fe
fe
fd
fd
f9
f9
fc
fb
fe
03
03
00
ff
fe
fe
00
02
fe
fa
01
fe
02
fd
02
ff
ff
03
03
01
02
03
04
02
01
00
00
01
ff
fb
fd
fd
ff
fb
fc
fd
02
fa
ff
02
fd
01
ff
fe
fb
fe
00
ff
fc
fe
02
ff
01
ff
03
fe
02
fe
02
ff
fb
02
fe
ff
f8
fb
fd
f8
fa
fc
00
00
fd
02
02
05
01
01
02
03
ff
01
02
ff
02
ff
fc
fe
00
fa
fe
fe
fe
fc
fc
fd
ff
00
fe
fd
05
01
fd
03
fd
fd
fb
fb
fb
fc
fd
01
fd
03
fe
ff
00
00
05
01
05
06
00
ff
ff
02
fe
fd
ff
01
03
03
03
05
04
fe
01
01
05
ff
00
03
00
00
01
03
05
01
01
ff
fe
ff
04
03
02
fe
02
01
01
04
05
fd
ff
00
03
fe
fe
f5
0f
0c
13
10
10
0e
0a
08
06
09
07
01
ff
fe
ff
fb
00
fb
fd
fc
fc
fa
fe
fb
fe
f8
f6
f9
f7
f5
f8
f3
f3
f4
f9
f5
f9
fc
02
04
00
0a
09
0e
0e
0d
0d
11
0c
0d
08
0c
06
06
07
0a
0a
07
05
07
ff
ff
fc
fb
ff
fa
f7
f3
f6
f8
f4
f4
f5
f6
f1
f5
f6
f8
fc
fd
fa
ff
f9
f9
01
fe
f8
fb
fd
fb
fb
fe
01
02
fd
01
fe
05
07
06
08
03
06
0a
05
05
00
04
00
00
fe
fb
f8
f4
f2
f7
f3
f8
f4
f9
f7
f4
f6
f6
f7
fb
f9
fe
fd
f6
fa
f5
fb
fb
f6
f7
fc
fc
ff
f8
01
fa
03
02
02
02
fe
fd
01
fc
01
fe
fd
fe
fc
02
00
fd
05
05
00
03
06
02
02
fc
fe
fa
f6
f5
f6
f9
f7
f6
f5
f7
fa
f5
fb
00
03
02
03
09
09
04
09
0c
0b
05
0d
05
06
0b
0c
0d
0e
0b
0c
0f
14
13
0d
12
0f
0f
10
0e
07
01
05
02
fc
f8
f7
f8
fd
fe
f6
fb
ff
fc
fd
fa
ff
fd
fe
f7
fa
f5
f2
f4
f7
f6
f0
f0
f4
f6
fd
ff
02
05
02
00
09
04
09
05
07
08
08
08
0c
0e
0e
14
f2
f7
f7
fb
fa
ff
fa
01
01
fc
fc
ff
fc
f8
fa
fc
f6
fb
f6
f8
f9
f9
fd
fc
ff
fc
04
01
04
00
ff
00
04
02
fd
fe
fe
fe
fa
f7
f5
f9
ff
ff
ff
fc
ff
03
fd
00
fd
ff
f9
fb
f7
f0
eb
e9
e5
e6
e6
e7
e7
e5
e8
eb
ed
f0
fb
f9
01
09
09
0c
0b
0e
13
10
14
13
0e
0b
08
0f
08
09
0d
0a
09
0a
05
00
01
fe
fe
00
00
fa
fe
fa
f9
fb
fc
fa
fc
f8
ff
fc
f8
f9
fe
fd
f7
f7
f7
f9
fc
fc
fc
f9
f8
ff
ff
fa
fc
00
03
fc
fd
fe
fa
f8
fc
f4
f4
f6
f7
f3
f7
f4
fc
f8
f9
fe
00
04
01
07
03
09
07
06
08
05
08
09
08
02
05
02
05
00
02
08
07
06
ff
03
00
03
fd
fc
fc
ff
fa
ff
ff
fd
f9
fd
fe
fb
fd
ff
02
00
09
04
06
02
03
04
05
02
fd
ff
fb
f8
ff
fd
fd
00
fe
00
fe
fe
fc
ff
fe
01
01
fb
fb
fe
fa
fc
00
f9
fb
fa
fe
03
01
03
05
06
07
0c
06
0a
0b
0a
05
06
01
05
00
02
03
ff
06
03
02
06
04
09
0e
0e
0d
10
16
16
18
19
1f
25
17
09
09
03
00
00
01
fb
03
fd
02
03
03
00
01
ff
fe
ff
fb
fb
03
01
01
fd
04
fe
04
00
ff
02
02
00
fc
f9
fa
fc
fa
f8
f6
f3
f8
f3
f2
f3
f3
f2
ee
f3
f1
ed
ef
ef
ed
e6
e6
eb
e6
e6
e9
e5
e8
e7
ed
f1
f5
f2
f4
fb
fb
fe
ff
00
03
03
02
05
01
04
fe
ff
01
00
fe
ff
02
02
06
ff
00
04
fb
fb
fa
fc
f6
f8
fa
f8
f8
f4
f6
f5
f7
f7
f0
f6
f3
f4
f4
f1
f0
f1
f3
f2
f1
f4
ee
f6
f6
f7
fb
fa
fa
f9
fc
fd
ff
fe
01
ff
fe
06
01
04
07
08
0a
05
0a
0a
0c
0e
10
0e
0f
08
09
09
0c
0a
0d
0a
09
06
0b
0d
09
10
0a
0c
09
0c
0b
0b
07
09
06
02
06
fe
ff
fe
fe
00
06
05
04
08
06
07
03
08
03
fc
01
fa
f7
fb
f5
f8
f6
f7
fc
ff
fe
01
08
0d
0a
0e
0a
0b
0c
0d
0d
07
07
04
05
06
0c
07
08
0e
0c
0a
08
0b
09
04
07
06
06
ff
01
fe
02
02
06
07
0a
0e
11
11
13
12
0f
14
0f
12
16
12
12
13
15
11
0e
10
0d
13
0d
13
14
10
15
16
2e
2a
23
23
1d
13
10
06
07
fd
f5
f6
ee
e9
e4
e2
ea
eb
e8
ee
f0
f3
f2
f3
f5
f6
f1
f0
f1
ec
ed
e7
e7
eb
e4
eb
eb
f3
f5
f7
fb
02
05
03
0a
04
05
00
ff
02
ff
fb
f8
f3
f2
ea
ee
f1
f4
fa
fe
05
09
13
19
22
24
23
29
21
1c
1a
18
0d
0a
01
fa
fb
f7
f4
ef
eb
eb
ec
f7
f5
f9
f4
f4
fb
f7
f9
fc
f6
f9
f6
f5
f8
f7
fa
fc
fc
f9
fc
fe
fa
fe
ff
f7
fd
fa
ff
ff
fa
fb
01
fd
01
01
fd
fe
ff
01
fe
01
03
05
02
04
03
06
ff
04
03
05
01
04
06
0a
07
08
09
08
06
0c
06
06
06
08
06
05
0c
07
07
06
09
06
07
04
02
03
02
fa
f9
fc
f9
f9
fa
fc
01
ff
fe
02
06
02
04
05
08
06
0b
09
06
07
01
ff
04
05
fd
01
00
01
04
05
05
0b
05
0b
03
03
06
01
fd
fd
00
fb
f7
f4
f3
f0
f0
f4
f2
f7
f5
fb
fc
fa
01
00
fe
02
fd
ff
fb
f9
fd
f7
f8
f0
ee
ec
f1
f3
f0
f1
ee
f4
f2
f2
f6
f4
f6
f0
f3
f1
ee
ea
e6
e5
e3
e3
df
dc
e1
e1
e6
fd
00
fb
fc
fc
fd
fe
05
06
09
02
04
07
08
05
09
04
0a
02
03
03
00
01
01
04
fd
fc
00
f9
fc
f8
ff
00
02
ff
01
03
03
02
01
03
02
03
fd
fc
fc
fd
f7
fa
f9
f5
fa
f9
fc
fb
ff
03
fd
06
fe
00
05
fe
01
f9
00
f9
fb
f6
f9
f6
f7
f9
01
06
02
09
02
03
07
01
02
fe
ff
fa
fb
fa
fb
f6
fa
ff
02
02
02
03
fc
fc
ff
fd
fd
00
f8
fb
fb
fa
f9
f9
00
fd
fc
00
fe
01
fb
fc
fd
fb
f5
f8
f7
f4
f8
f9
f4
fb
fc
00
ff
05
02
06
01
03
fd
fd
fa
ff
f7
fe
fd
fa
f8
fd
fe
06
04
0b
08
0a
08
0a
07
03
fc
ff
f9
f7
fb
fe
fe
00
fd
fc
01
06
09
06
0b
08
04
05
07
04
00
ff
00
04
fc
fd
00
fd
fe
ff
04
01
05
03
07
0a
03
04
01
07
04
00
fe
02
00
01
fa
ff
00
ff
fd
05
07
06
09
0a
08
02
02
03
fe
02
fd
fe
fa
fa
02
02
01
01
01
ff
ff
02
00
02
fe
01
fe
00
00
fd
ff
fd
00
04
04
03
01
01
08
00
01
fd
05
04
04
00
01
06
02
04
ff
1d
1a
1e
1e
19
1a
17
18
11
10
12
0b
0d
0d
04
01
02
03
fa
fc
f8
f4
f6
f3
f2
ee
e8
eb
e8
e1
e3
e0
e1
dc
da
df
de
db
e0
e6
e7
e4
e7
e9
f0
ee
f4
f6
fa
fa
f9
fe
04
00
05
03
04
01
03
07
06
06
03
09
04
03
07
05
07
07
05
ff
00
03
04
03
04
01
04
04
07
0c
06
0a
10
0b
0f
0e
13
15
0e
14
13
10
0c
08
0a
02
01
fb
f9
f6
fa
f9
f7
f1
f4
f2
f2
f0
f2
fb
fc
fd
fb
00
00
07
08
05
09
0c
0a
0d
0f
0f
0d
11
10
13
15
11
0f
14
15
13
17
12
19
14
15
13
16
13
14
16
12
11
10
0d
0a
05
05
05
fe
00
01
fa
fd
fb
f5
f7
f3
f3
fc
f5
f7
f8
f5
f7
fa
f7
f9
f6
f8
fa
fc
fa
fe
fd
fd
f8
fa
f6
f6
f8
f6
f9
f7
f3
f7
f9
f7
f9
f4
fa
f4
fb
f6
f9
fb
fb
fd
f9
fa
01
fe
ff
fe
fd
fc
04
03
02
00
06
05
00
04
04
07
07
ff
03
fe
03
01
f9
ff
fb
fb
f2
f7
f3
ed
ef
eb
ef
ec
f1
ef
f2
f5
f1
f9
fa
f6
fe
fe
fd
04
00
04
04
09
02
13
0f
14
19
1a
1b
1b
1a
1b
1a
17
1d
19
15
11
14
14
10
16
14
10
16
13
12
13
09
0a
0a
03
ff
fe
f6
fb
f2
f4
f8
f6
fc
fc
03
08
07
09
10
16
14
15
1a
16
11
12
14
0b
10
0b
07
03
06
03
06
02
01
03
01
fd
fd
f7
f4
f1
f1
e7
e5
e5
dc
d5
d3
d5
d4
cf
d5
d6
d7
dd
df
e1
e9
ef
ec
f0
fb
fc
ff
04
02
06
08
0c
06
0a
08
06
0b
05
05
ff
02
fc
f5
f2
f2
ed
e7
e7
e9
e4
e7
e6
e1
e8
e8
ea
f1
ec
f2
f5
f3
f7
f3
f8
f7
fa
f5
fb
fc
f5
f5
f7
f6
fa
f9
fd
fb
f8
ff
fb
fd
fa
ff
f9
00
fe
fc
fd
fc
00
00
02
00
05
05
08
0c
0c
0d
10
0f
13
0e
0e
16
17
12
16
13
11
13
15
18
19
19
1a
1b
19
14
14
10
11
0a
09
05
03
00
02
fc
f9
fe
fa
fb
f9
fb
fd
00
00
fe
04
fe
04
03
fd
01
fc
fe
ff
f9
fe
fc
fa
fd
04
fe
02
05
03
03
08
06
01
07
00
ff
ff
fa
ff
fd
fc
fc
fd
fb
00
01
06
08
05
0b
07
0c
0d
0b
09
0a
07
07
0b
04
05
04
f9
fa
f7
f6
f2
ef
e6
e7
e6
e2
e1
e1
dd
de
e0
e5
e7
ea
eb
ef
f7
f8
f5
f8
f7
f0
f0
ea
e9
e7
e9
eb
ea
ef
f2
f0
fa
fb
03
06
0b
0c
0f
09
07
08
06
00
fc
f2
f3
e7
e6
e9
e6
ea
e4
e8
f0
f4
f4
fd
03
01
09
0b
0b
12
11
0c
10
0e
07
03
ff
f7
f2
f4
ed
ec
e8
e4
e5
e9
ed
f3
f9
06
07
12
1b
1c
1f
1c
21
1b
17
10
11
0b
04
fe
f9
f1
f4
ef
ec
ed
ed
ee
f1
f4
f3
f9
f8
fb
fb
00
fe
04
05
02
06
07
0d
0f
0e
18
13
1b
1e
1e
19
21
21
1c
1a
22
1b
1b
1f
1a
1f
20
1a
1d
1a
12
14
11
0c
07
0d
09
08
00
04
fe
ff
ff
04
00
02
02
08
07
01
03
02
05
fe
fd
03
f8
fc
fa
f9
f5
f8
f6
f7
f1
f4
ee
f2
ec
f2
f0
ea
f1
f0
ee
eb
ed
ed
eb
ef
ec
e9
e7
ef
ea
f0
ef
f3
f2
f8
fa
fd
fd
01
05
ff
01
05
fc
fe
fb
f6
f2
f6
f1
ed
f3
f1
f5
f0
f4
f9
f8
00
04
0b
0b
0e
15
11
11
16
13
12
11
0b
08
08
07
0a
09
0c
15
16
1c
1e
26
29
2f
ea
f0
f8
fc
04
0e
14
15
16
18
15
1a
14
12
0f
0b
09
08
0a
0d
0a
0b
0a
0a
06
09
0b
0d
0c
0f
0f
11
0f
0a
10
09
0c
0c
07
03
05
fb
fb
fd
f7
f6
ef
f2
f3
f9
f6
f3
f6
f7
f9
f6
fd
f8
fa
04
05
08
07
11
10
10
10
13
15
0d
0b
07
05
fc
fa
f6
f0
e9
e8
ea
ea
f1
f3
f7
01
08
09
15
17
1f
1d
1c
14
15
0d
05
fe
f8
ed
ef
e9
e9
ed
ed
f3
fd
01
0b
14
17
1c
1b
1c
19
17
0d
07
05
01
f8
f6
f6
f1
ef
f1
ec
ea
e8
eb
e9
e7
e8
e8
ea
ef
ed
ee
f2
f5
fa
fc
07
07
0f
13
15
16
17
11
0f
0d
0f
0d
0a
03
04
03
06
03
01
ff
ff
03
07
05
08
06
05
09
0a
0b
02
01
03
fc
fc
f8
f3
ed
f1
ea
e8
ea
ee
f4
f4
f3
f8
f8
fb
fc
01
f9
fa
f9
f5
f2
ef
ef
e8
ea
ec
f0
f1
f5
f7
fa
02
09
0d
0c
13
14
16
14
10
0c
0c
09
00
04
00
03
03
ff
07
02
0c
0a
0f
15
16
17
15
12
19
18
11
0f
0a
0e
07
08
07
0a
02
05
ff
03
01
00
02
04
fd
ff
fe
03
07
00
03
fd
f9
f5
f7
f9
fa
f6
fb
f9
fb
ff
fd
03
04
02
01
00
04
07
02
09
0d
0f
0b
0e
0e
12
0b
07
07
09
09
00
fe
05
05
06
06
07
11
10
16
18
21
24
21
21
1c
19
13
0f
0c
04
fd
f9
fb
f7
f3
f1
f8
f7
fe
fd
ff
05
00
04
09
05
03
03
01
fd
fd
00
02
fc
02
02
00
02
ff
fe
03
00
00
fa
f5
f1
ed
eb
ec
ec
ea
eb
f2
f3
f4
f7
fd
fa
fd
06
05
0a
05
00
01
03
ff
fe
00
f8
f9
f8
fa
fb
f7
f9
fc
fc
fd
fd
fd
ff
02
fb
fc
fb
fb
fe
fb
f7
f6
f8
f9
fb
fa
fd
ff
01
04
03
08
0c
09
05
09
02
00
03
fc
f5
f5
f3
f4
ec
ec
f0
f3
f0
ef
f7
f4
fd
fb
ff
fd
fa
fe
fc
fe
fc
fa
ff
f7
f9
fb
f9
f5
ef
f1
f6
f7
f8
f6
fc
00
ff
06
07
08
11
0c
0e
0d
0b
06
07
01
01
fa
fb
fc
f7
fd
fc
fd
01
03
01
09
0b
04
08
07
07
02
03
03
ff
f7
f8
f8
f8
ff
fb
02
05
01
06
09
08
0b
06
00
03
00
fb
f5
f3
f5
f1
f4
f7
ff
fd
08
0a
0b
13
10
01
04
00
01
fd
fe
04
00
fe
04
03
04
01
fe
ff
fb
fe
f8
ff
fe
f8
fa
f8
fd
fe
fb
fd
fd
03
01
02
00
ff
fd
fc
f6
f8
f9
fa
fb
00
ff
ff
08
0c
0c
11
0c
0d
12
11
0e
0a
05
06
03
04
fc
00
fc
fb
f6
fa
00
fa
fd
05
05
05
07
08
07
06
05
03
ff
01
00
02
fa
fe
f7
f6
f6
fd
fc
f9
f8
fe
ff
fa
00
00
fa
02
fc
00
fc
fb
fc
f9
fd
f9
fe
fb
ff
00
04
02
03
03
07
02
01
05
03
02
02
02
05
02
01
02
06
08
05
07
0b
05
0b
05
07
01
fe
ff
01
fb
f8
f9
f8
f8
f8
00
fa
01
fc
02
01
00
02
00
06
ff
02
fe
04
fd
ff
fd
fc
fe
fb
fc
01
01
ff
01
07
01
05
06
05
06
00
fc
03
fa
fc
f8
fe
fb
ff
fa
fe
01
f9
02
ff
fd
00
01
03
ff
fd
03
fc
ff
fe
01
00
00
fb
fd
04
ff
02
07
05
08
01
04
02
fd
00
00
fd
f8
fc
f9
fb
f7
fc
ff
fb
ff
fd
00
03
02
03
04
05
03
05
03
fd
02
03
fc
ff
03
02
05
01
02
02
05
0a
04
09
08
00
00
fb
f9
f4
0b
09
04
fe
01
fe
f7
f7
fc
fe
f9
fa
fe
03
fe
fe
04
ff
05
00
00
01
fc
ff
00
fe
fb
fd
fd
ff
01
01
08
05
0a
05
04
06
04
02
03
03
02
01
fc
fc
f9
fa
00
ff
00
00
fe
00
ff
03
00
04
03
00
03
02
04
05
04
04
05
08
01
05
02
01
04
07
02
fe
fc
02
ff
fd
fe
f7
f9
f8
fc
fd
fe
fe
fd
06
07
04
09
0a
08
05
02
04
07
fe
04
fb
ff
fc
fb
fc
fd
fe
01
ff
00
fd
00
fd
00
00
00
fb
fc
fa
fb
fb
fb
fd
f9
ff
fa
fd
01
00
fe
02
01
01
04
00
02
03
06
03
06
ff
01
03
fd
fc
02
ff
ff
04
00
02
01
ff
ff
fe
01
02
fc
fc
00
00
fb
fb
00
fd
fc
fe
fc
03
03
fe
01
00
ff
ff
ff
00
fd
fb
fa
fb
01
00
01
ff
fd
02
fc
01
03
00
04
07
08
04
04
06
05
04
fd
fc
fe
fe
fb
f9
fc
f8
f8
f7
fd
fa
fd
fc
fe
fe
01
01
03
ff
ff
02
fe
ff
01
01
ff
ff
fe
fd
03
ff
ff
ff
05
06
05
fd
ff
fe
03
04
01
04
02
0a
08
04
06
06
fd
02
f6
f4
f3
e8
06
ff
03
fc
fa
fb
fa
f8
f9
fe
fa
fb
fc
04
fe
08
04
03
05
03
06
09
05
07
03
06
ff
fd
03
00
04
04
05
02
06
05
07
02
07
08
07
07
0c
0e
0e
0d
0c
06
08
00
01
ff
ff
fc
04
00
00
04
0b
08
0d
0f
0e
0a
11
0d
0f
0b
06
08
06
04
07
02
01
04
02
07
07
06
07
04
08
07
07
06
01
05
05
06
00
ff
05
02
04
02
04
00
01
01
04
01
01
07
03
03
02
07
01
ff
04
fc
fb
fd
fb
fa
fb
fa
fe
fa
ff
fd
01
fe
ff
01
04
03
01
03
02
00
fe
ff
fe
fd
05
ff
01
05
00
01
01
00
01
00
02
ff
ff
fd
fb
fe
f9
f7
f8
f9
fd
00
02
01
07
00
05
07
02
02
fe
fd
01
fd
fc
fb
fd
fb
fa
f8
01
fd
02
05
00
02
08
06
02
04
03
ff
ff
01
fe
fe
f9
f9
fd
fa
fc
ff
fc
fb
fe
ff
00
fc
fb
ff
fa
f8
f9
fb
f6
fa
f8
f6
f6
f7
f6
fb
ff
01
02
fb
fd
03
fd
fc
fb
fd
f7
f8
fa
f7
f6
f9
fc
fb
f7
fc
fb
fa
fe
f6
f8
f7
f8
f8
fc
f7
f5
f5
fd
f3
f9
f8
f5
f8
6b
6a
5a
57
4e
3c
2f
19
0a
00
f3
e3
e6
e1
de
d9
d9
dd
e0
dc
e1
e9
e9
f7
fe
00
01
07
0a
0c
0e
0b
0a
00
fe
fa
ea
ed
e0
dd
de
e0
d8
db
d8
df
e3
ec
f5
f6
01
03
09
0c
15
11
19
12
14
0c
10
0c
02
04
fd
02
ff
fd
fc
fe
fd
fc
fa
02
fb
01
04
fd
01
ff
01
fa
fc
fa
00
fd
fc
fe
fe
fe
04
03
03
fe
04
05
07
07
01
03
02
01
01
06
08
04
ff
00
ff
ff
03
ff
ff
fc
fd
f9
00
fe
00
01
00
00
fe
ff
fb
00
00
fa
fc
00
fc
01
fe
fd
fc
fd
01
fc
00
03
fe
fe
fc
fd
fc
fe
00
02
fe
fc
ff
fd
03
03
00
fd
01
fc
ff
fa
fa
fa
fb
00
fc
fe
03
00
ff
08
02
06
08
06
02
03
06
08
09
08
0b
0b
04
0c
05
08
06
07
08
0a
05
07
06
03
07
04
05
02
04
0c
06
0f
09
07
07
05
03
07
05
ff
fe
fb
f9
f9
f9
f3
fd
ff
03
05
0a
07
10
11
13
0d
0f
08
0b
01
fd
f7
f2
eb
e6
e6
e5
ee
f9
02
0c
18
1c
20
23
25
1b
11
04
f5
e1
d7
c5
b4
aa
ab
ff
fd
f9
fb
f9
fc
fd
ff
fb
01
f9
ff
02
01
01
fa
01
fa
f9
f8
f8
fb
fc
fe
00
fb
00
ff
00
01
04
05
07
03
03
fe
ff
fa
00
00
fc
f8
00
fe
fd
02
03
00
fe
02
ff
01
01
00
ff
02
ff
fe
03
04
00
fe
01
03
01
05
08
02
03
02
01
06
03
ff
ff
04
00
05
02
04
08
02
05
ff
00
05
00
02
01
04
04
02
01
04
fe
fd
01
02
05
05
02
08
05
02
07
fe
fe
fd
fb
fb
fa
fd
01
03
01
00
04
03
ff
fe
02
03
02
03
fb
00
fb
fa
fe
fc
fe
02
fd
fd
02
07
02
06
06
05
01
01
01
06
02
ff
fb
00
00
ff
01
02
fd
fe
03
05
01
01
07
02
05
fd
01
ff
fe
fc
fc
fc
f8
f6
fd
fb
fd
ff
fb
02
02
fd
01
00
02
fd
04
ff
04
fc
03
fb
fe
fe
00
fc
ff
03
01
04
ff
01
02
03
02
02
02
02
ff
00
01
05
01
03
02
03
07
06
01
00
fb
fc
fa
fa
fe
fd
f9
00
ff
ff
05
fe
ff
05
00
05
00
02
02
00
00
03
fc
ff
00
fe
fb
02
03
01
03
03
04
06
06
02
04
00
ff
f5
fb
00
fc
06
00
04
06
0f
0a
0f
13
11
16
16
16
17
18
15
16
10
11
0c
05
07
02
fb
f8
fd
fb
f8
f7
fa
fe
00
04
ff
00
07
08
06
06
03
03
06
01
07
06
07
08
0a
0d
0b
11
0c
12
0c
10
0d
0a
06
02
07
05
fd
00
ff
00
04
06
04
07
0a
0c
0c
0b
09
0a
0e
0c
0a
03
04
03
03
02
fa
fb
fa
02
fe
00
07
06
09
08
05
06
09
06
08
02
05
00
ff
ff
fc
01
03
04
05
03
00
00
03
09
07
09
04
08
07
ff
fe
01
fb
fc
fb
00
f9
f8
fa
ff
fd
02
04
02
07
05
03
05
02
09
06
04
01
04
01
01
01
ff
01
00
ff
fe
00
01
fe
01
00
03
fd
fc
fd
fc
fc
fe
fc
fc
fd
fb
f7
f7
fe
fb
ff
00
fd
01
fa
f8
f8
f8
fb
fa
f6
f7
fa
f8
f9
f5
f6
fa
f8
f9
fc
ff
02
03
05
01
03
04
ff
fc
fe
f9
f7
f8
fb
fd
fc
fa
fb
fd
fd
02
fe
01
01
02
01
00
fc
fd
fe
f9
f8
f2
f5
f0
f6
f6
f6
f9
fd
f8
00
fc
02
07
04
08
08
06
01
fd
fd
fd
f8
fa
f5
f3
ed
eb
e2
e2
d6
d7
df
de
e2
e8
ec
f1
f9
fd
fc
ff
ff
01
02
07
09
0a
09
07
0b
09
0c
08
0a
04
04
08
02
04
07
06
02
03
0a
07
06
09
0c
10
10
0f
0f
12
0c
12
0d
0b
0a
0d
0c
09
01
04
02
03
fd
fc
fc
fd
fe
fc
fd
fc
04
01
01
02
04
0b
0d
0b
07
07
09
09
09
08
06
04
06
01
01
03
02
05
01
04
01
04
01
05
06
01
06
06
08
04
05
05
08
0b
06
05
05
08
08
05
06
07
02
01
ff
04
04
fe
03
03
02
02
01
04
ff
02
04
04
00
ff
05
00
04
fe
fe
05
04
fe
02
02
fe
01
01
03
fe
fb
fd
ff
fe
02
04
03
01
fe
fd
00
fd
02
fc
fb
fb
fb
fa
fe
fa
f8
fe
f8
fe
fd
fd
f6
fc
f7
fb
f7
fe
fe
f8
fe
fa
fd
02
02
fb
01
fd
fe
03
fe
00
fb
fc
fa
00
fb
01
00
fc
03
ff
fe
02
fc
fc
fc
fd
ff
fc
f9
f8
fb
fc
f7
fd
fc
fa
ff
fc
fc
fd
01
02
fe
fe
fe
fd
f6
f7
f9
fc
f3
f4
f7
fa
fb
fb
01
fe
00
03
09
05
0b
0e
08
0d
05
0c
04
05
00
f8
f5
ee
e3
da
cf
c7
f1
f4
f5
f6
f8
f8
f6
f7
f1
f8
f5
f4
fb
fc
fe
01
02
01
03
01
00
fc
ff
fd
fb
f6
f8
f5
f7
ef
f0
f0
f2
f6
f2
f6
fa
fe
00
fb
00
ff
05
fe
01
00
fe
fc
fa
f7
f8
f5
f4
f0
f9
f5
f6
ff
fc
03
06
04
0a
06
02
03
01
ff
fc
fa
f9
fd
f8
fb
fd
02
02
ff
06
03
05
05
08
08
06
07
03
00
03
02
ff
ff
f9
f9
ff
f9
fc
ff
fe
fb
fd
fd
fe
fc
05
ff
03
00
04
03
03
05
04
02
07
01
04
06
03
05
03
03
04
02
01
01
04
02
06
05
02
02
03
01
00
02
00
fe
fc
02
ff
02
01
00
03
fc
03
fd
ff
ff
02
03
02
09
07
05
02
07
00
00
02
ff
04
fc
00
00
ff
ff
fc
fc
ff
fe
00
06
09
0a
0a
0c
0c
0d
08
09
0b
08
04
04
02
05
03
03
02
03
03
00
00
02
02
02
02
03
ff
07
08
09
02
07
09
04
06
07
09
08
04
01
05
07
08
05
ff
fc
02
fb
ff
fe
fa
fc
ff
fc
00
01
05
07
06
09
09
06
02
06
03
fe
02
f9
fd
f4
f4
f5
f8
f9
f8
f9
01
02
06
05
05
04
cb
da
eb
f1
fd
10
1c
27
34
40
46
45
4b
43
3b
35
2e
28
22
17
0a
03
fb
f1
f2
ea
e3
e6
e9
e9
ed
ef
f7
fb
03
03
08
11
12
11
12
11
0d
03
05
f7
f7
e9
e7
dc
db
db
d3
d5
d7
dd
ea
f3
f5
02
05
07
0c
12
13
11
13
0e
0f
05
07
00
01
02
00
02
05
00
06
09
09
04
00
07
00
01
fc
00
fb
fb
fd
f9
fb
00
03
01
06
03
02
04
02
09
00
04
ff
fe
fe
fe
fe
ff
fb
fe
fd
fa
fa
f9
01
02
03
fe
02
01
01
fb
ff
f9
fe
fc
fb
01
fa
fe
ff
fc
02
ff
fb
fe
ff
ff
fc
fb
fe
f8
fa
f9
fc
f5
f7
fb
fb
f6
f7
f7
fb
fd
fa
fa
f8
fd
ff
fb
ff
00
fd
fe
ff
00
fe
00
04
06
04
05
07
06
02
07
01
03
01
04
01
00
03
03
03
05
01
03
fd
01
fb
ff
fd
03
02
fb
01
ff
fc
fe
fc
fb
02
02
fe
02
03
02
05
03
ff
fd
fc
fb
f9
f5
fb
f8
f6
f6
fa
fa
00
03
0b
0e
14
14
16
1a
16
15
0d
08
03
01
f9
f4
f0
f0
f1
ec
f2
fb
fa
fc
01
08
15
17
1c
20
23
1f
03
04
06
00
04
02
07
05
02
07
ff
00
01
03
01
00
04
02
05
ff
02
05
ff
07
02
02
02
05
03
fe
06
00
04
00
fd
fd
05
05
02
03
03
fc
01
03
04
04
00
04
03
04
02
05
07
07
03
05
02
fd
fa
ff
01
ff
fb
fe
fe
ff
00
02
08
04
06
05
04
02
fe
03
00
ff
fb
ff
ff
fd
ff
fe
01
fb
fc
01
fd
fc
03
00
02
fe
fd
fd
fd
ff
ff
04
00
00
02
02
04
03
03
02
05
00
fe
fc
01
ff
fb
f7
f5
f6
f9
f6
fd
fb
fc
ff
01
00
01
03
01
ff
fa
fc
fc
fb
fe
fc
fa
fa
01
02
04
01
02
fe
02
00
04
04
fa
ff
fa
fc
01
ff
ff
fc
ff
01
02
fe
03
04
03
04
04
01
03
01
fe
03
fd
00
01
02
ff
03
06
ff
05
ff
05
03
fd
fd
01
00
ff
00
fa
fd
01
ff
fb
04
01
01
04
00
04
06
01
00
ff
fe
01
fd
fb
fc
00
03
fc
05
03
03
06
02
03
fe
ff
ff
ff
fe
ff
03
fe
01
fe
03
03
00
ff
00
00
01
01
00
fd
00
ff
fb
fb
fd
fc
fc
ff
fc
00
01
05
ff
03
04
fe
ff
fe
f8
f6
f9
fd
f8
fa
ff
00
fa
fd
fc
01
fe
fb
fe
fc
00
fe
03
03
05
07
05
06
06
02
02
02
fe
fc
01
f8
fa
fa
fa
f3
f3
f6
f0
f7
f4
f1
f3
f6
f3
f7
f4
f7
f8
f8
f3
f7
f7
f7
fb
fd
fa
02
00
03
07
05
08
04
0c
08
07
08
06
04
05
05
04
fd
fb
fd
fa
fb
fc
00
fe
00
ff
01
00
03
02
ff
03
01
00
f9
f9
fc
fd
fa
fb
f8
fb
f4
fc
fa
f6
fd
fa
fc
fd
f7
f7
fd
f9
f6
fa
f7
fd
f8
f8
fd
00
ff
03
00
ff
04
03
03
ff
04
01
02
02
ff
03
03
fe
fb
00
ff
fd
02
04
03
03
04
04
00
02
fb
00
fe
f8
fc
f7
ff
f7
fc
01
00
02
05
08
0b
0b
11
0f
11
0f
0e
0e
0a
0b
0d
09
03
08
06
07
01
06
01
00
01
02
02
01
02
ff
fa
fa
fd
fc
f4
fa
f5
f9
f9
f8
f8
f9
01
01
ff
02
07
01
0a
08
09
03
09
05
02
03
03
04
00
03
02
0b
05
07
0f
0f
0c
0b
0a
0b
0c
0b
09
02
03
00
00
05
fe
00
05
05
ff
01
00
ff
05
01
fc
02
fb
f9
f9
fa
fb
fb
fb
04
04
0b
05
00
02
05
04
ff
01
fb
f9
f8
f8
f5
fb
f8
f4
f4
f6
f4
f6
f8
f7
fb
01
01
ff
fe
03
01
01
03
02
08
03
06
07
05
06
0a
06
0b
0a
08
0b
0b
0d
0c
0f
0f
11
0a
0e
0f
0a
09
0a
02
ff
04
ff
fc
f5
f3
f5
f1
f3
ed
f1
ed
ee
f1
f0
ec
f2
f3
f0
ef
f6
f8
f9
f9
f9
f6
f7
f9
fb
fa
f9
fd
fd
fa
01
00
03
00
05
05
09
0b
09
0d
0a
0b
0e
11
10
11
12
10
0f
08
08
0b
0c
08
07
07
03
04
01
01
01
ff
01
fc
01
fa
fa
f9
f5
f6
f9
f1
f7
f2
f2
f8
fa
fd
fe
01
01
01
05
00
00
03
02
07
05
06
fe
03
fa
fb
00
fc
fc
f9
fd
fc
01
00
fd
fd
fe
02
02
ff
01
03
06
00
02
00
05
ff
ff
03
04
02
03
fc
fd
02
01
01
fa
fe
00
fe
fc
ff
00
ff
fe
fa
fb
02
fe
04
04
07
07
0c
0d
08
0f
08
08
0c
09
05
06
0b
05
05
04
09
0a
04
07
06
03
06
06
07
06
fe
fe
fc
f9
fb
f9
f5
f6
f2
f3
f4
ed
f1
f5
f3
f4
f7
f5
f5
fb
fc
fb
f9
fb
00
03
0a
0b
0d
1f
12
10
0d
06
07
03
fe
ff
02
fd
04
00
02
fb
fe
f7
fd
fd
fc
fb
fb
fa
01
00
fe
ff
00
01
04
02
03
fe
00
00
00
fc
fe
f7
f5
fa
fc
fc
f6
fe
f6
fc
f9
fd
fb
fc
fa
f6
f4
f6
f9
fa
fd
f9
fb
00
01
02
ff
ff
ff
01
02
ff
fe
00
05
01
fd
f9
fc
f7
f7
fb
fb
f8
fb
fd
fc
00
02
ff
02
00
02
01
01
02
04
03
03
05
02
01
04
ff
01
03
04
04
fc
00
02
fe
f8
00
f9
fa
fb
02
04
00
05
06
02
05
05
06
04
07
00
fe
fe
fc
fa
f7
fb
fc
fb
fb
01
ff
ff
ff
05
02
06
04
08
07
07
03
01
03
01
04
00
00
04
fd
03
01
fd
03
fd
fc
ff
00
fd
02
05
01
08
08
0c
0c
08
08
03
04
06
05
05
03
fe
fe
fe
fe
fd
f9
fa
fb
fd
fb
04
04
05
05
05
01
ff
00
01
00
fd
fd
fa
fe
00
ff
fc
00
01
06
06
02
08
07
04
06
07
09
05
06
06
ff
01
03
01
01
fd
fc
00
00
ff
05
02
ff
03
06
06
08
08
07
0d
0c
05
07
06
04
02
01
01
fe
07
09
0a
0e
13
1c
23
c4
cb
d1
dd
ed
fa
07
14
1e
1f
22
26
29
20
22
1b
1a
10
11
0b
02
fc
01
05
06
06
11
12
1f
22
2a
31
35
38
39
35
2e
2b
1c
0f
05
02
f1
ed
e1
da
da
d9
d3
d9
d6
de
df
e0
e3
e6
e5
e9
e7
e6
e5
e9
e7
ec
ef
eb
f2
f2
fc
fd
04
08
0d
0b
0d
14
10
11
0f
0b
0e
08
0c
0c
0c
07
0c
0d
09
03
07
06
02
04
00
fb
01
fd
fa
fe
f9
fa
f9
f5
f6
f8
f6
f9
f5
f5
f7
f2
f3
f1
ef
f4
f7
f5
f2
f9
f4
f6
ff
fa
fc
ff
ff
03
00
ff
02
04
04
05
01
04
03
04
03
06
05
02
07
06
06
06
03
03
fe
03
03
fe
04
ff
01
fe
fd
fd
02
fd
fa
fe
fb
fa
fb
fa
fb
ff
fd
ff
02
01
07
06
05
07
0a
04
05
0b
0a
09
06
03
06
04
02
05
02
ff
fe
fe
04
07
02
03
09
03
0d
0b
10
0d
0f
09
0c
10
0b
0f
0a
07
03
00
00
f7
f6
ec
e8
e0
d4
ce
ce
c5
c1
c2
c3
cc
d6
e2
ed
f9
05
11
21
2e
34
3f
40
3a
34
32
26
1a
0f
07
fe
fe
f4
f7
f6
00
03
0d
18
1c
1e
1d
04
07
04
06
05
01
06
02
04
fe
fe
04
04
02
04
05
08
06
06
06
01
ff
fb
f8
fd
f9
f7
f7
f7
fa
fe
00
fa
fd
fb
f8
fd
fd
fc
fc
f7
f9
fc
f8
00
fc
03
02
07
09
06
03
08
ff
00
fb
fc
fe
fc
f7
f7
fb
fa
fb
04
05
03
04
09
08
05
0b
06
05
01
fe
fa
fe
fc
fd
fe
02
ff
f9
fd
00
fd
00
fa
f9
01
fc
01
01
fc
fc
00
ff
06
06
09
02
04
03
00
ff
03
01
03
00
02
04
01
02
03
04
07
02
01
03
ff
01
fc
fd
f8
f7
fd
fd
f6
fa
f6
f8
f8
fb
01
01
03
ff
04
04
04
03
00
03
05
00
03
00
00
01
fc
fd
fb
f8
fc
fc
fb
fd
fc
01
fb
00
ff
ff
fc
ff
fa
00
fb
fe
00
00
f9
fd
f9
fb
fc
f7
f7
fd
fd
fa
ff
00
fe
fd
02
ff
00
fe
02
00
fc
fb
fc
fa
fe
fd
fd
fb
01
fc
fd
02
ff
ff
03
ff
05
01
04
02
00
01
03
02
05
06
01
01
03
06
04
07
05
05
02
05
02
03
06
02
02
08
03
01
03
04
00
ff
ff
02
02
fd
fe
01
fe
00
00
00
04
05
07
07
08
04
e5
ea
f5
f1
f5
f5
f9
f4
f4
f8
f1
f2
f4
ee
f4
f2
f7
f3
fc
00
03
00
04
08
08
0b
0d
06
06
0b
05
02
05
02
ff
fc
ff
fd
fa
fc
fa
f7
fe
f6
f8
f7
f5
f2
f2
f3
f1
f1
f4
f4
f1
f4
f6
fc
fb
02
02
04
03
04
04
01
01
ff
01
fe
fa
fc
f4
f3
f4
f8
f7
f4
fa
f7
f9
f8
f8
f7
f6
fb
f8
fc
f8
f7
f7
fa
fb
f8
ff
ff
fd
03
fe
05
ff
06
07
05
06
00
05
02
02
03
fc
01
01
04
02
02
07
07
07
05
0a
05
07
0a
07
04
06
00
03
fd
01
01
fe
fb
04
fe
04
06
05
09
07
09
0f
0c
0d
07
0b
0d
08
06
09
08
02
04
05
04
02
06
03
04
01
03
fe
fc
f5
f6
f5
f1
f4
f2
f0
ee
f6
f3
fc
fe
fc
05
07
06
09
0c
11
0f
15
13
14
10
0f
0d
0b
09
0e
0d
0b
0f
0f
13
0f
0e
15
11
0b
0d
0a
06
02
fc
fc
f9
f9
f5
f9
f3
f6
fa
ff
fc
04
07
08
09
06
07
0a
04
01
02
fd
fb
fe
f6
f7
f8
f5
f5
f9
f9
fa
fb
ff
ff
fb
fe
01
00
fc
01
fa
fd
ff
fe
04
06
0e
11
e8
eb
ec
f7
fc
f8
ff
fd
03
01
01
01
01
fa
fe
fa
ff
f9
fd
fd
fe
ff
03
07
0b
05
0c
0d
07
08
04
02
fe
02
f9
fd
f9
f9
f5
f7
f2
f3
f3
f2
f1
f8
f5
f6
f5
f7
f2
f5
f8
f6
f6
f9
f7
00
00
ff
06
03
0b
07
08
0c
0b
0e
09
0d
08
05
02
02
ff
fc
fe
f5
f6
f6
f4
f4
f5
f9
f8
f7
fe
00
ff
fc
04
01
01
02
05
ff
fe
02
fd
fd
fe
00
f9
fa
f4
f9
f2
f4
f3
f0
f1
f1
ed
ec
f5
ef
f3
f8
f8
fb
fe
ff
04
02
07
03
07
0a
08
05
04
05
00
01
01
fb
fe
fd
fa
f8
fb
00
ff
01
fc
fc
01
fe
06
04
03
06
06
09
0a
07
0b
0a
0d
0b
0c
06
0b
0b
0b
05
04
07
fe
01
01
fd
03
01
02
01
00
00
03
02
02
03
05
02
09
0a
08
09
06
03
01
01
00
fe
01
03
fd
01
01
01
00
02
02
fe
01
03
fd
fe
02
fe
fc
fd
fd
fa
fa
fa
fb
03
01
00
07
06
06
08
05
07
0d
06
09
0a
04
06
05
08
00
00
02
02
05
04
06
06
00
04
04
00
00
03
03
02
ff
ff
06
05
0d
10
1a
13
0e
0a
02
07
07
07
06
05
05
0e
0b
05
09
0a
06
06
ff
00
fe
fd
00
ff
ff
01
05
07
01
07
03
07
02
00
03
01
03
00
00
ff
06
00
06
00
05
ff
05
04
04
01
01
f9
f9
fb
f9
f6
f6
00
02
00
03
06
02
04
0b
0c
05
03
07
03
00
ff
fc
01
fc
00
fc
fa
fa
fd
fd
f7
f8
fa
fb
f9
f4
f9
f7
fa
f7
fa
f7
f9
01
fb
fd
fd
02
02
03
04
ff
01
03
00
ff
02
00
ff
ff
04
07
06
0a
0c
12
13
12
1a
1a
15
1a
15
15
14
0e
09
0a
08
06
ff
02
01
00
fd
fb
fd
ff
04
02
ff
03
01
01
01
04
fd
00
00
f8
fa
f9
f4
f3
f0
ef
f0
f0
f2
f6
f0
f8
f9
f5
f8
02
01
06
08
06
04
08
07
07
07
0a
01
03
03
fd
fb
fb
fc
03
fe
02
05
00
03
02
04
05
fe
fb
fc
f9
fd
fa
f3
f6
f3
f7
f4
fa
f8
ff
fe
06
0a
06
07
0b
08
0c
0a
0a
07
01
01
01
00
fe
fa
fd
f7
fd
f8
f9
fe
f8
fc
f9
fa
f9
f6
f7
f8
f8
fd
fa
f7
fd
fa
fd
01
05
06
07
06
0c
03
04
01
06
01
b5
bd
c7
d6
ed
fc
0b
16
22
2e
32
35
3d
34
32
23
16
0a
05
f1
ec
e4
e2
e3
e4
e8
f2
fa
fe
0c
19
20
2b
34
38
45
46
45
3f
3f
2e
24
14
0d
01
f3
e6
e1
d9
dc
d6
df
e0
e7
e8
ee
f0
f4
ff
ff
fe
f8
fe
f6
f5
f3
f3
f2
f0
f0
f1
f2
f6
f9
f9
f9
fe
f9
f7
f8
f8
fe
01
fe
fe
03
fc
01
fb
01
fa
fb
00
01
fc
fc
00
ff
f7
fd
f9
f4
f6
f6
f8
f5
f9
fc
ff
04
07
0b
0b
0d
0d
0d
06
05
04
fc
fe
fa
fc
fc
f8
ff
ff
03
06
08
09
09
06
07
09
04
04
ff
ff
00
fd
fe
f9
fc
f9
01
fd
04
04
04
05
07
09
04
04
05
03
07
06
0a
0b
0f
0a
07
0c
0b
06
09
0c
02
00
02
03
03
fc
f9
fe
fa
f9
f6
f7
f7
f3
f5
f2
f3
f1
ef
f0
e9
eb
ed
f5
f5
f3
f6
f5
fc
f7
f8
fe
fb
fb
fe
05
05
02
0c
0c
14
1b
20
1d
20
27
28
23
20
22
18
12
10
06
04
f9
f2
ed
eb
de
dd
da
d7
cf
cb
c8
cb
c7
ca
cd
cd
cf
d5
d6
e4
e9
f7
04
10
1d
2a
2f
37
46
4d
43
42
f9
01
02
08
03
09
09
02
07
01
01
fb
f7
fb
f9
f7
fc
fd
fe
ff
00
04
02
01
00
05
05
fe
00
fe
04
01
02
00
06
02
09
06
00
ff
03
ff
01
fb
fa
fd
f8
ff
fb
fa
ff
02
03
02
01
02
03
ff
00
ff
01
02
01
fd
fd
02
ff
01
01
fb
fe
fb
ff
02
03
fe
00
fd
00
01
ff
fb
fd
fa
f6
fa
f6
f5
f6
00
00
fe
02
03
09
0b
04
00
00
00
fb
f6
f5
f1
ee
f0
f6
f7
fc
f9
ff
fd
04
03
04
ff
fc
fc
fd
f6
f8
f7
f8
f8
f6
fc
fa
ff
02
07
01
00
01
01
ff
01
fc
fd
ff
fb
fc
fb
fe
fd
fd
05
05
05
03
07
00
00
05
03
ff
00
04
01
03
06
03
04
06
06
02
04
07
08
01
00
fd
ff
04
02
02
ff
00
02
00
02
00
01
03
01
03
04
07
02
00
04
02
03
00
00
ff
01
04
06
02
02
03
03
00
fd
fa
fb
01
fb
ff
fe
fb
fd
02
02
03
ff
fe
f9
fa
fe
fb
f9
fa
f8
f9
ff
03
ff
00
03
04
03
08
05
fe
04
ff
fb
01
fb
fa
fd
ff
03
fd
01
00
06
09
09
0b
07
03
03
03
fe
fb
fe
f7
fb
fe
fc
fc
00
ff
fb
fd
01
ff
03
fc
ff
ff
fc
fc
02
03
ff
01
03
ff
04
05
03
04
01
07
02
fd
ff
ff
fb
00
fb
fe
ff
fe
00
f9
fd
fc
01
fd
05
03
02
03
04
08
05
0b
0c
08
07
06
03
04
fc
fa
f9
f7
f3
ef
ec
f0
f0
eb
ec
ef
eb
f5
f6
fc
fe
05
03
0b
0d
11
18
14
15
18
10
12
08
05
03
fb
fe
f3
f5
ef
ef
e9
e8
e9
eb
f2
f1
f6
fc
fb
ff
01
07
0d
0a
0c
15
17
18
15
14
12
17
10
14
0d
09
0f
0b
07
02
00
03
fc
fd
fc
f6
f2
f1
ee
f1
f0
eb
e7
e5
e5
ec
e6
ee
ef
ed
f0
fa
f8
ff
01
06
03
07
09
0d
09
08
0f
0c
0f
0f
0d
08
0a
0c
08
0a
0b
05
09
02
05
04
ff
03
03
fd
fa
fd
fe
fa
fa
fd
fd
fc
fa
fc
f9
fd
02
fc
fe
03
02
ff
fe
00
04
05
04
06
ff
05
02
07
03
08
02
01
02
07
02
03
02
01
ff
fd
03
fd
ff
00
02
00
00
fb
ff
01
ff
fc
02
fe
00
00
fc
02
fe
03
fe
04
04
fd
fd
05
00
03
03
03
02
ff
02
03
03
ff
05
00
01
04
01
00
00
ff
02
fd
02
fe
fa
fc
00
00
fb
00
f9
fc
fd
fb
01
fe
ff
ff
02
03
01
ff
06
05
03
03
04
02
04
01
fd
ff
fe
fb
fa
fd
f8
f9
fa
fd
fa
ff
fd
02
03
01
02
fd
05
02
01
04
00
02
05
03
fd
01
01
ff
05
09
06
0b
0d
0b
0f
14
0e
0f
15
13
11
0a
09
06
fd
fd
fa
f3
f2
ec
ea
e6
e1
e4
e7
e6
e8
e7
e6
ec
eb
f6
f3
fb
01
06
07
0c
0d
16
18
1c
1c
1a
20
1b
19
1d
17
1a
17
14
0e
09
08
07
fd
fe
fb
f7
f2
ee
ef
ea
ed
ea
ed
ef
ed
ed
f1
f8
f7
fb
fe
04
06
09
0e
0d
11
12
11
13
0e
0e
0d
0e
09
03
03
fe
fb
f8
f5
f8
f9
f8
f2
f9
f8
f4
fc
fe
f8
ff
ff
04
03
04
02
08
06
02
00
02
ff
05
05
01
02
02
fc
ff
03
02
00
fb
ff
fd
fc
fa
ff
fa
f8
f9
fa
fb
fc
fc
02
02
04
fe
ff
fd
03
02
fc
fe
fb
ff
01
01
fe
ff
ff
ff
fb
f9
fe
fe
fd
01
ff
03
fc
00
01
02
fa
00
fe
f9
fb
fc
00
ff
ff
fd
01
fd
fc
ff
01
01
08
08
05
00
05
03
fc
02
fe
fb
ff
fc
fb
00
fd
ff
f7
fd
f8
fb
f9
f9
fd
f8
ff
f9
02
fe
04
fd
fd
fd
01
fd
ff
03
fe
00
fe
fd
fd
fb
00
02
fd
fd
ff
fe
02
02
01
fd
fd
ff
fb
00
ff
fc
02
fd
fe
fe
fc
00
02
fe
01
04
01
09
04
07
0b
0a
06
06
07
05
03
ff
fe
f9
fa
f4
f9
f1
f8
f1
f3
f3
fa
fd
fc
fb
ff
05
06
0a
0a
0c
0c
0e
0f
0b
0d
06
02
01
04
00
00
fe
fe
fd
f7
f5
f8
fa
f5
f7
f5
f5
fc
f8
f8
f9
fa
fa
f7
f9
f8
fb
ff
f9
fb
f8
ff
fc
02
fc
ff
05
ff
ff
02
02
06
04
0d
05
05
09
06
0b
0b
09
02
04
06
04
fd
fe
fe
00
02
04
06
01
03
00
03
fe
02
fe
fc
fd
fa
fe
fe
f8
ff
ff
04
ff
03
ff
00
01
02
fe
00
fc
ff
fb
fe
fb
fa
fd
fd
fc
02
01
fe
fd
fb
00
fb
fe
02
03
01
00
03
04
01
02
fd
fb
02
ff
fb
03
00
03
ff
01
04
01
06
00
fd
ff
04
03
02
01
fd
01
fc
fc
01
ff
01
fe
02
fb
ff
02
fd
fc
00
fb
fa
fc
fa
fa
01
ff
fd
fc
fb
ff
00
04
04
08
06
05
05
08
05
00
00
ff
04
02
fa
fb
fd
f9
fb
f9
fa
ff
00
01
fe
05
05
ff
02
02
04
fc
ff
fe
fc
f8
f5
fa
fa
fd
fb
05
04
02
03
04
04
05
04
05
05
07
01
fb
fe
fb
fc
01
fd
02
01
04
fe
03
00
03
03
05
04
04
06
07
01
04
fd
00
fd
f9
f6
fb
f7
fe
f9
fe
02
05
08
0b
0e
0f
0e
07
0c
05
08
05
fe
fa
fa
f8
f8
fa
f7
f9
fd
fe
ff
04
00
03
03
04
04
fe
02
00
02
01
00
00
08
01
fe
04
03
fa
f8
fe
f9
f7
f9
fb
f7
fd
01
05
02
0b
0c
09
09
07
02
01
01
03
ff
f9
f7
f4
f6
f7
f9
f5
fd
00
fd
00
03
01
05
07
07
02
ff
00
01
02
03
ff
fd
ff
00
ff
ff
fa
ff
03
fc
fd
01
fb
01
fa
fc
fa
fe
fb
fb
f9
02
fc
fd
04
03
ff
02
fc
02
fd
00
fc
fa
00
fe
fb
fe
fd
fd
00
03
01
04
03
02
02
01
ff
ff
fe
fd
02
fe
04
06
ff
06
04
05
00
03
ff
fd
00
ff
f9
fc
00
fc
fc
00
fe
03
fe
02
02
fa
fe
fd
ff
00
00
fa
fb
f9
00
fc
fa
ff
01
01
04
05
00
00
04
03
02
00
05
05
01
05
00
03
fe
ff
01
03
fc
03
ff
02
06
01
03
09
03
08
00
fd
fe
02
01
fe
02
fd
03
02
04
04
02
04
03
00
01
ff
fe
ff
fc
fd
ff
ff
01
fe
fd
fc
fe
02
fe
00
01
00
03
fd
fc
04
fd
00
01
fd
fc
01
ff
01
fc
ff
fe
00
ff
03
02
fe
03
ff
04
fd
01
01
02
01
fc
04
fd
03
05
fe
03
00
05
03
fe
ff
fd
04
04
04
fd
fe
fb
fd
00
fe
fd
fd
fb
01
fb
fc
ff
fd
00
ff
04
03
01
02
fc
01
fd
fc
fc
fd
fe
fd
fa
ff
fe
fe
02
00
04
01
fd
fc
01
ff
00
fe
fb
fa
00
fd
fa
fd
f9
fc
fb
fc
ff
f9
fd
fe
00
00
fe
f9
ff
01
fa
00
fb
fe
00
fd
fe
04
02
01
fe
05
04
01
00
07
01
fe
01
00
fd
02
02
fe
00
03
06
01
03
ff
fd
01
00
fd
ff
f8
fa
ff
fa
fe
fd
fe
03
ff
06
05
01
05
04
06
02
05
05
05
03
fc
fe
fe
f9
fe
fc
fe
fd
02
05
04
03
08
02
07
01
03
04
03
05
05
04
94
99
a2
b3
ba
be
cb
d6
de
e9
eb
f6
f6
fa
ff
06
09
09
0d
0a
0c
09
0f
0f
0a
0d
08
08
06
05
0c
0a
0a
09
03
06
04
ff
00
04
ff
04
ff
fe
fa
f9
fb
f9
fd
fa
fd
fd
f8
f8
f9
f6
fc
fa
fa
ff
01
02
02
04
0b
07
0b
0d
0f
0d
09
08
05
06
04
01
fa
fc
f9
f1
f8
ef
f5
f4
f5
f7
fb
ff
fc
00
04
08
0e
0c
11
0f
14
11
14
13
12
0a
0f
09
0b
02
02
fe
03
00
fd
fe
f9
fd
f9
fc
f8
fb
f7
fe
fd
fd
01
00
fe
01
fe
01
02
fe
05
02
03
06
05
03
02
05
00
02
ff
05
02
00
07
02
06
04
06
08
05
02
05
08
0a
0b
0c
0a
0e
0b
0b
09
10
0a
0e
0c
0f
07
06
04
05
02
04
fe
fd
f9
00
fa
f8
fe
fa
ff
ff
ff
02
06
00
08
04
03
07
07
08
06
07
07
05
03
04
ff
01
01
02
01
fe
ff
01
fd
01
fd
fe
fb
fe
02
fc
fa
02
ff
00
01
fd
03
03
00
03
06
03
04
08
09
02
05
08
08
08
05
03
02
05
06
02
02
07
03
02
04
03
05
02
06
05
03
01
f5
f8
ec
bc
be
cb
d1
d4
d8
e7
e8
f4
f8
ff
0a
07
0c
0e
11
16
11
0a
0f
06
03
06
fd
01
fd
fc
fe
f6
fe
fa
fa
fd
f8
f9
f6
f3
f7
f1
f4
f6
f3
f6
f1
f5
f9
f4
fb
fd
fa
ff
ff
01
00
01
06
06
08
06
0a
09
06
05
02
06
03
04
ff
00
01
04
02
02
02
fd
fd
ff
03
02
01
fb
fc
ff
fe
fa
00
fb
fb
fc
ff
f7
f8
fd
fa
f9
fc
fd
00
00
01
fe
fe
fb
fd
00
03
00
fd
00
fd
fd
ff
03
03
04
00
02
04
08
05
06
0d
0a
0b
0b
06
09
0a
09
07
07
04
07
05
06
02
06
05
01
fe
05
05
00
00
03
01
02
03
05
fe
05
fd
01
03
02
fe
00
04
02
05
06
ff
04
07
07
07
00
03
02
06
05
fe
04
02
fe
fc
01
fe
00
fc
ff
fe
02
02
fe
03
fe
02
ff
fd
fe
ff
04
01
02
01
05
03
03
07
01
06
08
05
02
01
01
04
08
05
05
07
09
07
08
0b
04
06
08
05
03
01
03
02
fc
00
00
00
fe
fe
ff
03
02
04
01
fe
03
00
02
03
01
02
02
06
03
06
0b
0a
0a
0d
0a
07
08
05
f9
f4
0e
13
14
0d
0f
0e
05
01
fc
fc
f9
ef
f0
ed
ef
ed
ee
ec
e9
eb
e7
e9
f2
f1
f1
f5
f6
f7
fb
fb
fd
f6
f4
f4
f4
ef
f1
f2
f3
ef
ef
f8
f7
f9
fb
fb
fc
fb
f5
f7
f6
fa
f5
fb
f6
fa
f6
f6
ff
fe
fc
06
00
0a
06
09
05
06
06
03
04
ff
fa
fa
fa
fa
f7
fe
fb
fe
ff
07
08
0a
0a
07
07
06
06
00
fd
02
f9
f9
fe
fa
ff
fb
fd
04
ff
04
03
0a
08
0b
03
0b
07
03
01
04
01
00
ff
00
fb
fd
fe
01
fe
fe
00
04
09
06
0a
05
04
04
08
05
03
03
04
02
06
04
07
07
06
09
07
09
05
07
07
03
01
03
05
03
05
02
03
05
02
09
06
08
08
0d
08
0a
08
0b
06
04
05
02
06
fd
05
fe
ff
fd
fe
00
01
ff
fe
03
05
ff
01
fc
fa
fb
fb
fa
f9
f1
f5
f2
f2
f1
f6
f2
fc
fc
ff
04
01
01
00
00
06
01
fb
00
f6
f8
f8
f4
f3
f3
f3
f6
f9
f5
00
04
00
00
04
03
06
fd
fd
ff
f8
f8
f2
f2
ee
ea
f0
ea
ec
ed
ef
f5
f8
f8
fe
03
05
01
09
08
06
07
01
fe
fb
ee
09
10
17
10
18
17
0f
13
0e
08
06
01
02
00
f8
ef
ef
ea
ea
ea
e9
ec
f4
f5
f7
f5
fa
fb
fe
fe
04
06
10
0b
10
10
16
13
13
12
0f
11
10
0d
10
11
0a
11
0e
0d
0c
09
0d
0d
06
09
09
0e
08
0d
0a
10
0a
0d
0f
0a
09
09
0a
07
01
00
fe
fa
fe
fb
fb
fd
02
0b
0e
10
0b
11
09
0b
0a
01
02
fc
f8
ef
f4
f3
ef
f2
f8
fa
fb
ff
00
0c
0e
0a
0d
0a
0d
09
07
ff
fa
f7
f4
f8
f4
f4
f5
fa
fb
00
01
fc
01
ff
fe
01
05
fe
fb
fa
fa
fa
00
fd
fd
00
fe
fc
fa
01
fe
fe
02
fe
fd
00
fd
f8
f5
fa
f9
f7
f6
fa
f5
fd
fe
fc
00
fc
fb
03
00
fc
f9
ff
fa
fb
fa
f9
fc
fb
ff
fd
00
01
fd
02
fe
05
01
09
04
05
06
0a
05
0a
05
06
07
06
04
09
05
0a
05
06
08
08
03
0a
05
0c
06
0b
06
0c
08
09
0a
06
06
03
07
02
05
05
00
fd
fe
00
fc
fd
fc
03
fe
05
04
fd
03
ff
03
01
f9
f9
fb
f8
fc
f8
f8
ff
05
02
05
06
01
04
05
fd
fd
f6
ef
e9
e9
e4
f4
fa
01
01
04
00
01
07
08
03
05
07
04
07
03
05
01
02
04
02
05
02
01
06
05
07
00
03
ff
05
fe
fd
01
ff
f8
fc
fd
fb
01
ff
fe
02
07
07
03
04
00
fd
03
fe
fe
fd
05
06
01
05
08
06
05
09
01
03
fd
fe
ff
02
02
fe
fe
fb
ff
fd
04
fc
fd
04
fa
fc
fc
00
f8
fc
fd
fb
fa
ff
02
03
03
01
fd
fd
fd
fd
02
fd
fe
fa
00
ff
fe
fd
ff
00
00
fb
ff
ff
fa
fc
01
fb
ff
03
ff
fc
fa
01
00
ff
ff
fe
03
ff
00
01
06
05
00
00
00
ff
03
ff
fe
02
fb
fe
f7
fc
fb
fb
fb
fd
ff
fe
00
07
05
08
02
00
00
00
04
fe
03
fe
fe
01
ff
fd
01
fb
ff
02
01
02
fe
03
02
06
02
01
00
ff
ff
00
ff
02
fe
fc
fb
fc
f9
fd
02
03
02
ff
01
02
fe
00
fd
fe
fa
ff
fd
ff
fe
03
00
01
01
03
01
00
fc
fd
f8
fb
fa
ff
fc
00
05
06
06
0a
06
0c
06
04
03
ff
ff
fc
fc
fe
fd
fe
fd
f9
ff
ff
01
fe
ff
ff
02
00
fd
fe
fe
00
01
fd
fd
fe
ff
01
01
01
03
07
0d
0d
08
07
02
04
ff
03
01
05
ff
00
05
06
02
00
01
01
06
01
03
03
04
01
01
ff
fe
04
fe
01
00
08
08
0c
0b
08
07
0a
08
06
09
05
fe
fa
fc
f6
f9
f7
f5
f1
f8
f9
fb
fe
ff
06
0e
10
11
10
12
11
09
06
ff
fb
f1
ed
e9
e3
df
df
e2
dc
e7
eb
f0
f3
fa
00
02
0b
0b
0f
15
15
15
0c
0c
07
00
fc
fa
f4
ed
eb
e9
ea
e8
eb
e8
ed
f1
f7
fa
03
04
0a
0c
08
09
0a
0b
05
02
fc
f8
f9
f5
ec
ec
ea
ec
ea
e4
e9
ee
ed
f3
f2
f5
fe
02
07
0c
0c
16
13
16
18
1b
1e
1b
14
11
13
11
0c
06
01
ff
fa
f7
f0
ed
eb
ed
e6
e9
e7
e6
e3
ec
e9
f0
ed
ef
f3
f7
fb
00
00
02
04
01
07
0a
05
0d
0a
07
0d
0b
10
0f
0f
0d
0f
0c
11
0e
0c
12
0d
12
13
0d
13
0f
0f
13
0f
12
0b
0f
08
0b
0c
0b
0a
07
03
01
02
04
04
03
05
06
04
04
03
06
02
06
06
05
05
0b
05
09
06
04
05
07
05
ff
03
03
00
00
fe
02
fc
00
fa
fe
fe
05
01
06
07
03
05
07
07
11
0a
0a
04
04
fe
fe
00
fb
fb
f7
f4
f8
f1
f1
ef
f6
ef
f5
f0
ef
f3
f3
ef
f1
ee
f0
f0
f8
f3
fa
f6
fd
00
ff
03
00
04
05
06
01
04
01
ff
01
01
fc
fd
f9
fc
fb
00
00
01
06
ff
07
02
00
05
00
ff
f8
f6
f8
ee
ed
ed
ea
eb
ed
f0
ef
f4
f4
fd
04
09
0d
13
19
1a
1b
23
21
20
22
1f
1d
18
14
0b
09
08
03
fd
fb
f8
f0
f2
f0
ee
eb
e6
e9
e9
eb
e3
e9
e9
ea
e4
e7
e9
ea
eb
f3
f4
f9
f5
f9
02
05
08
09
07
0d
10
13
11
10
11
17
10
13
13
10
12
0c
0c
0c
0f
0e
0e
06
0b
09
06
04
02
07
ff
fe
fd
ff
fa
ff
fb
f9
ff
fe
fd
00
00
04
02
05
01
02
02
08
04
08
04
08
04
04
01
06
03
03
ff
02
fc
fc
fa
00
00
fc
fe
01
fe
fe
01
fc
03
ff
06
03
ff
06
04
02
08
07
02
08
05
04
0a
09
04
02
04
08
06
07
01
06
05
07
04
04
04
fe
03
fd
fd
fc
fc
ff
fc
f9
f8
f6
f5
f8
f6
f7
f8
f8
f8
fa
fa
ff
02
04
07
04
09
0c
0e
10
0c
0d
0d
08
04
00
fb
fe
f9
fc
fc
f7
fe
02
03
04
08
03
03
06
04
00
fe
fd
fd
fa
f6
f8
f5
f4
f6
fd
fb
f7
fe
fc
fd
f7
f5
f9
f1
f5
ee
f0
ea
e8
e9
e9
e7
ec
f0
f2
fb
f8
03
06
07
06
08
00
00
fd
f6
f2
f0
e8
ea
e2
e5
e0
e3
e6
ee
f4
f5
fc
fa
fc
01
03
fe
05
03
fe
f9
f4
f4
eb
ed
e6
e8
e5
e5
ea
e9
ed
f2
f9
fe
07
0f
12
12
13
1a
12
0f
0b
08
00
fa
fa
f2
ef
f2
f1
f5
f3
fa
fe
06
10
16
14
1a
1c
1a
1f
1f
15
16
10
0f
0a
0b
08
04
05
03
06
03
07
09
07
0b
0c
0b
0e
0f
0a
09
07
06
04
03
06
ff
fd
fc
fe
03
fe
fc
ff
02
07
07
0e
0d
11
0e
11
14
18
11
14
0d
0d
0a
08
07
06
05
03
fe
01
fc
fe
04
06
04
09
07
0e
0c
0b
0c
0e
10
0d
08
07
04
08
ff
01
ff
01
00
fe
01
03
00
04
fe
05
01
fc
fc
ff
fb
ff
f7
fd
f9
f8
fd
fd
fb
00
fa
fa
f9
f8
f5
f5
f5
f2
f2
f7
f5
f5
f4
f8
f7
f8
f6
f9
fc
f7
fc
f9
f7
f8
fe
fa
ff
f7
f9
03
03
01
04
01
08
03
04
06
0a
0a
02
00
03
01
ff
fe
02
fe
01
00
ff
01
03
04
05
01
00
06
04
ff
fe
fe
02
fd
fb
02
ff
02
00
04
00
00
02
03
fe
04
01
fd
fc
fa
fe
fc
fc
ff
fd
fa
f7
fb
fc
01
fd
03
03
03
05
0a
09
0c
07
0a
07
0d
07
08
fe
00
fd
f9
fe
f8
fa
fe
fc
fd
ff
05
0b
07
10
0b
12
13
10
10
0e
09
03
00
fe
fb
f0
ef
e8
ea
e9
e9
ec
f3
f3
f8
fe
04
0c
17
1a
15
17
14
13
0f
0b
06
f9
fa
f3
f0
f1
f0
f6
f7
fb
fb
fe
03
09
09
0a
0a
04
04
fe
00
ff
fd
f9
fd
02
fe
ff
07
06
09
09
04
03
ff
fb
f7
ef
ea
ea
e6
e6
ee
f0
ed
ed
f9
f9
fc
ff
02
02
01
ff
01
03
01
fe
fe
ff
fd
fb
00
04
04
06
0c
0c
0b
11
13
10
0f
11
11
14
14
13
0c
11
0d
0c
09
0b
08
0b
0a
06
08
04
02
02
00
00
00
fd
fd
ff
fc
f9
fd
fc
fa
f8
f6
f7
f7
f0
f4
f6
f5
f1
f1
f2
f5
f8
f0
fa
f7
f5
fc
fe
fe
fa
fc
01
fc
f8
fa
f7
f7
f5
f0
f9
18
0f
0d
04
06
03
03
05
fe
03
02
ff
ff
05
04
04
02
fd
fb
fe
ff
fb
fd
fb
fe
fb
fd
00
fa
fe
fe
fb
02
fc
00
00
ff
00
00
fe
fc
00
fd
fb
fa
f8
fb
fc
f8
fa
f8
fb
f9
fa
02
03
02
01
fe
fc
01
fb
01
fe
fb
fc
ff
f9
f7
f4
f6
f6
f7
f7
f7
f3
f4
f9
f6
fa
f4
f6
fd
fe
fd
f6
f8
f4
fa
f8
f5
f2
f6
f6
f7
f9
ff
ff
05
02
07
02
04
06
09
06
01
08
03
04
00
ff
00
03
05
05
02
07
05
03
0b
08
05
05
0a
03
01
04
00
03
04
05
00
fd
00
fe
06
fe
06
ff
ff
05
ff
06
ff
fc
03
00
01
fc
02
fa
fd
f9
ff
fe
f8
fd
fb
fd
f8
fd
fa
f8
fc
fa
fc
f9
fe
00
fb
ff
00
fd
ff
01
ff
02
02
02
05
01
03
04
01
02
ff
03
04
04
05
01
02
03
03
05
fd
02
fe
f9
f9
f8
f8
fe
fc
fb
00
ff
fe
01
04
09
01
04
07
ff
05
04
ff
ff
fd
fe
00
fc
02
fe
ff
07
04
08
06
04
04
09
07
04
0a
09
05
06
0a
08
07
04
05
05
08
00
07
09
08
07
0b
09
0b
0e
f5
f6
f7
fa
f8
fe
fe
ff
fe
ff
03
ff
04
ff
03
01
03
05
05
05
04
02
ff
f9
f6
f6
f7
f6
f2
f0
f4
f6
f8
f9
ff
fe
ff
02
0c
0b
0d
12
0d
0d
0b
08
0b
07
02
02
fc
fa
f8
f3
f1
ec
ee
f0
ee
ee
f0
ec
ef
f4
f7
f0
f7
f7
fc
fe
fd
fb
fc
00
03
ff
03
06
fe
fd
02
02
fd
ff
01
fd
fb
00
ff
fd
fc
fe
fe
01
06
08
06
03
02
02
07
04
06
00
00
00
ff
fe
00
01
03
fd
03
03
06
fe
fe
ff
fe
02
fd
ff
01
fa
f8
f8
f8
f5
f6
f7
f8
f8
f8
f8
f8
f8
fd
fc
fd
04
05
02
03
06
01
06
04
01
ff
fd
fc
fd
00
fe
01
fb
03
02
00
04
02
03
06
06
05
fc
02
fe
fa
fe
f9
f8
fc
ff
fa
fc
fa
fc
00
05
06
00
01
05
05
ff
fe
ff
02
f9
fd
f9
fd
fa
ff
ff
fe
01
03
02
08
0b
04
0b
0d
0e
0d
09
0a
03
05
05
02
ff
01
02
ff
05
ff
06
01
02
01
04
05
07
09
06
05
05
ff
04
02
02
00
04
fe
04
fe
02
ff
fd
01
03
ff
fd
04
fe
02
02
06
07
0e
11
17
1f
fb
fa
fb
fd
fe
fe
03
fe
05
06
01
06
03
07
04
02
05
fc
fa
fb
fa
ff
fa
fc
f6
fc
fc
f9
f9
fb
00
02
fc
01
fb
fd
03
fc
01
fc
01
01
01
fb
00
fb
ff
03
03
ff
07
03
07
00
05
01
00
00
00
03
01
fd
fc
02
00
fb
fe
ff
fe
00
01
02
03
fe
01
fb
fc
fe
fb
fc
f9
fc
f5
f3
fa
f4
f6
fa
f8
fa
fd
fe
fd
00
fe
00
ff
ff
02
fd
fb
00
fa
01
ff
03
fe
03
ff
02
01
05
ff
fe
fb
03
fe
fd
ff
fd
fb
fb
ff
fb
ff
01
ff
05
00
06
ff
03
01
05
01
04
03
fe
ff
02
00
fd
fb
01
fb
00
fd
fd
fd
01
fc
fe
01
05
00
fe
fd
00
00
04
04
02
ff
04
02
03
00
03
07
07
02
02
04
02
03
04
06
02
08
07
00
02
fe
00
02
ff
fb
01
00
fb
fb
fe
fe
fc
fb
f8
fb
00
fe
fc
01
01
ff
06
05
07
02
07
05
07
08
02
00
fe
00
01
ff
fc
fd
00
fd
04
01
00
01
02
01
04
04
05
03
ff
02
02
fd
f9
f9
fa
fc
fd
f7
f8
ff
fa
fd
fe
00
04
ff
04
02
05
06
04
04
05
0b
0a
07
04
05
02
05
06
07
07
06
09
08
08
0e
09
07
09
07
04
05
03
fb
ff
fc
f7
f9
f8
f8
fe
ff
ff
fe
04
05
04
08
06
01
04
00
ff
00
fb
fa
f7
fd
fa
02
ff
03
04
09
0b
06
04
0b
03
01
00
fd
00
fe
f5
fc
f8
f9
f6
f9
fd
fe
01
fc
fe
ff
05
fe
04
ff
00
fa
fd
ff
fb
fb
fa
02
01
06
00
07
03
01
00
05
03
04
fe
00
fd
f8
fc
fe
fe
fe
fd
ff
01
fd
ff
04
fe
02
02
03
fd
fe
ff
ff
04
00
04
08
04
06
04
00
01
03
01
fd
fe
03
fd
01
04
03
01
07
04
03
ff
03
fe
00
01
00
fd
f9
fc
00
fa
fd
05
04
05
03
08
06
07
04
01
04
00
fb
fd
fa
f8
00
ff
01
fd
fe
03
0a
0b
0a
04
0a
0b
08
02
00
02
fc
ff
fa
fd
ff
fc
fb
fa
fb
fb
00
ff
fe
fd
fa
fa
fb
01
02
fe
03
fe
01
01
03
04
07
06
05
00
02
00
03
fe
04
02
05
ff
04
05
07
ff
03
01
01
ff
fe
f9
fd
fd
fa
01
02
05
02
02
01
04
0c
08
07
07
09
02
01
03
fe
fe
fa
f9
f8
f6
b1
b9
c5
c7
d7
e1
e8
f2
fc
09
0c
12
1c
19
1f
1a
11
0f
0e
06
0a
01
05
04
03
01
fd
fa
f8
f8
f8
f7
f8
f2
f0
ed
e4
e1
e4
e6
ec
eb
f2
fb
08
0f
1b
24
2f
31
37
3e
3d
32
30
22
1a
15
06
02
fa
f9
f6
f0
f6
f2
f0
f3
f7
f4
f6
f9
f5
f8
f5
f6
f7
f5
f6
fd
f8
fd
ff
05
05
05
04
03
08
02
04
03
03
04
03
ff
01
03
03
02
04
05
05
01
06
02
ff
03
02
00
03
00
02
fc
fd
fe
fc
01
00
05
05
ff
00
04
03
04
fd
01
03
fd
fb
01
01
fd
fd
03
02
fe
04
00
03
07
03
04
05
fd
fe
ff
03
01
fc
03
08
01
02
04
06
09
05
05
02
fe
02
01
02
ff
01
01
fc
01
ff
03
04
06
08
05
08
03
03
04
04
05
02
03
08
04
0a
04
05
0d
0b
0a
0d
09
06
09
07
04
01
03
04
ff
03
06
03
08
10
0a
11
0c
0b
0e
07
0b
0a
07
ff
fe
fb
01
fc
ff
fc
fe
00
01
02
06
00
03
fb
fc
fb
f6
f4
ed
f0
f2
ee
ee
f4
f5
ee
f1
f5
f8
f8
f6
f4
f3
e9
ec
e9
ef
f0
ea
fb
f9
fa
f8
fb
ff
fe
04
ff
01
00
02
04
ff
00
ff
ff
01
fb
fa
fe
ff
03
00
05
04
07
08
0a
06
06
03
03
05
00
01
fb
fb
fc
fc
fc
01
02
01
02
00
06
03
05
03
02
01
05
00
fe
fc
fb
fe
00
fe
fe
01
fe
00
01
ff
00
ff
00
ff
fb
fd
fe
fb
fa
fc
ff
f8
fa
00
fe
02
02
f9
00
ff
f9
ff
fb
00
fe
f9
f9
fa
f9
ff
02
ff
fe
01
00
02
fd
fc
fa
f7
f8
fa
fd
fd
02
01
05
03
0a
09
08
01
04
fd
01
ff
fd
00
f9
ff
01
02
01
04
01
08
02
06
00
03
fc
ff
fb
fe
fd
fb
ff
ff
fd
02
00
04
04
05
06
03
03
06
05
02
fe
02
08
03
04
09
07
03
00
fd
03
fc
fe
00
fd
00
fe
fb
fb
01
01
fd
fe
ff
ff
fe
fe
fd
fd
03
fd
fe
00
01
fd
00
00
01
03
fc
fd
fe
00
01
03
04
08
08
05
04
03
ff
03
01
ff
fd
fe
04
03
03
04
03
05
03
02
03
ff
03
02
06
01
01
03
fd
02
fe
fb
fd
ff
fd
00
ff
06
04
ff
ff
04
fe
fe
05
03
04
01
fb
00
00
00
fc
ff
fc
f1
ed
eb
f2
ef
f6
f7
fa
fa
fd
fb
00
00
00
04
06
04
04
03
05
07
07
05
03
06
fc
fe
fe
fc
fa
f8
f7
fa
fc
fa
fa
f9
f1
f4
f1
f8
f6
f8
f6
fa
f5
fb
fa
f9
f8
fd
fd
fc
f8
fc
fc
f7
fa
fa
f9
f9
f9
fd
ff
02
04
0a
0b
10
0f
0e
0c
10
0a
0a
0a
06
02
00
fe
fd
00
fd
fd
f5
fc
fc
fb
f7
fa
fc
fa
fa
ff
f8
f7
f5
f4
f2
ef
f3
ee
f3
f0
f5
f3
f9
f5
fc
ff
05
08
0b
0a
12
15
15
11
13
10
12
11
11
08
0a
08
02
03
fd
ff
f8
f6
f6
f4
f8
f4
f6
f4
ef
f4
f3
f5
fa
f5
f9
fa
fd
fe
07
02
07
07
08
02
04
ff
02
01
f9
fe
fd
f5
f6
f0
f3
f4
f2
f5
f3
f5
f9
fe
fc
01
00
06
05
0c
0b
12
11
13
18
17
1d
1a
1c
1b
21
22
20
1e
1f
1e
1c
1f
19
17
1a
19
18
13
14
12
13
12
10
0b
08
0a
06
08
00
01
fc
f9
f9
f4
f4
ef
ef
ec
ee
f2
f3
f4
f0
f1
f4
f8
f5
f8
fb
fd
f7
fc
f9
f5
f0
f3
f2
ef
ed
f2
ee
f7
f6
f7
fc
ff
04
0b
0d
0f
11
14
f3
f2
f3
ed
ec
ed
f0
f3
f1
f2
f2
fb
f5
fb
f7
fb
f9
fc
fd
fb
01
fb
fe
00
04
ff
00
04
08
08
0b
0d
10
10
0c
09
09
0a
0b
0c
0b
08
05
01
02
03
02
03
03
03
03
02
04
01
07
02
08
02
02
04
01
03
01
ff
ff
ff
fd
02
fd
02
ff
fc
fe
fc
00
fb
fe
00
fe
fd
fd
f8
fa
fa
f3
f1
f4
f6
ee
f1
ed
f0
ed
ec
ea
f0
f1
ed
f1
f1
ef
f1
f7
f2
f9
fc
fb
fc
02
00
01
08
0a
04
0b
06
07
06
07
03
09
07
01
01
03
05
00
05
01
fc
fb
fd
fe
fc
fd
fc
f5
f4
f6
fb
00
ff
05
07
07
0d
10
0e
15
12
11
16
16
11
11
08
0a
07
fe
fa
fc
fd
f6
fa
f6
f4
fb
f7
fd
ff
02
fb
01
ff
03
00
05
fd
01
04
fe
fd
fc
01
fe
00
03
04
04
01
0a
0a
08
0c
0c
08
09
0d
07
0a
07
07
06
05
01
01
02
01
00
06
03
02
00
04
04
fe
03
fe
fa
fb
f7
fb
f9
f7
fd
fc
fb
00
fb
00
ff
02
01
fc
03
01
fc
fc
fd
fb
f8
fd
fb
fe
02
06
06
10
15
16
17
1b
1f
1f
22
20
13
11
0c
03
03
00
fa
f6
f9
f7
f2
f6
f0
f0
f3
ec
f1
f0
f1
ef
eb
ea
f0
f0
e9
ec
f3
ee
f6
f7
f3
f4
f5
f9
f8
f3
f2
f3
f0
ef
ed
f3
f2
ef
f0
f2
f3
f6
fe
fc
07
07
0c
0d
0e
10
10
0f
10
16
10
16
14
10
0d
0d
10
07
0c
05
02
03
fe
ff
fe
fb
f8
f7
f3
f8
ef
f0
f1
f1
f3
f3
f9
f4
fa
ff
01
01
00
04
08
04
0c
0d
0b
08
0a
0e
09
0e
10
09
11
11
10
13
10
0d
0b
0b
0d
07
01
06
fe
ff
fc
fa
fb
01
00
00
02
01
ff
f7
f5
f9
f7
f3
f5
f0
f0
f2
ee
ee
f1
f8
fd
01
05
05
0b
0c
0e
12
14
12
12
17
12
17
19
1a
13
18
15
16
13
15
0f
10
08
07
0a
05
fe
fb
01
fc
fc
fb
ff
04
05
06
05
07
07
0b
09
08
06
04
04
03
02
fa
f8
fc
fc
f6
fb
f9
f6
fa
fc
fc
fd
fd
fc
ff
fb
f5
f6
f0
f1
ea
e9
e8
e5
e3
e0
dd
df
db
da
e3
e0
ea
ee
f0
fa
fb
00
00
08
07
03
05
02
fe
fb
f8
f6
fa
f5
f9
f7
fd
ff
02
03
0a
07
08
0d
0e
0c
04
04
fd
03
fe
05
01
07
07
04
09
04
02
09
02
ff
fe
fe
fc
ff
fb
f4
f8
f2
f8
f7
f8
f7
f3
f7
fd
fe
05
0b
0b
14
14
1a
15
16
1a
14
13
0a
06
01
00
fc
f8
f4
f4
f2
f9
f7
f7
ff
fe
00
07
05
0a
0c
0f
0f
0b
11
0c
09
0a
08
00
fe
f8
f6
f2
eb
ee
e9
e8
e9
e9
ed
f5
f4
fc
05
07
0d
11
16
12
19
12
15
16
13
0c
0b
06
07
09
0b
08
0e
0d
11
17
15
13
14
16
11
0d
01
fa
e9
de
d0
c8
bb
b3
b1
b9
bd
ce
dd
eb
00
13
23
2e
3d
42
4c
4d
45
37
2f
26
1d
13
02
01
f4
f0
ec
ef
ea
ee
eb
eb
ec
ed
e8
e9
e5
e8
e9
ec
e8
eb
f0
f4
f9
fd
04
06
0d
0d
0b
10
09
0d
0a
0a
06
04
07
03
0b
05
0b
11
13
0d
16
10
17
15
10
0c
0a
04
06
ff
fa
fb
f4
f3
f6
f3
ef
ef
ef
ee
ec
f2
eb
f2
f0
ed
ec
ec
f1
ed
f1
ef
f0
f8
f6
f5
f7
fb
ff
01
05
04
00
06
04
01
03
04
04
05
09
04
09
0b
06
05
04
07
09
06
05
03
01
ff
04
06
03
00
06
0f
0b
18
1a
20
13
10
12
11
0f
0a
0a
08
0c
05
08
09
06
08
0c
0a
08
04
06
06
01
09
05
07
01
00
07
ff
05
02
02
ff
02
01
fc
00
fb
fb
fc
ff
fc
ff
fc
02
03
01
09
05
0a
07
09
08
0b
0a
0b
0a
06
ff
ff
01
fe
fd
04
05
05
03
0b
07
0d
10
11
17
17
15
19
15
13
14
13
0d
07
05
02
fe
fc
fa
f8
f9
f5
f2
f2
f5
f8
f8
fc
ff
ff
01
ff
06
00
00
04
fe
fc
00
fb
fc
fa
fb
f8
f6
f9
f2
f6
f4
f1
f8
f5
f0
f8
f3
f7
f3
f9
f7
fa
f5
f7
fa
f6
f9
fc
fb
ff
ff
ff
03
08
06
05
05
02
07
ff
00
01
fe
fd
f5
f4
f3
f7
f9
f8
f9
f3
f7
f5
f7
fb
fe
fb
fe
fd
02
00
ff
fc
fb
f9
f3
ee
ed
ec
ec
ed
f1
ee
ed
f4
f9
fc
ff
ff
08
0a
07
05
0b
02
03
fb
f8
fa
f5
f4
f0
ef
ef
f0
f6
f4
f3
f9
fc
fa
f7
f8
ff
fc
f8
fe
fd
fc
fd
03
02
03
02
04
0d
0a
09
0d
0d
0d
09
0e
08
08
0a
06
06
00
ff
fd
f8
ff
f7
f8
01
ff
06
06
0a
09
09
0c
0c
0e
06
08
01
fe
f8
f2
f6
fb
fb
fa
fe
fc
03
03
fe
00
02
03
00
ff
03
ff
fe
01
fc
00
f9
fa
fb
fb
00
fe
fe
02
05
fd
03
04
05
02
fe
ff
00
05
05
fd
fc
02
00
01
ff
fc
00
ff
fc
ff
fb
00
fd
fe
01
03
05
00
02
03
08
07
00
02
fd
fc
01
ff
fa
ff
fb
fe
01
fe
fb
fe
01
00
00
00
05
09
07
02
04
08
02
05
04
01
03
02
03
fb
fc
01
ff
04
03
05
05
0b
0c
0e
12
15
11
12
11
0b
07
07
ff
03
fe
f5
f8
f0
ef
ec
ed
e9
e9
e8
e9
f0
ed
ed
ef
f3
fb
fa
fb
fd
05
05
05
09
0b
07
06
0d
0c
09
0c
06
05
04
02
09
08
01
05
01
07
00
08
05
04
02
08
06
08
02
02
05
05
03
06
07
0a
0b
08
0a
01
03
02
01
00
01
00
fe
fb
ff
fa
fc
f6
fb
f9
f8
f7
f8
f9
fa
f2
fa
f8
f7
f7
fa
f7
fa
f5
f7
fc
f6
fe
fb
fa
f7
fb
ff
f7
fa
fe
fc
fe
f8
f9
fc
f8
f6
fe
f7
f9
fc
01
fd
fb
00
fe
05
ff
05
08
07
03
05
00
05
04
ff
00
00
fe
04
03
01
01
fc
f8
fc
fb
f7
fc
f6
fa
fb
fd
02
07
08
04
05
00
01
04
01
ff
fe
f9
fd
fd
f9
fc
f8
fc
f7
fc
fa
fe
fd
03
ff
02
02
07
01
02
07
05
06
06
fe
01
fd
fd
fd
fc
fe
fd
fd
fe
fc
ff
fc
ff
ff
00
fb
fc
fc
fe
04
01
00
ff
ff
00
02
fe
fd
fa
f9
f8
f5
f9
f7
f6
f7
fb
fc
fb
00
04
01
02
08
06
06
0b
0a
05
08
09
0b
04
07
05
06
02
03
09
08
0a
06
0c
07
05
0a
01
ff
fa
fd
f7
f4
f3
ee
ee
ea
ea
ef
ee
f1
f5
f7
f5
f6
fb
ff
07
06
07
0e
0e
12
11
12
15
14
12
12
11
11
13
0e
09
08
04
02
ff
00
fc
f8
fb
f9
f8
fa
f9
f5
fa
f6
f7
ff
fa
fd
00
fc
fd
00
ff
02
01
00
00
03
fc
02
fe
00
fd
f8
fe
fb
f5
fc
fc
fd
fb
fc
fa
ff
fa
ff
01
ff
03
04
03
02
00
02
ff
05
05
05
03
02
04
08
05
0c
0c
0b
07
09
07
07
06
06
05
04
02
01
00
ff
fe
fa
00
fd
fb
fc
ff
fa
fb
fe
04
02
03
03
04
05
05
03
03
02
03
fc
01
03
00
ff
fd
ff
fc
fe
fb
fe
f9
fa
fa
ff
00
00
fa
ff
fe
00
fc
fd
fc
01
fe
03
fd
01
01
ff
fd
01
03
fe
01
fa
fe
fc
00
fe
f9
fd
fc
fc
ff
fe
fc
00
ff
fe
05
04
05
fe
01
fd
fe
02
fc
fe
fe
f9
ff
f8
00
fc
fa
ff
04
03
01
03
04
fe
fe
fe
06
fe
ff
02
fe
01
04
02
02
00
01
02
08
06
07
06
06
09
05
04
03
02
02
fb
fa
fb
fb
fc
f7
fa
fd
fe
02
00
fe
03
00
02
ff
ff
fd
f9
f6
f8
f1
f5
f1
f5
f3
fa
fd
00
fd
03
02
04
05
0c
07
06
07
07
04
00
04
04
06
08
0a
0d
0e
10
0a
10
08
07
07
08
ff
02
f9
f8
fb
f9
f7
f4
fb
f7
fd
fd
fc
fd
f9
fe
fd
fa
f7
fa
f9
f9
f5
f2
f3
f5
fb
f7
f7
fb
fe
ff
fb
00
fc
fa
fa
fa
fd
00
fe
fc
00
04
ff
02
03
06
04
05
05
01
03
04
04
01
06
02
02
08
03
07
05
00
07
00
00
ff
05
ff
02
05
01
05
fe
04
01
ff
04
01
00
06
00
01
01
06
05
ff
fd
fe
02
fd
ff
02
fb
ff
fd
ff
03
fe
04
05
06
02
04
03
fc
fc
fb
fc
f7
f8
f9
fb
fb
f9
f8
fb
f8
fe
fc
fc
04
00
04
01
05
02
01
fc
fc
f9
fb
fe
fd
fe
f9
fe
f9
00
fa
fe
fb
fd
02
fb
00
fa
fa
f7
fa
fe
f7
f8
f6
f5
fd
fd
fa
01
fd
ff
00
00
fb
fd
f9
00
fc
fb
fb
f5
fb
fb
fc
ff
fe
fd
03
01
00
04
03
01
ff
03
fe
fe
f8
f9
f9
fd
f9
fc
f9
fc
fd
06
08
0a
07
0b
07
04
05
01
00
fb
f7
f9
f8
fa
ff
01
00
09
0b
07
0c
07
08
04
08
fc
fd
f8
fb
f7
f9
03
03
0b
09
0e
17
13
13
18
0f
12
09
09
03
f8
fc
f3
f2
f9
f4
fa
00
fc
00
02
ff
07
02
fd
fe
f9
fd
fa
f6
f4
f8
f9
f8
f5
fa
fb
01
04
06
03
02
05
03
03
fb
00
f8
fb
f7
f6
fe
fd
ff
fd
ff
fe
fd
03
fd
fe
fc
f9
fe
01
fc
f9
ff
fd
00
01
04
06
03
04
05
09
04
02
02
00
00
fe
fe
06
01
02
06
03
07
0a
07
09
03
04
02
03
ff
05
02
fd
04
fd
02
02
00
ff
fe
03
03
05
02
fe
02
03
03
04
fe
02
01
01
fd
ff
00
fb
01
fb
fc
fa
00
fc
ff
ff
fd
fc
00
fe
0d
09
02
fe
02
fc
ff
fc
fc
00
03
ff
ff
01
00
00
05
04
fd
04
03
00
ff
03
01
fb
fc
01
ff
fc
fc
00
fc
00
fd
fd
fd
00
03
01
02
ff
fe
ff
05
05
02
04
fd
fe
00
fd
05
ff
ff
06
01
fe
02
ff
fc
fd
00
fb
ff
fe
fb
fe
fb
03
fc
fe
03
fe
ff
02
03
00
fd
03
fd
00
fd
ff
00
02
f9
fe
f9
fd
fc
00
f8
fd
fa
02
01
ff
ff
03
05
04
01
fb
fa
fd
00
fa
fe
fc
ff
f9
00
00
ff
01
04
04
00
03
03
01
01
fd
02
01
ff
01
fb
ff
fd
fe
02
01
01
03
01
02
fe
00
fa
00
fe
f9
fb
f7
f7
fc
fd
01
00
06
07
01
06
07
04
07
04
ff
00
01
fb
02
02
fe
fc
03
00
04
00
02
01
04
07
04
05
ff
05
ff
03
fd
00
02
03
03
fc
01
01
02
01
fd
03
03
ff
fc
fe
fe
fd
00
02
00
fe
00
03
07
01
02
01
ff
02
03
00
ff
02
ff
04
01
04
fe
01
01
ff
01
fe
ff
02
fd
ff
ff
06
02
02
00
04
07
03
00
03
01
ff
ff
fe
fb
00
00
04
ff
fe
03
05
03
fe
02
02
fd
00
df
e2
ee
f3
f7
f9
fe
fd
00
04
00
01
02
07
05
09
02
01
04
09
06
0a
05
06
02
01
07
fe
03
03
fb
01
fa
f8
fa
fa
fb
f9
fb
fd
fa
fd
fd
f7
f7
f6
f3
f0
e7
e4
e6
e6
e2
e2
e8
e9
eb
f0
f0
f6
f6
f7
fc
03
03
03
fe
04
fe
01
02
01
fe
03
03
01
06
07
05
03
07
08
09
0d
0c
08
05
08
03
00
04
fc
f9
ff
f7
f8
f8
fa
f7
f8
f7
f5
f2
f3
f0
ee
f2
f1
f3
f2
f3
f0
f1
f4
f5
f3
f9
fa
f8
fa
ff
fb
fc
fc
f7
f7
f4
f2
ef
f0
f1
ee
f0
ed
f2
f4
ee
f3
f6
fe
f9
ff
ff
00
06
01
04
03
06
05
ff
04
02
fe
04
01
01
07
04
0d
0c
0e
0e
11
18
18
18
19
1a
16
16
1a
16
1a
19
16
16
13
12
15
16
0f
0f
08
06
fd
fc
f6
ec
ed
e9
e4
e3
e3
e2
e8
e2
e4
ea
f1
f3
f3
f3
fa
ff
01
fc
03
00
ff
fd
fc
00
01
01
06
0a
0a
10
11
19
17
16
19
1d
1d
18
1a
17
15
12
10
13
11
15
13
14
16
1b
18
1c
1b
17
1a
15
10
0d
10
0a
09
ff
01
fe
fc
f9
01
e1
e4
ed
f1
f5
00
00
02
03
01
04
01
04
fe
fb
fe
fb
fb
ff
fd
f9
f8
fd
fd
f3
f8
f7
f3
f4
f6
f5
f4
f0
f8
f7
f6
f7
f6
f6
f7
fa
fd
fd
f6
fa
f5
f7
fb
f8
fc
01
02
01
09
08
0a
0d
14
16
15
10
12
0b
0d
04
03
fe
f3
ef
e8
e9
e2
df
de
dd
de
d7
da
e1
e0
e2
e5
e5
e8
ea
e9
e8
e7
eb
e9
e9
f1
f2
f1
f3
f3
f4
f2
f4
f5
f2
f1
ef
f0
f0
ed
ee
f0
f5
f2
f8
f4
fa
00
01
05
0b
0c
0b
15
10
0f
13
10
11
0f
0b
08
00
ff
fc
fd
f9
f4
fb
f5
fd
f7
fa
fd
02
ff
05
05
03
07
02
03
05
fd
ff
fb
fe
01
fd
fe
fa
fc
00
03
00
06
09
04
0a
03
09
07
05
05
01
fc
00
02
02
01
fc
01
04
08
03
03
07
07
09
0a
09
0c
08
0a
09
03
09
0a
07
0b
0d
0c
12
15
14
1a
17
15
1a
18
16
18
16
0e
0e
10
08
0a
0c
08
0c
0b
0d
11
11
0e
11
11
17
0e
13
0f
12
08
0d
09
0e
09
0f
0c
0f
10
11
11
18
13
19
17
16
0e
11
0c
0b
0d
09
08
06
05
0a
0c
02
fd
ff
fe
01
ff
02
06
07
0a
0d
0b
05
06
08
0a
0a
05
0b
04
0b
03
04
04
00
00
02
fe
fb
fc
fe
ff
00
03
04
0d
09
0d
10
12
0f
0d
09
07
04
05
00
fc
ff
ff
ff
fb
fc
fa
00
00
ff
fb
fe
ff
00
fb
ff
fc
f7
fc
f5
f2
f0
f1
ef
ec
e8
ed
ed
ed
ee
f1
f4
ee
f4
f4
f2
f2
fa
fa
f9
fa
fb
fd
fb
02
06
02
07
09
09
0d
0d
0b
05
0a
09
05
02
00
ff
00
ff
f9
fe
fc
01
ff
05
06
08
0b
0f
11
14
0f
14
13
13
11
0a
09
08
09
07
0c
0f
0a
0f
0f
10
11
13
12
13
13
0c
0a
0e
06
0a
09
03
07
01
00
05
05
03
04
06
04
03
05
06
04
08
04
01
01
f9
fc
f6
f4
fa
fb
fc
01
03
08
0b
0b
0f
15
18
16
1a
16
15
15
0f
08
08
fe
02
f8
f9
f6
f5
fa
f4
f8
fa
ff
08
06
0c
09
08
05
09
fe
00
fa
f5
f5
ee
e6
e8
e6
eb
e6
ec
ee
f2
f0
f9
f7
f9
fe
f8
fb
f7
fa
fb
f0
f6
f0
f1
f2
f4
f6
fa
fd
fb
ff
fc
01
01
fa
f5
f3
f1
e8
e7
e3
e0
e2
e3
e7
0b
08
02
fd
00
f9
f9
f3
f7
f7
f5
fb
01
02
0e
11
15
11
19
17
14
12
17
19
16
16
10
0b
0a
06
01
fa
f6
f5
ea
e5
e8
e8
ea
f4
f6
fa
f6
f3
f9
fc
fa
f7
fa
fb
fd
ff
03
04
01
02
01
f9
fc
f8
f5
f2
ea
e6
e9
e4
e7
ed
f1
f4
f5
fe
fc
07
08
04
05
03
02
02
02
02
fe
02
01
03
05
05
08
07
0c
0d
0c
0e
06
09
02
ff
03
fb
f9
fb
f9
f9
f8
f4
f4
f6
fa
fa
fa
fd
fb
f9
f5
f6
f6
f3
ef
ee
ef
ea
f0
ee
f2
f8
f8
f9
ff
00
05
04
02
05
01
07
08
09
07
0b
0e
0d
10
13
14
1d
1e
1c
1d
18
1a
1c
16
12
12
10
0f
10
0a
09
08
0d
0c
07
09
08
04
03
02
fa
fa
fa
f6
f3
ef
f0
ec
eb
f1
ef
f2
f0
ee
f5
f5
f2
f1
ee
f0
f0
ec
f0
e9
e9
e9
e6
e7
e6
e8
e9
f0
ef
f2
f6
ef
f4
f5
fc
fa
fe
f9
fd
fb
f4
f5
f8
f9
f7
f6
ff
00
02
08
0f
14
1c
1e
27
27
29
2a
2c
29
28
26
1f
18
17
16
0e
14
11
0e
14
15
1c
24
2c
31
35
34
32
2b
2c
21
13
fc
02
ff
fe
01
fe
05
01
06
04
04
04
fe
03
04
00
00
00
03
05
01
04
06
06
02
05
fd
ff
00
00
fd
ff
01
fc
01
01
fe
05
04
01
03
01
07
04
ff
fe
fe
01
05
01
04
fe
fe
02
fe
fe
02
01
06
05
02
03
01
07
04
ff
fc
00
fd
fe
fe
fa
fd
fa
00
00
ff
02
03
ff
06
ff
fe
fe
01
00
f9
ff
fc
fa
00
02
03
04
01
01
03
00
03
07
01
04
05
fe
00
03
02
02
fa
f9
fb
ff
fe
fd
fb
00
ff
fa
fe
fb
fd
f5
f6
fa
fb
f7
f5
f6
f9
fd
00
fa
fe
fb
ff
fb
02
02
05
fe
02
ff
01
06
01
00
03
06
03
fe
fd
00
ff
02
fe
f9
fc
fa
fc
fb
fd
01
05
06
02
05
08
09
0a
08
0d
0e
0f
07
04
06
05
01
fa
f5
f9
f3
fa
fa
f7
f7
fa
fa
ff
fd
00
06
07
08
07
08
08
08
03
03
01
00
f9
fa
fe
ff
00
fc
ff
05
06
07
09
05
09
01
03
02
fd
02
fe
01
fc
ff
ff
02
02
05
08
06
03
08
04
09
03
01
06
ff
fe
00
01
fd
01
ff
04
03
01
00
fc
fb
fb
f8
f1
f1
ee
e6
f7
f4
fb
f9
fe
f9
f9
fc
fa
ff
ff
fd
fe
00
fc
fe
02
01
fc
fe
fe
fc
fc
00
04
03
02
ff
04
05
05
fd
00
fa
fd
ff
fa
f7
fd
f8
f8
f8
00
fe
04
00
00
06
02
0a
0b
0a
02
01
08
ff
fc
02
fa
ff
f7
f5
f5
fb
f6
f7
f8
f8
f8
f9
f9
f8
fa
f8
fd
f8
00
fa
ff
01
00
fd
fc
fc
02
03
fb
02
01
00
f8
fa
fc
f8
fb
fc
fe
fa
fe
01
00
fc
ff
ff
02
04
07
02
01
01
05
02
fe
01
fb
fc
f8
fb
f7
f9
f8
ff
fe
fd
03
fd
02
01
03
03
03
06
09
06
02
05
06
03
01
ff
04
ff
03
fd
01
02
fd
03
01
02
fc
00
fe
fb
fd
f7
ff
fb
02
fc
01
fe
04
00
05
05
05
03
ff
06
04
05
08
03
ff
03
fe
05
01
01
00
04
04
02
04
00
08
05
08
06
ff
03
04
01
04
00
05
04
00
ff
ff
fe
03
03
05
fe
02
02
00
01
07
07
05
00
03
02
fd
01
02
02
fe
ff
02
05
02
07
03
05
07
07
08
05
02
06
fc
fe
ff
02
ff
fb
ff
fe
fb
fd
fd
fc
fe
06
00
09
0a
0a
0c
0d
18
18
08
00
ff
01
01
fe
fc
00
00
01
04
ff
fd
03
ff
fc
fc
02
ff
fd
02
07
05
01
02
0a
0b
0a
03
08
09
00
02
fe
ff
fc
ff
f8
fe
f9
fb
f9
fd
fb
fa
fa
fe
01
fb
00
01
02
00
fb
ff
fb
f9
f8
fa
fc
f7
fd
f7
fc
f9
fa
fa
fa
02
03
fd
04
01
06
00
03
01
02
06
fe
04
fe
03
01
ff
00
fb
fe
fd
ff
01
01
fc
ff
fe
fe
01
00
04
03
05
05
01
03
01
05
01
01
ff
fd
00
f9
fa
fb
fa
f9
fd
00
01
fd
03
03
05
07
01
07
06
05
02
00
06
ff
fe
02
fe
fe
01
03
fb
fb
02
fb
01
fe
fc
02
03
01
01
ff
fd
ff
ff
00
fd
fe
ff
01
03
ff
03
fd
fe
03
ff
05
fd
fe
fe
fc
fe
fc
02
fb
fe
fa
fd
ff
fc
fc
fd
00
04
00
fd
04
ff
fe
ff
01
ff
04
03
fb
fc
ff
00
fc
ff
fd
00
fd
ff
03
ff
02
ff
03
04
ff
02
fd
ff
02
01
03
04
fd
fe
03
01
ff
02
03
09
03
04
04
0a
05
04
05
ff
03
fc
ff
fe
00
f8
ff
fb
00
01
fb
ff
fe
fc
03
04
05
05
02
06
0a
08
07
0d
0d
0e
0f
09
0c
05
08
0b
07
0a
01
05
00
07
05
02
02
02
06
03
02
01
fe
04
fc
fd
ff
fa
fc
fe
fb
fc
f9
ff
ff
03
fd
04
04
05
00
fe
fd
02
ff
01
01
01
fa
ff
ff
fb
00
00
fd
00
00
00
ff
ff
05
03
03
00
04
fe
00
00
00
fe
f9
fa
fc
f9
f9
fa
fa
fd
ff
02
04
04
01
fe
fe
02
ff
fe
fd
fa
fb
fd
f9
fe
ff
fb
01
fb
fe
fa
fe
fc
fd
ff
ff
fa
fc
01
01
00
02
fe
05
02
08
05
02
05
01
09
01
01
07
09
07
03
06
04
02
00
03
ff
01
fd
ff
01
01
fd
ff
00
fd
ff
00
ff
04
05
04
04
03
02
06
00
fe
04
00
01
fc
fb
00
ff
fd
fd
fe
00
04
06
00
07
01
01
05
07
06
04
04
04
fd
fc
fe
f8
f8
fb
fb
fd
f9
f8
f6
f7
fa
fc
fb
fe
fa
ff
ff
04
ff
02
03
03
06
00
02
04
ff
fc
00
fc
fc
f9
fd
fa
f9
f7
fc
f9
fb
fc
fd
fd
fc
fe
fe
00
03
05
03
fe
04
01
01
00
05
02
03
03
05
05
fe
02
fd
01
05
05
02
09
04
07
07
08
07
05
06
04
fe
28
38
3a
3d
3c
3a
2d
2a
24
1c
13
07
08
fe
ff
f9
fb
f6
fb
fb
f9
f5
f4
f5
f7
f5
f2
f1
f2
f2
ef
ec
f0
e8
ea
e5
e2
e1
e2
e5
e7
f1
f0
ef
f0
f5
fb
f7
fa
f7
fb
fa
f6
f6
f8
f0
f4
f6
f5
fb
fd
fe
05
07
0a
09
0b
0b
0e
0b
08
05
03
00
03
02
fb
fe
ff
01
01
fe
00
00
fe
05
03
ff
02
fd
fd
fa
fb
f8
f9
f8
f8
f8
f8
f8
f5
f6
fa
fd
f8
fe
f7
f9
fb
f9
fb
f9
ff
fa
fe
fe
fc
02
03
02
03
00
02
01
03
06
ff
03
08
04
03
08
05
01
05
02
01
00
01
00
02
01
fd
fa
ff
fe
fe
fb
ff
fe
02
02
02
fe
01
05
01
01
ff
fd
01
00
fd
fa
00
ff
ff
f9
fb
fb
f8
fb
fb
00
fc
f9
fb
ff
fb
00
fc
fb
f9
fb
fd
fd
fd
fc
f6
f4
f4
f6
f7
f6
f4
f3
f7
f3
f1
f5
f3
fb
fe
fc
02
fc
01
06
fe
00
fe
fd
00
f8
f6
f1
ee
ef
ea
ed
f4
f0
f7
00
0a
0d
18
20
1e
23
2b
2c
2a
26
1a
13
0b
02
f7
eb
e6
e1
df
e5
e6
f1
f9
0c
18
27
30
3d
49
4a
46
40
fd
04
03
02
02
03
01
ff
01
fd
00
ff
ff
fe
01
fe
03
04
ff
05
05
02
02
fe
03
fd
03
fc
fd
00
03
fc
00
00
fe
04
ff
00
00
02
05
04
08
05
06
01
01
05
03
06
03
fe
fd
ff
fe
02
fb
fb
ff
fe
fe
00
00
06
01
05
06
01
05
01
fe
fd
00
fd
fc
fd
fc
ff
ff
fe
fc
02
03
04
03
00
06
fe
00
01
02
00
fe
fc
00
ff
fe
fd
fc
fc
ff
fd
02
00
fc
fc
fb
f9
f2
f7
f4
f7
f9
f7
f9
f8
fe
01
fb
00
02
05
03
03
03
01
03
03
02
01
06
02
ff
04
04
06
ff
05
07
02
02
ff
02
fe
fa
ff
f8
ff
fb
fb
fd
ff
00
01
02
09
04
06
04
00
ff
ff
ff
fb
04
fe
00
04
08
02
0a
05
07
0a
04
05
02
01
03
ff
ff
01
fa
f9
fd
fe
01
f9
fd
ff
03
04
ff
01
05
04
fd
ff
fe
00
f9
ff
f9
f8
fb
fa
ff
fc
04
02
ff
02
fd
fd
fd
fe
02
fc
02
04
00
05
05
04
05
01
00
03
05
05
fc
00
01
02
01
fe
04
03
03
04
03
02
04
fd
fe
f8
f6
f8
f9
f9
fd
f9
00
ff
04
0a
e2
e3
e1
e1
e0
e0
df
df
e3
e0
e2
e0
e5
e6
e7
e8
e2
e7
e6
e9
ea
e4
eb
e8
e7
eb
ed
ec
e9
ef
f1
f2
f0
ed
f3
f2
ed
f1
ec
e8
ea
e8
ea
e7
ee
ea
e7
e7
ec
ed
e8
e9
eb
ec
ee
f1
f6
f5
fb
fa
ff
06
04
07
0b
0d
12
14
10
12
0d
04
03
02
fd
f6
ef
f0
ea
e7
e4
e2
e2
e8
ec
ed
f1
f4
f6
00
00
01
01
05
05
02
ff
fe
ff
f5
f5
f1
ef
ed
f2
ee
ef
f3
f0
fa
f6
fc
ff
03
06
06
0b
0a
0c
13
11
13
0d
0f
0f
0c
0c
0d
0e
10
0e
07
07
0b
08
0c
09
07
05
0a
0c
09
07
0d
0d
07
09
08
0f
0d
07
09
0a
09
0d
0e
09
0d
11
0f
11
0e
13
18
1b
1f
20
1c
22
21
1e
22
23
1f
22
1b
1f
1c
14
17
16
11
0f
0d
06
0a
ff
04
ff
fc
f6
fb
f4
f3
f5
f3
f2
f2
f1
f0
f1
f2
f8
fb
02
03
09
0c
0d
10
0e
0f
14
12
17
16
15
14
13
11
0d
11
13
14
10
11
0d
0a
0e
0c
07
03
03
fc
fa
f9
f9
fb
f8
f7
f4
f4
fb
f8
fe
ff
ff
03
04
03
06
08
04
0c
09
07
fc
fb
f8
f5
f4
f8
fb
f9
ff
ff
00
06
02
05
0b
0b
11
10
0f
0e
0f
14
15
15
0f
0d
0d
0b
0f
0e
10
0e
0c
0a
0b
0d
07
0c
09
05
08
05
04
ff
ff
ff
02
fb
01
fe
01
fc
fd
03
02
03
06
03
0c
06
0d
0b
09
0a
08
01
00
03
f9
f5
f2
ec
e5
df
dd
d5
d8
d6
d1
d6
d1
d7
dc
d9
df
e5
e5
e6
ea
ea
f1
ec
ef
ed
e8
e9
e6
dc
da
db
dd
dd
d7
df
e1
dc
e2
e9
ea
eb
f3
f6
fc
fe
01
07
08
03
05
04
03
06
04
fd
fe
fd
00
fb
fc
fd
f9
01
00
01
01
00
fc
04
01
03
06
04
06
02
00
fe
01
02
fd
03
fe
00
ff
01
05
01
05
05
0a
05
08
0c
10
11
16
12
16
13
1b
18
1c
19
17
1b
1d
16
1d
1c
17
1a
18
18
0f
0e
14
0f
0c
08
09
02
07
03
03
05
01
fe
02
fe
05
02
02
02
03
08
04
07
05
0b
09
05
0c
0b
06
0b
0c
0e
08
0f
0a
0f
0d
0e
0d
09
0b
05
0b
04
05
02
ff
02
ff
01
ff
fb
01
00
fd
fc
fd
06
02
06
08
0a
0d
07
0a
0d
0d
10
0c
0c
08
06
f5
f6
fe
00
04
fe
fe
03
01
ff
02
02
fc
fd
00
00
fd
fd
00
fe
fe
fb
fe
00
fd
03
fd
02
fe
01
fc
f6
f8
f4
f2
f0
e7
e6
e8
e4
e6
e8
e9
ed
f3
f3
f5
00
02
03
05
0a
10
0c
14
0d
0c
0a
07
ff
f7
f2
ef
ea
e7
de
d9
d5
d4
d4
dc
df
e0
e8
ed
f1
fc
05
0a
11
13
1d
1d
1f
21
24
23
18
15
16
0b
05
06
fc
fb
f7
f4
f5
fa
fb
02
02
03
0e
0b
15
18
17
18
18
1c
1b
17
17
16
13
12
0a
07
0c
06
0c
09
0c
0b
12
0f
13
13
19
14
18
15
15
12
11
0f
08
02
00
fe
ff
fe
fc
fa
f8
fa
fb
fb
03
02
06
04
03
0b
0a
0a
09
02
03
00
fc
f6
f7
f5
ee
ed
ec
f0
f1
ef
ed
f1
f3
ee
f3
f2
f2
fb
f9
fd
ff
f9
ff
00
01
02
ff
02
fe
fc
02
02
fe
fc
fc
fe
f8
f5
f5
f6
f7
ef
f0
f3
ef
ec
e9
ea
ef
ea
ed
ec
f0
e9
ee
f2
ef
ec
f1
f1
ed
f2
ef
ed
ed
eb
ef
ee
ed
f4
f8
f7
f9
fb
f9
f9
02
fe
fb
fd
fb
fa
01
ff
fc
01
00
00
00
07
0b
0e
0c
15
13
f0
ee
e9
ea
e6
e9
e9
ee
ef
f1
f7
ff
04
05
0a
09
0f
0c
08
05
05
03
ff
ff
fd
fa
fc
f8
f7
f7
f9
fb
01
ff
07
06
10
0f
1a
1b
23
28
2b
2f
2d
2f
30
29
24
22
17
0a
f9
eb
de
d5
cd
c5
c3
bc
c2
c6
d2
d5
e3
ec
00
09
19
1f
24
2f
30
36
35
32
2b
2a
22
1c
18
13
10
10
0f
09
0a
05
fe
01
f7
f4
f1
eb
e1
db
d6
d6
d2
d1
d7
df
e4
ea
f4
ff
03
0d
18
1e
20
21
25
25
1d
1a
15
0f
0e
0a
07
ff
01
f8
f8
f3
f3
f1
ee
f1
e7
e8
eb
e5
ea
e3
e5
ee
ee
f1
f4
f8
01
ff
ff
07
03
06
07
00
07
02
00
0a
0c
10
0b
0f
12
17
15
16
18
1d
19
14
11
0f
0b
0a
0b
03
fb
f8
f6
fc
fa
f8
f6
f0
f0
f1
f3
f0
ef
f2
f0
ef
ee
f1
ef
f1
eb
ee
f2
f3
f6
f1
f6
f7
f9
fa
f9
00
00
00
05
07
0c
08
0c
0a
09
09
00
fe
ff
fa
fa
f4
f0
f1
f0
f3
f8
f9
f7
fe
04
05
08
0e
19
1a
22
26
26
29
2a
2d
25
27
22
1b
18
12
07
00
f8
ee
ed
f1
e9
ed
eb
f4
fa
fe
fe
fe
ff
04
02
03
05
01
01
02
ff
f9
f7
fb
f6
fa
fa
fa
fc
fa
02
ff
05
07
04
02
04
06
ff
04
fd
fe
fa
fd
fb
fe
01
03
00
01
02
07
05
03
08
06
0c
06
08
0b
07
04
08
04
07
01
fe
fd
fe
f8
f5
f5
f5
fa
f7
f5
f7
fb
f8
00
00
fb
fe
01
fc
fc
fe
01
fa
fc
ff
fe
fb
ff
fb
fd
fe
fe
ff
01
fd
fe
fc
02
fc
fd
01
fd
01
02
01
07
05
0a
11
14
16
0f
11
10
13
0e
0b
03
03
fe
f8
f4
f0
f3
ef
ef
ea
ec
f4
f2
f8
fc
fb
ff
03
05
04
09
07
01
04
02
01
fd
fa
ff
fa
00
00
02
ff
02
04
08
06
07
06
06
0d
0a
07
09
03
fd
00
fb
fc
f8
fb
fa
fc
fd
04
03
07
08
08
0b
08
0c
04
07
0a
06
02
05
05
02
02
fd
00
fa
f9
fa
fb
f8
f2
f4
f5
f5
f4
f3
ef
f5
f3
f5
fd
ff
fb
ff
04
fe
ff
03
fc
fb
00
ff
fe
f6
fb
f6
f8
f8
fd
fd
01
01
04
03
06
0c
08
0a
0c
02
07
03
01
fa
fb
00
fd
01
05
07
0a
0c
0e
0a
10
0d
0b
0f
09
07
0c
0b
20
1b
19
1c
19
1a
18
16
14
13
0c
08
06
07
05
fe
01
f9
f8
f2
f3
f4
f0
ee
f0
f0
f3
f5
f7
f4
fb
fb
fb
fd
02
01
02
ff
ff
05
ff
01
01
04
04
02
06
0b
0a
0a
0e
11
0e
0d
12
15
10
10
14
10
11
14
11
14
11
0d
0d
07
08
02
03
fe
f5
f6
ed
f0
ee
e4
e4
de
db
dd
de
d9
d9
e2
df
e6
e4
e9
e8
ef
f3
f4
fa
fb
fc
fe
05
06
04
04
0b
05
0a
08
0a
07
03
05
04
ff
03
01
00
01
fb
ff
fc
00
fa
ff
00
fd
fe
01
02
ff
01
ff
05
00
02
05
fc
00
00
fd
02
01
ff
fd
fd
01
fb
fd
fa
fa
fd
ff
ff
fa
fa
f9
fd
f9
fa
fa
fe
f8
fb
f9
fe
fc
fe
ff
f9
fc
f9
fa
f5
f3
f6
f7
f1
f3
f2
f3
ee
ee
ec
ee
ed
f2
f1
ed
f2
f9
f6
fb
fe
07
0c
0a
10
0d
11
16
18
16
17
13
11
13
11
13
0c
0c
0d
0d
05
0c
05
07
05
02
03
05
08
06
04
07
06
06
08
01
08
08
03
02
09
04
0a
08
06
07
06
05
05
06
04
02
07
06
00
05
00
fb
02
01
fd
fc
01
00
fe
06
04
06
0b
0c
08
0b
08
0b
05
07
02
00
fe
fd
fc
f7
f6
f6
f8
f7
f2
f1
f2
f5
f7
f7
f4
f8
f6
fb
f9
f7
fa
01
04
04
04
0c
09
0e
0e
0e
0f
0c
0e
07
0c
05
04
03
05
05
04
07
05
03
03
03
05
06
01
00
fd
00
f7
f9
f3
f5
f5
f2
f1
f4
f6
f6
fb
f8
ff
fe
ff
05
06
07
0d
0b
0d
0f
0a
0a
0b
0c
10
0a
0c
0a
0a
09
03
07
00
ff
00
fb
fc
fb
fa
f3
f6
f0
f4
f4
f4
f2
f3
f4
f1
f2
f5
f6
f8
f5
f1
f5
f6
f0
f0
f5
f3
f2
f3
f3
fb
fc
fa
fe
fb
04
ff
01
06
03
06
03
05
02
00
fa
fb
fa
f7
f2
f7
f6
f6
f5
f9
fd
fc
00
01
04
07
0a
0b
0f
14
13
13
0c
0e
0e
0b
0a
07
02
07
04
fe
00
03
01
fe
01
02
03
02
02
05
01
06
01
04
03
02
02
07
09
03
09
05
02
07
ff
ff
02
00
fc
f9
f7
f1
f5
ee
ef
ef
ec
ec
eb
ef
ec
ed
ef
f2
f4
f6
fa
f7
fc
00
01
03
02
06
05
05
08
08
0f
10
10
11
0d
13
0c
11
09
0c
09
08
00
04
00
01
03
05
05
08
0e
1d
1a
0d
0f
0e
07
09
0b
0f
0e
0d
0d
0d
0c
08
0a
0d
05
03
04
08
02
07
02
07
01
07
08
06
07
03
0c
0a
0a
02
06
07
02
00
fe
fb
f7
f7
ef
f1
f0
ed
ef
f0
eb
f1
f5
f4
f3
fc
fd
ff
f7
fc
f5
f9
f5
ec
e9
e5
e8
e3
e5
e8
eb
ec
f4
f1
fb
ff
02
0a
12
14
16
17
17
1a
19
1a
17
0f
0e
10
0c
07
03
03
f9
fa
f3
f5
f1
f1
f0
ef
f0
ed
f2
ee
f1
ee
f0
ed
ee
f3
f2
f2
ec
f5
f3
f0
f1
ef
f2
ee
f0
ee
ee
f5
f7
f3
f7
f2
f9
f3
f6
fa
f9
fb
00
fa
01
00
01
09
02
0c
09
0a
09
06
0c
0b
09
06
0a
0a
08
06
0b
09
0e
0e
12
16
19
14
15
15
16
15
15
11
15
13
0b
08
09
05
05
05
01
00
03
04
02
ff
02
06
06
ff
02
08
04
01
00
01
fe
02
fc
f9
fb
f5
f9
f6
f2
ef
ef
ef
ef
f5
f8
f8
f4
f8
f8
fb
fe
05
02
04
06
02
04
05
06
05
07
05
06
07
03
05
07
07
07
07
06
08
03
0c
0a
09
0c
10
12
0f
12
10
10
14
13
0c
10
0e
11
14
15
15
21
f7
f3
f2
f5
f7
f8
02
03
09
10
12
14
15
20
21
27
28
2e
2b
2c
2f
23
20
1d
16
0c
07
f7
f5
e8
e2
df
d7
cf
d1
cc
ce
c8
cd
d1
cd
d4
d6
d1
d7
da
de
e0
e3
e7
e9
f0
fc
02
05
10
15
18
16
13
10
0f
05
03
fd
03
07
0c
10
1b
29
32
44
48
4f
51
4e
4b
3a
33
25
11
01
ef
e5
d7
cb
bf
b7
b9
bb
bf
c7
d0
d8
e0
e6
ec
ee
f2
fa
fa
f9
fd
f9
fe
02
ff
fe
fe
01
08
05
0b
0a
10
0b
10
0e
0b
09
08
06
07
ff
03
00
02
ff
ff
fc
02
02
03
00
03
01
ff
06
04
ff
ff
fd
00
02
fa
00
01
fe
01
fb
02
01
0a
0a
05
06
07
0d
0a
0c
06
0a
04
07
02
00
01
08
06
06
0d
0f
0f
15
12
15
17
15
11
10
08
05
07
03
fa
fe
fb
fc
fc
f8
f6
fd
fd
f8
f9
fe
fa
f8
fc
f7
fc
f7
f5
fa
f4
f7
f6
f8
f4
f2
f8
ef
ee
ed
eb
ed
ee
eb
e7
e8
e4
e9
eb
e6
eb
e8
f0
ee
f4
f1
fa
f7
fa
00
04
0c
0c
10
14
16
14
14
0c
0b
01
fe
f4
ee
ef
e7
e5
e9
e6
ea
f4
02
05
05
06
07
08
06
00
02
02
01
f7
fa
fb
f6
fa
fc
fd
fd
01
01
03
04
fe
fc
ff
01
f8
fc
f8
f7
f8
f5
f3
f9
fa
f4
fb
00
fa
02
06
04
03
07
05
0e
0b
08
04
04
02
01
02
04
00
03
03
ff
ff
fe
ff
fe
fe
ff
05
01
05
ff
05
01
ff
00
fe
00
00
00
04
01
08
08
03
08
05
01
04
07
03
02
fb
fc
fc
fe
f7
fd
fa
f6
f7
fb
f8
f7
fd
f9
fd
00
fd
fe
04
02
fe
02
fc
fb
fb
f9
f7
f2
ef
f2
f2
f8
fc
f9
fe
01
ff
02
00
fe
04
ff
fc
fc
00
02
00
02
03
04
04
00
03
07
06
00
fe
00
01
00
02
fb
00
fb
01
fc
fc
02
05
03
ff
ff
07
ff
00
03
fe
02
02
03
fe
01
00
04
fd
00
04
ff
06
02
05
05
00
fc
00
fd
fe
01
fd
fd
f8
fc
fb
fc
02
fe
02
06
06
0a
0a
02
02
ff
ff
fe
fd
f7
f9
f5
f8
f8
fc
fb
00
fc
00
05
04
06
04
04
06
04
03
ff
05
fd
03
fd
03
00
ff
01
05
08
08
08
06
08
06
06
08
06
03
02
fd
fc
fe
fe
02
00
fd
01
0a
0b
0e
f0
ed
ef
f6
f4
fa
fc
ff
fe
02
01
01
07
0a
04
0a
05
03
08
03
06
ff
04
01
fc
fd
fa
fb
fb
fc
f8
f6
f7
fa
fa
f7
fa
f6
f5
f1
f0
f2
f2
f5
fa
f9
f9
02
02
02
08
08
05
0c
0e
0d
05
09
04
05
08
08
00
02
ff
fd
fd
ff
fb
fa
01
03
04
00
00
01
06
00
ff
04
02
ff
ff
fd
f9
fd
fd
f8
f7
fc
fd
fd
fc
fd
00
00
fe
00
02
07
0a
09
02
07
03
03
09
05
07
06
05
06
03
06
06
02
03
04
02
fd
f9
fa
fb
f9
f8
f7
fb
f9
fa
fa
f8
fd
fd
02
fd
05
03
05
01
06
04
05
05
02
ff
07
00
02
01
03
00
02
03
05
00
01
01
06
00
ff
03
03
fe
fa
fb
fb
fd
fb
fb
00
fc
fc
02
ff
00
07
07
03
01
04
06
06
06
02
05
05
06
02
01
02
fe
02
fe
ff
fd
fd
00
00
01
ff
fb
03
01
00
04
04
00
03
01
05
ff
ff
03
02
02
fe
fd
01
fd
00
ff
ff
01
ff
00
03
02
03
ff
06
ff
05
04
09
07
00
04
00
00
05
01
fd
f9
fb
f9
fb
f8
ff
fd
ff
02
00
04
03
07
08
