10
0f
0c
07
01
03
04
fe
fe
05
00
00
00
00
fd
fb
fb
fb
fc
fc
fc
f9
fd
fa
fe
f9
fa
f9
fe
fb
02
02
fe
03
04
fd
04
ff
07
07
08
07
09
05
0b
06
08
09
0b
0a
07
07
08
08
06
00
ff
03
fb
fb
fd
fa
f5
f8
f7
f4
f5
f6
f7
f6
f6
f9
01
03
03
04
07
07
06
03
05
01
04
04
01
fd
00
02
fe
00
ff
01
00
00
fb
03
fc
fd
04
ff
fc
04
ff
04
03
fc
fb
00
fe
fc
fd
02
01
00
01
01
02
ff
00
05
02
01
06
05
04
06
07
04
02
04
06
ff
fd
fe
ff
fa
fa
fc
fe
fc
fb
fa
f9
fc
f8
f9
fb
fc
fd
fd
03
03
fe
03
ff
08
05
05
07
06
05
01
00
04
04
ff
04
04
04
00
01
fe
fc
00
01
fd
01
fc
fd
04
fe
00
ff
03
01
00
ff
fe
ff
02
fe
fb
ff
f8
f7
fd
f5
f9
f6
fe
f8
f9
02
01
ff
07
03
0b
08
0c
0c
08
0b
07
06
07
04
fe
00
fa
fc
f7
fd
f7
fa
fe
fc
03
01
00
03
fd
02
fc
00
fe
01
fd
fe
f9
01
fb
01
01
04
06
02
ff
06
ff
fd
02
fc
ff
fd
f6
17
0d
07
00
ff
02
01
00
fe
04
05
05
0a
07
09
07
03
08
03
04
fd
fd
f8
fb
f6
f9
fd
f7
f9
00
ff
00
ff
0a
09
08
09
0a
0b
04
01
ff
fd
01
f9
fe
fd
f6
fc
fc
f6
fb
01
ff
02
05
0b
07
0a
0b
0d
09
07
06
05
03
fd
f9
f8
fe
fc
fa
fc
fa
fb
01
00
03
01
06
06
03
02
02
00
ff
fb
fd
ff
fc
f7
fc
f9
00
ff
fb
01
ff
ff
ff
fd
fb
fb
f9
fe
fe
fe
fc
fc
fb
00
ff
fc
02
03
03
ff
02
04
ff
01
01
fe
03
02
00
00
01
05
04
ff
00
ff
04
02
01
01
02
ff
03
fd
fd
fd
fd
01
fe
02
00
03
06
08
04
01
ff
fe
fe
fc
ff
01
fb
ff
03
fc
03
02
fe
05
03
03
02
06
02
04
01
fd
01
fe
fb
fe
fc
00
02
02
07
04
04
09
0b
04
06
02
04
02
fe
fb
00
fb
f8
fd
f9
fd
fe
ff
03
05
02
01
07
00
02
fc
f8
fa
f5
f8
f9
fa
f6
fe
02
01
07
00
08
02
08
03
02
03
01
ff
fc
ff
ff
fb
fa
00
fd
ff
01
00
ff
ff
01
01
fc
fb
ff
fa
01
fd
00
05
04
0b
0d
d1
d0
cf
c7
cb
d3
d3
db
e3
e8
ea
f3
fa
fa
ff
02
03
03
05
fe
01
fe
fd
fe
f7
f4
f5
f3
ee
eb
f1
ed
f4
f8
ff
02
0a
16
24
2c
34
38
38
38
35
2e
27
1f
19
0b
07
fe
f0
eb
ec
ea
e9
e9
ed
ed
f2
f2
f8
f8
fd
f8
fc
fa
f8
f3
f6
ef
f8
f3
fb
f8
01
01
03
0a
06
0a
0c
0d
0a
0a
08
06
03
09
05
09
09
09
08
07
09
0a
0f
0a
08
05
01
01
04
fe
fe
00
fd
fd
00
01
01
01
01
f9
fa
f7
f8
fd
f9
fe
fa
ff
fc
00
fd
01
fe
00
03
01
ff
fe
fe
ff
02
ff
fd
03
03
04
03
01
05
fe
02
04
03
04
09
03
02
05
02
07
07
06
08
02
08
04
03
03
ff
01
00
04
03
07
08
07
0a
07
05
0a
0a
08
0b
08
04
09
08
01
02
06
08
0a
0a
09
06
07
09
09
0c
08
0a
08
08
04
02
fd
fc
fd
fd
ff
01
02
01
08
05
0e
0d
07
09
0b
08
00
fc
fd
f9
ee
f3
f3
f2
ed
f3
f5
fa
03
08
0b
0a
0d
0a
10
0c
03
00
f6
f4
eb
e0
dc
d2
d3
d1
d7
dc
e4
ee
01
14
23
38
46
05
08
04
fc
fe
fe
fe
fa
01
03
ff
fd
fe
01
fc
01
00
fb
fd
fa
fb
fa
f7
fb
f8
f9
f8
fb
ff
01
fe
01
01
03
0a
02
04
00
01
00
03
ff
fb
ff
01
fc
00
fb
fd
fd
fc
01
01
01
00
00
fd
01
01
02
00
fe
00
ff
04
05
02
00
02
03
fb
fb
fc
ff
fd
f9
ff
fd
fc
fc
02
04
00
fc
fe
fd
fe
03
03
03
00
fe
fe
ff
02
02
ff
fd
00
fe
fd
ff
01
02
03
ff
07
06
06
06
0c
09
07
08
0c
09
01
00
03
02
fd
ff
01
fe
fb
fc
02
fd
01
ff
03
fd
01
fc
01
fa
ff
02
fe
01
fe
04
02
03
fd
fd
02
01
fd
ff
fe
00
fa
ff
00
fd
fa
00
01
00
ff
00
ff
fa
fd
02
00
07
01
00
04
ff
fe
fc
fc
fb
01
01
fe
01
ff
00
04
02
04
09
05
00
05
05
fe
03
fd
fd
fd
fe
03
04
03
05
02
03
00
02
01
00
01
01
fd
fd
03
fa
ff
ff
fd
fd
02
04
fe
04
00
02
06
05
08
06
07
ff
01
fc
fb
f9
01
03
05
00
07
03
03
08
02
04
04
01
01
fe
fc
fe
fc
fc
00
fe
03
07
05
04
fe
f7
fa
fc
fa
fa
fd
fa
fd
f8
fa
fa
00
03
04
05
06
08
06
03
04
03
00
05
00
02
fd
fc
00
ff
ff
ff
fe
00
02
fd
01
04
00
fc
02
00
f9
fb
f7
fc
f9
fc
fb
f9
fd
f8
f9
00
ff
05
05
07
0b
09
06
07
08
0c
0b
06
05
09
02
05
03
00
fd
fe
fc
fe
ff
fc
fc
00
fb
fd
fe
01
fc
fb
fd
fa
fa
f6
f6
f5
f7
fa
f4
fa
f4
fd
fa
f8
fd
fd
fd
00
02
0a
06
07
0b
0a
0e
0d
0e
0b
08
06
0a
07
03
07
04
00
ff
03
02
03
02
fe
00
fe
04
04
00
00
05
02
fe
02
01
02
02
00
fc
fe
00
02
03
02
fa
fc
fe
fb
fb
fd
fd
01
f9
fd
fb
fc
ff
00
fb
fb
fd
fe
04
fd
05
01
00
00
06
03
05
00
05
00
00
01
fd
01
fe
fa
01
fa
fb
01
fd
ff
04
07
02
06
08
09
0c
04
07
09
05
06
03
02
01
03
01
fb
fb
00
fb
00
fa
fa
fd
ff
00
00
03
fc
02
01
fe
00
fd
01
ff
fe
01
04
fe
fe
07
08
05
08
0b
07
06
06
0a
08
07
08
08
07
02
fd
00
fa
f5
f8
f0
f4
f0
eb
0a
09
00
fd
fd
fe
fd
01
03
07
05
07
04
04
07
02
07
fe
ff
fc
fe
fa
fb
f9
ff
f8
fa
00
00
fd
ff
ff
02
ff
fe
fb
fa
ff
ff
f7
fb
ff
fd
ff
ff
03
01
06
08
05
06
0f
0d
09
09
0e
0c
03
01
03
fd
fd
fc
fd
f8
fa
f8
fb
f8
f5
fb
f6
fa
fe
fe
00
ff
fa
00
fb
fb
00
fa
fc
fd
02
fd
fe
ff
ff
02
00
02
08
06
05
02
09
05
05
06
02
02
05
07
06
03
03
00
02
fd
01
02
fc
fe
fe
f9
fe
fa
fd
ff
fd
f9
fc
ff
fc
01
05
00
01
06
01
05
08
02
01
06
00
01
01
05
01
02
05
04
04
04
02
08
04
03
09
06
06
01
03
03
00
01
03
fe
02
fb
00
fc
fe
ff
02
01
fe
02
fd
fd
fe
00
01
ff
01
00
f9
ff
fe
fe
ff
fd
fc
fd
ff
ff
03
07
01
04
05
06
03
02
00
02
fb
fa
fc
fa
f6
f6
f8
fc
fa
00
01
fc
04
fe
04
01
05
02
06
01
fc
04
fd
01
02
fe
01
06
05
04
05
05
00
ff
07
01
ff
fe
fe
00
01
fe
03
00
00
03
fc
01
fe
fb
f8
f0
f4
e9
ea
e0
dc
09
07
08
05
05
01
05
01
fd
fe
ff
fe
fd
03
02
00
02
09
08
06
0a
09
03
06
06
06
03
fe
01
ff
03
03
00
06
03
05
03
03
09
07
0c
0c
0f
10
0d
0c
0c
0e
0c
0b
09
09
07
04
09
03
06
06
01
01
05
02
05
05
01
fd
fd
03
fe
04
03
01
03
04
07
0a
08
0a
07
04
04
06
05
fd
03
00
02
03
03
01
01
ff
08
05
0a
05
04
08
04
07
05
fe
05
01
fc
fe
ff
00
fd
fd
ff
00
fa
fc
fd
02
03
ff
fe
01
00
02
ff
00
fc
fd
01
fd
ff
01
fe
01
ff
03
00
fd
fc
fd
05
05
03
04
02
02
fe
fd
ff
fd
fe
fd
f9
fa
fc
02
01
fd
03
04
05
00
03
06
06
01
00
fc
fc
fd
fe
ff
fd
ff
00
00
04
01
fe
01
fc
02
fe
f9
f9
fe
fe
f7
fb
fe
fd
fd
00
00
05
06
03
07
01
02
01
07
08
03
05
03
00
fd
fb
fe
fc
f9
f6
f5
f5
f5
fc
f7
fc
fb
fa
01
01
03
03
05
04
fe
fd
00
fd
f7
fb
f5
fa
f4
f7
fa
fd
fb
fd
fd
fc
03
04
ff
00
ff
04
02
01
f8
f9
f9
f1
f4
ef
ef
f1
ff
06
12
15
1e
21
20
1a
14
14
0f
0c
0c
0a
07
0e
0c
0d
08
08
06
fc
f2
f0
eb
eb
e5
e4
e0
de
df
e0
e4
e5
e7
e5
eb
f7
fc
06
15
21
29
2f
3e
42
42
42
40
3c
32
29
1e
15
0f
01
fc
f2
ec
e8
e6
e6
df
e3
e3
ea
e7
e9
e8
ee
ec
ee
ee
ef
f0
f5
f7
f9
fe
f9
fe
00
04
04
05
ff
04
ff
04
ff
06
07
04
04
00
03
05
05
01
02
03
07
05
01
05
fe
02
04
00
00
fe
ff
fe
01
fe
ff
fc
01
fa
fb
fe
fe
f6
f4
f9
f4
f7
fa
f9
f7
f6
f7
f9
fb
fe
ff
fd
fb
02
fb
fa
fd
ff
fe
fc
00
fa
ff
03
00
06
01
01
07
06
02
03
07
03
08
01
06
01
fe
ff
04
01
fe
07
04
07
01
02
08
09
06
04
08
05
07
00
00
05
01
04
ff
01
ff
fe
01
ff
03
ff
04
00
01
02
01
03
fd
00
00
fe
fc
f5
f9
f8
f5
f2
f2
f4
f5
f4
f6
fd
fe
ff
fc
00
02
fc
00
fe
02
03
ff
04
02
01
01
00
00
00
f9
fa
fc
f9
fc
f9
f8
f8
ef
f0
f2
ef
f5
fa
fd
00
0d
16
25
2c
35
40
fd
00
ff
fa
01
fd
fd
ff
00
f8
fb
fc
fb
fa
ff
fc
01
00
00
05
06
ff
04
fe
02
ff
fe
fd
fd
fc
fe
fe
fc
fc
fd
fc
fb
fe
ff
ff
fe
fa
00
fe
fb
ff
f9
ff
fa
fb
fe
fd
ff
fe
fb
02
00
01
fd
01
02
04
05
fe
05
00
fd
ff
fe
fe
fe
01
fc
fe
04
ff
fd
03
05
05
ff
00
fe
00
ff
fc
03
01
fe
fc
fb
fa
fd
fc
f7
f8
fc
f8
fc
fc
fc
01
01
ff
fe
fc
01
00
ff
fb
fd
fe
04
00
04
05
02
02
ff
ff
ff
fe
05
02
01
03
fc
02
02
ff
f9
fa
fb
fa
ff
fe
fc
fb
00
03
01
fd
01
03
05
02
03
fe
03
fe
01
fc
03
02
ff
01
ff
06
02
02
05
02
03
07
00
03
05
03
04
06
01
01
07
05
07
00
fd
fe
f9
fd
00
fd
fd
f9
fd
fc
fb
00
05
04
04
05
07
06
0c
0a
08
03
ff
fc
fb
fc
f8
fc
fa
fa
fc
fd
01
03
06
06
03
06
03
06
00
05
fe
00
05
04
fd
00
05
00
04
01
07
03
03
01
01
03
07
00
03
04
08
02
02
07
04
04
fe
fe
01
01
01
00
01
06
06
08
05
0c
11
11
0f
05
09
06
00
01
00
00
ff
fb
fa
ff
00
fa
fc
fe
06
06
03
07
08
0a
07
0a
05
09
0a
0a
06
08
0d
07
0d
08
08
0c
0d
0a
0a
0c
0c
09
0a
0d
0b
08
06
09
0d
08
0d
0d
0b
0f
0f
0f
07
06
0a
01
07
03
fd
ff
fb
f8
f8
f7
f7
fb
f5
f9
fc
fc
fc
02
04
01
06
06
03
07
03
00
01
ff
f7
f7
f6
f2
f3
ef
f1
eb
e9
f1
ed
ee
f3
ee
f0
f6
f8
f6
fa
f6
fc
f7
fe
01
01
04
04
07
03
09
0c
0e
0c
0d
0b
11
11
0e
11
0f
10
10
0f
0d
08
0e
08
0a
05
01
ff
f9
fb
fb
f6
ef
ef
ed
ef
ea
e8
e4
e8
e4
e4
e9
e6
e9
ef
f2
f3
f2
f5
fa
f8
fe
fc
01
fb
ff
fd
fb
fd
01
00
00
06
01
05
08
08
03
0a
08
03
04
07
07
00
ff
02
ff
00
ff
fc
fa
ff
00
f8
fb
ff
f9
ff
fc
f9
fd
fe
fb
f6
fc
f5
f5
f7
f9
fb
fd
f7
ff
00
fd
ff
08
07
04
06
0c
0b
0c
0c
0b
10
0b
09
0e
0d
07
07
0b
06
08
0c
0e
08
09
0c
0c
0a
0e
07
09
0e
08
06
0d
0a
0b
12
12
02
00
f8
fb
fa
fb
f3
f6
f4
f5
f6
f9
fc
ff
fa
01
02
fd
fc
fa
00
fd
f7
f9
f3
f2
f6
f3
f7
f3
f0
f6
f6
fa
f8
f8
fb
fe
fd
f6
f7
f5
f5
f5
f3
f5
f4
f1
ef
f3
f0
ef
f1
ef
ee
f2
ef
eb
eb
f3
eb
ed
ec
ea
f0
f3
f2
f0
f1
f4
fa
fa
fb
fb
ff
03
03
04
03
fe
fd
04
03
01
ff
01
fe
ff
ff
01
05
04
05
08
05
0e
0a
0b
08
04
01
06
03
00
fa
fd
fa
f5
f3
f2
f5
f6
fd
f8
fb
01
02
02
02
fe
01
fe
fd
fa
fa
fd
f6
fc
f9
fa
f6
fd
fa
fc
fe
ff
fa
f8
ff
fc
fb
f9
f9
f4
f2
f7
f7
f3
f8
f9
f8
f8
fe
00
03
05
04
07
08
07
04
09
03
03
05
04
01
02
06
ff
04
05
06
08
0b
0c
0a
0f
0d
0f
0f
0a
09
09
0c
0b
0a
07
07
04
09
07
0e
0a
08
0f
11
11
12
14
13
15
0d
13
0b
0a
07
0d
07
08
08
0c
0a
0b
0d
0b
0b
0c
0d
0f
0a
0f
10
0a
09
0a
08
06
07
07
0b
09
0d
08
0c
0b
11
0c
11
0c
09
0a
0e
05
05
0b
07
07
0b
0c
0a
12
10
0f
0e
0d
0a
10
18
1a
20
21
1f
23
21
1f
18
13
17
0d
0e
0c
09
0b
11
11
13
19
15
17
1c
20
23
25
22
23
24
27
25
25
21
20
1b
19
18
13
0f
0f
14
0f
11
17
15
1c
1d
19
20
1d
1a
1d
18
14
0d
0d
06
04
ff
fb
f9
f9
f6
fb
fc
f7
fa
f8
ff
02
04
08
04
0b
08
10
09
0d
0f
0f
0f
09
08
0b
04
05
04
00
02
ff
02
fb
fb
01
00
fc
fc
fc
ff
fb
f6
f9
f7
f2
f4
f3
ed
ed
e7
ec
ea
ed
ee
e9
ee
ef
ee
ef
f6
f2
f9
fb
f6
f2
f3
f5
f5
f1
f7
f5
f7
f5
f5
fc
fa
fb
fe
fe
fd
fb
ff
01
01
fc
f7
f7
fa
fa
f7
f5
f6
ef
f2
ee
f1
f0
ed
ed
f0
ed
ee
f1
ed
ef
f4
f4
f7
f6
f8
f6
f5
f4
f8
f5
f4
f1
f2
f7
f4
f7
f2
fa
f9
fd
fa
ff
fa
00
01
00
03
05
03
07
08
04
06
0a
05
07
0a
05
08
06
01
07
07
07
05
08
05
08
0d
07
0d
11
0d
0c
09
08
06
05
03
fc
f7
f6
f2
ee
e9
ea
e8
e7
e5
e3
e3
e6
e6
e8
e9
ed
f4
f2
f8
fc
00
01
03
0a
10
16
17
18
1a
20
12
18
21
1f
24
29
25
23
17
16
11
0c
0d
0a
00
07
05
fe
fe
07
05
07
0e
0d
14
0f
17
12
10
14
0d
0a
0c
09
03
00
fa
fd
f7
f5
f5
f4
f5
f7
f8
f8
02
02
06
0c
08
0c
0b
0f
0d
0a
09
0b
02
03
05
03
f9
fe
fc
fa
fb
fb
f5
fa
f6
f7
f8
f4
f6
f6
fc
ff
fe
01
00
00
ff
03
00
02
05
fe
01
01
06
07
07
04
05
03
00
01
05
00
ff
02
fb
00
00
fc
fe
ff
ff
fa
ff
f9
fa
f8
f9
fa
f9
f9
f8
f4
f8
f6
fa
fc
f9
fa
f9
ff
01
00
00
00
fd
ff
fe
04
ff
ff
04
02
02
07
05
05
01
ff
fd
00
01
f9
f8
fb
f4
f7
f7
f6
f0
f1
f4
f6
f5
f1
f7
f4
fa
f5
fb
fc
f9
f8
f8
fb
fa
fd
fb
01
03
02
04
07
06
03
08
07
08
08
0c
06
06
0b
06
0a
05
04
00
03
fc
fa
fb
f8
fa
fa
f7
f5
fa
fd
fb
ff
fd
03
02
00
05
07
03
02
02
04
fd
fc
fc
fb
01
fc
ff
00
01
02
08
04
0b
0a
10
10
14
19
19
16
13
0b
0d
09
02
fe
f9
f8
f3
f2
f5
f3
00
08
14
1e
2a
32
04
04
03
ff
fe
02
02
ff
fd
01
fb
fe
fd
f7
f6
f3
f7
f5
f6
f4
f3
f6
f2
f9
f5
fc
f8
fa
f9
fd
fd
fa
fb
fd
fb
fd
fc
f9
f7
f8
fb
f9
f7
f8
fa
f8
fb
f3
f9
f6
fb
fb
fe
fd
fc
fa
fe
fa
f6
fb
fb
fb
fc
f9
ff
fa
03
fd
03
04
05
06
00
03
04
ff
fc
ff
fe
03
04
fd
00
06
06
08
0b
05
07
04
05
ff
01
01
fc
fa
f8
fd
ff
fc
fb
02
02
02
04
01
06
fe
00
01
fd
04
03
05
02
05
07
09
05
0c
06
07
07
0b
09
00
04
04
fc
00
03
03
03
fc
05
02
06
03
03
08
05
02
05
07
05
03
02
03
01
06
fe
01
fb
fc
fb
fe
fb
02
00
05
04
03
0a
03
04
03
08
01
04
04
03
01
03
05
00
08
02
06
0a
09
0a
0c
09
07
04
01
04
01
fc
fa
fb
fb
fa
fa
02
fe
01
fe
06
ff
02
fe
03
02
00
02
fa
ff
ff
fb
02
fd
05
04
07
03
09
02
03
01
06
01
06
02
03
00
fd
02
03
ff
ff
05
00
04
04
07
04
04
0a
03
08
05
06
00
03
05
01
00
fd
00
01
00
01
fe
05
02
01
07
09
05
05
05
02
00
04
fc
00
f7
f7
f6
f9
f6
f5
f1
f5
f0
f5
f8
f7
f7
f6
fb
f7
f9
f7
f8
f3
f9
f2
f5
f6
f6
f2
f1
f0
ec
ea
ee
eb
e9
e9
e7
e3
e5
e6
e5
ea
e7
ed
f0
ee
f1
f9
f7
ff
ff
00
04
00
02
ff
01
05
05
ff
ff
05
05
01
01
fe
fe
01
fd
01
01
fa
f8
f4
f5
f3
f7
f3
f3
f3
ef
ec
ee
ec
ee
ef
f5
f2
f7
fa
f8
fd
fa
f8
f9
fa
f8
f0
f1
ef
ed
ee
e9
f1
eb
f0
f1
f4
f0
f3
f5
fe
01
02
05
07
08
06
0b
0a
0e
11
0f
0e
12
13
0f
13
0e
11
0e
0d
0b
0f
09
05
04
03
07
06
04
02
02
03
00
02
09
06
04
04
09
07
07
08
0c
09
04
08
06
02
01
fe
01
fb
fa
fa
fc
ff
ff
fe
05
05
07
06
08
0b
09
0c
0c
0c
11
15
12
18
1a
18
17
1d
1e
19
1a
1c
17
17
14
19
18
12
12
10
11
12
0e
11
0d
10
0c
0c
11
12
12
0c
0e
0a
0c
0c
08
03
06
02
00
ff
ff
01
00
00
fe
04
04
00
00
ff
05
00
02
fe
01
fd
f9
f8
fa
f7
fa
f5
fb
f8
00
f8
fe
fa
ff
00
00
08
02
05
04
07
ff
06
ff
00
fc
01
ff
fe
fc
04
00
04
06
07
09
0c
0d
0e
0d
08
0d
0e
0c
05
04
07
ff
fb
fe
f7
f6
f6
f5
f4
f4
f3
f4
f2
ee
f5
f5
f4
f7
f8
f7
fb
f8
fb
f6
fb
f4
f4
f5
f2
f7
f1
f1
f3
ef
f2
f7
f7
f4
f8
f4
f6
f9
f2
f1
f8
f8
f3
f5
f7
f1
f8
f7
f8
f5
fa
f9
f8
f8
fc
fb
ff
ff
fc
fe
fe
06
01
02
00
07
04
03
01
08
05
06
04
03
fd
03
fa
fb
f6
f6
f2
ef
eb
e9
e5
e8
e0
e5
e0
e4
dc
e2
de
e0
e1
e2
e8
ea
ee
ed
ef
ef
f6
f6
f6
fa
f6
fe
fa
ff
f9
f9
fd
fd
fe
fd
00
fe
fc
fe
f9
ff
fd
fa
00
fd
ff
00
00
02
06
03
05
02
06
07
0a
0d
0b
0c
0c
0c
14
15
15
1b
1d
20
1f
23
20
20
21
23
1d
21
1c
16
13
15
10
0e
09
0b
05
07
06
04
00
02
01
fc
03
fc
03
00
06
08
0c
08
0b
10
12
11
17
18
1b
22
24
24
21
1e
1f
24
21
20
1d
1d
17
19
19
17
15
12
13
11
0f
0f
0b
0d
0a
04
0b
0c
0b
0f
fe
fe
f3
ec
eb
e7
e6
e7
e7
e6
ea
ef
f4
f7
f7
f7
fe
fc
03
03
07
09
08
08
05
0a
06
07
ff
07
04
02
05
03
00
fe
01
00
03
fe
fa
fb
f7
f8
f4
f0
eb
ea
f0
ee
ee
f1
f9
f7
01
02
04
07
07
08
0a
05
05
01
fe
02
01
00
ff
ff
01
03
09
0b
09
09
10
11
0e
10
0e
07
0c
02
04
ff
02
fc
ff
fc
fb
01
fc
02
fb
fa
f9
fd
f9
f6
f4
ed
eb
ec
e7
e7
e9
e7
e9
ec
ef
ee
ec
f0
f2
ee
f2
f2
ed
f1
f2
ef
f1
f5
f7
fb
fa
01
02
05
07
07
08
10
13
12
14
17
10
10
11
12
13
12
0d
0d
0d
0c
08
07
07
0b
04
09
08
06
04
02
04
fe
ff
f7
f4
f0
ed
ea
e8
e1
db
dd
df
e2
e7
e5
ec
f6
fb
fd
05
0b
0b
0d
0e
0c
09
0d
09
03
04
fe
00
fa
fe
fc
fb
fd
fe
01
fe
00
01
05
03
08
06
0a
07
01
05
05
02
05
07
03
05
0c
11
0f
13
17
1c
1b
1e
21
20
1f
22
1b
1b
1a
1a
13
15
0e
15
12
11
10
17
1a
1c
15
1a
18
18
16
1b
15
17
12
11
0f
0e
0b
12
12
2b
31
35
3c
3c
38
35
33
33
26
21
19
17
08
08
fc
f5
f6
ef
eb
e6
de
df
e3
e3
dd
e4
e5
df
e2
e9
e9
e9
ec
ed
f3
fa
fb
06
04
0c
08
0f
0b
0c
09
00
00
f8
f2
f5
ed
f0
eb
ed
f5
f6
fc
ff
fb
05
07
04
06
05
fe
01
01
f8
fd
fe
fe
fe
02
07
0a
08
0d
14
14
0f
0e
14
13
0b
08
07
03
02
01
fb
fd
f7
fc
fa
f6
f9
f9
f9
f6
f9
f7
f6
f6
fa
f8
f9
f6
f9
f4
f8
f4
f3
f4
fa
fa
f8
f7
fa
f4
fb
fc
ff
00
00
00
03
06
0b
08
0e
0a
07
07
09
0c
07
09
08
08
05
02
ff
fe
fb
fb
fe
fc
f8
fb
fe
f8
fe
fa
f8
fd
fe
fb
03
fe
02
04
04
08
0b
08
0a
0f
0b
11
13
10
12
18
16
1a
18
17
16
12
13
10
0b
09
08
03
ff
fd
fa
f5
f4
f3
ee
f0
f0
ee
f5
f2
f8
f4
f8
fd
ff
02
ff
fd
03
fe
fd
f9
fa
f4
f0
ef
ea
e9
e2
e3
e3
e2
ea
ea
f2
f5
fd
fd
03
09
0f
15
15
16
10
0d
07
05
02
f9
f9
f2
ef
eb
e3
e2
dc
e2
dc
df
db
de
df
db
e3
e7
e7
ec
09
09
0b
0f
0b
0f
0f
13
10
0d
06
05
01
05
ff
fc
fc
f9
fc
f9
f8
fb
02
ff
05
02
09
07
07
0b
0a
09
0c
07
03
04
02
02
01
06
03
ff
04
04
05
02
03
09
03
04
06
06
04
06
03
03
0b
09
09
0a
07
07
06
04
03
ff
fd
02
f9
fe
fc
fe
fe
f8
fb
00
02
ff
04
08
07
05
0b
06
06
02
05
04
04
08
09
00
05
04
fe
03
fe
01
03
03
06
05
04
04
02
07
ff
01
05
fe
ff
00
01
fc
f9
fe
fc
fb
fc
04
fe
03
00
05
01
04
07
05
03
00
ff
fe
02
fe
fc
fd
04
ff
02
00
02
00
ff
ff
ff
01
f8
f9
fd
fa
f3
f6
f5
fb
ff
fb
01
01
04
08
08
0d
0c
07
02
fe
fd
fd
fd
f4
f5
f8
f9
f7
f8
f7
f5
f8
f5
f8
f7
fc
fb
f9
fb
f8
f9
f8
f8
f8
fe
fe
02
fd
fe
ff
fd
fe
ff
02
f9
02
00
fe
fc
fe
fc
03
03
00
fe
00
02
ff
fa
f7
fc
fa
f3
f2
f6
f4
f2
f6
f6
fe
fe
01
fb
00
02
02
02
fd
fe
fb
fc
f8
f6
f7
f0
eb
f0
f3
f2
ee
f0
f2
fa
fb
fb
fd
ff
09
07
08
03
00
04
00
06
03
02
02
fe
04
03
03
01
fe
00
01
fc
02
05
06
04
07
02
05
04
04
05
04
09
03
05
01
01
fb
fb
f7
f4
f4
fb
f7
f6
f8
f8
f8
fd
fb
00
fd
ff
fe
00
00
05
06
ff
02
fd
00
fc
00
01
02
01
fc
03
fe
05
07
07
08
0b
09
09
0b
06
07
09
08
00
02
fd
00
f9
f5
f5
f6
f3
f3
f3
f6
f4
f8
fd
fe
01
00
02
02
08
08
06
07
04
06
01
fd
fd
fb
fa
f8
f3
f5
ef
f4
f6
f1
f4
fb
fb
03
01
06
0d
10
15
12
15
14
18
11
14
0e
0a
02
00
00
f5
f5
f0
ed
e9
e9
ed
eb
ef
f1
f2
f6
fc
fb
fc
01
08
0e
0e
0e
0e
0f
15
14
11
13
0b
0c
06
08
00
fc
fa
f5
f5
f4
f0
ee
f1
f2
ed
f0
f4
f7
f3
fb
f8
fc
fe
00
02
06
03
05
08
0a
07
08
08
05
03
04
00
00
ff
00
fe
fc
f9
ff
00
00
fd
fe
fd
01
fd
fd
fe
fd
02
02
02
04
fe
02
05
04
05
07
ff
01
05
01
01
00
00
fe
fa
ff
ff
fc
fd
02
fc
ff
02
01
03
00
02
02
06
05
01
ff
06
05
06
00
f7
fb
fa
f9
ff
fc
fc
f8
fc
f7
fa
fe
fd
fc
fe
fa
fb
ff
fe
fd
fb
fe
02
ff
fd
00
fe
fb
02
fb
01
fc
f9
fc
00
fd
02
01
02
ff
01
02
fe
fd
02
02
03
04
03
fd
fd
fd
02
fe
fe
ff
01
fc
ff
01
ff
fe
ff
fc
fb
fb
f5
f9
f8
f7
f6
f7
fb
f7
f7
fb
fc
fe
00
ff
fc
03
06
06
07
0d
07
0f
09
0f
10
0e
0a
04
0a
01
02
fb
f6
f3
ee
ed
ea
ea
e9
e4
e8
e8
ea
f0
ef
f2
fd
01
03
0c
12
15
1e
1e
21
23
24
24
1f
1c
17
16
11
0a
02
fd
f7
f4
f1
e9
e2
e4
e5
df
e5
e4
e7
ed
f0
ef
f4
f6
fa
01
04
0a
09
11
0d
0e
0f
0d
0e
0f
08
0b
05
07
00
03
00
03
00
fd
04
ff
fe
04
03
02
02
02
03
06
05
04
07
03
01
ff
01
00
ff
03
02
02
05
02
05
02
06
03
00
01
ff
04
ff
02
fb
01
fa
f8
f9
01
00
fc
05
01
07
08
03
07
02
06
04
02
01
00
03
05
fe
fc
02
ff
fe
fe
fb
00
00
fd
03
ff
04
ff
04
fd
04
03
ff
fc
fd
03
ff
fc
03
05
ff
02
05
05
fa
f9
f8
00
fd
f9
ff
fe
ff
fc
fb
fe
fd
fc
fe
00
fa
fc
fd
fc
ff
01
fd
fb
fe
fe
01
fa
fb
fb
01
03
01
fc
fd
03
02
04
fc
01
ff
00
ff
f7
f8
f6
f7
fb
fa
f6
fb
f6
f6
fb
fe
fe
fd
03
03
01
03
fe
fd
ff
ff
03
00
00
00
fc
fd
02
00
fd
fd
fc
fb
f7
f8
fb
fb
fb
fa
ff
02
fd
04
06
0a
04
0a
06
03
04
fd
fa
f7
fa
f1
ef
f0
ed
ee
ec
f4
f0
f0
fa
f5
f8
01
06
06
0b
0d
11
0e
0f
0e
0e
11
11
08
05
04
05
00
01
fd
f9
fc
f8
fb
fe
fc
fc
fc
fc
fe
f6
f7
fc
fb
00
01
03
06
03
0a
0b
0b
0a
0a
06
04
07
03
03
fd
fb
fd
f6
fb
fe
fc
f9
fe
fe
01
04
02
0a
03
07
09
08
06
09
06
08
04
04
04
02
05
07
06
02
04
04
02
fd
02
01
fe
02
fe
fe
fc
fe
fc
01
03
fd
00
fe
ff
fd
fc
fc
fe
fb
fb
f9
fd
f9
f9
f8
f7
f9
01
01
fa
ff
fe
03
07
03
02
05
01
02
05
fe
03
00
ff
ff
fd
ff
01
06
03
03
00
03
02
02
00
03
02
ff
00
02
05
08
05
01
fe
fe
fd
03
01
03
02
fe
fe
05
02
ff
02
00
00
00
00
02
01
0b
07
0c
09
0c
0a
0c
03
08
04
00
fe
ff
fc
04
fd
03
fe
02
fc
01
fe
06
fc
00
03
00
fe
fb
fe
fb
00
fa
fe
04
03
04
07
04
05
04
06
02
08
01
fe
00
01
fd
fe
01
01
00
01
00
01
09
09
08
02
08
01
05
ff
fc
fb
01
fb
fb
fd
ff
fd
01
00
ff
00
02
ff
ff
fd
fd
00
fd
fe
01
ff
ff
00
01
07
04
09
0b
0c
09
0b
08
04
07
00
ff
fa
f4
f8
ee
f4
f4
f5
f3
f7
fc
f9
01
03
07
07
0b
0e
08
08
0c
09
0c
04
08
03
00
04
02
fe
fb
fc
f6
f5
f0
f5
f3
ef
f6
f4
f6
f9
01
06
0b
07
09
0e
0f
0c
0b
04
00
02
ff
f9
f4
fc
f5
f9
fc
fc
04
01
01
03
07
05
09
05
00
03
00
fc
f7
f5
f6
f8
f7
f8
fd
ff
04
fe
fe
01
02
04
fe
fd
fe
00
fe
f6
fb
fc
fb
fa
fd
f6
fa
fc
fd
02
fb
fc
fc
fb
ff
fd
fb
ff
00
01
fb
f8
fc
fa
fb
00
fe
04
02
04
00
02
01
fe
02
01
04
fd
fe
ff
09
05
08
02
08
04
0a
04
08
05
04
04
01
00
02
ff
01
fe
03
04
ff
04
fd
05
03
04
ff
01
05
ff
fe
02
ff
04
fe
03
00
02
03
04
05
03
02
01
00
ff
06
fc
02
05
fe
fc
fd
04
03
02
04
fd
ff
fe
04
05
07
ff
03
02
03
07
09
0a
09
06
08
04
00
fe
02
00
fb
ff
fa
f9
f8
fd
fe
fb
fe
01
07
01
05
03
06
05
03
03
02
00
01
02
fa
fb
fb
01
fc
fb
00
02
04
01
ff
ff
ff
03
fd
fa
fb
00
fc
fe
f9
01
ff
fa
01
fc
01
ff
01
04
01
04
01
03
02
00
ff
f9
f8
f8
f8
fb
fb
fa
f8
fd
fa
fd
fd
f7
fb
f6
f8
fe
fb
fd
fd
fc
01
fc
fe
04
01
03
02
01
02
fe
fd
fe
ff
fc
fe
02
fd
00
01
06
06
03
03
08
00
03
01
03
ff
fc
00
fb
fc
00
fd
01
fd
ff
fd
01
fb
ff
ff
fe
fa
fc
fd
f8
f6
f9
f5
f7
f9
00
fc
01
06
02
09
07
08
05
01
02
fd
fd
ff
f9
fd
f9
fe
fe
02
07
08
08
05
08
07
00
01
fc
02
fc
fb
fe
fa
00
fb
01
02
02
fe
ff
02
fe
00
fc
fc
fc
00
ff
fe
05
07
07
08
03
01
05
06
01
fe
02
fc
00
fc
fd
00
fb
fe
f9
f5
fa
fa
f8
f7
f6
f9
f7
fb
ff
fc
00
04
08
0b
0b
0b
07
0e
0d
0a
0d
09
06
04
04
03
fc
fb
fb
f2
ef
f0
ec
ef
e9
e9
ed
ea
ec
ef
ed
ef
f4
f4
fa
ff
02
00
01
05
04
01
03
02
ff
fe
fd
fb
03
00
fc
fe
01
01
00
02
07
09
08
07
08
07
0b
0a
07
09
02
05
ff
fe
fb
00
f9
f9
f4
f3
f1
f0
f1
f7
f2
f2
f4
fa
fa
f6
fb
fd
00
01
fe
00
fd
03
03
02
ff
01
04
fe
03
04
00
07
01
06
04
02
01
03
fe
00
ff
fb
fd
fe
fc
f9
fc
f9
f9
fa
ff
fd
00
05
06
02
01
01
05
03
05
04
05
ff
03
03
ff
02
02
06
08
06
0b
05
0a
08
06
06
0a
06
04
03
02
fd
00
fa
f6
fa
f8
f4
f7
f6
f6
f6
fa
f5
f7
f7
f9
fa
fa
fc
00
00
fe
06
05
01
05
01
03
09
03
06
09
05
0a
05
04
06
05
02
05
08
08
08
06
0d
09
0f
0f
14
10
10
15
14
11
0b
09
09
0b
07
04
fc
fb
fe
f9
fe
fa
fd
08
04
08
08
08
05
02
02
06
06
04
01
05
ff
01
02
00
00
00
01
02
ff
01
04
02
03
03
ff
06
08
07
08
07
0a
0a
10
0b
0d
11
0b
0c
07
05
09
07
04
fc
fd
f9
f8
f5
fb
f3
f7
f4
ef
f3
ee
ec
f0
f3
f4
f3
f9
fc
fa
00
09
07
0e
0d
0f
11
14
11
13
11
0b
09
07
02
fc
00
f7
f9
f7
f2
f1
f9
f5
f4
f9
f6
f8
f6
f9
f6
fc
fa
fd
ff
fa
fe
fb
fe
fc
fe
01
03
03
09
04
03
08
02
05
06
07
03
07
03
00
04
04
ff
01
02
02
ff
ff
01
00
fa
fe
fb
f9
ff
ff
fb
f9
fb
ff
fd
fb
fb
fe
fb
fe
fa
01
fb
fe
fb
01
01
02
04
ff
04
03
02
05
fc
fd
ff
ff
03
01
fc
02
fb
fd
f9
f9
fe
ff
f9
fd
fc
fd
f7
f6
f9
fc
fc
f6
fa
fb
fe
fd
fc
fd
02
01
01
ff
01
ff
03
08
08
0a
08
05
08
08
0e
0c
0c
09
0a
0b
07
0c
0c
05
08
ff
02
fd
fe
fa
f8
fb
f7
fa
f6
f8
fb
f5
fd
f6
f8
fc
00
fc
fc
02
ff
03
05
00
fe
01
00
fc
00
04
fb
03
03
00
08
08
0b
09
1b
0b
08
02
02
00
00
fa
fd
fc
fd
fe
06
05
04
07
00
00
01
01
01
fd
fc
ff
fe
fe
fa
fc
ff
03
07
06
0c
08
0b
0a
08
0f
0e
08
09
0a
09
00
05
01
02
02
01
02
04
00
ff
f8
f5
f9
f3
f2
f6
f6
f4
f2
f6
f7
fa
f4
f9
f5
f9
fc
f4
f4
f7
fa
fa
ff
02
01
00
04
03
04
08
05
00
03
04
03
01
fc
fe
f8
fd
fa
fb
00
00
02
00
02
02
01
00
00
01
fe
fe
02
ff
01
ff
fe
fa
fb
fb
fa
f7
fb
f8
fd
fc
fe
f9
fe
fd
02
00
02
06
ff
04
00
01
07
06
09
0a
06
08
09
08
0c
0d
09
0c
07
05
03
03
04
06
ff
05
fe
ff
ff
03
04
05
01
fc
fb
fc
ff
fd
01
00
fe
05
04
04
0d
09
0b
11
0c
11
0c
0e
08
03
07
04
03
01
fb
fa
f9
02
fd
ff
fe
02
02
03
05
0a
03
0b
07
07
03
08
02
01
ff
fe
00
02
fc
fa
fe
fb
f9
fd
fe
ff
00
fe
05
ff
00
02
fd
fd
fe
f8
f8
f9
fb
f9
fa
05
00
03
01
08
08
04
03
00
00
01
fb
f9
f9
f6
f7
fd
00
02
01
07
09
0e
0d
bb
b5
b3
b2
ba
bc
c4
ce
d9
e2
f0
fc
0d
15
17
24
22
1e
21
13
0a
01
fb
ef
e6
da
d7
ce
cf
cd
d2
d9
e0
f1
f5
07
0e
12
20
20
1b
1c
1d
11
08
07
fe
fb
f4
ed
ee
ef
ef
ed
f3
f9
f9
fc
02
06
0b
09
09
0d
0b
0b
08
07
06
03
02
fd
fc
fe
ff
fb
00
ff
fc
ff
fd
fc
f9
fb
f9
00
ff
ff
01
f9
00
fc
01
04
04
01
ff
00
ff
04
fe
fe
00
00
01
03
01
01
01
fe
fc
00
fe
01
fa
f9
fa
f9
f7
f6
f7
fa
fe
fb
f7
fb
f6
f7
f7
fd
00
fe
ff
fd
03
00
fd
00
00
00
01
03
08
00
04
08
06
09
09
08
06
06
0a
0a
06
07
06
05
08
00
06
00
04
02
00
00
03
03
09
06
06
05
04
05
00
ff
fd
fe
00
f9
fb
fc
ff
ff
fb
fb
fe
fb
fe
02
00
ff
fe
fd
fa
fb
f4
f6
f7
f4
f3
f5
f8
f7
f5
f7
f9
fa
fe
00
fe
04
05
02
05
0c
0a
0d
0f
10
0f
08
02
03
fd
fc
f7
f3
f0
ed
e8
e8
e6
ec
f4
fb
02
05
13
17
20
32
3b
44
4e
56
59
5d
60
5a
51
44
35
27
16
02
fe
00
fc
fa
fb
fe
fd
ff
fc
ff
fe
f9
fc
00
02
fa
fb
fc
01
00
03
05
04
02
01
03
04
01
04
02
fd
fc
fb
fb
fd
f7
f7
fe
fc
f8
f9
fc
00
03
fc
fd
00
fe
fd
02
00
01
00
01
fe
00
ff
ff
03
fd
fe
fc
fb
fe
fb
01
ff
04
fe
02
01
ff
05
02
01
04
03
01
fe
00
04
fe
fc
fd
fc
f8
fb
fc
fe
00
fd
04
03
04
ff
fd
02
03
03
01
00
ff
00
ff
fb
f8
ff
fb
f5
fb
fe
fa
f9
fc
fe
fe
fb
fb
fe
00
00
fe
00
01
01
03
01
03
06
02
07
04
05
03
06
03
0a
0a
0a
03
0b
02
04
ff
04
fc
fe
fe
fa
f8
f5
f7
f5
f8
f9
f6
fb
fe
ff
fc
fc
02
02
02
02
fc
03
03
ff
fc
03
02
01
fe
ff
fe
01
02
06
01
06
05
06
00
00
05
ff
fe
03
ff
fe
01
02
05
06
0a
04
09
06
04
09
01
02
00
fe
01
fc
01
04
01
fd
02
04
02
05
05
05
ff
fe
fd
00
f8
fe
fe
f7
fe
fd
00
02
ff
06
00
02
08
06
02
06
00
fc
01
fa
fd
fe
ff
fa
02
03
04
04
04
05
05
04
06
00
02
0c
10
08
10
0b
08
0e
0a
0d
0e
0f
0e
10
10
13
0d
14
10
15
12
11
0f
13
11
0c
0e
11
0b
0c
0c
0d
0a
0e
0b
0d
0d
15
16
11
18
13
12
12
16
17
15
0d
0d
0b
0f
07
0b
09
08
05
05
05
05
04
03
00
ff
fe
00
ff
ff
fc
fb
f9
fd
f4
f7
f5
f3
f4
eb
ea
ed
eb
e7
e8
ee
ea
ec
f2
f3
ec
f2
ef
ee
ed
f0
ef
f0
f3
f1
f8
fa
f9
f9
fa
fd
f9
fd
00
fe
fd
04
02
04
07
04
02
08
04
08
05
07
04
06
05
07
05
06
03
05
02
06
08
08
05
06
09
02
01
00
07
ff
00
fd
00
fc
f9
f5
f3
f5
f4
f5
f5
f3
f0
f1
f5
f2
f2
f7
f4
fb
fa
fa
fd
ff
fc
03
00
fc
fd
f9
fd
f5
f5
f6
f5
ee
ee
ee
ef
eb
f0
ed
f1
f3
f4
f9
fb
fc
ff
ff
04
07
05
07
0b
0b
0a
0c
0e
07
0c
07
06
05
03
05
04
04
04
fe
fc
03
fb
fc
04
fd
fc
03
05
ff
08
09
09
0b
05
07
0e
0d
08
0b
08
07
08
07
05
09
03
08
ff
02
06
04
08
05
07
0b
07
0f
0e
0b
11
10
11
0b
0b
08
0a
07
de
e2
e3
e7
ea
ee
ec
ef
f4
f4
fc
01
fe
ff
ff
fc
fd
00
fc
fd
f9
fa
fa
f4
f0
f7
f6
f2
f6
f7
f0
f6
ef
f4
f1
f5
ec
f0
ec
f2
eb
f2
ef
f0
f5
f6
f4
f7
fc
fc
fd
fa
01
03
02
fd
fe
04
00
ff
08
04
05
05
0b
0c
09
07
0d
0a
10
0b
10
12
0b
13
10
11
10
10
0d
0b
0b
0e
11
0e
07
06
09
09
08
07
02
03
09
07
07
05
07
0c
0a
0a
08
0b
0b
0a
06
07
07
02
02
fb
fa
fc
f9
f6
f4
f6
ed
f2
ef
f3
f2
ec
f0
f2
f2
f0
f2
f7
f1
f6
f3
f0
f7
f5
f1
ed
f0
f0
ee
ec
ed
f2
ee
f3
f4
f5
fd
fe
ff
03
05
0d
0b
0d
13
18
18
16
19
19
15
18
18
16
13
11
0e
09
0b
04
01
03
fd
ff
00
fe
fd
ff
fd
03
02
06
0b
0b
0a
0d
0e
12
13
16
13
15
11
11
15
0f
0c
09
04
01
06
04
02
fd
fd
fe
fa
fe
fb
ff
00
fa
fc
fc
fe
f9
01
fe
fb
ff
00
ff
ff
ff
fe
01
00
04
04
04
04
05
03
01
04
03
ff
fe
03
fe
00
01
fd
04
02
ff
01
02
01
ff
ff
f6
ec
ea
1e
20
27
29
2e
2b
26
27
20
22
1d
19
1c
1d
1e
23
1e
25
28
2c
2b
2d
2f
30
2d
29
25
23
22
1b
19
1b
18
18
14
13
15
1a
18
18
19
17
16
12
16
0a
0b
04
01
02
fb
fb
fd
00
fd
02
05
0a
09
0d
0d
0c
10
0f
0f
07
08
ff
00
f6
f4
f3
f3
f4
ef
ee
f3
f4
fc
fa
02
04
05
06
07
07
06
02
fd
fc
f9
f2
f6
f1
ef
f3
f0
ee
f4
f3
f5
f7
f4
f4
f6
f5
f9
f7
f8
f5
f1
f6
f0
f0
eb
e9
e8
ea
e8
e6
e6
e6
ef
ec
ee
f3
f6
f8
fa
fe
ff
fe
f9
fa
f4
f5
f1
eb
e8
e6
e5
e2
e5
de
e2
e4
e8
e9
f5
f2
f7
ff
05
09
0a
0f
0b
0c
0e
0a
06
02
fd
fa
f7
f0
ef
ea
ec
e6
e9
e8
ea
ea
eb
ec
f5
fb
02
ff
06
10
10
15
1b
1f
23
1f
27
25
29
29
26
20
23
21
1e
1a
15
10
10
0b
0e
07
0b
07
09
07
08
07
04
05
07
ff
00
04
fc
00
00
02
01
00
fe
06
07
00
04
00
05
03
02
01
ff
04
fc
04
fd
03
06
03
04
0d
0d
08
08
0e
0a
11
09
0d
0c
07
00
f9
ee
ed
fe
07
0a
07
12
1b
17
21
27
2c
2a
34
33
33
36
32
37
34
30
35
2f
2e
2d
21
22
13
12
07
03
fc
f9
f6
f1
f1
f0
f1
ef
f4
ef
f1
f5
fa
f9
03
fe
04
08
09
06
04
07
fe
fa
f7
f5
f2
f1
eb
ef
f2
f2
fa
fa
f9
00
03
01
0a
0c
09
07
01
04
fc
fe
fb
fe
fb
fb
fc
00
ff
fb
00
fd
04
00
00
05
06
fe
fe
00
02
04
04
fe
02
03
00
03
ff
ff
02
06
02
04
05
03
0a
03
08
02
02
fd
01
fa
fd
f9
fe
f9
fa
fd
fd
ff
03
00
03
ff
00
02
ff
fa
ff
fa
f5
f7
fd
f9
ff
fc
01
ff
03
fc
fc
01
fc
fe
fa
fa
f7
f7
f2
f2
f7
f3
ef
f8
f5
f3
f9
fc
f7
00
ff
fb
02
00
01
ff
05
ff
07
07
06
08
09
09
06
0a
05
04
08
02
fd
fc
f6
f9
f3
f0
f3
fa
f8
ff
06
0a
0e
10
14
1a
1c
23
24
24
23
1c
16
0e
0b
00
fa
f4
f5
f1
ef
e7
e7
e3
e5
e7
e8
e7
ef
ed
f6
f7
fc
fc
fd
05
02
02
03
03
02
00
01
00
02
07
06
08
0d
0f
11
0c
0b
0d
03
02
00
fa
f8
f0
ee
fa
ff
fe
fe
03
05
01
02
07
04
0a
02
07
07
ff
fd
00
00
01
02
ff
ff
05
02
06
04
05
0b
09
05
04
00
04
05
00
05
00
05
fe
05
05
fd
ff
fe
ff
fc
fe
fb
fc
fc
fa
ff
fc
ff
fc
fc
02
fc
fd
fb
00
fd
fd
f9
fe
fa
00
fe
02
fe
fd
02
04
05
07
02
01
04
07
01
05
08
02
03
07
05
fe
04
fe
fb
fb
ff
ff
fd
03
04
01
02
02
03
04
05
08
03
05
ff
00
fc
fd
ff
fe
fc
fa
f6
fc
f5
f8
f8
f9
f8
fb
f9
fd
01
fd
fe
ff
03
02
07
02
03
02
04
04
07
00
05
00
00
04
02
05
ff
00
ff
07
03
06
04
03
02
ff
ff
03
00
00
fc
ff
00
ff
fc
f9
00
fd
fc
f8
fd
fb
fe
fe
01
fa
fd
03
01
01
07
05
0c
07
05
06
07
0a
05
01
ff
07
ff
04
ff
00
fe
02
fb
01
fc
fe
fb
00
fa
ff
f8
f5
f5
fa
f7
fc
fc
fd
fd
fa
f9
02
fc
02
fc
ff
fe
fb
00
fc
fb
f8
fa
f9
fb
01
f9
fc
02
fe
00
03
03
02
03
02
ff
03
04
fe
03
fe
ff
fc
fd
fd
f9
fb
fc
02
fc
02
fe
ec
f0
f9
f4
fb
f9
fe
fc
02
00
04
ff
04
03
00
03
05
01
04
01
04
05
02
01
01
fe
01
f9
fc
f9
f6
f5
f4
f7
f4
f5
f5
f8
f7
f7
f8
f9
fb
fb
fc
03
01
02
fc
01
ff
fe
ff
01
ff
01
f9
f9
fc
fa
fb
f7
f9
fc
fe
f9
ff
fe
02
01
04
05
05
04
07
00
00
04
01
07
01
01
fd
fd
ff
f9
fe
fe
fb
f7
fd
fb
f9
00
fd
00
fc
04
04
03
ff
fe
ff
00
fc
fc
ff
fd
f7
fc
f8
fc
fe
fb
fc
00
ff
03
fd
fc
ff
ff
05
02
00
00
01
01
fe
f9
00
fe
f9
00
ff
fd
fd
00
fd
02
06
03
04
02
01
ff
fb
00
01
fd
ff
fa
fb
00
fa
fa
02
01
fb
fc
03
00
03
fc
fc
fb
01
01
ff
ff
00
02
fe
04
03
00
05
02
02
05
05
03
08
06
04
01
05
fe
03
fd
fd
00
ff
00
04
01
00
fe
00
00
02
00
05
04
fe
05
01
fd
00
fd
03
05
04
00
fe
ff
00
07
05
04
06
00
02
02
01
07
01
07
ff
08
05
07
05
02
05
04
04
01
04
04
02
00
fe
fb
01
fd
00
fa
ff
02
04
04
07
05
0f
13
ef
f1
f4
fc
fa
01
fe
00
03
00
01
00
ff
00
fc
00
fb
ff
fc
fd
ff
f8
fb
f9
fc
f7
fb
fc
fd
fa
fd
fe
fe
fd
00
fe
fe
04
07
00
01
05
01
01
01
04
04
07
01
00
04
03
fe
fd
fd
fe
00
fc
fd
fc
fc
fd
fd
f8
fc
fd
fc
f8
f8
ff
f9
ff
01
ff
00
00
fc
00
01
01
fb
f9
fd
f7
f8
fb
f6
f9
f4
f3
f5
f6
f9
f6
fd
fc
f7
fa
ff
00
fe
fd
00
00
05
04
03
00
06
01
04
ff
ff
02
03
03
01
06
06
00
04
01
07
04
04
05
05
06
02
fe
00
fd
fd
fe
ff
fc
fe
03
03
00
02
fd
ff
ff
00
06
03
02
00
06
07
02
01
06
05
08
06
04
07
08
03
05
0b
03
09
01
08
00
00
00
03
fd
fc
00
fa
01
01
00
00
03
04
03
02
01
04
04
02
04
07
06
04
04
fd
ff
fc
ff
fb
f9
fe
f9
f9
fb
ff
fc
fb
fc
ff
fe
01
00
01
05
02
02
07
04
00
01
06
03
07
06
05
08
07
04
01
fe
05
fc
ff
fa
fc
ff
fb
fe
fb
fe
fd
fb
fa
ff
fe
fa
fc
f9
f8
f7
ff
f7
fc
f7
fc
fe
fa
fb
11
0d
05
03
02
05
02
03
04
09
07
09
09
06
06
07
ff
03
00
03
ff
01
03
00
01
07
04
04
06
04
04
01
fe
ff
03
02
fe
02
03
03
01
02
fe
03
03
02
01
03
01
01
fd
02
02
ff
03
03
fe
fd
03
02
06
01
03
02
02
01
ff
fe
fa
fd
fd
fd
fc
fe
fa
fd
f8
fa
f9
fd
fb
fb
fc
01
00
01
fd
fd
ff
01
02
00
ff
02
04
03
06
06
07
05
02
09
02
07
07
05
05
0a
08
07
08
05
0a
08
06
02
04
07
05
03
08
04
02
00
08
03
07
03
07
02
02
00
ff
00
01
03
00
04
ff
04
02
04
03
00
04
07
00
06
03
00
05
fe
fd
fd
fc
fb
fa
01
fc
fe
01
ff
06
05
05
02
fe
fd
fe
01
00
fb
fe
01
ff
fd
fc
fd
00
fe
02
fd
fb
01
02
01
01
fd
00
fd
02
01
03
01
03
ff
03
02
03
02
fd
02
ff
ff
ff
04
00
00
fe
03
fe
fd
fb
fe
05
02
04
01
05
fe
01
01
fd
fd
04
03
fc
fc
fb
fb
00
fd
fa
fb
fc
f5
f7
fb
f7
fe
00
fd
ff
ff
02
03
fe
00
ff
fb
fb
f4
f5
f2
f1
f0
08
0f
1b
1b
26
27
27
20
1f
1d
1b
11
0d
08
06
06
05
06
07
10
16
15
20
23
26
2f
2e
31
2e
32
2a
29
25
1a
19
10
0c
02
fc
fe
fa
f6
f3
ea
e8
e9
eb
eb
e7
eb
e4
ec
ef
ec
ef
f0
f0
ea
ed
ea
f0
ee
ed
f5
f4
f6
fd
f7
fb
f9
fb
fe
fe
fa
fd
fb
f9
fb
fa
fa
f7
f9
fc
fc
02
00
00
fe
ff
02
00
fd
01
01
f8
f8
fe
fa
fc
00
fc
02
02
04
02
ff
fe
fe
02
02
04
ff
04
00
fe
ff
02
01
ff
02
ff
00
00
02
fc
04
05
04
07
04
03
08
01
04
09
05
01
01
08
09
06
06
0a
07
09
06
07
0b
0c
09
08
06
04
02
01
00
00
fd
fd
f9
fd
fb
fd
f9
fb
f7
f7
fe
fa
f9
fa
ff
fa
f9
00
fc
f9
fd
fb
fa
f8
f8
fb
f7
f3
f6
f5
fd
fc
00
03
02
08
04
09
0a
0c
0c
07
07
0a
08
0b
05
09
03
04
05
0d
0d
0c
10
11
10
13
0e
11
0a
0d
04
03
03
ff
03
05
06
09
09
0a
0c
11
13
15
0e
0b
07
01
f2
ec
e3
d8
d3
cb
c0
c4
c5
c4
c8
ca
ce
d0
d4
da
e3
eb
eb
06
04
07
06
01
04
01
01
02
fd
fd
fc
fe
fc
01
fb
fa
fe
ff
ff
03
04
04
01
fe
00
ff
fe
ff
03
fe
04
01
fe
01
fe
03
fd
fd
fe
fa
fa
fd
fe
fa
ff
ff
00
01
fd
fd
fd
03
00
fb
fd
fa
ff
fc
f8
fa
f9
fa
fd
fd
fc
ff
fa
f9
fd
ff
ff
01
ff
ff
01
ff
fc
00
fe
ff
ff
f8
fa
fa
fe
01
fd
fa
fd
fd
04
fe
02
00
fe
01
fe
fc
ff
fe
fe
ff
fe
02
fd
01
fe
03
02
ff
ff
02
ff
02
ff
fb
ff
fc
fe
fd
00
01
01
fe
07
06
04
04
09
00
06
01
02
03
06
03
01
05
05
01
00
02
03
ff
fd
01
01
00
fc
fb
fb
fc
fd
fb
fa
fc
00
fb
fe
04
fe
fe
04
06
06
fd
fe
fd
fd
02
03
fb
00
00
fc
01
fb
03
05
01
04
00
01
02
00
fb
f8
fb
fd
f6
fb
fd
ff
fa
01
02
04
04
05
01
03
08
03
04
00
05
03
00
03
01
02
00
04
05
ff
ff
04
01
04
01
01
01
07
06
08
07
08
05
03
04
02
00
03
01
ff
02
02
fc
04
03
05
05
00
03
ff
fd
04
fd
02
05
01
07
0b
0c
06
fa
f6
f9
ff
fa
ff
00
fd
ff
01
fb
ff
02
fc
02
fe
ff
ff
03
05
02
04
04
07
03
00
02
fe
02
fb
fd
f8
f7
f3
f3
f1
f8
f7
f6
fd
fd
03
00
04
08
07
0a
0a
0f
0c
0c
0b
05
09
00
fd
fe
f8
f5
f3
f1
f0
f2
f1
f1
f2
f5
f9
fe
04
04
0e
0d
17
14
18
1a
1b
19
15
12
09
07
fe
fb
f4
f0
e9
e1
df
e0
db
dc
e2
e7
e6
ee
f3
ff
04
04
0a
17
1b
19
1a
1d
1b
20
16
19
13
0d
07
03
f9
f7
f3
f2
ee
e5
e8
e3
e3
e8
ea
e8
f2
f5
f5
fb
02
02
09
0f
11
17
1b
17
1c
1c
13
16
14
10
0b
07
02
02
fe
f9
f7
f3
f0
ed
ec
f2
f3
ee
f0
f5
f4
f7
00
fb
04
01
08
06
0a
05
08
08
09
0d
0d
08
09
05
0b
07
08
00
06
06
06
fd
fe
01
fc
01
fe
00
fb
03
00
01
01
08
00
07
09
04
00
00
ff
00
fb
fd
fc
fe
00
fb
fc
fa
00
00
fd
03
03
ff
00
ff
01
05
ff
02
01
ff
00
fd
ff
fe
ff
ff
fa
fb
fb
ff
fa
fc
01
04
00
00
04
04
00
00
fe
05
05
05
00
03
07
fe
fd
04
01
01
05
03
08
06
02
ff
01
fd
ff
ff
fc
fc
f8
f8
fe
fa
fb
fd
02
04
01
02
05
06
01
01
07
02
07
01
05
00
ff
01
fe
04
fe
ff
04
04
05
04
05
05
01
06
04
03
02
03
00
00
fb
fd
f6
f8
f7
f8
fb
f6
fe
fd
fa
00
03
05
04
09
0c
0a
09
08
09
08
04
02
ff
01
01
ff
f9
fa
fa
f4
fb
fa
fc
fa
ff
05
06
05
07
0e
10
11
12
0c
12
0c
09
08
08
02
03
fe
f8
f2
f1
ee
ea
e7
ea
ec
e6
ec
f0
f2
f0
fa
00
02
02
0b
11
16
14
1d
1e
18
1d
18
17
12
15
0b
07
05
ff
fe
f6
f8
f0
ef
f1
f1
ea
eb
f1
f1
ee
f0
fa
f7
fe
ff
03
0b
0a
09
13
10
15
0e
13
11
0d
0b
09
02
ff
03
01
fe
fd
f8
fb
f8
f9
fb
f8
fa
f7
f4
f5
fb
fb
f7
f9
fb
ff
fb
fc
01
fa
02
02
ff
04
05
03
ff
03
02
03
06
fd
ff
ff
01
ff
02
ff
02
fb
fe
01
fd
ff
fa
00
01
fc
f9
fc
fa
01
00
04
00
00
04
00
05
01
05
03
02
02
03
00
02
01
02
02
01
ff
03
03
ff
01
ff
fa
00
fb
fe
fb
fb
ff
00
00
01
fb
01
fc
00
fc
fb
00
ff
01
ff
00
ff
03
03
fe
00
00
02
fb
01
fc
fe
fd
fc
00
fc
fd
fd
fc
fe
fe
01
01
fa
fb
fa
fc
fa
ff
fe
fd
00
03
01
fe
03
02
01
07
05
06
05
fe
01
00
03
fd
fc
02
fd
ff
00
fe
ff
fd
fb
f9
00
f9
fd
fb
fc
fd
fe
fe
ff
03
02
00
01
02
06
04
02
07
05
06
08
04
05
09
07
fe
fb
f9
fd
f7
f9
f7
ff
fa
00
fe
02
01
04
fc
02
fb
fd
fe
fb
01
fe
04
ff
00
02
05
05
06
0e
0a
0a
06
02
00
01
ff
fc
00
fc
fc
01
ff
04
00
fe
01
01
fd
ff
00
fa
f8
fe
fd
fa
ff
01
04
03
04
09
07
08
09
08
06
ff
04
fd
fb
f8
f8
f9
f8
f7
f6
ff
01
02
00
02
04
05
00
01
00
fc
fc
fa
fd
fd
fc
fa
f9
00
02
ff
07
00
04
02
ff
00
fc
fd
fc
f9
f9
fb
fa
fa
f7
f8
f8
fd
fb
fa
00
fb
01
fb
ff
fc
fe
fe
00
fe
fa
ff
fc
ff
f9
00
fb
00
fb
fc
fb
02
02
00
fe
04
ff
fe
00
02
00
f9
fc
fa
f8
fe
00
02
01
fb
ff
04
03
05
03
03
01
fe
00
fb
fb
fa
ff
02
00
03
05
05
05
02
06
05
01
01
fa
fe
fa
fa
fa
00
ff
00
03
02
06
0b
02
05
05
fc
ff
fe
f6
f8
f3
f4
fc
ff
fc
07
07
0b
12
0b
0f
10
0e
07
03
fc
f9
f3
f3
f1
f2
fa
f6
fb
04
07
0b
0c
0a
0e
0b
08
03
00
03
fe
f9
f8
fb
fd
fe
04
02
07
0a
0b
06
07
0a
07
03
02
fb
f9
f3
f5
f2
f5
f4
fb
f8
fc
01
09
06
07
0c
04
08
09
06
00
01
03
03
01
07
0b
0d
06
0c
06
05
02
01
01
f6
f7
f7
ee
f3
f1
f6
fa
fd
08
0d
0b
0e
0f
0c
0f
06
01
ff
f4
f5
f0
f7
f8
f8
fb
ff
03
04
05
03
01
03
fe
00
f9
f6
f4
f1
f8
f8
f6
fe
fa
fe
04
04
02
08
04
00
ff
fe
f8
f8
f7
fa
f8
f5
fc
fe
01
fb
fe
ff
04
ff
00
02
00
f9
f7
f6
f9
f8
fc
fd
fd
04
00
ff
02
00
ff
03
ff
ff
03
01
fd
fc
fa
fb
03
fe
01
05
03
09
06
03
02
00
00
02
00
ff
fc
00
03
fc
04
ff
04
03
02
02
03
fe
f9
01
01
02
fd
fe
fc
04
ff
05
fe
04
04
01
02
ff
fa
00
fa
01
00
ff
02
fe
fc
fb
03
01
fd
fd
fb
fe
fe
00
fe
fd
fb
fa
01
fc
02
02
02
03
fa
00
ff
ff
00
fd
f9
f8
fe
00
ff
fc
ff
03
01
00
fe
00
04
ff
01
02
00
fc
fd
fc
01
f9
ff
fe
ff
fe
03
05
02
00
00
00
00
ff
02
05
00
01
02
08
06
07
04
09
01
ff
07
01
01
fe
f9
ff
fa
00
fc
01
fd
05
01
02
09
03
04
02
00
03
01
ff
02
02
02
fe
fe
fc
fd
fb
fd
03
fd
02
04
fe
01
03
02
00
ff
fe
05
ff
fd
03
02
04
02
03
03
fb
fc
ff
ff
03
01
fd
04
ff
fe
fd
fe
03
03
01
fe
01
05
00
06
03
01
fe
01
fc
fc
01
fc
01
fc
01
fd
fe
00
fa
ff
00
03
03
01
ff
01
00
03
ff
03
04
01
fd
00
02
02
02
02
fe
02
fc
fa
fd
02
fe
00
fb
ff
02
02
fc
01
04
00
08
02
02
07
05
04
05
ff
03
03
ff
ff
fd
fc
00
01
fc
02
fb
fc
00
fb
fe
ff
f9
fc
01
01
00
fc
03
fe
02
03
08
02
06
07
04
00
ff
f4
f7
f3
f8
f6
fd
fd
fd
01
ff
fd
fe
fb
ff
01
02
02
02
03
03
02
ff
02
09
01
03
08
0a
05
03
fe
04
fa
f9
f8
f5
f3
f0
f5
f1
f2
f0
f1
f6
f9
f8
fd
01
fa
fe
fd
fd
02
00
fe
01
f8
f8
fe
fa
fb
f9
f7
f5
f6
f3
f8
f3
f2
f4
f1
f1
f5
f4
f6
f9
f6
f5
f7
f4
f4
f9
f7
fc
f7
fb
f9
fb
f8
f7
ff
fe
fc
00
ff
03
04
07
02
04
0a
07
0a
0d
0f
0f
0a
11
11
0e
0d
0e
0b
0b
05
07
00
03
00
ff
fd
ff
fc
f6
f7
f9
f8
f7
fc
fb
f8
fb
f4
fa
f9
fd
f7
fa
fa
fd
02
02
07
08
0c
09
0f
0c
0d
0b
0d
0e
0f
09
08
0b
07
06
07
08
07
09
09
04
04
05
08
07
05
04
03
02
02
fe
f9
fa
fb
fa
f9
fc
fe
ff
fa
01
ff
00
04
07
00
03
00
08
01
07
08
06
03
0b
0b
0c
07
0c
07
06
0d
07
08
06
03
02
02
02
01
ff
fd
fc
00
fa
ff
01
03
01
03
03
06
09
06
0b
06
08
05
03
06
01
02
fe
fe
02
fe
02
fd
fb
02
fd
fd
ff
fe
02
06
03
06
fe
00
00
01
f8
f4
f9
fa
f8
fe
ff
ff
00
05
01
02
06
09
09
0a
0a
07
03
08
08
02
04
03
ff
fd
01
fe
fd
f6
f7
f6
f3
f7
f2
f4
f3
ef
f5
ee
f5
f2
f5
f5
fa
fd
fc
00
03
02
05
02
08
03
0b
0a
0e
0a
05
0b
09
07
0a
0c
0b
0e
0e
0b
0f
0e
0b
0a
11
0e
0c
0a
08
0d
08
05
08
03
02
fc
00
f9
f8
f7
f9
f7
f9
fa
fb
ff
03
05
02
07
03
04
05
06
05
04
03
04
03
01
fe
ff
00
fe
04
01
01
ff
00
03
01
ff
fd
fe
00
ff
02
fe
ff
04
04
02
03
04
00
00
00
05
06
05
04
01
00
ff
00
06
00
01
00
00
01
02
04
07
04
02
ff
04
fe
fe
00
fd
fe
01
03
04
fd
ff
04
04
03
01
06
ff
04
03
04
05
00
05
03
ff
02
00
fe
fd
fc
fd
f7
fb
f5
fd
fe
f9
fb
ff
fd
00
fd
00
06
01
04
02
03
02
00
05
02
03
fc
fe
fe
fe
00
f6
fc
fa
f8
f8
f7
f7
fb
fb
f7
f4
f9
fa
f4
fd
ff
fe
fc
fe
fd
fd
04
02
04
03
04
06
04
04
06
0c
0b
05
07
04
02
04
fd
fc
f6
f3
e8
e4
d9
7f
76
6a
5b
54
43
36
2c
25
19
14
11
0c
0f
10
0f
0a
0d
0f
09
10
0f
11
0c
10
0d
07
07
05
06
04
06
05
09
07
0b
08
0e
0c
0e
10
0e
12
0d
0d
0d
0b
01
01
f7
f6
f4
f4
ef
f0
f1
f2
f2
f3
fa
f8
fb
f9
ff
fb
01
fb
00
fe
fe
fc
fe
00
00
05
02
07
05
02
03
fe
fb
00
f9
f9
f9
f1
f8
f8
f7
f9
fa
f5
f4
f7
f7
f7
fc
fd
fc
f5
f8
fb
f7
fd
fa
01
fe
fe
03
02
fe
03
06
05
03
fe
04
ff
fb
fd
fd
fe
fa
f8
f9
fb
ff
fa
fb
fb
02
fe
fd
00
fb
fe
fe
f9
f9
f6
f6
fd
fd
fe
00
fd
00
02
fd
ff
00
00
00
fe
fa
00
f8
fc
fb
fa
fd
f7
f9
fa
00
fe
00
07
04
0b
08
07
03
06
03
03
00
fa
02
ff
f8
fd
fa
f7
f7
fe
fa
00
05
07
08
0a
0f
0b
0b
0d
0b
07
05
05
fe
fa
fa
f8
f4
f0
ef
f3
f3
ef
ee
f6
f0
f7
f5
f8
f8
f9
00
00
03
ff
fd
00
fd
02
02
03
04
02
08
0c
07
09
11
11
13
0f
11
0c
0f
07
07
fd
f8
f6
f0
ed
e4
e3
e0
da
db
d2
d3
14
18
1c
22
24
29
2a
27
23
20
1d
1c
1a
1a
15
15
14
0e
09
08
09
07
03
05
fe
fd
fa
f3
f8
f0
f2
f7
f7
f4
f6
fc
f9
f9
fe
fc
fc
f7
f9
f5
f7
f9
ee
f5
ec
ee
e3
e0
e3
e8
e6
ed
f9
fd
07
0a
17
17
1d
1e
1e
1f
1b
14
10
08
02
02
04
fe
ff
01
08
06
08
05
05
03
fd
fb
fb
f7
f5
f8
f9
f7
f8
01
03
05
06
03
05
08
04
02
fe
01
00
ff
02
ff
02
04
07
06
03
03
07
06
00
fe
fc
fe
fb
ff
fc
fe
00
fc
fb
fb
fe
fd
fe
fc
fb
fc
fe
ff
fe
fc
f9
f7
fa
f8
f6
f9
ff
fd
fc
fe
01
03
ff
ff
fd
02
fb
ff
ff
fd
fc
02
fe
fe
00
05
03
00
04
00
03
01
01
ff
fe
fc
fe
fe
f7
fd
fd
ff
fb
03
01
03
01
01
02
08
06
01
03
ff
fe
fe
ff
ff
01
fd
fc
ff
00
06
05
04
0b
08
08
09
0e
0d
07
03
09
01
ff
fc
01
00
fb
fa
01
ff
00
07
07
08
0d
09
09
0a
0b
03
01
fe
f9
f4
f4
f4
f9
f7
f4
fe
f8
fa
00
fe
f9
fe
fb
f9
f0
f4
f4
f3
f1
f6
fa
f5
fc
fe
fc
fe
fe
fa
01
fd
fb
fb
fe
ff
fd
ff
ff
00
05
03
03
02
07
05
fe
02
fc
00
01
ff
01
03
00
02
05
ff
01
00
00
00
06
ff
05
ff
06
05
04
fe
00
fd
04
fe
04
02
01
04
02
fe
04
ff
ff
03
05
fe
fe
06
00
04
07
06
03
05
00
fe
03
fe
ff
fd
fc
01
f9
fe
fd
00
fb
fb
ff
fe
04
04
01
05
fe
03
ff
02
00
ff
ff
05
ff
02
01
fc
fd
ff
fd
fa
fd
fd
fe
fd
ff
ff
ff
fd
00
fd
f8
fd
fc
ff
02
fe
fc
ff
02
01
03
04
00
04
00
01
fc
fd
ff
fe
01
ff
ff
ff
04
01
fd
01
fd
fd
00
ff
00
ff
00
fd
fc
00
00
ff
02
04
06
01
04
05
04
02
fe
fe
ff
fb
fe
fe
fc
fc
fd
02
02
03
00
05
04
07
ff
00
ff
04
fb
04
00
fc
02
04
06
07
02
07
06
02
07
00
04
02
01
00
f9
ff
fe
ff
fb
01
01
fe
01
04
03
05
01
01
05
fe
ff
fe
fc
f9
fd
ff
00
fb
ff
01
00
ff
ff
00
fc
ff
01
fe
02
03
06
01
07
02
05
04
06
07
07
00
fe
03
01
02
00
f9
fe
fa
f9
fe
fd
fe
fd
fd
04
02
01
03
01
03
00
03
fd
00
fd
ff
fa
ff
fd
fa
00
f9
ff
fc
fa
fc
f6
f9
f6
f6
fd
fc
fe
02
ff
04
09
02
06
09
0b
07
09
04
02
fd
f9
fa
f5
f1
f2
eb
f0
f1
f6
f8
fc
fe
00
06
06
0a
0d
0c
0f
0a
09
08
ff
02
fb
fa
f9
f8
f5
f7
f3
fa
f7
fc
03
fe
00
07
0a
06
01
03
00
04
02
fa
f7
f1
f2
eb
ed
ee
e9
ea
f1
f3
f5
f8
01
04
09
0a
0c
13
11
17
10
10
11
10
06
06
00
fd
fc
f9
f5
ef
ef
f2
ec
f5
f0
f8
f9
fc
02
06
0b
0f
0f
11
13
14
19
1b
15
19
12
17
14
11
08
08
06
01
04
fa
00
fc
f7
f4
fb
f6
fa
f9
f8
fb
f6
f8
f6
f7
fa
f9
fc
fa
f9
f7
01
ff
fb
fc
04
ff
06
05
09
09
05
06
0a
0a
07
06
0a
08
02
03
03
03
04
02
ff
02
02
00
00
02
ff
01
02
04
02
fc
01
fc
fa
fd
fc
fa
00
fd
f9
fb
ff
fd
fe
00
03
05
01
05
05
03
00
ff
05
00
02
03
f9
fc
fd
00
fa
ff
04
fe
00
01
07
07
03
02
02
09
04
05
ff
00
02
fe
fd
03
fe
00
02
01
fe
fe
fe
03
01
01
02
fe
fe
fb
f8
fc
01
fe
00
fc
fd
01
00
00
01
02
00
05
06
01
07
05
05
06
08
01
02
03
01
f7
f5
f3
f3
f3
f0
ee
e8
ef
e8
e9
ed
ea
f1
f4
f5
f7
ff
fc
fe
06
08
06
06
08
03
09
08
04
02
04
05
06
07
07
04
03
01
04
05
fc
fc
00
fd
f8
f9
f6
f9
f1
f5
f3
f3
f5
ff
fb
ff
09
0a
13
18
14
16
1b
17
17
1a
12
11
09
03
fe
f7
f6
ea
e8
e4
e1
db
e1
dd
de
df
e7
e8
f2
f1
f8
fa
01
06
0e
0f
15
17
17
17
16
12
0e
13
0f
0b
08
ff
fd
00
f8
f9
f1
ef
f0
ed
f0
f1
f4
fa
fd
01
00
02
03
0b
0e
0a
12
10
10
0d
12
0f
0d
08
0e
0a
09
0b
07
05
01
05
ff
ff
fb
fc
fb
f9
fa
f8
f8
f4
f2
f5
f4
f7
fa
fb
f8
fb
ff
01
fb
04
05
04
03
06
01
02
02
01
fd
fd
01
00
03
03
01
04
07
07
06
04
05
0c
07
0a
09
03
01
07
00
01
02
fc
fe
00
fc
ff
03
ff
00
07
03
07
07
05
07
0b
0f
08
0e
fe
00
ff
00
02
03
02
fe
fb
fb
fd
fb
f8
fd
fa
fe
fc
f8
fe
fe
f9
f7
f8
fc
f8
fd
fa
f9
00
fa
fc
00
03
ff
ff
03
ff
00
fc
ff
fc
fc
f7
fb
f5
f8
f8
f9
f6
f8
fb
f7
fc
02
00
02
01
07
07
02
04
04
fc
f9
f8
f9
f7
f4
f4
f3
f7
fb
f8
fe
00
02
06
05
06
08
07
0c
09
0d
0a
0a
04
05
01
02
fa
fe
f6
f4
f6
f8
f5
fa
fc
ff
02
06
13
14
13
19
14
12
16
12
10
0d
0a
07
fe
fc
f8
fa
f2
f7
f0
f7
f3
f2
f2
f9
f9
ff
05
01
06
05
08
09
0e
0a
0d
07
06
09
ff
fa
fc
f5
f5
f2
f5
f4
f2
f0
f2
f8
f7
f9
fe
ff
01
01
05
fe
03
04
03
03
06
02
07
06
08
06
0d
08
0f
0d
0b
0a
06
0b
05
04
fe
ff
fe
fc
f7
fb
fc
f9
fd
fd
fe
fd
03
fe
02
ff
06
ff
03
00
fd
fb
fd
fd
fb
00
02
01
fe
01
03
05
01
06
05
fe
01
fe
fa
fc
f7
fd
f7
f5
f3
f7
f9
fc
fd
fe
fe
ff
fd
fd
03
02
04
04
fe
ff
00
fe
fb
00
ff
fa
fd
fe
ff
01
00
02
01
fa
fb
ff
00
fc
fe
fa
fc
fc
ff
00
05
06
02
ff
ff
03
ff
01
00
fe
01
03
00
01
06
ff
06
ff
00
01
05
07
05
06
00
02
06
07
00
01
04
01
f8
fc
fd
00
fc
00
00
03
0c
0d
09
10
0d
0d
0e
03
ff
fc
f8
f8
f5
f2
f5
f2
fa
f8
fd
01
04
0d
0d
0d
12
15
0f
0c
05
06
fb
f8
f4
ed
f1
ec
ef
f2
f8
f9
fa
fd
00
06
0c
0c
0e
0d
0a
0c
06
0c
06
0c
0c
0b
08
06
03
fc
fc
f5
f6
f3
ea
ef
ea
ee
f0
f1
fa
ff
01
02
0d
10
0b
0f
14
0f
0e
0d
10
08
0b
09
08
ff
fb
f8
ed
e7
e2
df
e0
e8
ec
f3
fd
fe
07
10
11
1a
1b
1e
19
16
10
08
fc
fa
f6
f4
f1
f2
fa
fc
fb
fe
03
02
08
08
00
03
fe
f5
f9
f5
f4
f3
f6
f6
f7
fe
04
06
05
0a
09
09
0a
05
02
04
fd
f8
fd
f7
fb
f9
f6
fc
f8
fa
00
fc
fd
fd
02
03
fd
02
fe
fe
01
fd
01
03
fd
03
01
02
05
fd
fb
ff
fa
00
fc
fd
fc
ff
01
01
04
00
fe
ff
fc
fe
04
ff
01
02
04
03
07
06
06
08
08
03
04
f8
f8
f7
0c
05
01
06
00
01
fa
fc
ff
03
fe
03
02
01
00
07
06
04
02
01
fd
fe
fc
fa
fb
ff
f8
fa
f8
fa
fd
fe
01
03
03
ff
06
05
fe
fe
01
01
f9
fe
fd
ff
fe
fe
01
fd
fe
fb
fd
f5
f5
f9
f6
fb
f8
f9
fd
fc
ff
fe
07
06
05
03
01
fe
fc
fc
fc
ff
fe
fa
fb
fd
ff
02
02
04
03
01
02
00
03
ff
03
fb
fe
01
f9
fe
00
01
ff
ff
fd
01
03
fe
02
01
01
02
07
09
07
06
08
05
04
04
06
05
09
00
03
01
ff
06
03
05
02
07
09
09
08
07
03
01
ff
02
ff
fb
ff
f8
fc
fb
ff
fe
fb
fe
05
02
07
06
08
07
05
07
02
01
06
fe
02
fb
fb
fd
f9
f7
00
fd
fd
fb
02
00
00
06
ff
fe
02
06
ff
fc
01
fa
01
00
ff
fd
fb
fd
fd
02
fe
00
05
01
02
08
05
05
06
06
01
03
04
06
06
02
ff
ff
03
00
00
04
04
01
02
04
03
05
07
08
04
04
03
04
01
07
06
01
00
fe
fb
02
fe
fc
00
fa
ff
ff
fb
fe
01
02
00
03
03
01
00
fb
fb
fe
ff
f8
f6
fa
f8
fa
fd
fa
03
01
03
fb
f7
f6
f8
f7
f8
fa
04
05
0a
0e
0f
17
16
18
14
16
11
0d
01
fd
02
fb
fb
fd
fc
fb
00
03
0c
0c
08
10
08
06
02
03
fd
fa
f4
f3
ea
ef
eb
ee
f1
f6
02
0a
0b
13
1c
1d
1d
1a
1d
1d
19
14
0e
11
0f
08
0a
07
08
0d
0c
13
13
13
16
15
18
0d
12
09
0a
05
fa
fd
f8
f6
f2
f2
f7
fd
fc
00
05
0b
09
0d
0d
08
0d
05
00
fc
fd
f6
fb
f4
f4
f4
f5
fb
fb
05
03
04
0d
0f
0c
0b
05
09
05
fd
fe
fa
f5
f4
f6
f5
f4
f7
fd
00
02
03
08
09
08
03
02
ff
01
ff
f9
f9
f9
fa
f4
fd
ff
01
04
01
0b
0d
0b
0b
10
0a
0c
04
05
fe
ff
fc
f9
f7
ef
f1
f4
f9
f6
f7
f8
ff
fc
01
01
06
fd
03
f8
f6
fa
f7
f4
f0
f1
f1
f2
f6
f2
f4
fd
fd
fb
00
f8
fc
f7
f4
f3
ed
ee
e6
eb
e9
eb
ea
f1
f6
f7
fd
06
08
0e
11
0d
0f
08
0a
06
00
01
fa
fb
fa
fa
f8
f9
fa
03
06
04
08
0f
0c
0b
0a
06
04
02
fd
f6
f2
f1
eb
e8
ee
ef
f0
f1
fa
fe
03
08
0d
13
17
07
07
06
07
00
04
04
fe
01
03
03
01
02
01
fe
01
fe
01
05
03
03
02
00
04
fe
00
00
02
05
07
05
06
07
04
04
08
05
07
03
01
03
07
06
04
04
04
01
04
08
04
08
04
08
07
09
08
02
ff
01
fd
fb
fc
fc
f8
fd
f5
fa
fc
fd
fd
fa
fe
fe
00
fd
03
03
05
04
05
08
09
08
08
0a
05
07
07
05
03
05
08
03
02
07
06
03
05
02
02
fe
04
03
fe
fe
03
06
04
05
03
03
06
07
07
07
07
03
0a
07
07
06
03
00
05
05
03
05
02
ff
02
fd
fe
fd
03
03
fd
fd
02
fe
ff
fb
f9
f8
fa
fe
fe
fd
fa
fa
f8
f9
f7
fa
fc
fc
fa
fa
00
ff
fd
fa
01
ff
fc
fd
03
03
fe
ff
ff
02
fe
fe
fc
fb
fa
02
f9
fd
fc
ff
fb
fe
f5
fc
fa
fb
f6
f9
f8
fb
fc
f9
f9
fa
fd
03
ff
03
fe
fe
00
fe
02
02
fe
fd
02
fd
01
fd
fe
fe
02
fd
fc
fc
02
02
fd
ff
f9
fe
fd
fb
fb
fe
fd
fe
fb
f8
f8
f8
fc
fc
f9
f7
f3
f6
f2
f0
f5
f2
f3
f4
f7
f6
fc
03
ff
08
06
11
17
12
1c
f3
f5
fb
fb
fd
fd
f6
f5
fc
f7
f8
fa
fd
fd
fe
f7
fb
fd
fa
fc
ff
fd
f9
fd
f8
f8
f9
f6
f4
f1
ef
e6
e4
e0
dd
dd
e1
e4
e4
ec
ee
ec
f0
f6
fb
fd
ff
05
03
03
03
06
06
ff
fa
00
fa
fa
f7
f5
f3
f0
f5
f7
f7
f5
f5
f6
f9
00
ff
02
03
fd
ff
00
01
02
fb
fa
ff
fc
f6
f6
f9
f9
f5
f5
fb
f7
00
f9
fb
fd
fb
02
01
fe
01
fc
f7
f8
f7
f7
f8
f7
f8
f9
f9
f9
fd
fd
fa
ff
00
fe
00
01
fa
fb
01
fe
fc
01
fe
04
04
06
03
07
03
03
04
06
04
0a
02
04
ff
fd
ff
01
00
02
fc
fa
f9
fd
fc
00
01
04
03
00
04
07
07
05
06
09
0a
04
09
0a
06
09
0c
0c
0a
06
0c
03
09
04
03
03
00
ff
00
ff
fe
fc
ff
01
01
04
08
0a
0d
13
16
16
16
18
12
0f
0b
0a
0c
03
00
00
fb
f8
f5
fa
fd
fd
ff
02
01
03
07
0d
0a
15
12
15
0f
11
15
0e
0f
0f
0a
0b
0e
0d
0c
0c
0d
0e
0c
0f
11
0f
0a
0f
0c
09
0b
0e
0a
0d
11
0d
14
12
18
13
15
11
11
0f
0a
fc
48
42
38
29
21
17
09
03
f7
ef
ed
ed
f4
f8
fc
fe
04
0a
0b
0b
0b
08
08
ff
fb
f5
ec
ea
e4
e0
dc
de
e0
e4
e7
ea
f0
f3
f5
fc
02
03
08
0b
0b
0d
08
09
08
08
05
06
02
08
07
0a
04
0a
0d
0c
0b
0e
09
04
01
06
04
fd
fc
fa
fd
f7
f8
fd
f9
f9
00
00
ff
06
03
0a
09
04
05
03
ff
00
fc
fa
fc
fd
fe
fb
01
02
04
04
03
fe
ff
05
02
ff
fd
01
00
fb
fe
00
ff
fd
02
05
04
03
03
00
02
02
06
00
fc
02
ff
00
ff
ff
fe
f9
fe
fd
fd
01
02
03
00
01
fd
02
03
00
01
fa
fb
00
fe
fe
fd
fb
fd
fc
02
fb
01
01
03
02
fc
fe
fd
ff
06
05
ff
03
03
02
06
02
00
01
04
06
01
05
ff
03
06
05
01
08
01
00
02
05
01
0a
08
07
03
08
02
02
07
07
04
04
04
fc
01
02
01
01
03
02
ff
06
ff
02
05
00
05
fe
fe
02
02
fa
01
01
ff
fa
fe
fb
04
04
ff
05
02
00
fd
fc
f9
f0
ec
e8
e8
ec
ea
ea
ef
f3
f5
f8
fa
ff
01
04
02
06
00
01
fa
f7
f8
ed
02
03
fc
00
04
04
04
fd
fc
fc
fe
00
ff
02
ff
02
03
04
05
03
04
06
05
fe
05
fe
00
02
ff
ff
03
03
05
05
04
04
04
03
04
02
00
00
01
fc
fa
f8
fb
f7
fc
f9
00
fd
ff
02
06
05
06
03
fe
04
02
fb
fd
03
fb
00
05
00
02
05
04
03
09
09
00
fe
02
fe
fb
fe
ff
01
01
01
fe
02
04
06
05
09
05
03
03
04
02
02
fe
fb
fb
03
01
02
01
00
ff
ff
00
03
fd
01
04
03
01
fd
ff
01
ff
03
fe
01
ff
05
01
03
01
fd
00
fc
00
fb
f8
fc
fc
f9
fa
01
fe
05
04
05
02
04
08
02
07
02
03
ff
ff
fc
fc
fe
fc
fb
f9
fd
00
00
fd
02
fe
fe
fd
01
00
02
fb
fb
fb
fe
fe
fe
ff
fa
fb
fd
ff
f9
fc
01
fa
ff
fd
ff
ff
00
05
01
01
03
03
02
02
00
fb
02
fe
fb
fa
fe
fb
03
04
fe
00
04
05
02
03
ff
fd
fc
01
fe
fe
01
fc
03
04
02
ff
03
00
06
01
04
03
01
01
fd
fd
fb
ff
ff
fe
fb
fd
02
03
01
02
05
02
01
00
ff
fa
fe
01
01
00
ff
fd
00
fb
fb
0a
04
fe
02
01
ff
fb
fb
ff
00
ff
00
ff
02
01
00
02
02
fe
05
fe
03
fc
fe
fd
01
fc
fe
fe
ff
fe
03
01
02
ff
02
fe
03
04
fe
04
02
ff
fb
fd
ff
fc
fe
f9
f8
ff
fb
00
fe
00
01
04
00
00
04
04
08
07
05
0b
0c
08
0c
11
11
0b
0f
0a
06
0b
06
04
00
fe
f8
fa
f3
f5
f5
f5
ee
f5
f1
f5
f9
fc
00
fd
ff
06
04
06
07
08
04
02
05
fe
fd
f8
fb
f5
f5
f3
f4
f8
f7
f8
f8
fd
03
01
0b
0a
0b
10
12
13
11
15
15
13
0e
0c
10
0d
0c
03
06
01
ff
02
fe
f5
fb
f6
ef
ee
ed
f0
e9
eb
ee
e9
e8
ea
e7
e7
ea
eb
ef
f6
f6
f6
fa
fa
fc
01
00
04
07
0b
0d
0f
0d
0f
0a
08
0b
0a
07
03
01
00
ff
fe
fd
fd
ff
ff
fe
00
02
01
ff
00
02
08
02
02
03
01
fd
fd
fa
fc
fa
f6
fd
f8
f9
f7
fb
fb
fc
fd
01
01
05
02
07
05
03
01
06
03
04
04
07
ff
fe
04
03
03
06
03
02
05
03
09
07
0a
04
07
02
07
04
00
00
03
ff
01
03
fe
fe
03
fd
00
fd
01
05
02
05
0a
08
0b
03
03
08
01
02
fc
fd
fb
f8
fc
fe
fc
f6
fa
fb
f8
fd
fa
fa
fb
fb
fa
fb
fa
fd
fc
fa
f9
f7
ff
fe
01
fe
ff
00
04
02
0a
09
08
0d
08
06
08
07
07
08
02
04
01
fd
02
01
02
fe
fe
03
00
fc
fc
fa
fb
f8
f4
f8
f2
f2
f4
f4
ee
f2
f4
f7
fc
fb
fe
06
09
0e
0f
10
12
12
13
16
10
0c
0e
05
03
02
fe
fa
f6
f2
f3
ea
ef
ea
e8
e6
e7
ed
ee
f1
f6
f4
fb
05
0a
0d
0f
0e
14
19
1d
1a
15
14
17
14
0c
07
06
06
ff
fd
f6
f5
f6
f1
f2
f1
f4
f5
f1
f7
f6
fd
fc
fa
fe
fe
05
02
02
0b
07
08
06
08
08
0b
0c
10
08
0c
0e
08
0e
0d
08
08
05
00
fc
fa
f8
f9
f4
f4
ef
ee
f1
f0
ee
ef
f2
f2
f1
f3
fa
f6
f9
fc
ff
04
ff
ff
03
06
06
04
01
06
00
06
01
00
04
fd
04
fc
fc
00
03
fd
fe
03
fe
fd
ff
ff
fe
01
05
08
03
02
06
06
03
07
03
04
04
03
07
03
01
01
03
03
05
04
00
04
ff
fe
fe
fc
ff
fb
fd
f9
f9
fb
fb
f4
f8
f2
06
03
fe
03
01
fc
ff
01
fa
fa
fe
03
05
06
06
09
02
07
07
04
02
fd
fc
01
00
fc
fa
f8
00
00
02
00
06
09
04
03
04
02
02
fc
00
fe
f6
fa
f9
f4
f7
f6
f6
f5
f7
fc
fb
fe
fc
02
03
02
04
ff
fe
fc
00
ff
fc
00
fc
fa
00
fe
03
00
01
04
04
06
05
09
05
06
09
05
04
04
04
fe
ff
f6
f7
f0
f2
ed
f0
ed
ef
ec
f6
f6
f4
fd
f8
00
ff
fc
fc
ff
01
fa
fb
fc
00
02
07
09
0a
0c
0e
13
12
0c
0b
0c
05
02
fc
fb
f0
f6
f4
f3
ef
f5
f7
f4
fd
fb
00
fe
00
fe
fd
ff
03
04
01
05
05
03
02
02
04
06
0d
0c
07
0a
0f
08
07
0c
07
06
07
03
03
02
00
fa
00
f9
fd
f9
fd
fc
fa
fb
fc
fb
fb
f9
fa
02
fb
ff
ff
fb
fe
fa
fc
ff
ff
fd
fe
fc
f9
03
02
ff
04
03
01
04
02
02
02
ff
fc
00
fe
fb
fd
fa
fc
00
ff
fe
fd
fd
fc
04
05
03
00
04
03
03
02
00
05
04
fe
04
00
fc
02
04
ff
00
04
03
05
0a
04
0a
03
08
04
01
fb
fa
fc
f9
fe
f9
fb
fe
fb
03
fe
00
03
fd
02
00
01
03
07
0b
04
04
03
05
04
04
00
00
02
ff
05
02
fd
ff
00
04
ff
07
07
02
01
01
01
ff
03
01
fb
fb
fd
fa
fa
01
fa
fb
fd
fe
01
02
06
03
03
01
01
03
06
03
00
03
01
fd
fe
fe
fb
fd
ff
fd
02
01
07
00
08
05
06
02
08
03
01
06
02
01
03
00
01
fd
00
fa
fc
f9
ff
f8
fa
ff
fd
02
02
0a
05
0c
0b
08
0b
06
05
fb
fa
ff
fa
f7
fd
00
fc
00
fe
ff
fc
fb
f9
fb
f6
f8
f4
f2
f4
f2
f4
fd
fd
02
06
0a
11
11
13
12
0c
09
04
fc
fa
f7
f2
f3
f6
f5
f9
fa
00
00
05
07
0d
0c
14
0d
0a
08
05
fd
f9
f3
f6
ef
f2
f6
f3
f5
f9
00
00
05
09
0a
07
0a
05
01
00
00
fd
f6
f9
fd
f9
fd
f7
00
fe
fe
04
04
fd
01
ff
fb
f9
fb
fc
fd
fc
f8
fb
f7
fc
00
f9
fe
fc
fd
ff
ff
01
fc
fe
fa
fe
fa
00
01
fb
04
01
fd
02
01
fe
05
01
04
02
03
02
03
01
04
fd
01
ff
01
02
01
fd
03
05
fd
01
fe
05
05
02
00
fd
f6
f9
fb
07
04
02
02
01
01
00
ff
02
fc
01
01
00
02
ff
ff
fc
00
00
ff
fc
fe
fd
fc
fe
ff
fd
fe
00
ff
02
ff
02
06
00
03
03
01
ff
ff
04
03
fd
03
fe
fe
03
03
02
00
01
fe
04
fe
02
00
04
fd
ff
fc
ff
01
01
04
ff
00
fd
00
00
fb
fc
ff
03
03
00
fd
ff
01
03
fe
fd
ff
ff
ff
01
fd
fe
00
00
ff
fe
f7
f6
fc
f8
ff
ff
02
ff
00
fd
fd
02
02
fe
ff
fd
ff
fd
fc
f8
fc
00
fa
ff
04
03
01
02
07
04
09
01
08
02
00
ff
fd
04
ff
fd
03
05
02
01
01
03
fe
03
01
00
02
ff
04
01
fd
fe
04
00
fd
00
02
fe
fa
ff
01
01
03
01
03
fe
ff
04
02
01
02
fd
03
ff
00
fb
04
04
02
02
02
05
00
02
fc
fd
02
fd
02
fb
ff
02
01
fd
04
ff
00
03
01
04
01
01
fe
01
fc
fa
f9
01
00
ff
fb
01
fe
fe
02
fd
fc
01
fc
ff
ff
00
fc
fe
ff
03
00
fd
05
01
03
00
03
03
03
01
01
01
05
01
fe
fd
00
fc
00
04
02
05
03
02
00
02
01
fb
01
00
00
05
07
09
07
