15
0a
e8
01
1a
16
08
2a
00
d7
f3
f3
10
f3
13
2d
19
15
01
01
09
0e
17
27
ea
e7
07
0a
0a
f6
19
18
f0
24
f6
14
17
f4
0d
fd
e8
18
10
fe
eb
29
07
10
ed
f0
fc
06
03
f0
16
12
f0
13
0a
18
36
16
1c
0a
b7
ac
ef
37
85
17
c3
32
4b
fb
f8
dd
47
01
29
30
c6
ba
c8
3f
2a
03
be
31
33
2b
3f
c1
ba
1b
b3
de
63
24
0a
a1
81
59
f2
e7
e5
cb
0b
f9
0a
2d
da
ff
1e
db
fb
21
4f
06
f7
a5
3b
bf
fe
d6
30
53
cc
13
ee
cd
d3
ee
cf
3c
d6
2a
11
11
3e
29
cd
30
e4
23
c6
2d
07
07
c8
42
0a
3c
14
3c
d6
ca
18
2f
10
fd
06
d3
26
0d
dd
f0
c9
2d
16
01
c4
ca
29
14
1e
2d
3b
20
29
e9
10
d8
e2
d9
ef
30
3c
09
1e
e3
15
c1
