f9
10
3f
03
f7
fa
c2
f9
f8
21
32
e1
2a
33
4b
2d
f7
4f
12
02
36
f1
e8
40
3c
03
f5
19
38
de
3b
45
34
fb
40
fc
11
4a
46
29
0f
e6
27
f4
3f
0c
e2
06
39
0c
00
3d
45
20
11
e3
22
fc
1b
d9
24
f9
4a
e3
f7
1b
8e
40
20
6d
64
63
7f
b6
d4
31
e7
bb
e6
a0
31
91
3e
50
f5
2b
77
d9
a1
03
1b
47
e3
4c
de
b4
8d
77
b9
54
07
bc
a9
07
29
58
b8
fa
e8
05
78
41
d0
f4
55
d5
03
e1
21
4c
fd
cb
11
51
b0
32
de
47
44
d1
35
cf
3c
db
60
d3
e9
54
54
43
f2
d1
25
33
c2
2a
e8
e3
cc
55
e0
e1
63
39
4f
bb
d9
41
dd
cf
05
f2
3a
ce
4d
06
fc
d1
eb
38
49
48
cf
4c
02
b2
d3
30
cc
e4
f8
35
cf
51
e6
45
ba
59
1c
65
24
44
